<unk>	0
<s>	0
</s>	0
.	-3.15384
을	-3.64625
의	-3.97692
▁	-4.08412
를	-4.15208
는	-4.15939
,	-4.22367
가	-4.27651
이	-4.54661
은	-4.57836
에	-5.06852
▁수	-5.14112
고	-5.16951
도	-5.33571
▁있다	-5.33751
과	-5.40234
한	-5.45438
다	-5.53558
로	-5.56869
▁등	-5.61895
▁‘	-5.62617
으로	-5.62955
)	-5.66849
일	-5.68183
와	-5.71242
’	-5.72501
▁“	-5.73378
(	-5.73593
▁이	-5.75216
·	-5.78721
”	-5.82775
▁있는	-5.87779
할	-5.90345
에서	-5.90648
인	-6.0422
?	-6.056
▁그	-6.08073
▁제	-6.13516
▁한다	-6.14732
년	-6.1668
▁1	-6.21132
▁및	-6.33966
하는	-6.3429
▁것으로	-6.34872
▁한	-6.3495
지	-6.41283
게	-6.4189
월	-6.44704
▁2	-6.45248
만	-6.49606
▁대한	-6.5149
▁3	-6.54318
▁전	-6.56633
▁위해	-6.68794
서	-6.80288
▁경우	-6.80365
▁것	-6.80427
▁따라	-6.82857
▁우리	-6.86205
▁더	-6.86285
▁중	-6.88468
하게	-6.892
며	-6.91981
▁5	-6.92339
하고	-6.92484
▁지난	-6.93312
나	-6.9524
▁4	-6.95443
히	-6.96317
▁할	-6.9716
들이	-6.98169
▁통해	-6.98772
▁함께	-6.99188
▁밝혔다	-7.02187
▁나는	-7.02973
된	-7.03716
기	-7.04635
개	-7.05672
▁10	-7.05962
▁이번	-7.05969
▁때	-7.07485
▁한국	-7.08112
던	-7.10567
습니다	-7.11386
▁있습니다	-7.12111
까지	-7.13753
입니다	-7.14658
▁내	-7.15124
▁많은	-7.15737
▁것이	-7.17218
했다	-7.20339
위한	-7.21374
▁하는	-7.22762
▁가장	-7.231
▁미국	-7.2332
▁다른	-7.25959
▁저는	-7.26366
요	-7.2657
에는	-7.27051
▁6	-7.27354
▁안	-7.2818
▁했다	-7.28553
▁말했다	-7.2863
▁대해	-7.29971
적인	-7.30089
▁것이다	-7.30864
에게	-7.31018
1	-7.31161
명	-7.32329
▁것은	-7.33908
이다	-7.34384
▁것을	-7.36311
▁다음	-7.36358
▁김	-7.37155
2	-7.37634
▁각	-7.38536
이라고	-7.39008
▁후	-7.39015
▁두	-7.3943
▁관련	-7.39687
▁큰	-7.39812
하여야	-7.39864
▁필요한	-7.40727
▁이상	-7.40883
▁잘	-7.41268
▁같은	-7.42222
▁7	-7.43
▁또는	-7.43299
해	-7.45517
▁있어	-7.46134
자	-7.47247
▁서울	-7.47393
▁가운데	-7.47418
▁경기도	-7.48137
▁8	-7.48377
야	-7.48662
▁때문에	-7.50633
▁시	-7.51158
시	-7.51346
면	-7.51683
▁있도록	-7.533
▁주	-7.53673
▁올해	-7.54344
▁그는	-7.54497
▁중국	-7.54524
▁특히	-7.55663
▁하고	-7.56124
될	-7.56223
대	-7.5711
▁이날	-7.58021
▁게	-7.58687
▁최근	-7.59812
▁다양한	-7.60473
▁따른	-7.60538
▁모두	-7.6131
▁9	-7.61762
▁지난해	-7.62453
▁등이	-7.63185
▁많이	-7.63384
-	-7.63828
▁이후	-7.6449
▁다시	-7.65124
▁없는	-7.66024
합니다	-7.66298
▁뒤	-7.67254
▁될	-7.67696
▁현재	-7.68811
▁구청장은	-7.68983
▁내가	-7.69005
▁20	-7.69359
▁국내	-7.69776
보다	-7.6983
라고	-7.71249
▁있다는	-7.71551
면서	-7.71841
라는	-7.74287
이나	-7.74488
▁직접	-7.76052
하여	-7.762
▁오늘	-7.76446
부터	-7.76519
▁모든	-7.76678
▁지금	-7.76835
▁대통령	-7.7684
"	-7.77224
이하	-7.77574
▁당신	-7.77845
▁지역	-7.78565
▁시장	-7.78672
▁12	-7.79022
▁위하여	-7.79218
▁따르면	-7.83417
▁보고	-7.83591
▁지	-7.83721
▁11	-7.84311
▁세계	-7.84435
▁30	-7.84814
라	-7.85832
▁된다	-7.86406
적으로	-7.86499
▁정부	-7.86714
명이	-7.87414
▁해	-7.87777
▁총	-7.87827
하지	-7.88029
해야	-7.88335
▁다만	-7.88623
▁제품	-7.89137
▁지원	-7.89682
▁말	-7.89884
▁좋은	-7.90673
들은	-7.90679
」	-7.913
▁때문이다	-7.91313
▁나	-7.91342
▁이를	-7.92019
한다	-7.92108
▁있을	-7.92315
▁데	-7.92373
▁당시	-7.92679
▁없다	-7.92909
▁경우에는	-7.92972
차	-7.93491
▁일본	-7.95079
▁서비스	-7.95177
▁아니라	-7.95258
▁「	-7.95434
▁시간	-7.96145
▁해당	-7.96193
▁관한	-7.96727
▁동안	-7.97384
▁너무	-7.97404
▁이런	-7.97427
▁오후	-7.97568
조	-7.97741
도록	-7.97867
▁약	-7.98859
▁대표	-7.98905
▁새로운	-7.99448
▁북한	-7.99679
3	-7.99777
억	-7.99907
들의	-8.00143
▁있다고	-8.00536
▁만큼	-8.00599
진	-8.00987
▁있었다	-8.0163
▁높은	-8.01715
▁사용	-8.01902
▁사업	-8.02438
▁경찰	-8.02483
▁않은	-8.02689
▁문제	-8.03389
▁등에	-8.03591
▁어떤	-8.03943
했던	-8.0405
▁또	-8.04137
에서는	-8.04142
여	-8.04179
▁A	-8.04574
▁관리	-8.04753
▁영화	-8.05447
회	-8.05763
▁사	-8.0581
돼	-8.06181
▁자신	-8.06342
▁첫	-8.06421
하며	-8.06577
▁어떻게	-8.06631
▁간	-8.06926
▁결과	-8.07192
▁당신이	-8.07193
▁당신은	-8.07487
▁합니다	-8.075
▁문	-8.07972
처럼	-8.08086
▁있어요	-8.08129
▁사항	-8.08458
지만	-8.0873
▁조사	-8.09052
항에	-8.10103
▁교육	-8.10897
▁일부	-8.116
▁이어	-8.124
이라는	-8.13324
분	-8.137
하면서	-8.14021
▁않고	-8.14027
▁일	-8.14518
▁트럼프	-8.14697
'	-8.15459
▁보인다	-8.15689
▁기업	-8.15728
▁관계자는	-8.16083
주	-8.16268
▁사실	-8.16681
▁있고	-8.16819
▁여러	-8.17325
▁오는	-8.1836
▁설명했다	-8.18521
▁열린	-8.18794
▁의원	-8.19131
▁있으며	-8.19655
▁받은	-8.19666
▁문화	-8.19795
에도	-8.19874
▁없이	-8.19975
▁예정이다	-8.20153
▁다	-8.20265
▁볼	-8.20613
▁주요	-8.20773
▁15	-8.20816
▁필요	-8.2136
▁오전	-8.21378
▁정보	-8.21674
▁건	-8.21784
▁설치	-8.21929
▁정도	-8.22107
▁그리고	-8.22505
▁내용	-8.22664
▁좀	-8.22778
▁운영	-8.22821
이라	-8.23025
▁규모	-8.23377
▁미	-8.23775
▁경기	-8.23838
▁대통령이	-8.23851
▁행사	-8.23968
▁못	-8.24099
▁네	-8.24283
▁사람이	-8.24865
제	-8.25077
▁예산	-8.25112
▁된	-8.25432
▁하나	-8.25782
▁줄	-8.25834
▁사건	-8.26153
▁검찰	-8.26348
▁어느	-8.26636
▁난	-8.27226
▁바로	-8.27316
▁사고	-8.28062
조제	-8.28757
▁같이	-8.28959
기도	-8.29969
제가	-8.30081
▁기존	-8.30166
▁정부가	-8.30355
하기	-8.30659
▁호의	-8.3086
나요	-8.30925
▁최대	-8.31415
▁100	-8.31546
니다	-8.31604
선	-8.31621
▁정말	-8.31739
▁정	-8.31964
▁있지만	-8.32064
▁날	-8.32239
▁사람	-8.32604
▁대상으로	-8.32644
▁원	-8.32934
▁우려	-8.33421
호	-8.33985
▁회사	-8.34624
▁관심	-8.34661
▁가능성이	-8.34805
했습니다	-8.34867
▁이미	-8.3517
만원	-8.35259
▁경제	-8.35325
들을	-8.35678
▁받고	-8.35863
등을	-8.36037
위	-8.36703
▁우리가	-8.37041
▁매우	-8.37122
▁전국	-8.37351
▁시간이	-8.37418
▁추가	-8.37756
▁때에는	-8.38122
▁학교	-8.38244
였다	-8.38465
▁먼저	-8.3861
▁조례	-8.38636
되는	-8.38731
▁문제가	-8.38774
▁앞으로	-8.38859
▁국회	-8.38986
▁아닌	-8.39035
▁거	-8.39048
▁법	-8.39091
일부터	-8.39496
▁도지사	-8.39612
억원	-8.39614
▁기	-8.39629
▁이야기	-8.39976
▁것입니다	-8.40172
▁더욱	-8.40198
▁구	-8.40428
▁아직	-8.40452
▁않았다	-8.41253
▁얼마	-8.41384
조에	-8.41427
4	-8.41714
▁말한다	-8.41807
▁않는	-8.42068
m	-8.42413
거나	-8.42491
▁또한	-8.42513
운	-8.4293
▁모습	-8.42975
▁대	-8.43132
▁투자	-8.43283
▁번	-8.43508
▁계속	-8.43673
▁공연	-8.43699
▁의미	-8.437
▁추진	-8.43902
▁프로그램	-8.43928
▁전했다	-8.44113
일까지	-8.44192
▁있나요	-8.44481
엔	-8.44929
시간	-8.45557
씨	-8.45676
▁19	-8.46791
▁등으로	-8.46805
▁여성	-8.4683
▁조	-8.46859
▁바	-8.4689
▁기간	-8.47652
▁박	-8.47661
장은	-8.48011
▁몇	-8.48064
▁되는	-8.48506
▁생각	-8.48726
▁됐다	-8.49606
▁크게	-8.49699
됐다	-8.49725
▁자리	-8.49731
▁전체	-8.4979
▁저	-8.50021
▁저희	-8.50286
하거나	-8.50305
니	-8.50428
이에요	-8.50478
▁보면	-8.50582
▁관계	-8.50778
길	-8.51328
수	-8.51451
▁평가	-8.5173
건	-8.51785
▁관심이	-8.51924
▁연	-8.52144
▁사진	-8.52314
어	-8.52425
▁피해	-8.52436
▁가격	-8.52726
▁차	-8.5299
미	-8.53141
▁각종	-8.53731
▁해요	-8.53747
▁온	-8.53981
▁일자리	-8.5423
▁서울특별시	-8.54302
▁중인	-8.54435
▁청와대	-8.54948
▁처음	-8.55081
▁가지고	-8.55099
▁있	-8.55225
하도록	-8.55391
▁나온다	-8.5569
▁달	-8.55835
▁이에	-8.55843
명의	-8.56079
세	-8.56114
▁효과	-8.56144
▁있는데	-8.56149
▁자	-8.56216
▁세	-8.5633
▁18	-8.56379
▁사람들이	-8.56837
▁배우	-8.57007
▁너	-8.57012
▁14	-8.57019
▁하지만	-8.57187
해서	-8.57236
▁글로벌	-8.57413
▁전에	-8.57751
▁대하여	-8.57784
▁강	-8.58327
▁그동안	-8.58366
점을	-8.58659
▁상황	-8.58718
▁새	-8.58729
▁기대	-8.58898
▁계획	-8.58911
▁위	-8.58992
▁이유	-8.59085
▁17	-8.59129
▁13	-8.59142
▁실제	-8.59162
▁알	-8.5932
▁조금	-8.59368
▁최고	-8.59697
▁않아	-8.59961
▁과정에서	-8.60304
▁나타났다	-8.60317
▁학생	-8.60435
▁앞서	-8.60446
5	-8.60668
▁중심으로	-8.60693
원	-8.61255
▁역시	-8.61381
▁확인	-8.61604
▁개발	-8.61615
▁들어	-8.61702
▁가	-8.61885
▁그런	-8.61913
▁16	-8.62008
▁올	-8.62865
▁지난달	-8.63055
▁정책	-8.63087
상	-8.63132
▁구청장	-8.63293
했어요	-8.6334
▁영향을	-8.63406
▁결정	-8.63459
▁우선	-8.63497
▁목적으로	-8.63664
▁감독	-8.63882
▁지급	-8.63949
▁수도	-8.64191
▁인해	-8.64379
▁수사	-8.64654
▁가지	-8.64823
▁받을	-8.64868
기를	-8.6491
▁유	-8.65131
▁25	-8.65231
▁각각	-8.65236
▁오	-8.65256
▁이용	-8.65323
란	-8.6555
▁K	-8.65615
▁물론	-8.65771
▁그가	-8.66171
▁서로	-8.66494
▁이렇게	-8.66583
▁경기도가	-8.66587
▁음식	-8.66604
▁혐의	-8.66644
▁부	-8.66916
▁차량	-8.67163
▁신	-8.6725
▁갈	-8.68228
형	-8.6823
▁부산	-8.68314
▁친구	-8.68443
▁대부분	-8.68634
▁기준	-8.6866
▁가능한	-8.68738
사	-8.68876
▁하루	-8.68993
개월	-8.69009
▁진행	-8.69071
▁고	-8.6927
▁이제	-8.69361
▁본	-8.69472
▁분야	-8.69719
▁국가	-8.69792
▁기술	-8.69806
▁있기	-8.6984
이란	-8.70194
▁삶	-8.70204
▁소속	-8.70257
▁여행	-8.70436
▁공무원	-8.70788
▁알고	-8.70816
▁있게	-8.71111
▁하며	-8.71249
▁거쳐	-8.71441
▁참여	-8.71542
▁자료	-8.71547
▁보	-8.71668
▁곳	-8.71793
▁해외	-8.72136
리	-8.72345
년간	-8.72484
해요	-8.72612
▁받아	-8.72811
▁확대	-8.72926
▁않다	-8.72938
▁걸	-8.73042
▁계획이다	-8.73074
▁가족	-8.73243
▁수준	-8.73273
▁개인	-8.73279
▁왜	-8.73303
▁일이	-8.73506
▁책	-8.73609
▁상품	-8.73793
▁그것	-8.73894
▁준비	-8.74103
▁50	-8.74312
▁알려졌다	-8.74329
▁역할을	-8.74347
▁연구	-8.7447
▁물	-8.74476
▁강조했다	-8.74616
▁대상	-8.7479
▁24	-8.7498
층	-8.75018
▁만에	-8.75587
▁어려운	-8.75708
는데	-8.75932
▁공	-8.76013
데	-8.76132
▁도내	-8.76406
▁전망이	-8.76506
▁같다	-8.76553
▁것도	-8.76663
▁해당하는	-8.76821
▁판매	-8.76923
▁집	-8.76951
▁두고	-8.77076
▁팀	-8.77262
▁나왔다	-8.77326
▁활동	-8.77522
▁하지	-8.77748
▁선수	-8.77963
▁상황에서	-8.78071
되어	-8.78092
▁인기	-8.78098
하면	-8.78122
질	-8.7819
씨가	-8.7844
▁자체	-8.78459
▁남	-8.78635
어요	-8.78794
▁일정	-8.7882
▁것이라는	-8.79029
▁23	-8.79033
▁부분	-8.79284
▁한국의	-8.79338
▁이러한	-8.79531
▁시설	-8.79602
▁비	-8.79686
▁않을	-8.79765
▁만	-8.79902
▁대비	-8.80053
▁돈	-8.80113
▁문재인	-8.8034
▁신고	-8.80345
▁회의	-8.80616
중	-8.80637
▁장	-8.80644
▁40	-8.80961
용	-8.81042
▁방안	-8.81044
▁별지	-8.81064
▁영어	-8.81128
▁측	-8.81302
▁과거	-8.81682
▁채	-8.81779
▁해야	-8.81841
▁게임	-8.81886
▁신청	-8.81891
▁있어서	-8.81945
신	-8.81998
▁비용	-8.82304
▁마음	-8.82334
▁위원	-8.82647
▁입장	-8.82679
간	-8.8273
▁갖고	-8.82813
▁관련해	-8.83009
으면	-8.83175
▁전문	-8.8334
적	-8.83361
▁한다는	-8.83386
▁없어	-8.83405
▁북	-8.8346
▁자동차	-8.83707
자가	-8.83827
▁장관	-8.83974
▁비핵화	-8.84008
로부터	-8.84018
▁27	-8.84193
▁음악	-8.84229
6	-8.84269
▁개선	-8.84382
▁활성화	-8.84597
▁주문	-8.84637
▁나라	-8.8493
▁매년	-8.84938
▁정도로	-8.85154
번	-8.85212
▁초	-8.85491
▁가능성	-8.85533
▁아이	-8.85544
▁발전	-8.85581
▁21	-8.85655
▁내일	-8.85737
▁않는다	-8.85743
에서도	-8.85749
▁우수	-8.85933
▁2016	-8.85995
▁업무	-8.86013
▁22	-8.86128
▁인	-8.86396
▁심의	-8.86489
▁받는	-8.86535
▁업체	-8.86624
사가	-8.86875
▁중요한	-8.86898
▁논의	-8.87121
▁거예요	-8.87126
었던	-8.87305
▁살	-8.87368
▁사람들	-8.87539
▁2018	-8.87645
었다	-8.87799
▁이름	-8.87899
▁당	-8.8807
▁적극	-8.8808
장	-8.88284
▁양	-8.88297
당	-8.88324
▁바랍니다	-8.88364
▁도	-8.88405
▁가치	-8.88466
▁받았다	-8.88496
▁내년	-8.88523
사를	-8.88549
▁제대로	-8.88567
▁그럼	-8.88646
▁규제	-8.88829
▁불	-8.88883
▁계약	-8.89057
▁달리	-8.89118
▁하	-8.8924
▁가능하다	-8.89276
▁속	-8.89346
▁검사	-8.89347
▁직원	-8.89379
)’	-8.89663
▁방법	-8.89921
▁혹시	-8.89939
▁가진	-8.90076
▁앞	-8.90143
▁드라마	-8.90371
▁대학	-8.90657
했다고	-8.90707
▁위원회	-8.90734
▁인상	-8.90819
▁이번에	-8.90845
▁전문가	-8.90892
▁네가	-8.90915
▁있던	-8.91075
▁교수	-8.9115
▁성과	-8.91171
▁모습이	-8.91191
▁수출	-8.91263
▁현지	-8.9134
▁기회	-8.91396
▁과정	-8.91459
▁같아요	-8.91668
▁인사	-8.91699
▁28	-8.91727
러	-8.91774
▁생산	-8.91885
▁사업을	-8.91942
▁싶	-8.91988
▁힘	-8.92015
▁규정	-8.92127
▁거야	-8.92271
▁건강	-8.92296
▁남북	-8.92348
▁주변	-8.92375
▁우리나라	-8.92409
▁많다	-8.92678
▁규정에	-8.93024
▁되고	-8.93029
▁이들	-8.93095
▁발생한	-8.93124
▁노력	-8.93151
다고	-8.93153
▁공개	-8.93193
▁변화	-8.93621
법	-8.93778
동	-8.93875
▁것이라고	-8.93892
▁사랑	-8.94079
성	-8.94141
▁대해서는	-8.94208
▁지정	-8.94381
▁안전	-8.94417
▁그녀	-8.94432
▁모	-8.94706
▁26	-8.94937
▁자신이	-8.94938
▁강화	-8.95019
▁생활	-8.95096
▁제출	-8.95236
7	-8.9532
▁방문	-8.95435
▁아파트	-8.95811
▁성장	-8.95898
▁요구	-8.95987
여명이	-8.96373
항	-8.96415
▁못한	-8.96447
마다	-8.96494
▁현장	-8.96506
▁최종	-8.9656
쉽게	-8.96693
실	-8.96694
▁비해	-8.96695
▁일을	-8.96734
▁환자	-8.96932
▁동	-8.96947
천	-8.97009
▁안에	-8.9724
▁실제로	-8.97284
▁되	-8.97309
▁번째	-8.97332
▁분위기	-8.97502
▁인터넷	-8.97535
▁개	-8.97626
▁치료	-8.97681
▁점	-8.97729
▁러시아	-8.97809
▁됩니다	-8.97822
▁핵심	-8.97826
▁만든	-8.9783
▁적이	-8.98186
▁필요하다고	-8.98243
조의	-8.98254
▁단	-8.98263
▁만들어	-8.98273
▁길	-8.98362
항의	-8.98469
▁도시	-8.98599
▁사례	-8.98713
▁시스템	-8.9882
▁상태	-8.98949
구	-8.99049
▁브랜드	-8.99112
▁단체	-8.99153
▁산업	-8.99275
▁같아	-8.99338
▁부담	-8.99514
▁미래	-8.99536
▁만나	-8.99733
전	-8.99741
▁베트남	-8.99749
▁여기	-8.99898
▁고객	-8.99918
▁증가	-9.00041
▁서	-9.00077
되고	-9.00102
▁결과를	-9.00255
▁비롯	-9.0027
▁디자인	-9.00512
▁사회적	-9.00543
▁얘기	-9.00546
다는	-9.00608
▁선	-9.00754
▁가수	-9.00889
부	-9.00937
▁기록	-9.00996
▁소	-9.0101
▁아	-9.01177
▁평균	-9.01204
▁의견을	-9.01241
▁처리	-9.01262
▁서울시	-9.01312
▁주세요	-9.01339
▁외국인	-9.01356
▁때문	-9.01569
월부터	-9.01713
▁콘텐츠	-9.01786
▁환경	-9.01793
▁B	-9.01795
▁발생	-9.02002
▁논란이	-9.02046
▁방송	-9.02071
▁보도했다	-9.02156
▁집중	-9.02324
온	-9.02479
▁영국	-9.02538
▁없습니다	-9.02649
▁공급	-9.02777
배	-9.02805
▁건물	-9.02899
▁활용	-9.03069
▁꼭	-9.0308
으며	-9.03209
▁발표	-9.03386
▁보호	-9.03599
호서식	-9.03664
▁부동산	-9.03681
▁이유로	-9.03836
▁작은	-9.0398
▁보내	-9.04073
▁2017	-9.0415
▁하는데	-9.04188
▁마지막	-9.04267
▁여전히	-9.04357
▁그녀는	-9.04634
▁하면	-9.04769
장을	-9.04836
▁도입	-9.05305
▁대해서	-9.05429
현지시간	-9.05484
▁도는	-9.05516
▁차이	-9.05518
▁통한	-9.05557
▁책임	-9.05858
▁자유한국당	-9.05861
▁제도	-9.0592
▁대회	-9.06052
▁비롯해	-9.06052
km	-9.0606
▁군	-9.0615
▁목소리	-9.06682
▁구조	-9.06709
▁결국	-9.06732
▁중구	-9.06813
▁불법	-9.06833
▁향후	-9.07026
개의	-9.07169
▁작업	-9.07221
랑	-9.07234
월에	-9.07284
▁요청	-9.07292
▁발	-9.07332
▁가는	-9.07421
▁미세먼지	-9.07448
▁일반	-9.07502
▁특별한	-9.07622
),	-9.07722
▁2015	-9.07977
▁공동	-9.08172
▁스스로	-9.08173
▁전화	-9.08626
▁사람은	-9.08662
▁집에	-9.08663
년부터	-9.087
릴	-9.08793
▁버스	-9.08798
▁명	-9.08845
▁분석	-9.08862
8	-9.08964
▁신규	-9.09
▁것에	-9.09018
▁활동을	-9.09048
▁입	-9.09069
▁아무	-9.09185
▁정상회담	-9.09268
하였다	-9.0929
▁나섰다	-9.09434
▁합의	-9.096
▁한류	-9.09619
▁높다	-9.0967
대로	-9.09911
▁시행	-9.09994
▁곧	-9.10153
▁출신	-9.10332
구청장	-9.10342
▁역사	-9.10353
▁참석한	-9.10403
▁위원장은	-9.10423
▁대신	-9.10586
이었다	-9.10712
▁눈	-9.1079
9	-9.10798
▁없	-9.1087
▁그룹	-9.10874
▁지속적	-9.10943
▁노래	-9.11044
▁필요하다	-9.1105
▁남자	-9.1105
▁장애인	-9.11228
▁성공	-9.11256
▁사회	-9.11269
▁축제	-9.11307
▁검토	-9.11314
하기로	-9.1132
▁대한민국	-9.11322
▁의원이	-9.11399
▁해서	-9.11512
▁반	-9.11798
▁국제	-9.11801
▁되어	-9.11922
▁주민	-9.12074
▁뜻	-9.12138
▁그렇게	-9.12553
▁구매	-9.12554
▁그래서	-9.126
▁원하는	-9.12704
▁영상	-9.12789
▁사유	-9.12952
항상	-9.13
이라며	-9.13102
▁어제	-9.13121
▁공식	-9.13165
▁시즌	-9.13266
▁크다	-9.13355
▁유지	-9.13386
▁절차	-9.13458
▁협력	-9.13466
▁의한	-9.13612
▁적극적	-9.13627
▁지원할	-9.13757
▁기업이	-9.13785
▁돼	-9.13873
▁없었다	-9.1389
▁운동	-9.13896
▁29	-9.139
▁처음으로	-9.1395
▁한다고	-9.14089
▁독일	-9.14229
▁감사	-9.14281
▁분	-9.14295
▁상	-9.14416
▁여	-9.14471
▁거의	-9.14516
▁사이	-9.14619
▁관련된	-9.14717
▁수밖에	-9.1491
▁혐의로	-9.14919
▁온라인	-9.14954
아	-9.14985
됩니다	-9.14998
▁중소기업	-9.151
▁있는지	-9.15173
▁도움이	-9.15386
것은	-9.15445
▁앞두고	-9.15482
▁맞아	-9.1557
▁위해서는	-9.15598
▁예정	-9.15609
했지만	-9.15744
▁예약	-9.15751
▁나서	-9.15755
▁중에	-9.16011
▁여자	-9.16043
▁기관	-9.16086
▁성	-9.16481
▁홍보	-9.16515
▁열	-9.16528
▁개최	-9.16589
▁없다는	-9.16591
군	-9.16595
▁회장	-9.16689
되지	-9.16817
▁한번	-9.17291
▁따로	-9.17404
자는	-9.17421
장이	-9.17442
▁실시	-9.1757
▁공사	-9.17582
▁조치	-9.17723
▁대형	-9.17962
▁최	-9.18011
▁완전	-9.18271
▁효율적	-9.18582
위원회	-9.18692
▁31	-9.18715
▁범위	-9.18992
▁데이터	-9.19014
습니까	-9.19115
▁관계자	-9.19344
▁인천	-9.19441
▁그들	-9.19471
▁통	-9.19593
▁한국에서	-9.19759
▁중에서	-9.19796
▁나와	-9.19812
▁손	-9.19961
▁목표	-9.20132
▁보는	-9.20166
G	-9.20188
▁행위	-9.20211
▁같습니다	-9.20289
난	-9.2029
▁적	-9.20291
비	-9.20319
▁이유는	-9.20598
▁점에서	-9.2069
▁예상된다	-9.20732
지를	-9.20867
▁경험	-9.21021
▁해도	-9.2112
었습니다	-9.2116
▁인근	-9.21204
▁동시에	-9.21205
▁주장했다	-9.21222
▁요즘	-9.21318
▁학생들이	-9.21397
▁국민	-9.21425
▁씨	-9.21477
▁상황이	-9.21596
▁등록	-9.21675
▁경찰이	-9.21793
▁주장	-9.21821
▁방	-9.21865
▁자주	-9.21866
▁곳이	-9.22192
▁시작	-9.22193
겠습니다	-9.22297
▁포함한	-9.22301
▁더불어민주당	-9.22319
▁위탁	-9.22436
▁꿈	-9.22496
▁승리	-9.22648
▁200	-9.22723
▁후보	-9.22726
▁단순	-9.22761
▁도널드	-9.22908
▁밖에	-9.23075
▁차례	-9.23207
▁남성	-9.23258
▁연기	-9.2332
▁별도	-9.23374
▁확보	-9.23407
▁이들이	-9.2362
▁조례는	-9.2365
년에	-9.23724
▁아침	-9.23793
▁설명	-9.23801
▁2014	-9.23862
들에게	-9.23903
▁내용이	-9.24026
▁잘못	-9.24032
▁여기에	-9.24083
▁제작	-9.24099
▁시민들	-9.24119
▁그대로	-9.24121
등의	-9.24189
▁위원장이	-9.24254
▁김정은	-9.24303
▁구성	-9.24306
▁이것	-9.24412
▁거래	-9.24445
▁아래	-9.24527
▁심	-9.24602
▁밤	-9.24784
으로부터	-9.25027
▁타고	-9.25273
▁넘는	-9.25337
▁하기	-9.25344
▁머리	-9.25377
▁어린이	-9.25423
▁범위에서	-9.25468
▁하나에	-9.25629
▁협상	-9.25673
▁체험	-9.25716
▁삼성전자	-9.25951
점	-9.25962
정	-9.25976
▁빨리	-9.26029
▁찾는	-9.2607
▁<	-9.26097
▁연락	-9.2613
▁에너지	-9.26144
▁아니	-9.26368
▁수립	-9.26558
▁의해	-9.26597
▁있으면	-9.26634
▁전망	-9.2698
▁서류	-9.27036
▁만드는	-9.27081
▁열리는	-9.27119
▁소재	-9.27161
▁작성	-9.27201
▁제재	-9.27258
▁무대	-9.27359
하던	-9.27496
▁한국에	-9.27505
▁후에	-9.2759
▁예상	-9.27602
▁선정	-9.27819
스	-9.27845
▁특정	-9.27857
볼	-9.28013
▁아주	-9.28034
인데	-9.28176
▁법률	-9.28277
▁속에서	-9.28351
▁상대로	-9.28441
▁대화	-9.28763
▁결제	-9.28788
혀	-9.2885
▁수업	-9.28861
▁명이	-9.28969
▁불구하고	-9.28975
▁피해자	-9.29007
▁제공	-9.29059
▁조정	-9.29273
▁영	-9.29308
D	-9.29337
▁좋아하는	-9.29389
▁업계	-9.29405
▁대표가	-9.29511
▁찾아	-9.29624
▁미리	-9.29629
▁문제는	-9.29769
▁보니	-9.29783
내	-9.3008
▁호텔	-9.30156
▁없을	-9.30208
▁위해서	-9.30239
▁오래	-9.3034
▁무	-9.30575
▁60	-9.30778
▁메시지	-9.30808
▁주는	-9.30918
▁운영에	-9.30985
▁옷	-9.31044
▁선택	-9.31059
▁연속	-9.31141
▁마	-9.31237
▁고용	-9.31417
▁소비자	-9.3151
▁도움	-9.31514
▁내부	-9.31516
▁배	-9.31536
▁작품	-9.31638
▁기회를	-9.31756
▁이해	-9.31945
▁있을까요	-9.31976
▁변경	-9.32061
▁대통령과	-9.32073
▁광고	-9.32177
▁프로젝트	-9.32214
하고자	-9.32252
▁않도록	-9.32448
▁놓고	-9.3255
종	-9.32595
▁임기	-9.32656
▁블록체인	-9.32761
세요	-9.32996
▁심사	-9.33026
되면서	-9.3303
▁인도	-9.33089
된다	-9.33217
▁수가	-9.33276
▁달러	-9.33336
화	-9.33433
▁방식으로	-9.33446
▁꾸준	-9.33632
▁원내대표	-9.33677
▁상승	-9.3392
▁마련	-9.33945
▁오히려	-9.33967
▁적용	-9.33973
▁방침이다	-9.3398
▁갈등	-9.34008
▁시험	-9.34037
▁운영하는	-9.34048
▁때는	-9.34118
에선	-9.3417
▁중심	-9.34179
▁한반도	-9.34238
▁위반	-9.34382
▁보이는	-9.34417
▁발표한	-9.34421
▁업무를	-9.34427
▁이전	-9.34494
▁저녁	-9.34557
▁것처럼	-9.34817
▁명의	-9.34834
▁글	-9.34875
▁장소	-9.35007
▁덧붙	-9.35048
▁아시아	-9.35124
▁작가	-9.35206
▁것이에요	-9.35255
▁최초로	-9.35284
▁감소	-9.35321
▁것과	-9.35332
▁공간	-9.35391
>	-9.35487
겠다는	-9.3565
급	-9.35669
▁청소년	-9.35777
주년	-9.35854
까	-9.35953
▁열심히	-9.3597
▁의혹	-9.36084
▁최저임금	-9.36117
▁500	-9.36311
▁스마트폰	-9.36363
▁소리	-9.36421
▁낮은	-9.36582
▁없다고	-9.36594
▁보고서	-9.36665
▁지금까지	-9.36667
▁노	-9.36859
▁너는	-9.37053
▁반도체	-9.37243
’(	-9.37315
▁시절	-9.37321
▁빠르	-9.37333
린	-9.37393
▁경찰에	-9.37442
▁위치한	-9.37447
▁모여	-9.37464
▁중요하다	-9.37527
▁청년	-9.37539
명으로	-9.37591
▁지역의	-9.37678
▁협의	-9.3773
▁보여	-9.3775
▁가격이	-9.37789
▁나온	-9.37858
▁마을	-9.37873
▁시작한	-9.37917
▁판단	-9.37996
▁광주	-9.38014
▁한국어	-9.38152
▁TV	-9.38167
기가	-9.38174
▁막	-9.382
▁사실상	-9.38272
▁임	-9.38311
▁정상	-9.38448
▁젊은	-9.38479
▁언론	-9.38708
집	-9.38844
▁의사	-9.38878
▁유럽	-9.38907
▁이들은	-9.39321
▁외	-9.39398
▁감독이	-9.39456
긴	-9.39509
▁대규모	-9.39525
▁새로	-9.39536
▁제한	-9.39606
함으로써	-9.39608
▁전통	-9.39691
▁산	-9.39768
▁앞에서	-9.39883
▁했습니다	-9.40049
▁경	-9.40093
되었습니다	-9.4017
단	-9.40306
▁자기	-9.4037
▁주제로	-9.40384
▁경쟁	-9.40517
▁화재	-9.40597
▁대책	-9.40901
▁사실이	-9.40908
▁프랑스	-9.41008
▁무료	-9.41032
▁타	-9.41062
▁교회	-9.4111
▁쉽지	-9.4118
▁인구	-9.41183
▁사람을	-9.412
▁못하고	-9.41223
▁어렵다	-9.413
▁삼성	-9.41329
▁아니다	-9.41438
치	-9.41505
▁민주당	-9.41506
▁맞는	-9.41538
▁지적했	-9.41581
▁행정	-9.41584
▁위험	-9.41609
지는	-9.41786
▁보다	-9.4181
▁조성	-9.4189
▁강원도	-9.41932
식	-9.41951
▁무엇	-9.41977
▁싶어	-9.4207
▁않으면	-9.42083
▁시대	-9.42216
▁이벤트	-9.42272
▁못하는	-9.42304
▁전시	-9.42304
▁원인	-9.4241
▁나오는	-9.42433
▁수입	-9.42477
▁못했다	-9.42499
▁당신에게	-9.42739
▁카드	-9.42944
▁않습니다	-9.43058
▁주택	-9.43091
▁모델	-9.43119
▁담긴	-9.43161
▁공장	-9.43185
▁중이다	-9.43194
▁공격	-9.43279
▁사업이	-9.43279
▁바란다	-9.43457
곳	-9.43523
▁지적이	-9.43564
▁싶어요	-9.43599
▁속에	-9.43617
▁받	-9.43803
▁사용자	-9.4382
하	-9.4385
▁매일	-9.44059
▁위원은	-9.4407
▁설립	-9.44112
▁발언	-9.44129
▁나에게	-9.44136
▁자녀	-9.44222
▁되면	-9.44249
냥	-9.44268
▁대출	-9.4427
▁평화	-9.44288
▁병원	-9.44333
센터	-9.44366
▁현	-9.44421
▁아버지	-9.44426
▁기업들	-9.44439
▁시작했다	-9.44466
▁변호사	-9.44639
▁제안	-9.44833
▁나도	-9.44847
▁최선	-9.44915
▁강력	-9.44919
▁지적	-9.44934
▁채용	-9.44974
▁조직	-9.44989
▁보기	-9.4499
▁담	-9.45009
▁도로	-9.45055
▁보이고	-9.45067
▁먹고	-9.45093
▁보도	-9.45095
▁몸	-9.45098
▁눈길	-9.45159
▁혁신	-9.45304
▁정하는	-9.45343
▁한국당	-9.45361
▁이내	-9.4558
▁연장	-9.45775
▁엄마	-9.4583
산	-9.4594
▁점이	-9.46004
친	-9.46156
▁금액	-9.46184
분기	-9.46219
▁팬들	-9.46225
▁LG	-9.46269
▁최초	-9.46279
함	-9.46293
▁그림	-9.46346
수록	-9.46434
▁구체적	-9.46447
▁수수료	-9.46465
▁둘	-9.46652
▁언제	-9.46726
▁끝난	-9.46819
▁강한	-9.46886
들	-9.46948
▁싶은	-9.46976
▁북미	-9.46996
▁정확한	-9.47054
▁연간	-9.47067
▁성적	-9.47106
▁늘	-9.47144
▁참여하는	-9.4718
▁상당	-9.47236
▁고려	-9.47309
▁능력	-9.47351
다른	-9.47388
▁매출	-9.47568
▁등은	-9.47574
▁어려움	-9.4759
▁해결	-9.47625
▁전부	-9.47746
였던	-9.47812
▁예	-9.47827
▁행동	-9.47886
▁상대	-9.47896
▁부탁	-9.48009
▁본다	-9.48015
▁비판	-9.4804
▁관광	-9.48129
▁인간	-9.48186
▁300	-9.48186
▁맛	-9.48201
▁부과	-9.4831
▁사항은	-9.48315
&	-9.48316
▁범죄	-9.48523
일에	-9.48572
▁이하	-9.48589
▁이용자	-9.48594
▁반드시	-9.48624
▁건설	-9.48645
▁겁니다	-9.48819
▁선거	-9.48963
▁선발	-9.49009
▁좋다	-9.49017
서는	-9.49066
▁축구	-9.49132
▁담당	-9.49193
▁논란	-9.49305
▁시민	-9.49379
▁의장	-9.49491
▁생각이	-9.49498
▁구축	-9.49622
▁손을	-9.49928
▁되지	-9.50126
▁김씨	-9.50197
없이	-9.50266
▁2019	-9.50363
▁내에서	-9.50484
▁아이들	-9.50513
▁낮	-9.50532
▁은행	-9.50555
▁완화	-9.50657
▁사전	-9.50684
▁길이	-9.50685
▁셈이	-9.50744
조치를	-9.50763
들과	-9.50771
▁가서	-9.50777
▁기본	-9.50941
▁때까지	-9.50978
씬	-9.51033
▁실적	-9.51037
▁사람들은	-9.51047
하겠습니다	-9.51275
상을	-9.51355
10	-9.51384
▁보였다	-9.51428
네요	-9.51431
▁경험이	-9.51603
▁반대	-9.51638
▁장비	-9.51661
성이	-9.51709
▁눈에	-9.51709
함에	-9.51717
▁지사	-9.51722
▁여부를	-9.51722
▁일단	-9.51729
▁진출	-9.51742
위원회의	-9.51766
년까지	-9.51787
▁건가요	-9.5195
▁만약	-9.52019
▁행복	-9.52077
▁소통	-9.52285
▁만들	-9.52371
▁안에서	-9.52457
▁민간	-9.52542
▁그러나	-9.52617
▁여부	-9.5273
▁택시	-9.52756
▁제일	-9.52809
▁시장이	-9.52827
▁예방	-9.52879
▁제공하는	-9.52917
▁취지	-9.53069
▁앞에	-9.5308
▁지도	-9.53097
자를	-9.53185
▁기반	-9.53241
▁대응	-9.53309
▁위에	-9.53311
▁이곳	-9.5336
▁현실	-9.53375
▁자연	-9.53447
▁단지	-9.53503
▁이내에	-9.53567
▁왔다	-9.53846
▁대법원	-9.53956
▁홍콩	-9.54066
이며	-9.54173
▁경기도지사	-9.54503
▁무슨	-9.54514
▁점검	-9.54542
▁하다	-9.54546
▁통합	-9.54566
▁창업	-9.54626
▁공부	-9.54628
려	-9.54683
되었다	-9.54891
▁미국이	-9.55062
▁파	-9.55151
▁딸	-9.55299
▁편	-9.55321
하는데	-9.55362
▁사는	-9.55457
기로	-9.55566
▁사용하는	-9.55581
▁최대한	-9.55623
▁근무	-9.55665
주세요	-9.55671
∼	-9.55726
동안	-9.55759
▁보수	-9.55791
▁교수는	-9.55794
▁시장에서	-9.55797
▁순간	-9.55867
▁지원하는	-9.55874
▁직무	-9.55985
▁교체	-9.56032
▁준	-9.56063
▁행사에	-9.56075
▁기준으로	-9.56089
▁2013	-9.56156
▁매	-9.56194
▁분석이	-9.5632
▁혜택	-9.56366
▁2012	-9.56387
▁사이에	-9.56498
했고	-9.56591
▁요리	-9.56666
▁받지	-9.56715
▁허가	-9.56797
▁70	-9.56808
져	-9.56895
▁개정	-9.56962
▁이와	-9.56975
▁플랫폼	-9.57103
▁충분히	-9.57231
▁정치	-9.57328
▁갑	-9.57368
▁의지	-9.57414
임을	-9.57681
▁규칙	-9.57721
시에	-9.57741
▁센터	-9.57786
▁많아	-9.57835
라도	-9.57842
▁자금	-9.57844
▁전해졌다	-9.57866
▁제주	-9.57911
▁있어야	-9.57953
든	-9.58
▁규정함	-9.5801
▁있지	-9.58041
별	-9.58125
▁대구	-9.58189
▁소송	-9.58195
▁이용할	-9.58246
▁실	-9.58299
▁위원장	-9.58348
▁지속	-9.58351
▁의하여	-9.58416
▁훨	-9.58423
▁증거	-9.58439
▁없고	-9.58454
▁고민	-9.58482
별로	-9.58499
▁본격적	-9.5851
▁노조	-9.58531
년대	-9.58604
수가	-9.58884
만명	-9.589
▁식사	-9.58922
▁참가	-9.58963
▁스포츠	-9.5905
▁나머지	-9.59158
▁학생들	-9.59253
▁법원	-9.5928
대가	-9.59334
▁지역에	-9.59356
▁없어요	-9.59365
▁다소	-9.59392
▁조선	-9.59412
A	-9.59495
▁여름	-9.59525
▁종류	-9.59623
▁취업	-9.59638
▁말고	-9.59676
▁뿐	-9.59682
▁화제	-9.597
▁재	-9.59745
드립니다	-9.59769
▁접수	-9.59829
인가요	-9.59858
▁외부	-9.59997
▁경쟁력	-9.60005
▁들고	-9.601
이번	-9.60177
▁창출	-9.6027
▁촬영	-9.60336
▁행사가	-9.60348
▁이용해	-9.60378
시부터	-9.60415
▁교육부	-9.60457
▁간사	-9.60644
▁불편	-9.60723
▁금리	-9.60761
▁찾	-9.60833
▁맞춰	-9.6085
▁기술을	-9.60852
해주세요	-9.60949
▁별	-9.61084
지역	-9.61112
원이	-9.61114
▁따른다	-9.61543
▁추천	-9.61592
▁특별	-9.61731
▁공유	-9.6174
▁즉시	-9.61824
▁북한이	-9.61844
▁빠른	-9.61869
▁물건	-9.61957
현	-9.62047
▁SK	-9.62113
▁되었다	-9.62154
까요	-9.62158
▁좋아	-9.62163
▁등에서	-9.62197
▁추가로	-9.62209
▁넘	-9.62375
▁수요가	-9.62471
▁결과가	-9.62503
▁기념	-9.62628
▁직후	-9.62628
▁진	-9.62829
▁발생했다	-9.63004
▁커피	-9.6306
▁소비	-9.63071
▁회장이	-9.6309
▁한국인	-9.6315
▁알려	-9.63174
▁얼굴	-9.63217
▁콘서트	-9.63236
▁비슷한	-9.63267
▁형태	-9.63305
▁얻	-9.63322
팀	-9.63362
▁육성	-9.63382
▁속도	-9.63399
▁참여한	-9.63413
▁전날	-9.63461
▁지역에서	-9.63476
▁때마다	-9.63506
▁보조금	-9.63524
▁밝힌	-9.6355
▁우승	-9.63768
▁경영	-9.63808
정부의	-9.63813
여명	-9.63827
석	-9.63838
문	-9.63842
▁많았다	-9.63845
▁분명	-9.6385
▁참석했다	-9.63892
▁이미지	-9.64105
▁재판	-9.64112
▁있었습니다	-9.64113
▁싱가포르	-9.64183
했으며	-9.64222
▁외에	-9.64484
초	-9.64697
▁전문가들	-9.64742
▁시행령	-9.64776
▁아름다운	-9.64802
▁별표	-9.64852
▁관하여	-9.64859
▁나선	-9.64931
▁양국	-9.6511
▁취소	-9.65152
▁반응	-9.6517
▁바탕으로	-9.65192
▁상황이다	-9.65282
분의	-9.65328
▁미국과	-9.65381
▁근거	-9.6539
었어요	-9.65425
▁진행된	-9.65485
▁내에	-9.65601
▁등과	-9.65609
▁참	-9.65632
▁지방	-9.65658
성을	-9.65685
관	-9.65751
▁여론	-9.65754
원을	-9.65836
▁낸	-9.6589
▁국방부	-9.65912
호에	-9.65955
▁나올	-9.66042
▁SNS	-9.66068
▁컴퓨터	-9.6612
▁수요	-9.66199
▁이동	-9.66206
▁인식	-9.66209
▁나를	-9.66229
▁남아	-9.66241
▁곳에	-9.66327
▁방향	-9.66327
▁결혼	-9.66364
라며	-9.66408
▁긴급	-9.66456
▁금융	-9.66799
▁아동	-9.66931
▁마음이	-9.6694
▁했어요	-9.67012
▁넘어	-9.67123
▁수도권	-9.67301
▁부족한	-9.67321
▁기대된다	-9.67345
▁인도네시아	-9.67447
▁의견	-9.67458
도가	-9.67463
뿐	-9.6752
▁원활	-9.67575
뿐만	-9.67597
▁아이디어	-9.67659
▁거리	-9.67662
▁안내	-9.67669
▁갖춘	-9.67701
▁종	-9.67709
▁표현	-9.67715
▁홈페이지	-9.67929
30	-9.67929
▁맡	-9.67934
▁말이	-9.67947
▁우	-9.68027
▁향상	-9.68107
▁인증	-9.68107
기에	-9.68187
▁전까지	-9.68197
▁피부	-9.68246
▁인기가	-9.68272
▁사업에	-9.68468
▁않아요	-9.68902
▁희망	-9.68913
▁의혹을	-9.68964
자기	-9.68981
▁유명	-9.69023
▁심각	-9.6907
▁가구	-9.69083
▁피	-9.69121
▁지자체	-9.69131
안	-9.69281
많은	-9.69288
조원	-9.6929
▁시장에	-9.69309
▁교류	-9.69312
▁즐길	-9.69325
▁진행된다	-9.6933
▁지나	-9.69331
영	-9.69467
▁이상이	-9.69712
단체	-9.69722
▁비교	-9.69856
▁초기	-9.69889
▁경북	-9.69891
▁철저	-9.70162
울	-9.7019
▁(	-9.70273
▁발굴	-9.70299
런	-9.70506
▁날씨	-9.70561
▁디지털	-9.70592
▁유명한	-9.70601
▁경비	-9.70685
▁총리	-9.70786
▁있다면	-9.70873
▁처분	-9.70908
▁기대감	-9.70939
▁배송	-9.71024
▁원래	-9.71107
▁주민들	-9.71124
▁주소	-9.71153
등	-9.71157
운영	-9.71177
▁역량	-9.71178
약	-9.71417
▁오랜	-9.71455
둔	-9.71471
▁듯	-9.71491
인한	-9.71496
▁걸쳐	-9.71558
▁확인할	-9.71566
이자	-9.71567
서를	-9.71583
▁설	-9.71608
▁유일	-9.71701
살	-9.71762
▁그러	-9.71768
▁본인	-9.71824
▁부족	-9.71882
사는	-9.71928
▁어	-9.71972
▁나이	-9.72046
▁포함	-9.72112
▁알게	-9.72186
▁방식	-9.72208
/	-9.72281
▁홍	-9.72419
낼	-9.72438
▁가입	-9.72577
C	-9.72629
▁발생하는	-9.72667
▁학습	-9.72668
▁소개	-9.72702
▁공개된	-9.72733
▁혼자	-9.72764
▁기온	-9.72954
관리	-9.72967
▁출시	-9.72996
▁교육감	-9.73307
▁나오고	-9.73425
한다는	-9.73447
▁보통	-9.73449
한다고	-9.73506
▁인터뷰	-9.73617
▁바른미래당	-9.73648
▁후보자	-9.73657
▁집에서	-9.73777
▁기능을	-9.73859
▁훈련	-9.73941
▁동영상	-9.74115
▁소득	-9.74132
▁가고	-9.74162
▁인력	-9.74185
▁방문해	-9.74212
▁모바일	-9.74255
▁제외한	-9.74275
▁열고	-9.74365
대를	-9.74375
▁만들기	-9.74457
▁자세	-9.74459
▁상황에	-9.74493
▁기록했다	-9.74594
▁강남구	-9.74846
▁점이다	-9.74904
▁하면서	-9.74917
▁제주도	-9.74979
▁질	-9.75033
▁상반기	-9.75048
금	-9.75177
▁원칙	-9.75253
있는	-9.75491
▁커지고	-9.75555
월까지	-9.75596
▁주장이	-9.75746
▁여러분	-9.75754
▁공정	-9.75766
▁먹을	-9.75771
▁들	-9.75849
▁연결	-9.75855
▁마케팅	-9.75879
우	-9.75978
▁먹는	-9.76001
▁감사합니다	-9.76045
▁운행	-9.76117
▁계기	-9.76168
▁어디	-9.76174
▁처벌	-9.76372
▁법인	-9.76457
▁경남	-9.76513
▁대표적인	-9.76635
▁본격	-9.76744
Pop	-9.76776
▁살고	-9.76814
▁회복	-9.76856
▁설명이	-9.76915
▁의견이	-9.76916
▁주목	-9.7702
▁2010	-9.7709
▁크기	-9.77148
▁선물	-9.77294
▁인프라	-9.77339
▁이달	-9.77351
▁했지만	-9.77364
▁사장	-9.77391
▁쪽	-9.77481
▁권	-9.77598
▁황	-9.77611
▁입주	-9.77644
▁회담	-9.77708
▁독립	-9.77711
▁참석해	-9.77763
▁장관이	-9.77867
만큼	-9.77937
하려는	-9.77942
▁확산	-9.77994
▁경기도와	-9.78046
▁현대	-9.78069
▁밖	-9.78111
▁2011	-9.78117
▁과제	-9.78131
▁목	-9.78246
▁동의	-9.78304
▁포함해	-9.78395
▁전환	-9.78396
▁아니냐	-9.78465
▁발견	-9.78518
▁신뢰	-9.78542
▁뭐	-9.78557
했는데	-9.78639
▁그들이	-9.78872
해온	-9.78954
▁주고	-9.78973
▁열린다	-9.7902
▁무엇보다	-9.79063
▁복지	-9.79155
▁세상	-9.79175
▁맞	-9.79203
박	-9.79288
줄	-9.79327
▁보여주	-9.79333
▁예술	-9.79333
▁교통	-9.79414
▁여야	-9.7942
▁일부를	-9.79441
원의	-9.79496
계획을	-9.79527
▁정당	-9.7955
▁회원	-9.79564
▁물품	-9.79627
▁스마트	-9.79644
▁반면	-9.79668
▁답변	-9.79743
▁만난	-9.79815
▁시작된	-9.79849
▁구성된	-9.79879
▁하겠습니다	-9.79897
▁향해	-9.79923
▁김문수	-9.80075
▁바라	-9.80111
▁가까운	-9.80112
▁만들고	-9.80209
▁부상	-9.80299
▁역대	-9.80403
▁목사	-9.80413
▁평소	-9.80448
▁매력	-9.80463
▁발표했다	-9.80524
▁극	-9.80664
▁어머니	-9.80666
▁못해	-9.80707
▁사태	-9.80743
▁들어가	-9.80786
▁출장	-9.80892
▁현금	-9.81076
분쯤	-9.81146
주로	-9.81205
▁여기서	-9.81215
본	-9.81221
▁친환경	-9.81229
▁유통	-9.81457
▁기자	-9.81465
▁2000	-9.81534
연	-9.81538
▁부위원장	-9.81614
려고	-9.817
▁위치	-9.8173
▁드러났다	-9.81745
▁누구나	-9.81771
▁특징이	-9.82025
▁비가	-9.82058
▁스페인	-9.82103
▁의	-9.82252
▁사상	-9.82294
▁공공기관	-9.82328
되면	-9.82418
▁열렸다	-9.82553
▁전달	-9.82567
▁기금	-9.82659
▁부문	-9.82792
가지	-9.82876
▁겸	-9.82889
소	-9.82896
▁노동자	-9.82912
▁선수들	-9.82919
▁구속	-9.82937
▁전기	-9.8295
11	-9.83044
▁통신	-9.83075
▁나선다	-9.83087
▁뉴욕	-9.83129
학년	-9.8316
▁힘든	-9.83162
▁신경	-9.83169
▁당장	-9.83216
▁수탁자	-9.8323
▁맛있	-9.83282
▁관세	-9.83299
시킬	-9.83323
심	-9.83357
▁중앙	-9.83386
▁적은	-9.8339
▁질문에	-9.83395
권	-9.83442
▁밥	-9.83465
▁있을지	-9.83483
▁듣고	-9.83488
준	-9.83532
▁이건	-9.83567
▁실질적	-9.83594
점점	-9.83602
▁윤	-9.83622
▁지지	-9.83631
▁보안	-9.83636
▁아이들이	-9.83641
▁출연	-9.83792
▁팀이	-9.83845
▁있었	-9.83873
힌	-9.83968
억원을	-9.83975
코	-9.84027
▁금감원	-9.84141
▁주제	-9.84195
▁알려진	-9.84208
▁미만	-9.84233
▁주민들이	-9.84307
교육	-9.84308
▁가득	-9.8437
지도	-9.84398
씩	-9.84415
▁부회장	-9.84452
▁의혹이	-9.84458
▁다수	-9.84528
▁태풍	-9.84575
▁상담	-9.84597
▁발생할	-9.84704
▁가까이	-9.8471
▁겪	-9.84778
▁비행기	-9.8481
▁영업	-9.84819
▁시간에	-9.84832
▁있음	-9.84874
서울특별시	-9.84947
▁사망	-9.84987
▁열어	-9.85047
▁화장품	-9.85067
계	-9.85086
▁높	-9.85182
▁폭	-9.85282
▁수익	-9.8532
▁확인됐다	-9.85322
▁마무리	-9.85327
▁그래도	-9.85347
▁임명	-9.85384
▁승인	-9.85385
▁겪고	-9.85461
▁하나요	-9.85479
▁제품이	-9.85545
▁부정적	-9.85552
▁뒤에	-9.85683
▁사건이	-9.85744
▁한편	-9.85854
▁좋지	-9.85933
▁자리에	-9.86035
▁받아야	-9.86048
▁유치원	-9.86069
▁남은	-9.86119
▁새롭	-9.86124
▁먹	-9.86128
▁피해가	-9.86148
▁쓴	-9.86167
▁캐릭터	-9.86237
▁가능합니다	-9.86304
S	-9.86359
▁시도	-9.86371
▁당신과	-9.86463
▁걱정	-9.86492
▁언어	-9.86699
국	-9.86709
▁조기	-9.86759
▁바다	-9.86811
▁폭행	-9.86856
▁참여할	-9.8686
▁강남	-9.86904
▁멕시코	-9.86927
▁감	-9.8707
로서	-9.87096
▁중요	-9.87114
▁메일	-9.87132
▁관객들	-9.87137
▁안정적	-9.87186
▁씨가	-9.87193
▁가정	-9.87227
▁기타	-9.87255
달러	-9.87273
▁와서	-9.87279
▁눈이	-9.87311
사진을	-9.87312
▁저에게	-9.87331
▁무역	-9.87346
▁설계	-9.87379
▁불이	-9.87391
조차	-9.87434
▁대만	-9.87439
▁자전거	-9.87472
▁보낸	-9.87509
▁일찍	-9.87531
▁그간	-9.87565
▁혹은	-9.87595
▁체결	-9.876
▁입고	-9.87663
▁노력하여야	-9.8768
▁공공	-9.8772
▁점수	-9.87786
▁대로	-9.87835
▁상대적	-9.87847
지원을	-9.87885
▁그런데	-9.87887
▁경기가	-9.87898
▁대변인	-9.87961
▁일제	-9.87987
▁않	-9.87989
▁멤버	-9.87998
▁부진	-9.88019
▁소식을	-9.88095
▁필요성	-9.88123
▁이사장	-9.88144
▁어린	-9.88155
▁인정하는	-9.88162
▁그러면	-9.88181
▁청구	-9.88247
▁취	-9.88261
명과	-9.88315
▁이슈	-9.88326
▁늘고	-9.88369
▁가야	-9.88398
▁방법으로	-9.88409
하세요	-9.88412
▁높이	-9.88434
승	-9.88463
그룹	-9.88485
▁여성이	-9.88503
▁캐나다	-9.88574
▁절반	-9.88579
개소	-9.88633
▁2008	-9.88648
▁협조	-9.8869
▁대전	-9.88697
사업	-9.88727
▁이란	-9.88796
▁절대	-9.8886
▁재판부	-9.88861
▁주식	-9.88907
▁현장에서	-9.88976
태	-9.89036
▁허	-9.891
▁지하철	-9.89108
▁봐	-9.89143
원은	-9.89178
▁참여해	-9.89186
▁파일	-9.89213
▁위촉	-9.89227
인지	-9.89268
장에게	-9.89303
▁알려져	-9.89304
하려면	-9.89354
▁싶다	-9.89379
▁카메라	-9.89447
▁전면	-9.89489
▁초청	-9.89718
▁귀	-9.8974
▁종합	-9.89772
▁장기	-9.89808
▁범행	-9.89837
▁특징	-9.89925
▁시기	-9.89956
▁임금	-9.90006
▁했는데	-9.90035
▁나갈	-9.90132
▁대표팀	-9.9016
▁수행	-9.90213
입니까	-9.90221
보다는	-9.90226
▁참석	-9.90238
▁폼페이오	-9.9034
시까지	-9.90444
▁선언	-9.90457
▁구청장에게	-9.90531
▁정치적	-9.90566
업체	-9.90683
오	-9.90758
▁현상	-9.90807
▁재미있	-9.90822
▁한국과	-9.9083
▁브라질	-9.90848
▁잡고	-9.90879
이고	-9.90888
▁전남	-9.90914
▁누	-9.90916
됨에	-9.90935
▁시군	-9.91003
▁말씀	-9.91186
▁전쟁	-9.91261
▁그때	-9.91313
▁협약	-9.91377
▁품질	-9.91451
▁필요하다는	-9.91472
▁휴가	-9.91546
▁떨어진	-9.91586
▁끝에	-9.91655
항제	-9.91741
▁요금	-9.91813
▁끌고	-9.91837
▁기술이	-9.91872
▁태도	-9.91941
▁통화	-9.91983
년이	-9.91984
▁이메일	-9.91987
▁순위	-9.9199
▁80	-9.92062
▁개정안	-9.92082
▁실시한	-9.92128
▁하여	-9.9213
▁호주	-9.92184
▁판결	-9.9221
▁매장	-9.92382
▁추세	-9.92444
른바	-9.92458
▁사무	-9.92459
▁목적	-9.92483
▁공항	-9.92505
▁당연	-9.92525
▁가면	-9.92527
했으나	-9.92556
▁기사	-9.92666
▁떨어져	-9.92746
▁증시	-9.92841
경기	-9.92849
시장	-9.9288
서비스	-9.9304
▁전반	-9.93074
▁분석했다	-9.93084
성과	-9.93093
▁정한다	-9.93095
▁쓰는	-9.93167
론	-9.93172
가요	-9.93202
▁국회의원	-9.9321
▁그만큼	-9.93247
▁국내외	-9.93261
▁출석	-9.93277
▁사이트	-9.93334
▁암호화폐	-9.93384
▁고객이	-9.93401
▁중국이	-9.9342
▁어린이집	-9.93431
▁당부했	-9.93458
▁가게	-9.93462
▁유치	-9.93464
▁제조	-9.93464
▁살아	-9.93523
라면	-9.93595
▁감정	-9.93627
표	-9.93652
▁포함된	-9.93719
▁유출	-9.93782
▁결	-9.93787
▁급격	-9.93793
▁구민	-9.93813
▁악화	-9.93892
▁내고	-9.93893
▁생각해요	-9.93911
▁비즈니스	-9.94024
▁기분이	-9.94029
▁비중이	-9.94114
▁분야에서	-9.9412
▁아내	-9.94134
▁변화가	-9.9415
▁기능	-9.94181
▁골	-9.94243
▁시위	-9.94289
▁하락	-9.94315
▁소유	-9.94346
▁신속	-9.94357
▁했던	-9.94377
▁노인	-9.9438
▁정부와	-9.94403
▁개편	-9.94413
▁건축	-9.94434
▁회장은	-9.94526
더	-9.94535
▁멋	-9.9454
강	-9.94547
▁후반	-9.94568
▁대폭	-9.94576
▁약속	-9.94604
▁않았	-9.94635
▁들었다	-9.9465
▁굉장	-9.94697
▁되기	-9.94795
▁교사	-9.94833
▁최소	-9.94841
▁국내에서	-9.94863
▁그린	-9.94869
▁부담이	-9.94888
▁세금	-9.94907
▁태국	-9.94922
▁맞춤형	-9.94977
▁진짜	-9.94991
▁오른	-9.94993
▁건립	-9.94997
▁주말	-9.95003
▁고려해	-9.95013
▁앱	-9.95016
끄는	-9.95071
▁이어지고	-9.9508
곤	-9.95164
▁않게	-9.95245
▁이어질	-9.95263
▁의무	-9.95278
▁국토교통부	-9.95297
▁부품	-9.95299
▁단속	-9.95364
▁것인지	-9.95421
▁관	-9.95458
▁대거	-9.95469
▁단위	-9.95632
▁경우에	-9.95643
갈	-9.95755
▁직원들	-9.95776
더라도	-9.9579
▁접근	-9.95801
▁메뉴	-9.95863
▁대상이	-9.95959
▁인천광역시	-9.9598
▁부부	-9.95982
▁못할	-9.96045
▁기여	-9.96065
▁현황	-9.96221
▁카페	-9.96306
▁재정	-9.96349
▁진술	-9.96428
▁누가	-9.9648
▁많	-9.96568
▁하나님	-9.96597
▁관객	-9.96672
▁나중에	-9.96675
▁할인	-9.96736
▁운전자	-9.96749
▁그것이	-9.96839
▁조건	-9.96864
▁전력	-9.96865
▁국회에서	-9.96916
▁활용한	-9.96918
▁부모	-9.96929
▁국민연금	-9.96984
▁의결	-9.97031
예요	-9.97073
▁수집	-9.97155
효과를	-9.97204
밖에	-9.97209
우리	-9.9725
▁위원장의	-9.97283
개국	-9.97289
▁이름이	-9.97328
▁공동으로	-9.97367
▁보관	-9.97387
▁운영을	-9.97442
▁학교에	-9.97472
▁주목된다	-9.97578
▁불안	-9.97595
▁과태료	-9.97617
▁공연이	-9.97651
▁이어졌다	-9.97751
▁이뤄질	-9.97842
▁스타	-9.9786
네	-9.97862
자의	-9.97863
▁대체	-9.97879
▁돈이	-9.97956
▁늘어난	-9.97957
▁깊은	-9.97972
▁지원에	-9.97993
▁150	-9.98004
▁대기업	-9.98042
▁지시	-9.9805
▁숨	-9.98055
년에는	-9.98079
▁도민	-9.98166
▁할머니	-9.98169
▁관계자들	-9.98179
▁단계	-9.98254
▁상처	-9.98255
▁연구원	-9.98266
▁사전에	-9.98275
세대	-9.9831
▁잠	-9.98359
니까	-9.98384
칠	-9.9839
▁기획	-9.98562
▁국토부	-9.98622
▁장면	-9.98629
▁대북	-9.9881
▁인정	-9.98819
▁연출	-9.98848
▁기소	-9.98934
▁문자	-9.98974
▁충격	-9.99015
▁힘들	-9.99069
▁기대한다	-9.99119
▁강의	-9.99127
▁좋겠다	-9.99167
▁시설물	-9.99171
▁점도	-9.99178
▁있으니	-9.99267
▁샘플	-9.99271
▁문제로	-9.99282
▁전략	-9.99295
▁유사	-9.99454
▁가능	-9.99498
▁진단	-9.99542
▁최근에	-9.99601
하려고	-9.99687
다면	-9.99758
▁친구들	-9.99787
▁기부	-9.99927
▁표시	-10.0001
▁작년	-10.0003
드리겠습니다	-10.0004
▁세대	-10.0004
▁나무	-10.0024
▁취임	-10.003
▁소상공인	-10.0032
▁국	-10.0047
▁숨진	-10.0048
▁유튜브	-10.005
▁당초	-10.006
▁않았습니다	-10.006
▁지방자치단체	-10.0062
▁미디어	-10.0066
▁처음이	-10.0071
차례	-10.0077
▁개혁	-10.0081
▁생각한다	-10.0081
▁전년	-10.0082
▁진행한다	-10.0086
정보	-10.0091
▁마치고	-10.0095
이지만	-10.0096
▁확인해	-10.0099
▁경제적	-10.0102
TV	-10.0112
▁빛	-10.0115
▁쓰고	-10.0116
▁운전	-10.0118
날	-10.0118
▁부분이	-10.0128
▁남성이	-10.0137
▁외국	-10.0138
▁투입	-10.0139
▁의료	-10.0141
▁미치는	-10.0146
▁실력	-10.0146
▁있으나	-10.015
▁전용	-10.0152
죠	-10.0153
▁징수	-10.0157
▁앨범	-10.0161
민	-10.0162
t	-10.017
▁이행	-10.0171
리를	-10.0176
▁잇따	-10.018
▁올랐다	-10.0183
▁선수들이	-10.0186
파	-10.0187
▁네트워크	-10.0188
간의	-10.0192
▁풍부	-10.0196
▁집행	-10.0197
▁것보다	-10.0204
▁난민	-10.0218
「	-10.022
▁직업	-10.0223
▁목표로	-10.0229
▁곳에서	-10.0234
▁정한	-10.0244
▁보이지	-10.0248
▁팔	-10.0254
▁가족이	-10.0262
▁상호	-10.0263
▁전시회	-10.0264
▁행정부	-10.0266
▁이전에	-10.0271
▁일어나	-10.0272
▁명확	-10.0272
▁높아지고	-10.0273
같이	-10.0275
타	-10.0285
▁선생님	-10.0287
▁10%	-10.0289
▁생태계	-10.0295
▁곳으로	-10.0297
▁없어서	-10.0299
대한	-10.0304
▁하나로	-10.0307
▁화	-10.0316
▁비용이	-10.0316
▁문서	-10.0319
▁차지하	-10.0319
▁지식	-10.0324
▁마치	-10.0325
했다는	-10.0326
▁프로그램이	-10.0329
▁쓸	-10.0333
▁역	-10.034
▁해제	-10.0342
▁하되	-10.0344
▁자동	-10.0345
▁않기	-10.0349
▁더불어	-10.0351
▁있었지만	-10.0353
권을	-10.0363
▁광주시	-10.0366
▁영향으로	-10.0368
!	-10.0369
▁질문	-10.037
▁당일	-10.0375
가구	-10.0378
▁통과	-10.0379
호의	-10.0383
▁G	-10.0388
▁이어지는	-10.0389
K	-10.0397
▁강원	-10.0398
▁설치된	-10.0399
▁관련하여	-10.0399
▁향한	-10.0409
▁사람에게	-10.0411
▁거주하	-10.0413
▁입을	-10.0417
역	-10.0418
▁주가	-10.0421
▁일대	-10.0426
▁면접	-10.0433
cm	-10.0434
▁옆에	-10.0439
▁송	-10.044
▁비율	-10.0448
▁그게	-10.0451
▁졸업	-10.0452
▁‘2018	-10.0455
▁활용해	-10.0458
▁종료	-10.046
▁징계	-10.0461
▁건축물	-10.0469
▁느낄	-10.0471
음을	-10.0479
일간	-10.0481
▁선박	-10.0488
▁사이에서	-10.0491
▁철도	-10.0491
▁비밀	-10.0497
▁자유	-10.0497
▁진행되는	-10.0499
▁도서관	-10.051
▁적지	-10.0511
▁요소	-10.0517
▁완벽	-10.0517
▁낼	-10.0522
▁변	-10.0527
▁좋을	-10.0527
▁향	-10.0527
마	-10.0532
▁소비자들	-10.0536
하겠다고	-10.0539
▁동물	-10.054
▁법적	-10.0544
▁가족들	-10.0545
▁핵	-10.0549
안을	-10.0549
▁비중	-10.0573
▁뜨거운	-10.0574
▁따뜻한	-10.0576
▁시선	-10.0582
▁준다	-10.0583
긍정적인	-10.0589
리는	-10.0595
▁리	-10.0602
▁돌	-10.061
▁표	-10.0611
▁납부	-10.0615
트	-10.0619
▁기계	-10.0625
▁권리	-10.0627
▁폐지	-10.0628
시설	-10.0634
재	-10.0637
▁우리에게	-10.0637
▁근로자	-10.0641
▁진정	-10.0643
▁구분	-10.065
▁작품을	-10.0651
▁학생이	-10.0654
자에게	-10.0654
한국	-10.0655
▁중단	-10.0656
▁만날	-10.0657
▁실현	-10.0661
▁유엔	-10.0661
시면	-10.0667
▁토대로	-10.0673
▁팬	-10.0677
▁장치	-10.0683
▁도착	-10.0683
▁힘이	-10.0689
▁점차	-10.069
자들이	-10.0691
▁차지했다	-10.0693
▁토지	-10.0702
▁높아	-10.0706
▁평가했다	-10.0711
▁안건	-10.0721
▁둔다	-10.0726
▁시작으로	-10.073
▁2009	-10.0735
▁보조	-10.0735
▁후보가	-10.0737
▁기초	-10.0737
기업의	-10.0743
▁안전한	-10.0748
▁정비	-10.0753
▁될까	-10.0754
▁투표	-10.0761
▁목숨	-10.0763
▁노선	-10.0764
▁C	-10.0764
▁티켓	-10.0765
세기	-10.0771
▁1000	-10.0771
▁고등학교	-10.0776
선을	-10.0779
▁부서	-10.0779
▁충남	-10.078
▁자산	-10.0782
▁이용한	-10.079
▁해소	-10.0795
▁방법이	-10.0798
▁사과	-10.08
드	-10.08
▁데뷔	-10.0801
▁해석	-10.0809
▁하자	-10.081
▁개의	-10.0812
▁친구들과	-10.0812
▁터키	-10.0816
▁불러	-10.0822
▁인공지능	-10.0823
▁올린	-10.0824
▁달하는	-10.0825
▁위협	-10.0827
▁삼	-10.0831
▁IT	-10.0831
▁차원에서	-10.0833
▁페이스북	-10.0837
보	-10.0847
▁검증	-10.0849
학교	-10.0854
▁울산	-10.0855
▁90	-10.0855
▁고객들	-10.0863
▁어려울	-10.0866
▁풀이된다	-10.0868
▁마친	-10.0872
▁저의	-10.0872
▁클럽	-10.0876
무	-10.0881
▁노동	-10.0884
▁맞지	-10.0884
▁마음에	-10.0885
▁같은데	-10.0886
▁산하	-10.0886
청	-10.0893
같은	-10.0899
경기도	-10.0901
▁CCTV	-10.0901
▁스타트업	-10.0908
▁기능이	-10.0912
▁빠진	-10.0912
▁초등학교	-10.0913
▁운용	-10.0926
▁자리에서	-10.0937
▁단독	-10.0938
▁수준이	-10.0955
▁월드컵	-10.0957
지원	-10.0966
▁잠시	-10.0966
▁장애	-10.0967
호선	-10.0967
▁이후에	-10.0972
▁싶은데	-10.0974
후	-10.0977
▁활약	-10.0985
▁쓰레기	-10.0987
▁팬들이	-10.0989
▁둔	-10.1005
▁안정	-10.1018
▁선정됐다	-10.1019
사와	-10.102
▁반환	-10.1022
▁백	-10.1027
▁법령	-10.1027
▁사람들에게	-10.1031
▁수술	-10.1032
20	-10.1033
▁폭염	-10.1033
▁형태로	-10.1034
▁국무위원장	-10.1035
▁꽃	-10.1036
▁강사	-10.1045
▁풀	-10.1046
▁존재	-10.1047
겐	-10.1048
▁대중	-10.1058
▁구속영장	-10.1059
장과	-10.1067
김	-10.1076
관련	-10.1076
▁선고	-10.1078
▁평양	-10.1081
▁받기	-10.1082
▁담겨	-10.1083
▁누구	-10.1088
▁공정위	-10.1088
▁진행하는	-10.1091
▁사진이	-10.1103
▁탓에	-10.1104
▁얻고	-10.1104
▁이재명	-10.1106
▁작품이	-10.1108
▁관광객	-10.1113
▁식당	-10.1114
▁방식이	-10.1122
리가	-10.1148
P	-10.1148
▁기상청	-10.1162
▁아들	-10.1166
기업	-10.1166
한테	-10.1169
▁단축	-10.117
▁생각하는	-10.1172
▁한국은	-10.1174
▁반응이	-10.1177
▁여의도	-10.1179
▁호응	-10.1192
▁포인트	-10.1194
이라도	-10.1194
▁관리에	-10.1196
▁문의	-10.1197
▁덜	-10.1197
▁정확히	-10.1198
▁권한	-10.12
▁찾기	-10.1205
▁AI	-10.1213
▁방탄소년단	-10.1219
▁나아가	-10.1221
▁새벽	-10.1224
▁봄	-10.1225
▁보유한	-10.1226
▁공무원이	-10.1226
▁재난	-10.1227
▁이용하는	-10.1228
▁계기로	-10.1228
▁생긴	-10.1229
▁장은	-10.123
▁현대차	-10.1236
▁실시한다	-10.1236
▁기자회견	-10.1236
▁통일	-10.1237
▁문제에	-10.1241
들도	-10.1243
▁죽	-10.1246
▁확정	-10.1247
에요	-10.1247
▁검찰에	-10.1248
▁적어	-10.1255
▁사업비	-10.1256
▁쓰	-10.1257
▁시책	-10.1271
▁외에도	-10.1272
▁때도	-10.1274
▁현재까지	-10.1275
그	-10.128
하지만	-10.1281
▁전부터	-10.1292
▁그렇지	-10.1294
mm	-10.13
▁아빠	-10.1301
▁벌써	-10.1302
▁비율이	-10.1302
▁뿐만	-10.1306
▁포장	-10.1308
▁하반기	-10.1308
▁통해서	-10.1318
▁완료	-10.1324
▁방문한	-10.1332
▁하였다	-10.1333
▁하겠다	-10.1334
▁제공하고	-10.1339
위에	-10.1343
▁추진하	-10.1344
▁바람	-10.1344
▁요구하	-10.1351
▁엄청	-10.1355
▁땅	-10.136
▁치열	-10.1364
기간	-10.1369
▁가졌다	-10.1371
▁학부모	-10.1379
경	-10.1385
▁것이란	-10.1385
▁성폭력	-10.1387
▁주의	-10.1394
어야	-10.1395
▁애	-10.1401
▁일상	-10.1408
▁승인을	-10.1414
▁문건	-10.1415
12	-10.1418
서도	-10.1421
▁덕분에	-10.1431
▁제공한다	-10.1435
▁수원	-10.1436
▁모양	-10.1458
▁기억	-10.1462
▁공개했다	-10.1465
▁상장	-10.1471
▁배출	-10.1474
기는	-10.1484
▁1,000	-10.1488
▁증가한	-10.1504
▁말하는	-10.1504
▁부인	-10.1506
▁참여했다	-10.1506
▁부총리	-10.151
려면	-10.1516
▁긍정적	-10.1523
▁시청자들	-10.1525
▁수당	-10.153
▁알려주세요	-10.1534
▁신호	-10.1546
▁이중	-10.1549
대표	-10.1551
상당히	-10.1553
▁중국에서	-10.1554
▁늦게	-10.1559
▁직전	-10.156
▁재판에	-10.1563
▁특성	-10.1564
▁직원이	-10.1564
▁이뤄졌다	-10.1567
▁연휴	-10.1571
▁매체	-10.1573
돼야	-10.1573
▁민	-10.1574
▁조사한	-10.1581
▁서식	-10.1582
▁국민의	-10.1596
▁종목	-10.1601
▁작성하여	-10.1603
▁가슴	-10.1605
▁보상	-10.1608
▁호	-10.1611
▁추	-10.1618
▁가량	-10.1631
▁30%	-10.1633
▁거주	-10.1633
사의	-10.1634
▁주변에	-10.1634
▁급	-10.1638
▁미술	-10.1642
▁도와	-10.1643
▁2020	-10.1655
▁당국	-10.1662
▁색	-10.1664
받은	-10.1669
▁남편	-10.1669
▁고려하여	-10.1669
▁선정된	-10.1671
▁추진할	-10.1673
한다면	-10.1674
▁실수	-10.1678
▁여성의	-10.1678
▁확인하고	-10.1684
▁내다봤	-10.1685
▁실내	-10.1698
철	-10.1705
▁직원들이	-10.172
▁했고	-10.1721
▁않아도	-10.1723
▁결과에	-10.1726
▁인권	-10.174
▁인하	-10.1745
▁구글	-10.1746
▁KT	-10.1748
▁지구	-10.175
▁이탈리아	-10.175
▁내렸다	-10.1752
▁총장	-10.1754
▁각자	-10.1755
달라고	-10.1758
▁주거	-10.1762
▁기획재정부	-10.1763
있다	-10.1764
▁담겼다	-10.1766
▁경기를	-10.1766
▁자문	-10.1771
▁인원	-10.1772
▁일정이	-10.1777
▁진행됐다	-10.1779
▁답했다	-10.1784
▁금	-10.1785
▁진화	-10.1787
▁화려	-10.1789
▁자격	-10.1794
낸	-10.1795
▁집회	-10.1799
▁달라	-10.1799
▁방침	-10.1803
▁사항에	-10.1806
▁지원이	-10.1806
▁의심	-10.1807
▁증가했다	-10.1808
▁배경	-10.1808
▁개별	-10.181
산업	-10.181
▁맞게	-10.1817
▁모아	-10.1831
▁아시안게임	-10.1833
▁파악	-10.1836
▁아니면	-10.1839
▁암	-10.1839
▁연계	-10.1841
▁붙	-10.1842
▁도심	-10.1842
▁심리	-10.1842
▁맺	-10.1846
▁직장	-10.1853
▁행복한	-10.1853
▁벗어나	-10.1857
▁연극	-10.1862
▁진행할	-10.1866
▁스타일	-10.1866
▁실험	-10.187
▁자유롭	-10.1871
▁추석	-10.1871
▁협업	-10.1872
▁법정	-10.1873
▁겨울	-10.1875
▁제조업	-10.1878
▁봤	-10.188
건의	-10.1885
▁법무부	-10.1887
▁아직도	-10.1889
▁네이버	-10.1895
▁S	-10.1899
▁진행될	-10.1904
▁조사됐다	-10.1904
▁웃음	-10.1914
왔습니다	-10.1914
▁노력이	-10.1917
▁긴장	-10.1919
▁곳이다	-10.1922
른	-10.1926
▁소식이	-10.1937
▁기반으로	-10.1938
▁분들이	-10.1939
수를	-10.194
▁동기	-10.1941
▁재미	-10.1946
겠다고	-10.1947
▁아마	-10.1951
▁무역전쟁	-10.1952
▁감동	-10.1956
반	-10.1964
▁20%	-10.197
▁기독교	-10.1976
▁경기에서	-10.1978
▁사업자	-10.1981
▁구입	-10.1982
껏	-10.1983
▁백악관	-10.1995
▁연말	-10.1995
더니	-10.1998
▁아닙니다	-10.1999
▁차관	-10.2002
▁전망된다	-10.2005
식을	-10.2009
▁담당자	-10.2014
▁좋습니다	-10.2015
▁열었다	-10.2016
▁벌	-10.2018
▁농업	-10.2018
여야	-10.2026
주의	-10.2028
▁바람이	-10.203
▁관측이	-10.2046
▁위로	-10.2049
▁찾아가	-10.2049
▁다리	-10.2053
▁남녀	-10.2058
▁추진하고	-10.2058
▁대기	-10.2058
▁재개	-10.2065
▁박근혜	-10.2067
협의회	-10.2072
▁따라서	-10.2073
▁별로	-10.2082
바로	-10.2087
▁올라	-10.2089
▁예측	-10.2092
▁임원	-10.2095
▁초대	-10.2103
▁보급	-10.2104
▁청소	-10.2108
▁긴	-10.2108
립니다	-10.2116
▁테스트	-10.2119
분야	-10.2122
력이	-10.2127
▁법안	-10.2131
▁사이즈	-10.214
▁프리미엄	-10.2151
▁써	-10.2152
▁활동이	-10.2153
▁국민들	-10.216
▁강제	-10.2166
▁인터뷰에서	-10.2168
▁내용은	-10.2174
▁하늘	-10.2175
▁초과	-10.2176
▁시청	-10.2176
팀이	-10.2177
▁정신	-10.2177
▁식품	-10.2182
▁로봇	-10.2188
B	-10.219
▁수비	-10.2193
▁있었고	-10.2194
장의	-10.2195
▁폭력	-10.2195
▁편지	-10.2195
▁달성	-10.2211
▁사용료	-10.2218
▁의원들	-10.2223
▁쇼핑	-10.2225
▁약간	-10.2227
▁간단	-10.2234
▁수정	-10.2237
▁참가자들	-10.2239
▁첨부	-10.2241
▁당사자	-10.2242
▁출범	-10.2245
▁탈	-10.2247
▁넣어	-10.225
▁당분간	-10.2252
▁말한	-10.2253
▁너에게	-10.2257
▁이것이	-10.2263
주는	-10.2265
▁댓글	-10.227
▁없지만	-10.2271
▁동네	-10.2273
▁생명	-10.2278
▁캠페인	-10.2281
▁늘었다	-10.2287
▁모르는	-10.2295
▁교	-10.2296
설	-10.2304
▁질병	-10.2307
▁말해	-10.2311
문화	-10.2319
▁키	-10.2323
▁매주	-10.233
▁춤	-10.2333
▁조처	-10.2335
▁한국이	-10.2337
회의	-10.2338
▁주말에	-10.2344
▁시각	-10.2344
▁본사	-10.2346
▁대선	-10.2352
▁테니	-10.2354
▁훌륭	-10.2362
▁뛰어난	-10.2364
▁응	-10.2367
▁않았지만	-10.237
▁알아	-10.2374
▁짧은	-10.2374
▁높았다	-10.2375
▁않지만	-10.2377
▁사용한	-10.2379
▁점은	-10.238
▁이목	-10.2387
상의	-10.2389
▁진입	-10.2392
▁올렸다	-10.2393
▁재료	-10.2394
▁의식	-10.2399
▁매입	-10.24
▁열차	-10.2402
디	-10.2402
측이	-10.2405
만이	-10.2406
▁채널	-10.2415
▁매월	-10.2416
▁사업의	-10.2417
▁체계적	-10.2429
▁생각합니	-10.2437
▁거에요	-10.2437
▁불리는	-10.2439
▁현장에	-10.2442
▁충돌	-10.2443
됐던	-10.2445
▁제출한	-10.2446
▁학생들은	-10.2448
▁준용	-10.2451
▁봤다	-10.2453
지가	-10.2461
여개	-10.2462
▁아이돌	-10.2467
협회	-10.2469
▁보완	-10.2474
미국의	-10.2481
▁일하는	-10.2481
▁노원구	-10.2481
▁둘러싼	-10.2488
시설을	-10.249
▁어디에	-10.2491
▁무엇인지	-10.2493
▁신발	-10.2498
▁아침에	-10.2501
▁상태로	-10.2504
▁재고	-10.2506
▁독특	-10.2509
▁입지	-10.251
▁아니한	-10.2512
▁역할	-10.2512
▁아베	-10.252
▁배달	-10.2526
▁부당	-10.2526
레	-10.2528
▁시행규칙	-10.2529
▁다수의	-10.253
▁증가하고	-10.253
▁나설	-10.2537
▁열정	-10.254
▁크고	-10.2547
▁했다는	-10.2556
과의	-10.2565
▁대학생	-10.2566
▁추억	-10.2566
▁확인한	-10.2571
▁아는	-10.2574
▁갔다	-10.2579
▁정착	-10.2581
과연	-10.2585
▁위험이	-10.2587
▁만남	-10.2589
▁쌀	-10.2592
▁놀이	-10.2593
▁민원	-10.2597
▁보험	-10.26
토록	-10.2601
:	-10.2601
▁자연스럽	-10.2605
▁롯데	-10.2605
▁어깨	-10.2612
▁오랫	-10.2613
패	-10.2614
▁의회	-10.2614
▁지진	-10.2617
▁말레이시아	-10.2626
15	-10.2626
▁지위	-10.2628
▁통증	-10.263
▁지체	-10.2632
▁잃	-10.2636
▁비판했다	-10.2636
▁모집	-10.2637
▁표정	-10.2638
▁바에	-10.2639
억달러	-10.2647
▁배터리	-10.2649
▁정원	-10.2652
▁측정	-10.2655
▁판	-10.2656
▁검색	-10.2663
▁능력이	-10.2667
▁뿌리	-10.2667
▁날짜	-10.2668
해도	-10.2668
▁않을까	-10.2673
▁재산	-10.2676
▁교육청	-10.2685
▁내린	-10.2687
▁45	-10.2687
▁지원한다	-10.2688
▁출산	-10.2692
▁맛이	-10.2696
▁측면에서	-10.2698
▁섬	-10.2699
▁잔	-10.2704
▁이르는	-10.2708
▁공모	-10.2721
양	-10.2727
▁주차	-10.2728
▁정황	-10.2732
▁화웨이	-10.2734
감독	-10.2739
▁확장	-10.2744
▁왜냐하면	-10.2744
▁그렇다면	-10.2747
▁들어간	-10.2748
▁즐거운	-10.2749
▁경기도의	-10.2754
▁지역사회	-10.2757
▁외교부	-10.2759
▁허용	-10.276
▁선임	-10.2765
▁여건	-10.2765
▁면제	-10.2766
년도	-10.2769
▁구간	-10.2774
▁판단했다	-10.278
▁파견	-10.2783
▁관람객	-10.2785
▁둔화	-10.2795
▁확실	-10.2799
터	-10.2806
▁예상되는	-10.2806
▁구체적으로	-10.2812
▁복귀	-10.2825
▁가방	-10.283
▁분야에	-10.2831
▁이외에	-10.2831
▁것이라	-10.2836
▁기간이	-10.2837
▁위기	-10.2838
▁명절	-10.2839
▁충북	-10.284
▁관내	-10.2842
▁죽음	-10.2845
▁징역	-10.2847
▁배치	-10.2849
▁통계	-10.285
▁전자	-10.285
▁성격	-10.2853
▁부산시	-10.2857
▁읽	-10.2861
번째	-10.2863
▁신청서	-10.2864
▁옛	-10.2866
▁균형	-10.2868
▁결론	-10.2869
▁마세요	-10.2878
▁열릴	-10.2879
▁쪽으로	-10.288
▁시범	-10.2887
▁잊	-10.289
▁어디서	-10.2892
개가	-10.2899
▁특별히	-10.2902
▁발생해	-10.2906
▁지하	-10.2907
▁기록한	-10.2912
▁영향이	-10.2912
▁냄새	-10.2914
▁시대에	-10.2914
▁높게	-10.2914
▁몽골	-10.2914
▁넘치	-10.2916
▁사업장	-10.2918
▁임직원	-10.2922
▁패션	-10.2924
으나	-10.2925
▁신문	-10.2929
앞으로	-10.2933
▁받았습니다	-10.2938
▁조사하고	-10.2942
▁일주일	-10.2943
▁여당	-10.2945
▁종로구	-10.2946
▁35	-10.2949
▁보낼	-10.2951
릅니	-10.2955
▁회의에	-10.2955
▁수상	-10.2956
▁날이	-10.2957
▁M	-10.2958
▁현행	-10.2959
운동	-10.2959
▁실행	-10.2967
▁발급	-10.2971
▁계획이	-10.2971
▁커	-10.2973
치를	-10.2975
▁답	-10.2984
▁정체	-10.2985
▁폐기물	-10.2991
단계	-10.2995
▁분석된다	-10.3011
▁폭발	-10.3012
▁발송	-10.3016
▁개입	-10.3016
▁이른	-10.3023
▁첨단	-10.3023
▁쏠리	-10.3024
▁없으면	-10.3024
시켜	-10.3026
▁핸드폰	-10.3027
▁찾고	-10.3028
▁진행되고	-10.3031
되	-10.3032
▁편성	-10.3035
▁때부터	-10.3035
▁설정	-10.3039
▁늘어나고	-10.3041
주셔서	-10.3042
▁학교에서	-10.3046
▁전북	-10.3051
▁뉴스	-10.3062
▁활동에	-10.3064
▁만들었다	-10.3066
▁정리	-10.3069
▁점심	-10.307
마저	-10.3071
도로	-10.3072
바	-10.3072
19	-10.3087
▁간담회	-10.3088
▁발달	-10.3095
▁저도	-10.3095
이어서	-10.3095
▁미국에서	-10.3096
▁떠나	-10.31
려는	-10.3107
▁받는다	-10.3111
▁상태에서	-10.3114
▁오픈	-10.3115
▁미중	-10.3115
▁세부	-10.3116
▁꽤	-10.3121
▁쉬운	-10.3126
▁냈다	-10.3131
▁보유	-10.3136
위로	-10.3138
▁죄송하지만	-10.314
▁기존에	-10.3142
▁많고	-10.3146
▁2007	-10.3147
▁품목	-10.3148
▁서면	-10.3155
▁양성	-10.3156
▁회사에	-10.3156
▁내년에	-10.3158
▁장점	-10.3165
▁주기	-10.3165
▁축하	-10.3172
▁보장	-10.3174
▁금지	-10.3177
▁신체	-10.318
▁중국과	-10.318
▁찬성	-10.3183
▁여권	-10.3183
▁동아리	-10.3188
술을	-10.3192
▁화가	-10.3206
▁병	-10.3207
▁교환	-10.3208
▁공개한	-10.3212
▁응답	-10.3215
겸	-10.3216
▁정권	-10.3218
▁막기	-10.3219
▁전원	-10.3219
▁맥주	-10.322
▁동료	-10.3224
▁내놓	-10.3229
▁여유	-10.3232
순	-10.3234
비가	-10.3234
자와	-10.3239
▁정식	-10.324
13	-10.3244
▁33	-10.3244
▁그리	-10.3246
▁생	-10.3247
▁제목	-10.3248
▁아기	-10.3251
▁R	-10.3252
아예	-10.3252
▁과학	-10.3256
시스템	-10.3264
▁흐름	-10.3266
▁D	-10.3269
▁대상자	-10.3272
▁반영	-10.3272
▁만나는	-10.328
▁빚	-10.3286
▁찾을	-10.3289
▁중요성	-10.329
▁관람	-10.3294
▁박람회	-10.3298
판	-10.3299
▁현상이	-10.33
▁절감	-10.3302
▁세월호	-10.3312
▁압박	-10.3314
▁짐	-10.3318
이었던	-10.3319
▁얻을	-10.3323
▁조작	-10.3325
]	-10.3326
▁신설	-10.3328
▁인물	-10.3329
교회	-10.3332
▁값	-10.3334
▁수행할	-10.3337
▁커뮤니티	-10.3338
▁고양이	-10.3344
부를	-10.3344
0	-10.3346
▁마이크	-10.3346
▁컨설팅	-10.3347
▁차가	-10.3353
▁세계적	-10.3356
▁번째로	-10.3357
시킨	-10.3364
▁관해	-10.3365
▁마리	-10.3366
▁주관	-10.3367
두	-10.3372
▁공동주택	-10.3373
▁120	-10.3375
▁강도	-10.3375
발	-10.3377
시키는	-10.3378
▁인재	-10.3379
사진	-10.3384
▁거듭	-10.3388
므로	-10.3389
▁유리	-10.3395
▁죄송합니다	-10.3403
▁좋겠어	-10.3404
▁포	-10.3406
▁경위	-10.3407
▁궁금증	-10.3411
▁차별	-10.3412
▁성폭행	-10.3414
▁토론	-10.3415
▁통보하여야	-10.3416
제도	-10.3417
▁가능할	-10.3419
▁수사에	-10.342
▁진료	-10.342
▁주차장	-10.3421
▁저렴한	-10.3424
▁상위	-10.3425
▁파티	-10.3427
▁위촉한다	-10.3433
▁마약	-10.3436
▁대부분이	-10.3442
▁행사로	-10.3442
▁뭔가	-10.3444
▁맡아	-10.3449
▁급여	-10.345
증	-10.3452
▁빅데이터	-10.3453
▁보내고	-10.3454
」(	-10.3454
▁김씨가	-10.3455
하다	-10.3457
▁사랑하는	-10.3459
▁발행	-10.3465
▁경쟁률	-10.3465
▁불과	-10.3469
유	-10.3471
▁경우는	-10.3473
▁신임	-10.3488
▁제기된	-10.349
분이	-10.3492
루	-10.35
▁이틀	-10.35
▁보존	-10.3502
▁인수	-10.3503
▁빈	-10.3505
▁코	-10.3506
▁제기되	-10.3507
리그	-10.3517
▁전기차	-10.352
억원으로	-10.3527
▁느낌	-10.353
▁진행하고	-10.3533
▁주인공	-10.3534
▁트렌드	-10.3535
▁인생	-10.3536
▁진로	-10.3537
▁추락	-10.3549
힐	-10.355
▁몇몇	-10.3553
24	-10.3555
▁산불	-10.3556
▁분석한	-10.3562
▁포상	-10.3566
▁응원	-10.357
▁무게	-10.3572
▁표창	-10.3575
▁집으로	-10.358
▁한화	-10.3583
▁운영한다	-10.3587
으로써	-10.3591
▁방안이	-10.3591
▁존	-10.3592
▁이웃	-10.3596
▁거래소	-10.3597
원으로	-10.3598
▁지연	-10.3604
▁지닌	-10.3605
▁너희	-10.3609
▁형성	-10.362
▁유력	-10.3626
▁돼요	-10.3628
▁지정된	-10.3629
▁400	-10.3629
▁산업혁명	-10.363
▁기술력	-10.3644
▁관할	-10.3647
▁하던	-10.3647
▁필리핀	-10.3651
▁매출이	-10.3651
▁멀리	-10.3661
▁진행한	-10.3662
▁순	-10.3662
▁자국	-10.3669
▁정책이	-10.3669
▁이끌	-10.367
▁분양	-10.3674
14	-10.3678
▁작업이	-10.3689
▁가끔	-10.3691
▁몸을	-10.3694
▁입장에서	-10.3695
▁있었는데	-10.3697
▁곡	-10.3699
▁성향	-10.37
▁나가	-10.3701
규	-10.3706
▁보유하고	-10.3709
▁하는지	-10.3709
▁서명	-10.3709
▁증상	-10.3715
▁기다리고	-10.3716
▁가입자	-10.3718
e	-10.3721
여서	-10.3721
▁치	-10.3722
▁시작해	-10.3729
절	-10.3735
▁개성	-10.3736
▁성공적	-10.3737
▁최신	-10.3739
▁주에	-10.3742
▁비난	-10.3744
노	-10.375
▁예를	-10.3758
R	-10.376
▁공간이	-10.3762
▁이래	-10.3763
▁어린이들	-10.3768
▁가족과	-10.3772
▁'	-10.3784
▁특수	-10.3785
▁뮤지컬	-10.3785
▁판사	-10.3786
▁개인정보	-10.3791
▁이상으로	-10.3795
▁휴대전화	-10.3796
▁통보	-10.3798
▁언제든	-10.3803
▁집단	-10.3806
▁개막	-10.3811
▁평가가	-10.3815
▁문화예술	-10.382
▁방북	-10.3821
▁32	-10.3823
21	-10.3824
▁연임	-10.3825
대의	-10.3832
건으로	-10.3832
▁올림픽	-10.3837
▁사기	-10.384
▁생각해	-10.3843
▁수학	-10.3846
▁안팎	-10.3849
▁충분한	-10.3849
▁벌이고	-10.385
25	-10.385
▁다음달	-10.3853
▁조언	-10.3858
▁발견됐다	-10.3864
▁거대	-10.3868
군요	-10.3869
환경	-10.3875
▁제품에	-10.3876
북	-10.388
▁공기	-10.3892
▁정기	-10.3892
▁사항이	-10.3893
▁고통	-10.3893
기술	-10.3896
▁좋	-10.39
▁지역은	-10.3903
▁가을	-10.3906
▁이밖에	-10.3907
M	-10.3909
▁올려	-10.3909
▁조화	-10.3909
▁비리	-10.3917
스포츠	-10.3917
▁보여준다	-10.3918
▁새해	-10.3919
▁“(	-10.3922
▁음료	-10.3924
▁틀	-10.3924
▁체계	-10.3926
▁이때	-10.3929
▁신선	-10.393
▁말까지	-10.393
▁누군가	-10.393
▁방향으로	-10.393
▁판정	-10.3933
▁나눠	-10.3933
▁노후	-10.3936
▁본인이	-10.3937
▁미칠	-10.3938
▁임시	-10.3939
▁거부	-10.3939
방	-10.394
▁도전	-10.394
▁걸려	-10.3942
모	-10.395
▁느낌이	-10.3951
▁개발한	-10.3953
음에도	-10.3955
▁만족도	-10.3957
▁위원이	-10.3959
▁의뢰	-10.3962
▁부처	-10.3964
학	-10.3965
▁젊은이들	-10.3967
pop	-10.397
▁적절한	-10.3974
▁늘어날	-10.3977
▁생각에	-10.398
▁모으고	-10.3986
▁촉구했다	-10.3989
▁정책에	-10.399
호와	-10.3992
어서	-10.3993
▁사용하고	-10.3994
▁염	-10.3994
▁차세대	-10.4001
▁국민이	-10.4003
▁언급한	-10.4013
▁기준에	-10.4015
▁52	-10.402
줍니	-10.4031
▁재단	-10.4036
▁쇼	-10.405
▁어려움이	-10.4052
에게는	-10.4053
▁부정	-10.4061
▁제시한	-10.4063
▁때가	-10.4063
하면서도	-10.4068
▁오면	-10.407
▁발전에	-10.407
▁손해	-10.4074
▁매각	-10.4074
▁단어	-10.4084
▁높이고	-10.4086
▁운영하고	-10.4095
▁미군	-10.4095
▁형사	-10.4101
년으로	-10.4103
로운	-10.4105
▁입학	-10.4115
▁강좌	-10.4117
▁선적	-10.4118
▁화면	-10.4121
▁방지	-10.4121
▁나한테	-10.413
▁필요할	-10.4136
▁조례에	-10.4137
▁소규모	-10.4137
▁이뤄지지	-10.4138
층에	-10.4138
▁빠져	-10.4139
▁경계	-10.4139
▁없었던	-10.4141
▁무대에	-10.4142
▁문구	-10.4145
▁텐데	-10.4148
▁원인이	-10.4149
▁시신	-10.4151
프	-10.4152
천만	-10.4155
▁2022	-10.4156
불	-10.4156
▁요구했다	-10.4156
▁담고	-10.4157
▁데다	-10.4158
물	-10.4167
▁주민의	-10.4167
▁경향	-10.4169
▁좋아요	-10.4173
면서도	-10.418
▁금융당국	-10.4182
▁개념	-10.4182
▁예비	-10.4184
▁복구	-10.4185
▁제거	-10.4188
▁북측	-10.4188
▁시간은	-10.419
▁투자가	-10.419
▁생존	-10.42
▁휴식	-10.4201
▁동일	-10.4203
▁움직임이	-10.4207
스러운	-10.4207
▁자신감	-10.4208
주시겠어요	-10.4209
보세요	-10.4212
▁코치	-10.4213
점으로	-10.4214
▁식	-10.4216
▁미국에	-10.4222
▁공고	-10.4222
연구소	-10.4223
▁열기	-10.4227
류	-10.4232
▁특허	-10.4237
▁199	-10.4242
▁하노이	-10.4245
▁것들이	-10.4248
목	-10.4249
왔다	-10.4253
▁수능	-10.4253
▁압수수색	-10.4255
▁대학교	-10.4255
▁고양시	-10.4256
찬	-10.4263
▁직	-10.4268
▁지역경제	-10.4276
▁사용해	-10.4278
▁숲	-10.4279
았던	-10.4281
▁침체	-10.4284
▁국민들이	-10.429
▁번역	-10.4292
▁합동	-10.4293
▁장면이	-10.4296
▁권고	-10.4298
세를	-10.43
▁보며	-10.4301
▁주도	-10.4307
▁모임	-10.4309
▁50%	-10.4313
▁즉	-10.4325
▁출전	-10.4325
▁과정에	-10.4326
▁박물관	-10.4329
▁추진한다	-10.4331
▁담배	-10.4348
▁상당수	-10.4348
▁준비한	-10.4349
▁밖으로	-10.435
▁후에는	-10.4356
▁전개	-10.436
▁자영업자	-10.4365
▁회	-10.437
만으로	-10.4372
▁되길	-10.4373
명에	-10.4375
▁도중	-10.4375
▁프로	-10.4377
▁부분에	-10.4379
▁판단이	-10.4383
▁마련된	-10.4391
▁시정	-10.4394
▁자회사	-10.4396
▁맞은	-10.4396
▁트위터	-10.4398
교	-10.4405
▁면적	-10.4405
▁장르	-10.4408
▁즐기는	-10.4408
▁각국	-10.442
나의	-10.4421
▁브렉시트	-10.4433
도지사	-10.4433
▁깊이	-10.4435
▁좋겠어요	-10.4435
▁공원	-10.4439
마을	-10.4443
▁폐기	-10.4444
분께	-10.4448
회가	-10.4449
▁병원에	-10.445
▁사실이다	-10.4452
▁고급	-10.4453
▁공감	-10.4456
▁임신	-10.4463
▁만들어진	-10.4465
▁어려워	-10.447
▁이곳에	-10.4471
▁일본에서	-10.4474
이기도	-10.4482
▁요인이	-10.4486
▁규칙은	-10.4487
▁천안	-10.4489
▁눈물	-10.4492
▁나오	-10.4493
▁위기에	-10.4495
▁이뤄진	-10.4498
▁이어진	-10.45
▁조명	-10.4501
s	-10.4501
희	-10.4506
▁발생하지	-10.4506
▁생길	-10.4507
합니까	-10.4508
래	-10.4508
즈	-10.4514
▁한계가	-10.4516
▁펀드	-10.4516
▁드는	-10.4518
백	-10.4523
▁"	-10.4524
▁한식	-10.4526
▁출동	-10.4528
▁편의	-10.4529
포	-10.453
▁있었다고	-10.4532
▁자신들	-10.4532
▁노사	-10.4533
▁농산물	-10.4537
▁용기	-10.454
▁소방	-10.4542
▁소감	-10.4542
▁밝	-10.4543
▁없었	-10.4549
▁마지막으로	-10.4551
▁사정이	-10.4552
▁캠프	-10.4553
▁보여주고	-10.4553
▁밝혀	-10.4554
▁예산이	-10.4562
저	-10.4565
▁온도	-10.4567
▁도서	-10.4572
▁기대하	-10.4573
▁사례를	-10.4576
▁최창식	-10.4579
▁너무나	-10.4582
말	-10.4583
▁지원하고	-10.4585
▁자카르타	-10.459
▁스케줄	-10.4592
널리	-10.4593
▁고속도로	-10.4597
▁규모로	-10.4598
▁노출	-10.4599
▁예정입니	-10.46
시쯤	-10.46
▁요청했다	-10.46
▁안녕하세요	-10.4601
▁드	-10.4604
▁끈다	-10.4606
▁차량이	-10.4608
▁사무실	-10.4609
▁많아서	-10.4609
▁배제	-10.4615
▁반발	-10.4619
▁근처에	-10.462
하시면	-10.4621
▁곳곳에	-10.4622
곳이	-10.4627
▁외교	-10.4629
▁옆	-10.463
▁F	-10.463
▁동일한	-10.4632
▁마감	-10.4644
됐지만	-10.4647
▁라인	-10.4649
훈	-10.4649
▁포함하여	-10.465
▁제외하고는	-10.4657
▁전통시장	-10.4664
▁근	-10.4666
금을	-10.4669
▁원을	-10.467
17	-10.4671
남	-10.4671
▁위원으로	-10.4676
▁박사	-10.4679
▁장점이	-10.4683
▁후원	-10.4686
▁행정안전부	-10.4687
▁청소년들	-10.4695
▁출입	-10.4697
▁보면서	-10.4697
세가	-10.47
▁주민이	-10.4705
적이고	-10.4705
치가	-10.4711
▁바꿔	-10.4715
▁성인	-10.4716
▁출발	-10.4718
▁관광지	-10.472
도시	-10.4722
▁진심	-10.4726
▁밝혔	-10.4729
▁지출	-10.4731
키로	-10.4732
▁드러냈다	-10.4738
▁정의당	-10.4742
▁퍼포먼스	-10.4743
▁소속사	-10.4744
등급	-10.4745
▁입원	-10.4748
▁마련됐다	-10.4749
▁왼쪽	-10.4749
▁제기됐다	-10.4753
▁감면	-10.4755
▁철거	-10.4756
▁그나마	-10.4758
▁없는데	-10.4761
▁작성한	-10.4765
▁오류	-10.4765
▁이상인	-10.4771
▁과도한	-10.4784
▁바뀌	-10.4785
▁허위	-10.4785
▁나가는	-10.4786
일이	-10.4787
▁차원	-10.4789
▁수량	-10.4797
▁진행했다	-10.4802
▁담당하	-10.4802
23	-10.4802
▁보인	-10.481
▁입법	-10.4812
▁지원금	-10.4814
▁않아서	-10.4814
▁관측	-10.4816
직	-10.4816
16	-10.482
▁경력	-10.482
듯	-10.4821
▁제공할	-10.4822
▁공약	-10.4827
기준	-10.4829
▁담아	-10.4829
▁양측	-10.4836
▁제기	-10.4842
▁살해	-10.4842
▁사건에	-10.4843
▁반려동물	-10.4843
kg	-10.4845
▁요구할	-10.4847
▁친구들이	-10.4851
▁위원회에	-10.4853
▁방식을	-10.4855
▁예능	-10.4859
▁번호	-10.4869
▁떨어지는	-10.4869
▁놀라	-10.487
▁체제	-10.4872
[	-10.4874
▁흥미	-10.4874
록	-10.4876
▁지원사업	-10.4877
▁요청한	-10.4882
▁공포	-10.4884
▁환불	-10.489
업무	-10.489
▁인용해	-10.4896
▁속도가	-10.49
▁다행히	-10.4902
으로서	-10.4905
▁고양	-10.4906
▁나오지	-10.4915
▁크리스마스	-10.4917
▁특유	-10.4918
▁이같	-10.4924
▁있었어요	-10.4925
▁개최한다	-10.4931
▁서울대	-10.4937
▁증가하는	-10.4937
▁종교	-10.4937
▁드러나	-10.4938
▁개방	-10.4939
▁아이템	-10.494
▁밴드	-10.4942
▁숙소	-10.4946
▁침해	-10.4946
와의	-10.4948
▁할지	-10.4956
▁실무	-10.4957
▁자격증	-10.4959
▁지역이	-10.496
▁휴대폰	-10.4961
▁댄스	-10.4961
▁통제	-10.4964
▁시작됐다	-10.4965
▁65	-10.4966
』	-10.4967
▁실시하고	-10.4968
▁계정	-10.4969
▁홈페이지에	-10.497
▁걸릴	-10.497
달	-10.4978
억원이	-10.4981
▁국가가	-10.4985
▁중에는	-10.4986
▁전액	-10.4987
하겠다	-10.5004
▁따	-10.5006
▁법원행정처	-10.5008
▁중국에	-10.5014
▁개통	-10.5019
▁알리는	-10.5019
▁증상이	-10.5019
▁태권도	-10.5021
▁촉진	-10.5023
▁세계적으로	-10.503
▁주장한	-10.503
▁있다며	-10.5031
▁농가	-10.5034
▁음식이	-10.5042
▁줄어들	-10.5045
량	-10.5047
▁음주운전	-10.5048
▁실패	-10.5049
▁구단	-10.5049
▁딱	-10.505
▁생일	-10.5051
▁확산되	-10.5052
▁호에	-10.5053
▁EU	-10.5056
▁숫자	-10.5059
▁바닥	-10.5064
▁심한	-10.5065
시켰다	-10.5065
▁청	-10.5066
▁펼쳐진다	-10.5067
▁손흥민	-10.5074
T	-10.5074
정책	-10.5078
▁리그	-10.5082
입은	-10.5083
인이	-10.5088
가량	-10.5089
▁플라스틱	-10.5096
▁상금	-10.51
▁입시	-10.5103
▁북미정상회담	-10.5108
▁계열사	-10.5114
▁알리	-10.5118
드릴게요	-10.5119
▁돌아가	-10.512
▁개설	-10.5121
▁탄	-10.5122
▁국립	-10.5136
▁어렵	-10.5144
▁격차	-10.515
▁중점	-10.5152
▁국무부	-10.5158
22	-10.5163
▁과목	-10.5165
▁마련했다	-10.5168
▁성명	-10.5172
18	-10.5172
▁거라	-10.5174
▁끝	-10.5176
해질	-10.5176
▁H	-10.5177
▁맡고	-10.5179
▁오지	-10.5179
▁과정이	-10.5179
▁반대하	-10.518
▁청년들	-10.5185
셔서	-10.5185
▁앉아	-10.5187
▁사찰	-10.5187
▁군사	-10.5189
▁자료에	-10.519
▁같	-10.5191
▁며칠	-10.5191
답	-10.5192
▁사회의	-10.5194
▁고용노동부	-10.5196
▁세계에서	-10.5196
▁이사	-10.5206
▁부모님	-10.5207
▁PC	-10.5212
▁올바른	-10.5219
▁뒤늦게	-10.522
▁성능	-10.522
▁경쟁이	-10.5221
▁소방당국	-10.5221
▁실시간	-10.5224
▁권력	-10.5228
▁최적	-10.5229
▁5·18	-10.5231
▁배울	-10.5234
▁초반	-10.5234
▁보러	-10.5235
▁영역	-10.5235
▁아니지만	-10.5237
▁지방선거	-10.5238
▁포항	-10.5241
▁무죄	-10.5242
▁100%	-10.5243
▁회원들	-10.5246
▁위주로	-10.525
했는지	-10.5252
▁함	-10.5253
▁말이다	-10.5253
출	-10.5257
POP	-10.5258
▁얻었다	-10.5263
▁근로시간	-10.5265
▁교육이	-10.5267
▁비교해	-10.5268
▁높이기	-10.5271
▁커지	-10.5273
▁소관	-10.5273
▁인식이	-10.5276
▁헬기	-10.528
▁아니고	-10.5281
▁내지	-10.5283
▁지도부	-10.5285
▁넣	-10.5286
▁실천	-10.5287
자로	-10.5289
▁업종	-10.529
▁인정되	-10.529
▁계산	-10.5296
▁상영	-10.5297
▁가동	-10.5298
▁수십	-10.5298
▁참가자	-10.5299
▁자는	-10.5301
▁연주	-10.5305
▁보냈	-10.5307
▁스토리	-10.5314
▁증진	-10.5326
▁설비	-10.5326
▁겪는	-10.5331
▁활성화에	-10.5331
▁봉사	-10.5334
▁밤에	-10.5334
▁보입니다	-10.5337
▁접촉	-10.5337
▁수석	-10.5338
▁미사일	-10.5339
▁CEO	-10.5341
▁한글	-10.5342
▁주석	-10.5343
▁비정규직	-10.5343
▁그에	-10.5346
▁갖는다	-10.5346
▁판문점	-10.5347
▁미팅	-10.5347
▁신청한	-10.535
▁점유율	-10.5351
▁얻어	-10.5352
▁연락이	-10.5356
▁성실	-10.5357
▁지분	-10.536
▁전직	-10.5366
▁동향	-10.5368
▁자원	-10.5369
각	-10.5371
▁에어컨	-10.5371
▁신용카드	-10.5372
▁추정	-10.5372
드는	-10.5379
▁훼손	-10.5381
▁성남	-10.5382
▁제외	-10.5383
토	-10.5383
▁심지어	-10.5385
▁유해	-10.5388
▁회수	-10.539
체	-10.5392
▁영향	-10.5395
▁명칭	-10.5396
▁어떠한	-10.5396
▁하더라도	-10.5398
▁높였다	-10.5398
▁근육	-10.5399
▁가능해	-10.54
▁하나인	-10.5407
▁걸어	-10.541
▁없기	-10.5411
▁부지	-10.5411
피	-10.5412
▁통신원	-10.5414
▁흥행	-10.5418
▁가능하며	-10.5421
▁시공	-10.5421
▁국경	-10.5422
▁다음에	-10.5423
▁끝나고	-10.5424
▁용역	-10.5426
▁투자자	-10.5431
▁화장실	-10.5432
▁꼽힌다	-10.5434
▁환경부	-10.5441
▁돌봄	-10.5442
▁발견된	-10.5444
▁평	-10.5447
▁술	-10.5448
▁농도	-10.5459
▁뜻이	-10.546
▁KBS	-10.5462
▁홈	-10.5466
▁개최했다	-10.5475
▁항공기	-10.5477
▁디스플레이	-10.5478
이랑	-10.548
▁늘어나는	-10.5486
▁나면	-10.5486
▁내려	-10.5488
▁안보	-10.5494
▁예산안	-10.5496
▁높이는	-10.55
▁시내	-10.5507
▁알려주	-10.5509
▁미소	-10.5513
기구	-10.5513
▁자발적	-10.5516
▁행보	-10.5521
▁세트	-10.5521
▁감시	-10.5522
▁투어	-10.5523
하자	-10.5523
▁영향력	-10.5525
▁신분	-10.553
▁사망자	-10.5532
▁정부에	-10.5533
▁혼란	-10.5533
▁고향	-10.5536
▁색상	-10.554
▁인정할	-10.5543
▁넘어서	-10.5546
▁위촉직	-10.5546
▁강조	-10.5547
▁손에	-10.5547
▁여파	-10.5554
▁거기에	-10.5557
인들이	-10.5558
▁아마존	-10.5559
▁돌파	-10.556
▁싶지	-10.556
▁먹으면	-10.5561
▁실적이	-10.5561
▁취재	-10.5562
▁마련한	-10.5566
▁비판이	-10.557
▁치매	-10.5572
▁추정되는	-10.5577
▁사회에	-10.558
▁평생	-10.5581
▁클라우드	-10.5587
▁소유자	-10.5587
▁긴장감	-10.5588
▁충전	-10.5594
▁먹어	-10.5595
▁통지	-10.5595
▁것이고	-10.5599
▁보험료	-10.5602
▁돕는	-10.5602
▁골프	-10.5603
▁컸다	-10.5604
▁갤럭시	-10.5607
▁문학	-10.5618
▁취재진	-10.5621
▁모니터링	-10.5624
▁당국이	-10.5625
▁기여한	-10.5626
이야	-10.5629
▁지휘	-10.5629
▁무기	-10.5629
▁잡아	-10.5629
▁불만	-10.5631
▁베이징	-10.5635
▁차질	-10.5636
▁고교	-10.5636
▁이끌어	-10.5639
▁최소한	-10.564
▁시리즈	-10.5641
▁안전관리	-10.5643
▁부위	-10.5643
▁목적이	-10.5645
▁수용	-10.5645
▁천	-10.5645
▁솔루션	-10.5646
▁기업과	-10.5649
▁전략을	-10.5654
▁좌석	-10.5656
▁기관의	-10.566
▁119	-10.566
▁박스	-10.5661
▁손님	-10.5668
▁않겠다	-10.5669
▁언급	-10.5675
▁왕	-10.5676
▁듯한	-10.5677
▁벌인	-10.5677
▁참가해	-10.568
▁띄	-10.5681
이라면	-10.5681
▁열려	-10.5685
▁의혹에	-10.5689
심에서	-10.5689
▁찍어	-10.569
주관하는	-10.5692
▁현직	-10.5693
▁택배	-10.5695
근	-10.5695
환	-10.5696
▁태	-10.5696
▁위해선	-10.5699
▁드립니다	-10.57
▁오염	-10.57
▁오해	-10.5701
▁이익을	-10.5702
▁넓은	-10.5708
▁조각	-10.5709
▁상담을	-10.571
▁상승세	-10.5711
▁회계	-10.5711
▁높고	-10.5724
▁주도하	-10.5724
▁아울러	-10.5727
군수	-10.5729
구가	-10.5729
▁다섯	-10.5732
▁남긴	-10.5732
▁야구	-10.5735
▁하거나	-10.5739
원장은	-10.5741
건이	-10.5744
▁부여	-10.5745
▁서초구	-10.5746
▁노력하겠다	-10.5747
▁계좌	-10.5749
▁마찬가지로	-10.575
▁아티스트	-10.5751
처리	-10.5754
군이	-10.5757
▁들어갔다	-10.5761
▁느끼고	-10.5764
▁업데이트	-10.5765
▁태양광	-10.5773
봉	-10.5775
▁불확실성	-10.5775
▁한해	-10.5779
▁관련해서	-10.578
지구	-10.5782
▁일반인	-10.5786
▁수익성	-10.5789
▁소프트웨어	-10.5792
▁적정	-10.5792
▁유입	-10.5795
▁홈런	-10.5795
말로	-10.5804
▁한복	-10.5804
▁점포	-10.5811
▁자극	-10.5815
▁저소득층	-10.5816
하다가	-10.5817
▁워싱턴	-10.5818
▁개봉	-10.5819
▁보지	-10.5824
▁형	-10.5829
(1	-10.583
▁시기에	-10.583
력	-10.5835
▁축소	-10.5836
▁참여한다	-10.5837
▁줄어든	-10.5839
▁반대로	-10.584
▁중간	-10.584
▁함은	-10.5843
▁사용이	-10.5843
▁대법관	-10.5846
▁가스	-10.585
▁예외	-10.5852
▁생겼다	-10.5855
▁실종	-10.5858
▁투수	-10.5861
▁안으로	-10.5862
▁종이	-10.5865
▁머물	-10.5867
총리가	-10.5868
▁3·1	-10.5872
▁찬	-10.5872
병	-10.5874
기관	-10.5877
겠습니까	-10.5881
▁탄생	-10.5888
▁반복	-10.5889
▁대중교통	-10.5889
▁바라는	-10.5894
▁버	-10.5896
시간이	-10.5899
▁대처	-10.5901
이유가	-10.5905
▁필수	-10.5906
▁36	-10.5909
▁가해자	-10.5911
▁톰	-10.5911
▁모았다	-10.5913
▁오른쪽	-10.5918
▁다르게	-10.5921
▁대표와	-10.5921
▁확률	-10.5924
▁한인	-10.5924
었지만	-10.5924
▁처	-10.5928
▁건조	-10.5938
▁250	-10.5943
▁북한과	-10.5947
▁백화점	-10.5951
▁인테리어	-10.5952
▁제시했다	-10.5954
▁무상	-10.5957
▁옮겨	-10.5958
▁규정이	-10.5966
만여	-10.5966
▁추진하기	-10.597
▁내년부터	-10.5971
나는	-10.5975
▁대한항공	-10.5977
▁획득	-10.5978
▁거친	-10.5979
▁찍은	-10.5981
▁드론	-10.5982
▁호흡	-10.5986
▁38	-10.599
X	-10.5993
▁구상	-10.6006
▁돼지	-10.6012
▁뚜렷	-10.6016
▁수차례	-10.6022
▁박씨	-10.6025
▁기업에	-10.6026
▁내게	-10.6029
▁차단	-10.6029
▁도쿄	-10.603
▁한때	-10.6031
▁여기는	-10.6031
▁마포구	-10.6033
▁없게	-10.6033
▁그에게	-10.6036
▁감각	-10.6037
번에	-10.6039
2006	-10.6041
▁맡기	-10.6049
▁높아지	-10.605
▁다르다	-10.6051
▁케이팝	-10.6058
겠지만	-10.6058
▁인근에	-10.606
▁농촌	-10.6062
▁드리겠습니다	-10.6065
행	-10.6068
▁서서	-10.6068
▁서울의	-10.6069
▁설명회	-10.607
▁참여하고	-10.6076
▁굳	-10.6076
▁확인했다	-10.6082
받아	-10.6084
▁편의점	-10.6085
▁나서는	-10.6087
▁않았어요	-10.6091
▁파리	-10.6092
▁소요되는	-10.6094
▁민주노총	-10.6098
▁기다려	-10.6102
▁크지	-10.6106
▁벌였다	-10.6109
▁들어갈	-10.6111
▁종전선언	-10.6111
▁뒤로	-10.6111
▁보내는	-10.6112
▁되며	-10.6112
▁갖추고	-10.6114
▁현장을	-10.6119
▁넌	-10.6119
▁가능하	-10.6121
▁촉구하	-10.6126
경제	-10.6129
▁준공	-10.613
▁지원해	-10.613
▁역사적	-10.6132
▁회의록	-10.6134
▁토	-10.6136
대학	-10.6143
▁가질	-10.6146
▁판결이	-10.6146
▁그걸	-10.6152
▁이곳에서	-10.6153
냐	-10.6154
▁방문하는	-10.6158
▁소비자가	-10.6166
▁몸에	-10.6166
▁산정	-10.6167
▁클	-10.6169
▁역할이	-10.6172
▁위에서	-10.6173
▁타격	-10.6175
채	-10.6178
▁제작한	-10.6179
▁장식	-10.6179
▁수리	-10.618
▁일각에서	-10.6181
다가	-10.6182
▁『	-10.6183
▁상대방	-10.6185
▁하니	-10.6199
▁환	-10.6203
▁금메달	-10.621
▁그럴	-10.6212
▁친	-10.6213
▁달에	-10.6214
▁비전	-10.6216
▁득점	-10.622
▁기자들	-10.6226
▁개최한	-10.6226
▁종사자	-10.6228
▁당선	-10.6229
▁협의회	-10.6229
▁참사	-10.6232
▁피의자	-10.6233
▁주실	-10.6234
▁원전	-10.6238
▁모인	-10.6239
▁제약	-10.6246
▁아무것	-10.6251
회에	-10.6251
▁주력	-10.6252
▁분리	-10.6252
수는	-10.6254
▁경주	-10.626
▁농	-10.6261
▁민족	-10.6262
▁강아지	-10.6264
조사	-10.6274
▁자꾸	-10.6277
▁펼쳤다	-10.6283
28	-10.6287
▁파악하고	-10.6289
▁비공개	-10.6294
▁지속되	-10.6297
▁매출액	-10.6301
▁않는다면	-10.6302
▁용인	-10.6306
▁준수	-10.6307
▁내용에	-10.6308
▁강서구	-10.6308
▁독서	-10.6308
▁배우는	-10.6311
▁사장이	-10.6311
▁배경으로	-10.6312
▁송파구	-10.6313
▁벌금	-10.6313
개발	-10.6314
▁사용하지	-10.6316
▁집중되	-10.6319
▁곳곳에서	-10.6321
▁여지	-10.6321
▁강릉	-10.6323
▁북한에	-10.6326
범	-10.6329
▁자본	-10.633
▁세미나	-10.6333
▁해석이	-10.6333
▁융자	-10.6339
▁진실	-10.6341
▁거짓말	-10.6341
▁다니는	-10.6345
▁발주	-10.635
▁건전	-10.6352
▁소식	-10.6353
(2	-10.6353
▁당해	-10.6354
중국	-10.6357
구조	-10.6359
지로	-10.6362
▁작	-10.6363
▁읽고	-10.6363
주십시오	-10.6365
▁일반적인	-10.6365
▁일이다	-10.6365
F	-10.6367
▁뇌물	-10.6367
▁틈	-10.6371
열	-10.6378
▁의도	-10.639
▁예전	-10.6391
감을	-10.6392
▁출마	-10.6392
▁바람에	-10.6393
자마자	-10.6394
▁승용차	-10.64
케	-10.6403
H	-10.6407
▁기조	-10.6408
▁대행	-10.641
▁협상이	-10.6411
▁세워	-10.6412
▁대표의	-10.6416
▁접	-10.6416
▁소장	-10.6418
▁움직임	-10.6421
검사	-10.6422
26	-10.6426
회를	-10.643
▁적합한	-10.6431
▁결정했다	-10.6431
▁성적이	-10.6435
게요	-10.6436
▁됐	-10.6437
▁상태를	-10.6438
▁워크숍	-10.6443
▁기관이	-10.6445
▁시진핑	-10.6448
▁월	-10.6452
미국	-10.6453
▁도민들	-10.6461
▁이걸	-10.6464
▁들어서	-10.6465
▁집계됐다	-10.6465
▁일환으로	-10.6471
▁남자친구	-10.6483
▁금요일	-10.6487
▁당한	-10.6495
▁있거나	-10.6501
▁이씨	-10.6506
▁요	-10.6507
▁그날	-10.6509
▁CJ	-10.651
▁구매할	-10.651
▁가기	-10.6511
▁대체로	-10.6512
해왔다	-10.6512
이는	-10.6515
▁고발	-10.6515
삼	-10.6518
▁40%	-10.6524
지사가	-10.6524
조례	-10.6528
▁집값	-10.6529
▁차지하고	-10.653
▁입장이다	-10.653
▁특별법	-10.653
부가	-10.653
▁자칫	-10.6533
▁조만	-10.6534
▁198	-10.6535
주가	-10.6538
▁그곳	-10.6541
▁이들에게	-10.6541
▁경기도의회	-10.6545
▁중학교	-10.6546
▁이거	-10.6549
▁지켜보	-10.6559
▁김치	-10.656
▁나타나는	-10.6566
대와	-10.657
▁보건복지부	-10.657
▁34	-10.6577
1990	-10.658
▁끝나면	-10.658
▁잡은	-10.6582
천만원	-10.6584
▁인지도	-10.6589
▁대표이사	-10.659
▁낳	-10.6596
▁일본인	-10.6597
▁측면	-10.6599
▁양쪽	-10.6602
▁봐야	-10.6603
▁70%	-10.6604
▁사고로	-10.6607
▁조사에서	-10.6609
룰	-10.6611
▁붕괴	-10.6614
▁해결하기	-10.6617
▁할아버지	-10.662
▁된다면	-10.6621
대상	-10.6627
▁영화제	-10.6628
▁절	-10.6629
▁부득이	-10.6629
▁금액이	-10.663
▁증명	-10.663
▁국무장관	-10.663
▁건의	-10.6631
▁워낙	-10.6635
▁세운	-10.6636
센	-10.6637
▁합격	-10.6637
▁흔히	-10.6639
▁비록	-10.6639
▁관광객이	-10.6639
▁감안하면	-10.664
▁조금씩	-10.664
▁가능한가요	-10.6643
▁다이어트	-10.6646
▁제정	-10.6652
▁방금	-10.6654
▁영어로	-10.6655
▁부스	-10.6656
▁주류	-10.6656
▁끌었다	-10.6657
내내	-10.6657
▁묻는	-10.6657
▁공단	-10.6658
▁장소에	-10.6658
▁살펴보면	-10.6659
▁소설	-10.666
▁전공	-10.6661
▁이어지	-10.6661
▁커질	-10.6661
▁스트레스	-10.6662
▁초콜릿	-10.6662
▁주목받고	-10.6663
▁상품이	-10.6663
▁입증	-10.6664
▁완성	-10.6673
▁즐겁	-10.6675
▁때보다	-10.6678
▁소형	-10.6679
▁건강에	-10.6682
▁끝까지	-10.6683
▁맡았다	-10.6685
▁코리아	-10.6687
▁대량	-10.6689
▁통계청	-10.6693
▁이루어져	-10.6702
▁웃	-10.6703
▁힘들다	-10.6704
시나요	-10.6709
▁사람으로	-10.6709
▁몰려	-10.671
▁준비하는	-10.6711
▁불가능하다	-10.6715
▁많지	-10.6718
감	-10.6718
하되	-10.6719
▁문화재	-10.672
카드	-10.6724
▁불거	-10.6725
여부를	-10.6727
▁체포	-10.6729
코리아	-10.6729
▁희생	-10.6733
롭게	-10.6733
▁걱정이	-10.6734
▁적용한다	-10.6739
▁빠지	-10.6741
▁단서	-10.6744
▁아프리카	-10.6745
▁재능	-10.6747
▁애초	-10.6751
▁지역으로	-10.676
▁쇼핑몰	-10.6764
▁경찰과	-10.6764
▁내는	-10.6766
▁와인	-10.6769
▁전문성	-10.6771
▁주장하는	-10.6771
▁다양	-10.6773
▁서구	-10.6779
▁최악	-10.6784
▁잡지	-10.6785
▁말할	-10.6786
겠다	-10.6787
▁기간에	-10.6793
▁이해하고	-10.6795
▁부장판사	-10.6798
▁지도자	-10.6801
데다	-10.6807
▁되는데	-10.681
(5	-10.6812
▁최씨	-10.6812
▁경고	-10.6813
통	-10.6814
▁채택	-10.6815
▁정상회담에서	-10.6823
▁둘러싸	-10.6825
▁행	-10.6825
▁사업으로	-10.6827
▁뷰티	-10.6829
▁신도시	-10.6831
▁데에	-10.6832
▁내야	-10.6837
▁갖는	-10.6839
시로	-10.6839
▁지역주민	-10.6841
▁조절	-10.6842
▁장학금	-10.6842
▁아무도	-10.6842
▁서울에	-10.6845
▁상관없이	-10.6846
▁기재부	-10.6847
▁송금	-10.685
▁계	-10.685
▁수익률	-10.6852
▁주최	-10.6853
▁남편이	-10.6855
▁심의회	-10.6855
▁민선	-10.6856
▁성경	-10.6856
▁오늘날	-10.6858
▁‘2019	-10.686
▁판매가	-10.6862
▁성장할	-10.6863
▁노하우	-10.6863
▁친구와	-10.6864
▁성범죄	-10.6864
▁접근성	-10.6867
▁토론회	-10.6868
▁주최하고	-10.6876
▁애플	-10.6879
▁복	-10.6884
▁한계	-10.6889
▁SBS	-10.689
▁연봉	-10.6894
▁연습	-10.6894
▁전문가들이	-10.6895
▁계절	-10.6898
▁멤버들	-10.6903
▁양식	-10.6904
▁걸그룹	-10.6908
▁산업단지	-10.6918
졌다	-10.692
▁은퇴	-10.6922
▁80%	-10.6927
▁누적	-10.6927
▁공감대	-10.6944
▁현지에서	-10.6945
▁법원이	-10.6947
AI	-10.6948
거리	-10.6952
▁시에	-10.6962
▁조사에	-10.6963
▁상세	-10.6969
▁취약계층	-10.6969
▁뇌	-10.697
▁다채로	-10.6973
한국시간	-10.6976
▁봉사활동	-10.6976
g	-10.6977
▁늘어나	-10.6981
▁놀	-10.6982
했기	-10.6994
▁청주	-10.7
▁명단	-10.7002
▁업무에	-10.7004
▁우주	-10.7008
▁명예	-10.701
▁있을까	-10.7013
▁조합	-10.7015
▁남북정상회담	-10.7015
▁39	-10.702
▁단장	-10.702
▁운	-10.7022
하더라도	-10.7023
명에게	-10.7024
분에	-10.7025
티	-10.7028
▁민간인	-10.703
병원	-10.7032
▁개발에	-10.7037
▁정상회담이	-10.7041
▁나쁜	-10.7041
2021	-10.7043
▁질환	-10.7045
▁지원하기	-10.7048
▁인건비	-10.7051
▁뛰	-10.7053
▁정상이	-10.7053
▁나서고	-10.7054
▁연관	-10.7055
▁방해	-10.7059
▁1∼2	-10.7061
▁일방적	-10.7062
▁대사	-10.7062
▁의제	-10.7066
▁고위	-10.7067
▁감성	-10.7067
▁벌어진	-10.7069
▁성장률	-10.7072
▁유관기관	-10.7072
▁감안	-10.708
▁힘들어	-10.7082
단지	-10.7083
▁믿고	-10.7085
림	-10.7088
▁영장	-10.7092
▁고장	-10.7093
감이	-10.7094
▁일어난	-10.7097
▁북부	-10.7097
▁스웨덴	-10.7098
▁런던	-10.7101
▁영업이익	-10.7102
▁리더	-10.7108
▁지급한다	-10.7109
개월간	-10.7109
▁도시재생	-10.7114
▁가격에	-10.7116
▁이해할	-10.7118
공	-10.7119
건설	-10.7119
▁고려하면	-10.712
▁듣는	-10.7123
시는	-10.7132
▁쌓	-10.7133
▁감염	-10.7133
▁항공	-10.7136
▁판매량	-10.7139
▁알리고	-10.714
▁투	-10.7143
축제	-10.7147
▁시행에	-10.7149
▁행사에서	-10.715
▁신청할	-10.715
▁프로그램에	-10.7151
▁글이	-10.7156
▁줄었다	-10.7157
공사	-10.7158
▁빼	-10.716
▁것들	-10.7163
치는	-10.7166
▁실시했다	-10.7168
▁취약	-10.7174
▁허리	-10.7176
▁대법원장	-10.7178
▁날부터	-10.718
회사	-10.718
▁강경	-10.7182
전에	-10.7198
▁고려한	-10.7201
▁성공했다	-10.7202
▁카	-10.7204
▁해외에서	-10.7204
▁명령	-10.7205
▁좋고	-10.721
》	-10.7212
▁죄	-10.7213
▁일에	-10.7215
▁즐겨	-10.7215
▁참가한	-10.7217
▁야당	-10.7217
▁설치하고	-10.7219
▁이민	-10.7222
▁푸틴	-10.7223
▁끝날	-10.7224
▁성별	-10.7225
▁제시	-10.7228
▁열풍	-10.7228
▁입금	-10.723
▁실정이다	-10.7231
▁정황이	-10.7232
▁소중한	-10.7234
▁지표	-10.7236
▁임대	-10.7237
▁이스라엘	-10.724
▁언제나	-10.724
할게요	-10.7241
▁부실	-10.7243
▁칼	-10.7245
▁회의에서	-10.7245
▁보냈다	-10.7246
올	-10.7247
▁점에	-10.7248
▁복원	-10.7249
는지	-10.7254
▁희망을	-10.7254
▁장이	-10.7257
대회	-10.7258
▁채권	-10.7259
에만	-10.7266
▁분노	-10.7267
▁마시고	-10.7269
공원	-10.7272
▁설치해	-10.7273
▁취업자	-10.7276
고등학교	-10.7279
▁기쁨	-10.728
▁떨어졌다	-10.728
▁금융감독원	-10.7281
마리	-10.7281
년째	-10.7282
원장	-10.7282
▁아르헨티나	-10.7282
▁총선	-10.7284
▁슬	-10.7286
▁이사회	-10.7287
N	-10.729
개사	-10.7293
▁즉각	-10.7297
▁시술	-10.7298
▁먹거리	-10.7302
▁잡을	-10.7303
▁진학	-10.7305
▁시청자	-10.7308
▁사정	-10.7313
▁e	-10.7316
개로	-10.7318
▁전달했다	-10.7321
억원에	-10.7322
▁이익	-10.7326
▁대비해	-10.7327
▁분석해	-10.7328
▁학생들에게	-10.7334
▁테마	-10.734
▁세종	-10.7341
▁안전성	-10.7343
▁물질	-10.7345
▁생각하고	-10.7347
군의	-10.7347
▁걸린	-10.735
▁포함돼	-10.7352
▁배려	-10.7358
▁마련해	-10.7359
▁오프라인	-10.7362
▁응답자	-10.7368
▁정상화	-10.7369
▁환자들	-10.7378
▁선호	-10.7379
▁발매	-10.7382
이기	-10.7383
▁번에	-10.7387
과정	-10.7387
▁영입	-10.7389
스가	-10.7389
▁시대의	-10.7392
▁센터장	-10.7393
▁무릎	-10.7397
▁유학	-10.7399
▁동반	-10.7401
▁물이	-10.7402
▁때문으로	-10.7402
▁음성	-10.7406
▁동원	-10.7407
L	-10.7408
▁상가	-10.7408
▁끼	-10.7411
▁42	-10.7413
▁예전에	-10.7416
▁거리가	-10.7418
생	-10.742
▁배우고	-10.7422
▁탑재	-10.7422
▁작동	-10.7427
나갈	-10.7434
▁선보일	-10.7434
▁말하기	-10.7436
▁진행되며	-10.7437
▁요인	-10.7437
▁해상	-10.7438
매	-10.7442
▁땀	-10.7443
곡	-10.7444
▁불리	-10.7446
▁확신	-10.7447
▁공개됐다	-10.7449
▁연합	-10.7451
▁오르는	-10.7452
▁극복	-10.7459
▁일할	-10.7459
▁제출하	-10.7461
인하여	-10.7466
▁하려고	-10.7467
▁끝내	-10.7468
▁실시간으로	-10.7471
▁25%	-10.7473
인당	-10.7476
▁지정한	-10.7477
스란	-10.7478
▁부천	-10.7479
▁빵	-10.7479
되며	-10.748
과정에서	-10.7481
▁제출하여	-10.7484
▁혜택이	-10.7487
▁맞고	-10.7488
▁비건	-10.7488
▁돕기	-10.7489
▁편이다	-10.7491
▁모델로	-10.7491
▁월요일	-10.7493
▁취득	-10.7498
▁모른다	-10.7499
▁노동계	-10.7501
▁전반에	-10.7502
▁아니라는	-10.7502
▁대가	-10.7502
▁기후변화	-10.7502
▁플레이	-10.7506
▁측에	-10.7506
▁합의한	-10.7506
속	-10.7508
▁맞서	-10.7509
▁리스크	-10.751
▁결정한다	-10.7515
장에서	-10.7515
▁펼쳐	-10.7516
▁44	-10.7516
▁라디오	-10.7519
▁엔진	-10.7525
▁서버	-10.7529
▁소녀	-10.7531
▁무리	-10.7534
▁선보인다	-10.7535
하나님의	-10.7537
▁손해배상	-10.7539
▁진보	-10.7541
▁사람과	-10.7541
▁업체들이	-10.7542
▁같아서	-10.7543
▁주지	-10.7544
▁제품으로	-10.7549
▁면에서	-10.755
▁흔적이	-10.7551
▁고개	-10.7558
▁미얀마	-10.7562
▁연수	-10.7567
▁않았고	-10.7567
▁사망한	-10.7576
사업을	-10.7577
▁든다	-10.7577
치고	-10.7579
▁그래	-10.7579
▁이주	-10.7581
▁기술과	-10.7582
▁현재는	-10.7585
▁설치한	-10.7585
▁예고	-10.7586
▁0	-10.7587
외	-10.7589
▁확대해	-10.7589
▁이견	-10.7591
▁알아보	-10.7592
▁서울시장	-10.7592
되기	-10.7596
▁났다	-10.7598
▁수시	-10.7599
▁일요일	-10.7599
▁구현	-10.76
▁의문	-10.7603
▁임무	-10.7606
▁시민단체	-10.7608
▁객관적	-10.7608
▁과거에	-10.7608
▁피아노	-10.7608
▁들어가는	-10.7609
▁추천해	-10.7611
▁영화의	-10.7611
▁강연	-10.7614
▁진행해	-10.7615
쇼	-10.7616
▁금융위	-10.7617
EU	-10.7618
▁위임	-10.7619
▁못한다	-10.7621
▁강동구	-10.7621
▁저지른	-10.7624
▁여자친구	-10.7625
▁패스트트랙	-10.763
▁주재	-10.7631
▁하게	-10.7633
▁인쇄	-10.7635
점이	-10.7635
▁뭘	-10.7635
락	-10.7639
▁조속	-10.764
▁이명박	-10.764
▁대다수	-10.7641
▁경기도에	-10.7642
주택	-10.7643
▁시너지	-10.7643
▁어쩔	-10.7644
▁90%	-10.7645
▁대답	-10.7646
▁특성상	-10.765
▁경기도내	-10.7651
다시	-10.7655
대학교	-10.7656
▁나눔	-10.7657
령	-10.7658
▁교통사고	-10.7661
▁우유	-10.7661
▁당연직	-10.7662
▁깜짝	-10.7663
▁불가능한	-10.7665
▁하루에	-10.7666
▁폐쇄	-10.7671
▁받으며	-10.7675
중인	-10.7678
▁소개했다	-10.7679
▁비행	-10.7679
▁경쟁력이	-10.7681
▁엄격	-10.7682
일은	-10.7683
▁시점	-10.7683
▁출자	-10.7691
▁찾았다	-10.7693
▁임대료	-10.7694
측	-10.7694
주간	-10.7696
▁코드	-10.7699
▁예수	-10.7704
▁프랜차이즈	-10.7705
▁표준	-10.771
▁방학	-10.7711
▁줄이고	-10.7711
재단	-10.7711
▁접속	-10.7713
▁카자흐스탄	-10.7715
▁메	-10.7715
▁아름다움	-10.7715
▁찾지	-10.7718
활동을	-10.7718
리고	-10.7719
▁물량	-10.7724
▁앞선	-10.7729
이어	-10.773
▁흐르	-10.7734
▁썼다	-10.7736
▁민주주의	-10.7736
내가	-10.7737
위가	-10.7737
▁현저	-10.7737
▁거기	-10.7737
천천	-10.7739
▁토요일	-10.7739
▁MBC	-10.774
▁센서	-10.774
▁유전자	-10.774
▁진전	-10.7741
▁준비해	-10.7743
▁못하	-10.7744
▁고기	-10.7745
▁카카오톡	-10.7746
▁논문	-10.7751
▁드릴	-10.7752
짜리	-10.7754
▁호평	-10.7756
▁발목	-10.7766
▁처음에	-10.7772
▁느끼는	-10.7772
▁끝나는	-10.7774
▁바라보는	-10.7776
별지	-10.7778
▁비서실장	-10.7778
27	-10.7778
▁지명	-10.7779
▁검	-10.7781
▁성추행	-10.7785
▁스트레스를	-10.7788
▁국무총리	-10.7789
▁시행하는	-10.7789
▁감축	-10.7794
율	-10.7794
▁조용	-10.7794
▁수치	-10.7801
시행	-10.7806
▁요건	-10.7807
▁배당	-10.7808
▁각호	-10.781
▁기준이	-10.7812
▁간에	-10.782
▁석탄	-10.7822
일로	-10.7826
▁유럽연합	-10.7833
▁과장	-10.7835
▁디자이너	-10.7837
▁뼈	-10.7838
▁동생	-10.7846
▁아니라고	-10.7848
▁단계에서	-10.7851
▁강조한	-10.7851
▁아까	-10.7853
▁끊임없	-10.7853
▁형식	-10.7854
▁긴밀	-10.7855
▁내릴	-10.7856
▁시세	-10.7858
진다	-10.7859
▁성장이	-10.786
▁최고경영자	-10.7861
▁행진	-10.7862
▁거죠	-10.7863
▁거뒀다	-10.7866
▁복잡한	-10.7866
▁무역협상	-10.7867
절차	-10.7868
▁입구	-10.787
▁2∼3	-10.787
▁《	-10.7872
▁세력	-10.7872
▁자세히	-10.7872
▁어렵게	-10.7877
▁확보한	-10.7878
현재	-10.788
▁쥐	-10.788
▁열리고	-10.7881
▁보이	-10.7881
호가	-10.7882
▁음주	-10.7883
총	-10.7884
되어야	-10.7884
▁나란	-10.789
거든요	-10.789
▁누리	-10.7896
▁사우디	-10.7898
▁단원	-10.79
▁중소	-10.7905
하였으며	-10.7906
▁들을	-10.7907
▁야외	-10.791
▁재활용	-10.7911
▁하천	-10.7916
▁없다면	-10.792
▁지점	-10.7924
▁줄이기	-10.7924
▁무엇인가	-10.7925
▁정치권	-10.793
▁정해진	-10.7933
▁잡았다	-10.7933
▁동장	-10.7933
2005	-10.7934
▁고객에게	-10.7935
▁학부모들	-10.7935
▁확충	-10.7936
창	-10.7939
▁복합	-10.7942
▁말은	-10.7946
문제	-10.7946
▁우즈베키스탄	-10.7947
제품	-10.795
▁교수님	-10.7954
▁폭로	-10.796
▁정지	-10.7963
▁선도	-10.7975
▁융합	-10.7975
자료	-10.7976
▁연내	-10.7977
▁오를	-10.7979
▁고유	-10.7979
▁대단	-10.7979
▁운영위원회	-10.7981
▁경영진	-10.7982
만원이	-10.7986
▁창원	-10.7989
라운드	-10.7989
▁유포	-10.7989
무를	-10.7991
▁쓰지	-10.7994
▁병원으로	-10.7995
세워	-10.8005
▁P	-10.8005
▁적자	-10.8007
씨와	-10.8009
▁믿음	-10.8011
▁잇	-10.8016
단이	-10.802
▁노력하고	-10.8021
▁강화하고	-10.8023
▁애플리케이션	-10.8025
▁내리	-10.8028
▁교실	-10.8031
▁쉬는	-10.8035
▁이용하여	-10.8036
▁유도	-10.8036
▁임용	-10.804
실에서	-10.8042
▁해양	-10.8043
▁수행하는	-10.8046
▁선보이는	-10.8047
▁경기북부	-10.8052
▁환영	-10.8052
▁해주세요	-10.8052
▁가맹점	-10.8053
▁신고가	-10.8054
▁승객	-10.8058
▁돌아	-10.8061
▁업무협약	-10.8062
▁살짝	-10.8067
▁보일	-10.8067
▁폐	-10.807
▁기준금리	-10.8071
▁떨어	-10.8072
크	-10.8072
▁조회	-10.8073
▁병원에서	-10.8074
▁건너	-10.8076
▁현대자동차	-10.8077
▁좋아해요	-10.8077
▁깨끗	-10.8077
▁망	-10.8077
구나	-10.8079
▁그곳에	-10.8081
▁파업	-10.8081
이상	-10.8081
▁탑승	-10.8085
▁일선	-10.8085
▁선보였다	-10.8086
▁태극기	-10.8087
▁방문했다	-10.8088
▁이해찬	-10.8088
▁합	-10.8089
▁신속하게	-10.8089
▁포함됐다	-10.8089
▁참석자들	-10.8094
르	-10.8095
▁집권	-10.81
▁노동당	-10.8102
복	-10.8102
▁반영된	-10.8102
▁투자자들	-10.8103
츠	-10.8105
골	-10.8107
▁공동체	-10.8109
▁총재	-10.811
▁강조하	-10.8111
▁총괄	-10.8116
▁공인	-10.8117
▁포착	-10.8117
▁5,000	-10.8118
▁아니요	-10.8118
거	-10.8125
▁평택	-10.8126
▁최다	-10.8132
▁비싼	-10.8132
▁개최되	-10.8136
고자	-10.8136
지에	-10.8142
▁흉기	-10.8143
▁상용화	-10.8144
▁넣고	-10.8153
카	-10.8153
▁활동하고	-10.8155
▁난다	-10.8156
▁제안한	-10.8162
▁솔로	-10.8164
▁모습으로	-10.8167
▁영수증	-10.8169
서울	-10.8171
▁모집한다	-10.8178
▁증대	-10.818
▁등장하는	-10.8186
▁회사에서	-10.8187
▁선호하는	-10.8187
▁하락세	-10.8189
▁폭염이	-10.8193
▁상환	-10.8194
▁고정	-10.8195
분을	-10.8198
▁몰라	-10.8199
▁배가	-10.82
▁U	-10.8206
▁기본계획	-10.8206
▁쾌적	-10.8206
법인	-10.8207
▁계속되	-10.8212
▁첫날	-10.8213
▁상상	-10.8214
▁늘리	-10.8214
▁작용	-10.8217
▁선생	-10.8222
▁실태	-10.8225
▁설립한	-10.8225
▁실시하	-10.8227
▁전략이	-10.8229
▁원인으로	-10.8231
▁연구개발	-10.8237
▁원장	-10.8246
정부	-10.8246
▁지난주	-10.8248
세계	-10.8248
때	-10.825
40	-10.8251
▁차량에	-10.8251
스타	-10.8252
량이	-10.8257
▁E	-10.8258
▁경찰청	-10.826
▁모은	-10.826
▁없던	-10.8262
▁중독	-10.8263
▁창	-10.8263
▁차기	-10.8263
▁원유	-10.8264
▁나누는	-10.8265
▁생태	-10.8265
▁진흥	-10.8266
보고	-10.827
▁철	-10.8274
▁답장	-10.8277
계를	-10.8279
▁비치	-10.8283
▁적발	-10.8283
▁주체	-10.8283
▁간부	-10.8284
▁5%	-10.8284
▁낯	-10.8284
▁화성	-10.8286
들에	-10.8287
▁출근	-10.8288
▁골키퍼	-10.8289
갑	-10.8291
▁유형	-10.8292
▁인류	-10.8295
▁주시기	-10.8295
▁고위급	-10.8302
으니	-10.8303
▁제공해	-10.8305
▁커졌다	-10.8307
국가	-10.8308
▁통상	-10.8309
▁활력	-10.8309
▁초점	-10.831
▁주어진다	-10.8311
▁갖게	-10.8311
▁실효성	-10.8311
▁제공하기	-10.8312
▁기업인	-10.8312
▁들여	-10.8316
▁명품	-10.8319
화된	-10.8321
▁고객님	-10.8321
▁어떨까	-10.8326
▁갖	-10.8326
▁받으면	-10.8327
▁나타냈	-10.833
간에	-10.833
▁석	-10.8336
▁180	-10.8336
▁2001	-10.8337
▁이해관계	-10.8339
ᆞ	-10.834
▁급등	-10.8341
▁애정	-10.8342
▁증가세	-10.8343
▁획기적	-10.8344
▁탄력	-10.8348
▁남쪽	-10.835
▁다음날	-10.835
▁만료	-10.8351
▁구성한다	-10.8352
▁결혼식	-10.8355
▁선사	-10.8355
▁전반적으로	-10.8355
▁양질	-10.8357
▁국회에	-10.8357
▁추적	-10.8358
▁사법부	-10.836
▁경기도에서	-10.836
전자	-10.8374
십시오	-10.8375
▁결정할	-10.8377
▁했어	-10.8379
▁국제사회	-10.8379
▁자신에게	-10.838
▁현실이	-10.8382
▁건물이	-10.8382
천억원	-10.8385
▁목사는	-10.8385
▁중국은	-10.8387
▁참고	-10.839
▁지방세	-10.8394
▁기다리는	-10.8396
용으로	-10.8397
▁기차	-10.8397
▁양승	-10.84
천여	-10.84
▁그중	-10.8408
왔던	-10.8409
▁이외	-10.8409
▁인물이	-10.8409
▁나타나	-10.8409
▁일하고	-10.8412
▁입력	-10.8413
▁강세	-10.8413
▁대목이	-10.8418
▁수업이	-10.842
▁문화적	-10.8427
▁전국에서	-10.8428
▁제기한	-10.8433
▁한국으로	-10.8434
5000	-10.8436
▁특검	-10.8447
▁일일	-10.8451
I	-10.8452
▁불량	-10.8453
돌	-10.8459
▁이집트	-10.846
▁전세계	-10.846
▁무역분쟁	-10.8461
▁연예인	-10.8463
▁저감	-10.8464
▁현지인들	-10.8469
▁장착	-10.8472
▁회신	-10.8474
▁궁금	-10.8476
▁논리	-10.8477
▁종합적	-10.8481
▁가난	-10.8482
▁한데	-10.8486
▁호기심	-10.8487
▁되기를	-10.8488
▁광장	-10.8501
▁체결했다	-10.8505
시다	-10.8508
▁근본적	-10.8514
▁침대	-10.8516
▁무대에서	-10.8519
▁추정된다	-10.8523
섭	-10.8523
▁유행	-10.8526
일과	-10.8527
▁발간	-10.8527
▁많았고	-10.853
▁여비	-10.853
▁관리자	-10.8531
▁국적	-10.8531
▁아픈	-10.8536
▁협력해	-10.8537
▁기억이	-10.854
링	-10.8541
▁극심	-10.8541
p	-10.8545
▁건데	-10.8545
▁쪽에서	-10.8546
오직	-10.8546
시티	-10.8548
▁둘째	-10.8549
▁가이드	-10.8553
▁돼서	-10.8556
▁해체	-10.856
▁살인	-10.8563
▁주행	-10.8564
▁저번	-10.8566
▁빌려	-10.8566
▁사이버	-10.8567
서식에	-10.8569
섬	-10.8573
▁페스티벌	-10.8574
▁끝나	-10.8574
▁공장에서	-10.8574
지원센터	-10.8574
건에	-10.8574
▁느낀	-10.8575
업을	-10.8577
겠어요	-10.8577
▁관악구	-10.8581
▁내역	-10.8582
FC	-10.8583
▁버튼	-10.8586
▁고문	-10.859
▁아닌가	-10.8591
▁전략적	-10.8591
▁선보이	-10.8594
▁문제점	-10.8596
▁사용하	-10.8598
▁벨기에	-10.86
▁확대하고	-10.8604
▁성분	-10.8606
일본	-10.8608
▁우연	-10.8613
▁학원	-10.8614
위원	-10.8615
▁인천시	-10.8617
▁드릴게요	-10.8619
▁기업은	-10.8623
▁올라가	-10.8624
▁운항	-10.8626
▁심화	-10.8626
▁승	-10.8627
▁즐기	-10.863
▁탄핵	-10.8631
▁지켜	-10.8633
▁예상되	-10.8635
▁선보인	-10.8636
▁꼼꼼	-10.8639
▁앉	-10.864
▁줄이는	-10.8645
▁구성해	-10.865
▁일본은	-10.8657
▁600	-10.866
▁비디오	-10.8664
▁공항에서	-10.8666
▁사연	-10.8669
▁대회에서	-10.8675
▁스크린	-10.8676
▁든	-10.8677
▁소음	-10.8681
▁적절	-10.8691
▁삼아	-10.8706
▁물건이	-10.8708
▁지적도	-10.8712
▁남측	-10.8717
▁푸	-10.8721
인의	-10.8722
▁보도에	-10.8723
▁지낸	-10.8724
오랜만에	-10.8728
▁급락	-10.8736
▁청약	-10.8737
▁포함한다	-10.874
가는	-10.874
▁높아질	-10.8742
▁여수	-10.8743
경영	-10.8744
▁저녁에	-10.8746
▁극장	-10.8747
▁펼칠	-10.8747
▁탈퇴	-10.8749
▁첨부하여	-10.875
▁국민청원	-10.8751
▁끊이지	-10.8751
50	-10.8753
▁이름으로	-10.8755
정부가	-10.8756
▁북쪽	-10.8759
▁있었는지	-10.8762
▁집계	-10.8763
▁지수	-10.8765
▁해마	-10.8765
▁부활	-10.8769
균	-10.8772
▁패키지	-10.8773
▁집이	-10.8774
▁이르면	-10.8776
▁꺾	-10.878
▁보여줄	-10.8782
▁주시면	-10.8783
▁총력	-10.8784
▁숨졌다	-10.8784
▁편집	-10.8785
▁압력	-10.8786
▁부족해	-10.8788
▁정규직	-10.8789
▁의료기기	-10.8794
냈다	-10.88
▁싸	-10.88
월말	-10.8807
▁사라진	-10.8807
▁결합	-10.8807
▁조항	-10.8808
▁혐오	-10.881
프로그램	-10.8811
▁올리고	-10.8812
▁포함되어	-10.8813
▁대결	-10.8816
▁사회적기업	-10.8818
▁기름	-10.8818
▁벽	-10.8821
▁영상이	-10.8821
▁일시	-10.8823
▁성장세	-10.8827
▁현안	-10.883
▁류	-10.883
▁노동자들	-10.8832
▁연금	-10.8833
▁나타난	-10.8834
▁떠난	-10.8835
▁국무위원장의	-10.884
▁확실한	-10.8848
▁알지	-10.8849
음	-10.8851
▁호텔에서	-10.8852
활동	-10.8854
▁달려	-10.8855
역에서	-10.8856
▁승부	-10.886
▁조건으로	-10.8866
▁환율	-10.8868
평	-10.8869
▁만족	-10.8874
▁코스	-10.8876
▁나누어	-10.8876
▁정책의	-10.8878
▁T	-10.8878
▁근처	-10.8879
▁한쪽	-10.8879
▁길게	-10.8883
▁공유하고	-10.8888
다보니	-10.8893
▁말하고	-10.8899
▁일본이	-10.8901
▁강점	-10.8903
▁바이오	-10.8903
▁보전	-10.8906
▁한국영화	-10.8909
▁사안	-10.891
평가	-10.891
▁말로	-10.891
▁대통령에게	-10.8912
▁있기를	-10.8913
▁제안했다	-10.8915
▁광	-10.8918
▁무엇이	-10.8918
▁군수	-10.8919
▁학대	-10.892
▁느껴	-10.8925
▁운송	-10.8929
▁과	-10.8931
▁모양새	-10.8932
▁방어	-10.8933
▁산업통상자원부	-10.8934
▁대표적	-10.8935
▁덕	-10.8937
께서	-10.8939
▁전역	-10.8942
▁뮤직비디오	-10.8945
▁방송에서	-10.8947
▁책임이	-10.895
▁구청	-10.8953
율이	-10.8954
▁수습	-10.8954
▁기구	-10.8956
▁필요합니	-10.8956
▁지상	-10.8957
▁출	-10.8962
▁민주당이	-10.8967
▁대여	-10.8973
자인	-10.8974
▁공략	-10.8977
▁수색	-10.8983
▁과일	-10.8995
▁속속	-10.8999
▁메이크업	-10.8999
▁분쟁	-10.9
▁입장이	-10.9002
▁토트넘	-10.9004
▁예정이며	-10.9005
▁보내주세요	-10.9005
▁출연해	-10.9005
책	-10.9007
▁활발한	-10.9008
임에도	-10.901
▁될지	-10.901
▁김경수	-10.9011
▁의약품	-10.9011
▁기억에	-10.9012
▁위생	-10.9013
▁헌신	-10.9015
▁손실	-10.9018
든지	-10.9018
▁얼	-10.9019
▁연구소	-10.9022
▁높아졌다	-10.9023
▁공시가격	-10.9024
▁했	-10.9026
▁변수	-10.9027
▁미친	-10.903
▁게재	-10.903
▁관장	-10.9032
▁주인	-10.9033
▁동시	-10.9034
▁실태조사	-10.9037
▁논란에	-10.904
▁항공사	-10.9041
▁그저	-10.9044
▁폭우	-10.9046
▁제기했다	-10.9047
▁판단하고	-10.9047
▁언급했다	-10.9047
▁국비	-10.9048
▁구멍	-10.9049
▁물류	-10.9049
▁예정이라	-10.9049
▁조리	-10.9049
▁방송된	-10.905
만달러	-10.9051
▁바닥에	-10.9052
▁막대	-10.9054
▁개척	-10.9059
▁아니하다	-10.9059
▁먹이	-10.9061
연구원	-10.9063
인천광역시	-10.9063
▁한국교회	-10.9064
▁정의	-10.9065
l	-10.9066
▁구름	-10.9067
퍼센트	-10.9068
▁저장	-10.9072
▁환경이	-10.9072
▁해결할	-10.9073
▁축사	-10.9077
▁당했다	-10.9086
▁소집	-10.9087
▁늦은	-10.9087
▁지방정부	-10.9089
▁3,000	-10.9089
▁60%	-10.9093
▁피고인	-10.9097
▁협회	-10.9097
▁제조사	-10.9097
▁끊	-10.9098
▁커다	-10.9099
▁준비하고	-10.9099
▁타는	-10.9103
▁지나치	-10.9103
▁말에	-10.9104
▁특	-10.9106
▁왔는데	-10.9107
▁순서	-10.9107
▁녹색	-10.9108
▁더해	-10.9108
▁대회에	-10.9108
냅	-10.9109
▁소환	-10.911
▁포럼	-10.9111
▁느끼	-10.9111
▁생겼	-10.9116
지고	-10.9117
31	-10.9122
▁시작할	-10.9125
▁변화에	-10.9132
▁편리하	-10.9141
▁취하고	-10.9145
대에	-10.9147
▁추모	-10.9149
값	-10.9151
▁퇴근	-10.9157
▁갤러리	-10.9159
▁운명	-10.9162
▁상생	-10.9168
▁지속될	-10.9168
▁먼	-10.917
▁기재	-10.9171
▁구호	-10.9171
▁예보	-10.9172
▁합의안	-10.9174
▁처한	-10.9177
▁초등학생	-10.9178
▁달한다	-10.918
▁홀	-10.9182
▁합류	-10.9182
▁올해부터	-10.9183
▁불편한	-10.9186
▁절차에	-10.919
▁차장	-10.9193
▁일본에	-10.9195
판매	-10.9196
▁내외	-10.9197
▁늦	-10.9199
▁진영	-10.9201
▁투기	-10.9201
▁밖에서	-10.9207
▁클래식	-10.9207
▁인근에서	-10.9208
▁실적을	-10.9208
▁포상금	-10.9215
▁급증	-10.922
▁신앙	-10.922
▁개최된다	-10.9221
▁반입	-10.9224
▁시설이	-10.9226
▁사립유치원	-10.9228
▁목포	-10.9229
▁성공한	-10.9232
시즌	-10.9233
공장	-10.9234
원합니다	-10.9237
▁거둔	-10.9238
▁스튜디오	-10.9238
▁면세점	-10.9239
▁묻	-10.9239
▁개발해	-10.9241
되거나	-10.9241
▁이어갔다	-10.9241
▁자율주행	-10.9245
청와대가	-10.9245
▁만든다	-10.9246
▁과반수	-10.9248
▁바꿀	-10.9251
▁제공된다	-10.9253
▁펼치고	-10.9255
▁선생님이	-10.9256
▁문화체육관광부	-10.9256
▁막판	-10.9258
체가	-10.9259
▁필요해요	-10.926
▁있었기	-10.926
▁밀려	-10.926
CEO	-10.9264
▁의류	-10.9266
▁간호사	-10.9266
▁아시아나항공	-10.9266
▁후속	-10.9269
▁의미한다	-10.927
▁치르	-10.927
▁베	-10.9271
▁절약	-10.9279
시가	-10.928
▁딸이	-10.9281
▁아들이	-10.9287
▁제공한	-10.9292
▁들었습니다	-10.9293
▁복수	-10.9294
▁리더십	-10.9296
▁적용해	-10.9297
당한	-10.9298
▁컬러	-10.93
▁어르신들	-10.9305
▁분들	-10.9309
▁세종시	-10.9314
▁재원	-10.9314
▁스	-10.9321
▁투쟁	-10.9323
골을	-10.9324
▁자원봉사자	-10.9327
원에서	-10.9334
▁애로사항	-10.9336
▁금품	-10.9336
▁아직까지	-10.9336
▁보여준	-10.9337
씨에게	-10.9338
▁받았	-10.934
▁이뤄지	-10.9341
▁합병	-10.9344
▁개최된	-10.9346
▁사라지	-10.9348
▁용산구	-10.9348
▁체육시설	-10.9351
▁정규	-10.936
▁왔어요	-10.936
▁꺼내	-10.9361
들로	-10.9364
▁때에	-10.9366
▁신청이	-10.9366
▁순으로	-10.9367
▁입찰	-10.9367
▁효율	-10.9371
▁요구한	-10.9371
▁서해	-10.9371
▁갑질	-10.9372
▁피자	-10.9372
▁해경	-10.9373
▁금융위기	-10.9374
▁올리는	-10.9377
▁계단	-10.938
줘서	-10.938
▁붙여	-10.9386
▁이뤄	-10.9389
▁극단	-10.9391
원에	-10.9392
▁집중된	-10.9393
▁유물	-10.9395
▁계속해	-10.9396
▁항목	-10.9396
▁봅	-10.9397
▁음식점	-10.9397
▁공간으로	-10.9403
▁생겨	-10.9403
▁동력	-10.9403
▁면허	-10.9406
▁아트	-10.9408
키	-10.9409
▁전체의	-10.9411
▁커버	-10.9411
▁55	-10.9412
▁실장	-10.9412
▁보증	-10.9412
▁외국어	-10.9417
▁전파	-10.9417
▁인적	-10.9417
장비	-10.9418
▁FA	-10.9421
▁작년에	-10.9422
훈련	-10.9424
▁대안	-10.9428
▁거라고	-10.9428
여성	-10.9428
▁LA	-10.9429
▁동참	-10.9431
▁보육	-10.9432
미가	-10.9436
▁금고	-10.9436
정작	-10.9439
▁규정한	-10.944
▁시스템이	-10.9441
▁여성들이	-10.9448
▁줄일	-10.9449
▁지원대상	-10.9452
▁숙박	-10.9454
▁경기지사	-10.9455
▁감소한	-10.9456
북한	-10.9458
▁잡	-10.9458
▁사퇴	-10.9458
해주는	-10.9459
▁체육	-10.946
▁최저	-10.9463
▁국정원	-10.9465
▁정할	-10.9466
▁반영한	-10.9467
▁투자유치	-10.9468
▁그거	-10.9469
▁부문에서	-10.9469
▁버전	-10.9472
방송	-10.9473
래도	-10.9474
나경원	-10.9475
▁무척	-10.948
▁언제쯤	-10.9481
▁해킹	-10.9483
W	-10.9493
▁코스닥	-10.9494
보았습니다	-10.9496
▁없으며	-10.9496
▁구조조정	-10.9497
트럼프	-10.9498
▁스타디움	-10.9499
변경	-10.9501
▁싱글	-10.9501
▁특혜	-10.9501
▁비타민	-10.9503
▁그만	-10.9505
차전	-10.9507
▁많아요	-10.9508
▁할게요	-10.9508
▁동작	-10.951
IT	-10.9511
망	-10.9511
로는	-10.9513
▁피해자들	-10.9516
▁객실	-10.9516
▁학	-10.9517
▁저항	-10.9517
▁이혼	-10.952
▁수사관	-10.9528
▁치킨	-10.9528
▁평범	-10.9533
▁보이며	-10.9538
▁감소했다	-10.9538
▁생각보다	-10.9538
▁기본적으로	-10.954
증권	-10.9541
▁꿈꾸는	-10.9542
함이	-10.9553
▁제작진	-10.9553
▁지문	-10.9554
▁제게	-10.9564
납	-10.9566
셔야	-10.9569
▁습관	-10.9571
▁미흡	-10.9571
▁시작하는	-10.9571
▁중대한	-10.9573
관계	-10.9573
▁상무	-10.9575
▁매니저	-10.9577
▁앓	-10.9578
▁발생하고	-10.958
▁기분	-10.9581
▁소득이	-10.9583
▁산업이	-10.9584
▁공모전	-10.9585
▁마련된다	-10.9587
▁도봉구	-10.9588
분부터	-10.9588
▁결정이	-10.9592
▁수상했다	-10.9593
▁밝은	-10.9593
▁공적	-10.9594
▁되나	-10.9596
비용	-10.9597
▁내리는	-10.9597
▁타인	-10.96
▁분식회계	-10.9601
▁기무사	-10.9607
시길	-10.961
▁연구팀	-10.9611
▁즐거움	-10.9611
▁몰	-10.9617
▁지속가능	-10.9617
▁리스트	-10.9621
디어	-10.9621
▁인센티브	-10.9624
▁대구시	-10.9624
▁민감	-10.9629
▁착용	-10.963
▁기울이	-10.9632
▁격려	-10.9633
▁전형	-10.9635
▁버닝썬	-10.9637
올해	-10.9639
옥	-10.9643
▁세상에	-10.9643
▁되면서	-10.9645
▁라이브	-10.9648
가족	-10.9651
▁시각이	-10.9651
대책	-10.9653
▁물에	-10.9656
▁이어져	-10.9656
라서	-10.9657
▁밀집	-10.9658
▁거래가	-10.9658
▁생각할	-10.9662
▁자살	-10.9668
행위	-10.967
▁활	-10.9676
▁그렇다	-10.9676
▁서기	-10.9684
▁안산시	-10.9685
▁활동하는	-10.9685
▁변동	-10.969
▁업체에	-10.9691
▁법령에	-10.9692
▁돌아오	-10.9695
▁교부	-10.9696
▁드러난	-10.9697
▁예선	-10.97
▁파트너	-10.97
▁원고	-10.9702
▁코너	-10.9704
▁중심에	-10.9709
▁것만	-10.9709
짝	-10.9709
▁국가대표	-10.9713
▁창작	-10.9715
▁최우선	-10.9722
▁1.5	-10.9724
▁마련하고	-10.9724
▁국세청	-10.9725
▁저자	-10.9733
▁국악	-10.9733
▁메일로	-10.9735
▁남경필	-10.9737
청소년	-10.9737
투	-10.9738
▁일시적	-10.9739
▁문화의	-10.9741
▁교육에	-10.9742
▁알려지면서	-10.9742
▁데이트	-10.9745
▁쏠린다	-10.9746
▁창업자	-10.9746
▁맨	-10.9747
▁스티븐	-10.9748
▁박원순	-10.9748
곳에서	-10.9748
▁확인이	-10.9749
▁알겠습니다	-10.9752
▁공정거래위원회	-10.9753
▁여동생	-10.9754
됐어요	-10.9757
하신	-10.9758
▁섭취	-10.9758
로써	-10.9758
▁수행하기	-10.976
▁대립	-10.9763
칸	-10.9765
▁키우고	-10.9765
▁치유	-10.9766
▁주최하	-10.9767
▁사용되는	-10.9767
▁프로세스	-10.9768
▁이루어진	-10.9769
▁볼거리	-10.9769
▁한참	-10.9769
▁오디션	-10.977
▁본회의	-10.977
▁시청률	-10.9771
▁많지만	-10.9772
▁반전	-10.9773
▁대전시	-10.9775
▁못했습니다	-10.9776
우린	-10.9777
▁나누고	-10.9778
▁차지	-10.9782
▁사무총장	-10.9783
편	-10.9784
방법	-10.9786
▁대책이	-10.9786
▁출퇴근	-10.9789
▁휴일	-10.979
▁남북관계	-10.979
▁이용하고	-10.9791
▁소지	-10.9797
▁이뤄지고	-10.9797
▁근무하는	-10.98
일을	-10.9801
▁선거에서	-10.9801
▁입점	-10.9802
읍	-10.9802
▁회담이	-10.9803
▁어우러	-10.9805
▁협의하여	-10.9805
▁매수	-10.9806
▁못해서	-10.9808
▁최소화	-10.9809
▁처리하기	-10.9809
국장	-10.981
▁행정처	-10.981
접할	-10.9811
▁치즈	-10.9814
▁책이	-10.9814
▁발부	-10.9814
▁기증	-10.9815
▁식으로	-10.9815
회장	-10.9818
▁부대	-10.982
▁구성되어	-10.982
▁악기	-10.9821
▁불교	-10.9821
▁카카오	-10.9823
▁사회적경제	-10.9824
▁2002	-10.9825
▁명동	-10.9825
▁적응	-10.9826
▁두산	-10.9827
▁자재	-10.983
▁추구하	-10.9832
▁만나고	-10.9837
▁배상	-10.9838
▁수상한	-10.9838
▁본부장	-10.9838
▁관람객들	-10.9839
▁지역구	-10.9842
없는	-10.9843
에너지	-10.9845
▁방영	-10.9847
35	-10.9847
사건	-10.9849
▁다하겠다	-10.985
인을	-10.9858
▁하향	-10.9858
▁바꾸	-10.986
▁모집에	-10.986
▁국내에	-10.9861
숙	-10.9862
▁개선에	-10.9865
▁대외	-10.9868
윤	-10.987
▁추첨	-10.9873
▁손상	-10.9875
▁선진국	-10.9876
▁지갑	-10.9879
▁이송	-10.988
▁묵	-10.9881
▁합쳐	-10.9881
톤	-10.9882
▁헤어	-10.9883
▁단기	-10.9886
▁면담	-10.9889
▁내년도	-10.9891
▁도착한	-10.9893
▁전해	-10.9894
자동차	-10.9896
▁영양	-10.9898
▁평생교육	-10.99
▁DMZ	-10.9901
▁심의위원회	-10.9901
정돼	-10.9902
▁개원	-10.9902
▁중동	-10.9903
작업	-10.9904
▁논	-10.9908
▁보석	-10.9925
▁선호도	-10.9928
▁지원받	-10.9928
느라	-10.9928
▁아이폰	-10.9929
▁보세요	-10.993
▁주신	-10.9935
▁되는지	-10.9935
O	-10.9944
▁직장인	-10.9944
▁땅에	-10.9944
▁충실	-10.9947
▁유착	-10.9947
▁금융권	-10.9948
▁많은데	-10.9948
▁위원장과	-10.9949
▁입주자	-10.9954
▁묘	-10.9957
▁정하여	-10.9957
률이	-10.9959
▁금방	-10.9962
▁줘	-10.9964
▁변신	-10.9968
▁5000	-10.9969
놀이	-10.9972
▁중에서도	-10.9972
▁불안감	-10.9974
▁금융기관	-10.9976
▁어렵다고	-10.9978
장치	-10.998
하실	-10.9981
▁경로	-10.9981
▁중국인	-10.9981
▁이동통신	-10.9982
▁부위원장이	-10.9982
▁깨	-10.9983
▁위축	-10.9983
▁업체들	-10.9987
▁과세	-10.9987
▁넥센	-10.9987
면적	-10.9988
‧	-10.9988
▁공화당	-10.999
▁디	-10.9991
▁한꺼	-10.9995
▁테러	-10.9996
▁꾸	-10.9998
▁언니	-11
▁때문이	-11.0003
▁포즈	-11.0004
▁활발히	-11.0005
▁참가하는	-11.0005
▁텔레비전	-11.0005
걸	-11.0006
▁학계	-11.001
하다는	-11.0012
▁나오면	-11.0013
▁삼성바이오	-11.0013
▁경제부총리	-11.0015
▁남겼다	-11.0015
▁진행되었다	-11.0015
▁선출	-11.0016
전에서	-11.0016
▁아르바이트	-11.0016
▁궁금해	-11.0016
해주시기	-11.0017
▁파손	-11.0018
▁무언가	-11.002
▁사건과	-11.0022
▁기량	-11.0022
▁출구	-11.0023
▁맞이	-11.0025
▁접수된	-11.0029
▁구성원	-11.0029
▁과학기술	-11.003
▁문제와	-11.0032
▁건강보험	-11.0032
▁개시	-11.0033
▁외모	-11.0034
▁연준	-11.0035
▁대화가	-11.0036
▁유지하	-11.0036
▁2004	-11.004
받았다	-11.0043
▁지내고	-11.0046
▁지내	-11.0046
▁금융위원회	-11.0048
▁BMW	-11.0048
▁공장이	-11.005
▁일반적으로	-11.0056
▁됐다고	-11.0056
▁어르신	-11.0058
▁하나는	-11.0058
▁육아	-11.0061
▁지시했다	-11.0062
▁걸렸다	-11.0064
▁여부에	-11.0067
▁올리	-11.0069
▁열악	-11.0069
▁취미	-11.007
▁장기간	-11.0071
▁세웠다	-11.0073
▁정기적	-11.0073
새	-11.0073
▁학기	-11.0073
▁업계에서	-11.0078
▁참석할	-11.0079
▁사로잡는	-11.0085
▁규정하고	-11.0086
▁메인	-11.0089
▁내용이다	-11.0091
▁폭이	-11.0091
▁해군	-11.0096
▁부산광역시	-11.0097
▁신중	-11.0102
▁V	-11.0104
▁사진과	-11.0104
▁소요	-11.0105
▁주최한	-11.0107
▁나라에서	-11.0112
작	-11.0112
▁전투	-11.0115
▁쉬	-11.0115
故	-11.0117
▁월드	-11.0117
▁탁월	-11.0122
▁학과	-11.0123
▁만나서	-11.0128
인에게	-11.0128
▁선택할	-11.0129
▁패널	-11.0132
달아	-11.0133
▁KBO	-11.0133
▁결승	-11.0134
▁800	-11.0135
▁의정부	-11.0136
▁신제품	-11.0138
▁침입	-11.0142
▁용	-11.0144
▁조사결과	-11.0144
▁밟	-11.0147
▁게시	-11.0147
장으로	-11.0148
만에	-11.0149
당시	-11.0149
▁작업에	-11.0152
것을	-11.0153
▁의문이	-11.0155
▁인스타그램	-11.0157
▁제외하고	-11.016
글로벌	-11.016
▁투입된	-11.0162
▁안전사고	-11.0162
안이	-11.0163
▁여론조사	-11.0165
▁인상이	-11.0166
학기	-11.0167
▁라면	-11.0172
▁스위스	-11.0173
▁싸이	-11.0174
▁바이어	-11.0175
▁청사	-11.0178
지와	-11.0182
대비	-11.0183
▁손님이	-11.0183
▁요구하고	-11.0185
▁선정해	-11.0186
▁판단해	-11.0187
▁2,000	-11.0187
▁거점	-11.0188
▁애니메이션	-11.0188
▁내부에서	-11.019
▁측에서	-11.019
▁무더위	-11.0192
▁위치해	-11.0193
▁후배	-11.0195
ha	-11.0198
▁한다면	-11.0202
▁한강	-11.0203
▁승무원	-11.0206
▁멤버들이	-11.0207
▁많을	-11.0207
▁시나리오	-11.0214
▁너도	-11.0219
▁여성들	-11.0219
▁건수	-11.022
▁순수	-11.0222
께	-11.0223
▁유지하고	-11.0224
▁강렬	-11.0225
▁자격이	-11.0228
▁증인	-11.0229
▁벤투	-11.0231
종의	-11.0233
▁작성해	-11.0238
포인트	-11.0238
▁가르치	-11.024
▁선행	-11.0245
▁부드러	-11.0249
▁기기	-11.0249
▁자가	-11.0251
▁재배	-11.0252
▁배우들이	-11.0256
▁숙제	-11.0267
▁문재인정부	-11.0269
▁조별리그	-11.0271
▁마이너스	-11.0272
▁수강	-11.0272
▁자율	-11.0272
척	-11.0273
시키고	-11.0275
▁오신	-11.0276
▁선고받았다	-11.0277
▁웹툰	-11.028
▁어렸을	-11.0282
돈	-11.0283
▁관점에서	-11.0283
(3	-11.0283
▁타자	-11.0284
▁존중	-11.0284
▁선두	-11.0287
▁철회	-11.0287
상은	-11.0288
▁탈출	-11.0288
▁43	-11.0289
▁환경에서	-11.0289
▁좋아합니다	-11.0293
보는	-11.0293
▁잡기	-11.0295
▁추진해	-11.0295
▁과학기술정보통신부	-11.0298
▁그와	-11.0298
▁상해	-11.0299
▁700	-11.03
▁들었어요	-11.0302
▁걸고	-11.0303
▁수요일	-11.0303
▁대법원장이	-11.0303
▁등장했다	-11.031
▁적용되	-11.0311
▁수강료	-11.0312
▁확대될	-11.0315
▁분실	-11.0315
▁여름에	-11.0315
▁견제	-11.0317
▁동구	-11.0318
▁저출산	-11.0319
▁기한	-11.032
▁탓	-11.0321
▁차로	-11.0324
▁짓고	-11.0324
투자	-11.0325
▁지진이	-11.0327
▁열쇠	-11.0328
▁황교안	-11.0331
▁실형	-11.0331
▁저기	-11.0332
▁37	-11.0333
▁특강	-11.0333
▁밀	-11.0335
▁발언이	-11.0336
▁점검하고	-11.0339
▁마스크	-11.0344
▁건지	-11.0344
▁연설	-11.0345
▁노동시간	-11.0345
▁살기	-11.0347
▁선택한	-11.0349
▁중앙정부	-11.0353
▁석유	-11.0353
▁주장하고	-11.0354
완	-11.0357
이면	-11.0368
필	-11.037
▁구매한	-11.0372
▁정부에서	-11.0372
엘	-11.0374
곳에	-11.0376
▁심판	-11.0377
▁패턴	-11.0379
▁끈	-11.0384
일로부터	-11.0384
으면서	-11.0386
▁길에	-11.0386
▁결단	-11.0389
▁뉴	-11.039
▁검토하고	-11.0393
▁생활이	-11.04
▁널	-11.04
▁교장	-11.0404
▁동남아	-11.0404
▁페이스북에	-11.0406
▁혼자서	-11.0411
▁도로를	-11.0415
했을	-11.0418
▁책임감	-11.0418
▁법원에	-11.042
▁포함되	-11.042
▁이뤄지는	-11.042
▁안심	-11.0425
▁오고	-11.0425
쳐	-11.0427
▁불만이	-11.0427
▁다음으로	-11.0428
▁꼽히는	-11.0429
▁조율	-11.0433
자로서	-11.0436
▁마찬가지	-11.0436
▁철수	-11.0436
았다	-11.0438
▁선정했다	-11.0441
▁아이스크림	-11.0442
▁감독과	-11.0446
▁너와	-11.0448
▁구의	-11.0449
▁제외한다	-11.0453
나라	-11.0457
편의	-11.0457
▁이룬	-11.0458
체험	-11.0459
▁한국어로	-11.046
일자리	-11.0461
▁전망했	-11.0465
▁풍경	-11.0469
▁주주	-11.0472
▁남자가	-11.0473
▁주시	-11.0474
▁김영	-11.0477
▁잇따르	-11.0478
▁생산량	-11.0478
▁공유하	-11.0479
▁신라	-11.0479
▁가요	-11.0479
▁FTA	-11.0481
▁창립	-11.0481
었는데	-11.0483
▁역사가	-11.0485
▁고대	-11.0486
▁재밌	-11.0488
▁지난해에	-11.0489
▁상징	-11.0494
▁주민등록	-11.0495
발전	-11.0496
▁우산	-11.0498
슨	-11.0498
▁산림	-11.0502
▁기운	-11.0503
▁선고받	-11.0506
▁그곳에서	-11.0506
규모	-11.0506
분간	-11.0507
▁비상	-11.0509
▁얼굴이	-11.051
▁본선	-11.0511
▁첫째	-11.0513
▁선수단	-11.0516
▁추산	-11.0516
▁한미	-11.0519
▁농업인	-11.0519
▁짜	-11.052
▁일자	-11.052
▁밀접	-11.052
▁대륙	-11.0523
▁최우수	-11.0524
▁분산	-11.0526
▁소위	-11.0529
기와	-11.0529
▁수주	-11.0533
▁맞추	-11.0534
▁잡는	-11.0535
▁오르	-11.0535
꽉	-11.0536
▁시행계획	-11.0536
▁광진구	-11.0537
▁주관한	-11.054
▁촉구	-11.0541
▁불가능	-11.0541
▁사장님	-11.0541
▁축제로	-11.0543
엔터테인먼트	-11.0544
층에서	-11.0545
▁관찰	-11.0545
▁가벼운	-11.0548
▁나눈	-11.0549
▁해주는	-11.0549
▁예쁜	-11.0549
▁축구대표팀	-11.055
▁붙잡혔다	-11.055
▁같네요	-11.055
▁어우러져	-11.0551
▁옮기	-11.0553
지수	-11.0553
▁자금이	-11.0556
▁먹기	-11.0558
▁아픔	-11.0558
▁털어	-11.0559
▁집안	-11.056
▁지나가	-11.0561
▁잉글랜드	-11.0561
▁세일	-11.0564
▁탄탄한	-11.0567
▁잘하는	-11.0567
▁돌아왔다	-11.0567
▁바쁜	-11.0568
업계	-11.0569
▁물량이	-11.0572
▁양산	-11.0575
▁대표단	-11.0575
▁시작한다	-11.0579
▁바뀐	-11.0581
▁입국	-11.0583
▁화합	-11.0583
▁손가락	-11.0584
▁흰	-11.0588
▁열람	-11.0591
▁수백	-11.0594
덕	-11.0594
▁문장	-11.0595
▁전주	-11.0595
▁연습을	-11.0596
▁불가피한	-11.0597
▁고령화	-11.0598
▁대북제재	-11.06
서의	-11.0601
▁챙겨	-11.0601
통신	-11.0601
▁공조	-11.0605
▁보증금	-11.0605
▁돋보이는	-11.0605
▁그치	-11.0607
▁합리적	-11.0609
▁의거	-11.061
▁연다	-11.061
▁유망	-11.061
▁날인	-11.0613
▁내신	-11.0615
▁소득주도성장	-11.0615
관을	-11.0617
▁이루	-11.0621
▁재개발	-11.0621
▁서울에서	-11.0624
▁중간에	-11.0624
▁국장	-11.0629
▁전체적으로	-11.0631
생활	-11.0635
▁화성시	-11.0635
▁영하	-11.0636
▁평소에	-11.0639
▁펴	-11.064
▁울산시	-11.064
▁싶어서	-11.064
세로	-11.0641
▁뿐이다	-11.0643
▁재현	-11.0643
▁거치	-11.0644
▁인형	-11.0644
게임	-11.0646
U	-11.0646
구역	-11.0647
▁괜찮	-11.0648
▁싶다는	-11.0649
▁탈락	-11.065
▁수영	-11.065
▁하세요	-11.065
▁부르는	-11.0652
▁서울중앙지법	-11.0652
▁전국에	-11.0654
▁체감	-11.0654
협력	-11.0655
▁연애	-11.0655
▁성남시	-11.0656
▁하위	-11.0659
▁김동	-11.0659
▁간격	-11.0661
▁농장	-11.0661
▁조성사업	-11.0661
이던	-11.0666
번호를	-11.0666
▁매달	-11.0666
▁채소	-11.0668
▁이상한	-11.0671
▁케이크	-11.0671
▁아쉬움	-11.0675
▁국회의장	-11.0677
▁대중문화	-11.068
▁관해서	-11.068
▁맑은	-11.0681
▁160	-11.0681
▁블로그	-11.0682
▁고소	-11.0684
▁악	-11.0685
▁물가	-11.0685
▁당국의	-11.0687
▁연구위원	-11.0688
만원으로	-11.0688
▁무렵	-11.0689
▁바퀴	-11.0692
▁빌	-11.0693
▁맥	-11.0696
▁똑같	-11.0697
▁비자	-11.0706
▁벌어지	-11.0706
▁기도	-11.0708
▁다해	-11.0708
▁개장	-11.0712
▁부채	-11.0712
픈	-11.0713
▁구두	-11.072
▁시범사업	-11.0722
▁분이	-11.0725
▁면	-11.0726
▁파문	-11.0728
▁헝가리	-11.073
질이	-11.0731
▁발사	-11.0731
전까지	-11.0733
▁파주	-11.0736
▁협박	-11.0737
▁가능성에	-11.0737
▁등에게	-11.0739
▁케이블	-11.0739
▁짓	-11.0739
사로	-11.0741
▁평창	-11.0742
▁멈추	-11.0748
년차	-11.075
▁용산	-11.075
▁인정한	-11.0752
▁견해	-11.0755
져야	-11.0757
▁인정받	-11.0758
▁현역	-11.0759
▁나오기	-11.0761
▁오늘도	-11.0768
▁프로그램으로	-11.0769
▁외출	-11.077
▁것이며	-11.0771
▁취급	-11.0772
▁자랑하	-11.0774
▁문화에	-11.0778
▁공무원들이	-11.078
▁예정인	-11.0781
▁속한	-11.0785
제는	-11.0786
▁귀사	-11.0787
▁화물	-11.0792
▁창원시	-11.0793
▁이어진다	-11.0794
▁보상금	-11.0794
▁세무조사	-11.0794
▁반등	-11.0795
천명	-11.0797
▁고시	-11.0798
▁발표된	-11.0798
▁루	-11.08
자금	-11.08
▁지불	-11.0801
▁채워	-11.0801
리와	-11.0803
내용	-11.0808
▁라	-11.081
▁거리에	-11.0813
▁걷	-11.0814
▁전화번호	-11.0815
▁벗	-11.0815
▁크	-11.0819
▁운동이	-11.082
은행	-11.0822
▁소화	-11.0824
▁생산성	-11.0824
▁48	-11.0825
▁악취	-11.0832
▁유니폼	-11.0833
▁민주화	-11.0834
▁54	-11.0835
▁오기	-11.0835
▁독점	-11.0836
▁있으므로	-11.0837
▁교정	-11.0837
▁놀러	-11.0837
▁소폭	-11.0838
▁상권	-11.0838
▁〈	-11.084
▁대대적	-11.0841
▁듯하다	-11.0842
▁예정이에요	-11.0847
▁삼성바이오로직스	-11.0849
▁언젠가	-11.0849
▁아끼	-11.085
▁미치지	-11.0851
부서	-11.0854
▁알아야	-11.0855
▁청원	-11.0857
▁관계없	-11.0857
▁액션	-11.0857
화가	-11.0858
▁답방	-11.0859
았습니다	-11.086
▁칠	-11.086
▁관심사	-11.086
미르	-11.0861
▁꿈이	-11.0862
▁기록하며	-11.0862
당이	-11.0867
▁내부에	-11.0869
▁경기에	-11.087
▁붙어	-11.0871
▁내기	-11.0877
▁생각하지	-11.0878
▁종일	-11.0883
▁구미	-11.0884
▁발의	-11.0885
▁반영해	-11.0885
심의	-11.0886
▁박차	-11.0887
▁독자	-11.0887
▁급속	-11.0888
▁줬다	-11.0892
▁130	-11.0893
▁공식적으로	-11.0895
▁공부하고	-11.0898
제로	-11.0898
▁상시	-11.09
▁맞았다	-11.0902
▁용인시	-11.0903
▁요청하는	-11.0906
▁휴대	-11.0906
▁마련되어	-11.0906
업	-11.0907
▁폭발적	-11.0915
▁귀국	-11.0915
사고	-11.0916
시킨다	-11.0918
리에	-11.0918
연구	-11.0918
▁이바지	-11.0919
▁처리할	-11.0919
▁지침	-11.092
▁팬들에게	-11.0922
▁출신인	-11.0922
▁확인하	-11.0923
구의	-11.0923
▁검출	-11.0925
▁추후	-11.0929
▁지분을	-11.0929
▁생기는	-11.0929
▁자치구	-11.0931
▁증언	-11.0932
▁중심이	-11.0932
▁민간단체	-11.0932
▁키우는	-11.0942
▁관심도	-11.0943
▁지키고	-11.0947
▁노력해야	-11.0948
▁서부	-11.0951
▁탓이	-11.0951
▁관광객들이	-11.0952
▁공부하는	-11.0953
▁들어오는	-11.0953
▁풀어	-11.0956
▁패배	-11.0958
동이	-11.0958
지방자치법	-11.0959
▁인생을	-11.0959
▁변경이	-11.096
▁전무	-11.0962
▁감기	-11.0963
보호하기	-11.0963
▁잇는	-11.0968
▁한국은행	-11.0971
지방공무원	-11.0972
▁얼음	-11.0973
ICT	-11.0975
료를	-11.0977
▁이른다	-11.0978
된다고	-11.0979
▁기다리	-11.0983
▁로마	-11.0983
▁힘입	-11.0984
▁주면	-11.0985
▁탑	-11.0989
▁류현진	-11.0992
▁가능하고	-11.0995
▁개발이	-11.0996
▁방문할	-11.0997
▁부착	-11.0998
▁흘리	-11.0998
▁확정된	-11.1
▁나지	-11.1
▁특화	-11.1001
▁화상	-11.1002
▁자원봉사	-11.1002
▁상승했다	-11.1003
▁피부에	-11.1003
▁국어	-11.1007
▁성격이	-11.1008
▁시작되는	-11.1008
▁공정성	-11.1008
▁정체성	-11.1008
▁파괴	-11.1009
▁생생	-11.1012
▁협의체	-11.1017
▁반발이	-11.102
됐으며	-11.1021
▁쪽이	-11.1022
▁확대하는	-11.1022
▁높아진	-11.1026
띤	-11.1026
▁결정하는	-11.1028
▁조직이	-11.1029
▁3000	-11.1029
▁백제	-11.103
▁착공	-11.1032
▁합리적인	-11.1032
학과	-11.1035
▁자사	-11.1038
▁터	-11.1041
▁고가	-11.1043
▁듣기	-11.1045
듯이	-11.1046
▁눈빛	-11.1047
▁수령	-11.1048
▁유아	-11.1053
▁만화	-11.1053
▁시민이	-11.1054
▁미니	-11.1055
▁막아	-11.1063
▁위원에게	-11.1065
▁마음으로	-11.1066
▁뽑	-11.1068
국의	-11.107
▁어른	-11.1074
.”	-11.1075
〉	-11.1076
▁주관부서	-11.1078
▁어울리는	-11.108
▁화장	-11.1086
에서부터	-11.1086
▁범	-11.1087
액	-11.1094
▁아닐	-11.1094
신가요	-11.1097
▁연구결과	-11.1098
▁입었다	-11.1104
▁색깔	-11.1104
▁다문화	-11.1108
▁서대문구	-11.111
▁벚꽃	-11.1112
▁쟁점	-11.1113
▁차트	-11.1114
▁편이	-11.1115
최근	-11.1118
▁멀	-11.1119
▁스티커	-11.112
된다면	-11.1123
E	-11.1123
▁측면이	-11.1123
▁정책과	-11.1127
▁세계에	-11.1128
▁일어날	-11.1129
▁치른	-11.113
▁초미세먼지	-11.113
▁1998	-11.1132
▁아니에요	-11.1133
▁넘겨진	-11.1133
▁해석된다	-11.1134
▁컨테이너	-11.1135
▁초래	-11.1141
▁재발	-11.1142
▁김성태	-11.1142
▁월급	-11.1144
▁것이었다	-11.1147
▁내수	-11.1148
▁녹	-11.1149
▁예수님	-11.1152
▁제도개선	-11.1153
▁인연	-11.1156
▁못하면	-11.1157
▁예정이	-11.1159
▁신곡	-11.1159
▁나라에	-11.116
▁접목	-11.116
사항	-11.1164
쯤	-11.1169
▁관행	-11.117
▁구제역	-11.1171
▁품고	-11.1171
보를	-11.1171
정한	-11.1171
▁어릴	-11.1172
▁식재료	-11.1174
▁설문조사	-11.1176
▁아이디	-11.1177
▁자립	-11.1178
▁처음부터	-11.118
▁양육	-11.118
▁주간	-11.118
▁포스코	-11.1183
▁연세대	-11.1186
▁넘어가	-11.1188
▁이어가고	-11.1188
▁확인되지	-11.1188
▁벌이는	-11.1192
▁예상하고	-11.1193
▁경제에	-11.1195
▁아름답	-11.1195
▁비트코인	-11.1196
▁가이드라인	-11.1198
▁통일부	-11.1202
▁증	-11.1203
▁육군	-11.1205
▁성매매	-11.1207
▁있었어	-11.1211
▁얼굴에	-11.1211
▁주연	-11.1213
▁패스	-11.1215
▁극대화	-11.1217
▁공기청정기	-11.1217
▁삭제	-11.1221
색	-11.1223
▁가지는	-11.1224
▁장관과	-11.1225
▁안산	-11.1226
▁취한	-11.1227
▁자고	-11.1227
동의	-11.1227
▁합의했다	-11.1227
▁철강	-11.1229
▁됐고	-11.1233
▁유죄	-11.1233
▁성장하고	-11.1233
▁직위	-11.1234
▁분석하고	-11.1236
▁각별	-11.1237
지면서	-11.1239
▁신인	-11.1243
▁기록하고	-11.1244
▁투입해	-11.1249
펀드	-11.125
본부	-11.1251
봐	-11.1251
▁홀로	-11.1252
▁확인하기	-11.1254
▁변호인	-11.1254
▁41	-11.1256
있습니다	-11.1258
▁도입한	-11.1262
렸다	-11.1263
▁구축을	-11.1266
39	-11.1266
▁L	-11.1269
▁실력이	-11.1269
▁마련이	-11.127
포럼	-11.1273
느냐	-11.1274
▁작곡가	-11.1275
▁적용한	-11.1278
운영에	-11.1282
▁유족	-11.1284
나마	-11.1284
▁떨어지	-11.1285
▁과감	-11.1285
으세요	-11.1286
▁이해하기	-11.1287
▁조합원	-11.1287
안에	-11.1288
▁흡연	-11.1291
▁외치	-11.1293
▁드리	-11.1299
홀에서	-11.1299
▁김포	-11.1299
사랑	-11.1306
▁소망	-11.1306
▁소주	-11.1312
동을	-11.1312
▁입사	-11.1312
▁평화의	-11.1316
금융	-11.1316
사업에	-11.1317
▁하나님이	-11.1317
▁총액	-11.1319
상품	-11.133
▁지배	-11.1332
▁의미로	-11.1334
▁지키	-11.1334
▁유독	-11.1337
▁합의에	-11.134
전이	-11.1344
능력	-11.1345
(7	-11.1347
콘텐츠	-11.1348
▁실시해	-11.1349
▁날로	-11.1352
▁추천한	-11.1353
▁모색	-11.1353
▁다양성	-11.1353
▁걷는	-11.1355
▁위험에	-11.1358
▁일으킨	-11.1358
▁엿	-11.136
부부가	-11.1364
행사	-11.1365
▁했으나	-11.1365
▁검은색	-11.1366
전문가	-11.1368
▁서울과	-11.1369
▁일본과	-11.1371
▁59	-11.1371
▁영유아	-11.1372
▁치고	-11.1374
▁모양이	-11.1375
▁개인이	-11.1375
▁연결해	-11.1376
▁간절	-11.1378
▁않았을	-11.1381
업무를	-11.1391
▁국외	-11.1394
▁지지율	-11.1395
▁사람에	-11.1396
▁돌보	-11.1397
공급	-11.1398
▁생기면	-11.14
▁필	-11.1402
▁포기	-11.1406
민의	-11.1406
▁던지	-11.1406
▁모두에게	-11.1407
▁용어	-11.1409
눌	-11.1412
듭	-11.1412
▁사회가	-11.1413
▁뒤집	-11.1415
▁자매	-11.1416
▁광화문	-11.1417
▁여름철	-11.1418
더라고요	-11.1418
놨다	-11.1419
▁단체에	-11.1424
▁민생	-11.1426
▁중복	-11.1428
▁대학이	-11.1428
▁조성을	-11.1429
▁농구	-11.1429
▁고의	-11.1429
▁메르스	-11.143
▁늘려	-11.143
▁만만치	-11.143
▁회계연도	-11.1431
▁줄어드는	-11.1432
▁부족하다	-11.1432
▁웹	-11.1435
▁대리	-11.1436
▁어때요	-11.1437
▁악영향	-11.1438
▁가로	-11.1439
▁적발됐다	-11.1439
▁받아들일	-11.1439
▁결정한	-11.1439
▁대상에	-11.1441
▁성황리	-11.1443
▁볼턴	-11.1443
었다고	-11.1444
▁정시	-11.1445
36	-11.1446
52	-11.1447
▁단일	-11.1448
▁파악됐다	-11.1448
▁거로	-11.1452
사회적	-11.1453
▁임산부	-11.1454
▁수산물	-11.1455
▁터지	-11.1456
▁창단	-11.1457
(4	-11.1457
▁잦은	-11.146
▁입양	-11.1461
▁솔직히	-11.1462
▁읽는	-11.1462
▁확정됐다	-11.1462
▁잠정	-11.1463
관이	-11.1466
▁공매도	-11.1466
▁선교사	-11.1466
▁위치하고	-11.1466
▁노트북	-11.1466
▁기각	-11.1467
▁언제까지	-11.147
군과	-11.147
언	-11.1472
▁포스터	-11.1473
▁아니야	-11.1475
▁참여하여	-11.1477
▁공항에	-11.1479
▁발령	-11.148
▁불편함	-11.1481
▁원하지	-11.1485
▁공통	-11.1486
▁손으로	-11.149
▁가져다	-11.149
▁여섯	-11.1491
▁결의	-11.1491
▁떠났다	-11.1492
▁가공	-11.1492
▁몰래	-11.1497
▁가짜	-11.1498
왕	-11.1499
▁기상	-11.1504
▁가져가	-11.1506
▁뚫	-11.1507
▁이루는	-11.1507
익	-11.1508
▁나섰	-11.1509
▁환승	-11.1511
▁어디에서	-11.1512
▁오가	-11.1515
해줄	-11.1517
만명에	-11.1519
▁이루고	-11.1522
▁운영해	-11.1523
▁설명하고	-11.1523
▁사례로	-11.1524
▁전송	-11.1525
▁학업	-11.1525
▁약세	-11.1528
▁확대에	-11.1528
▁그릇	-11.1528
▁빛나	-11.1529
▁받았던	-11.1529
▁내리고	-11.1532
▁얻는	-11.1532
원과	-11.1532
방안	-11.154
▁귀가	-11.154
▁똑같은	-11.1543
▁출연한	-11.1544
▁발효	-11.1544
▁강화하는	-11.1546
▁소문이	-11.1546
▁교육과정	-11.1548
▁호소	-11.1548
▁어렵고	-11.1548
두에	-11.1551
▁문법	-11.1553
▁했을	-11.1556
▁중이며	-11.1556
▁경제정책	-11.1558
▁개관	-11.1561
▁부상으로	-11.1562
▁용의자	-11.1565
기금	-11.1568
▁소개해	-11.1568
▁변동성	-11.1569
빈	-11.1571
▁불참	-11.1575
▁관절	-11.1575
단위	-11.1576
▁확보할	-11.1576
▁뉴질랜드	-11.1578
▁동원해	-11.1579
▁양이	-11.1581
▁간다	-11.1581
▁파주시	-11.1587
▁간편	-11.1588
▁검은	-11.1588
▁나가겠다	-11.1588
▁웹사이트	-11.1592
▁레스토랑	-11.1593
▁기념식	-11.1593
▁인보이스	-11.1596
▁반해	-11.1599
▁흔들리	-11.16
률	-11.16
▁식물	-11.1601
▁잠깐	-11.1604
▁엄	-11.1605
▁테이블	-11.1608
창업	-11.1609
▁시에는	-11.161
▁침수	-11.1612
▁계층	-11.1615
사들이	-11.1617
▁떡	-11.1618
현직	-11.1618
▁닭	-11.1619
▁지원자	-11.1623
▁J	-11.1628
▁했기	-11.1631
▁슈퍼	-11.1631
▁초에	-11.1635
▁방법에	-11.1638
▁정확	-11.1638
▁세상에서	-11.164
▁펼치는	-11.1641
공연	-11.1641
▁석방	-11.1643
▁설립된	-11.1644
▁연구가	-11.1646
▁같지	-11.1646
▁협상에	-11.1647
▁농민	-11.1648
▁확인된	-11.165
38	-11.165
▁체결한	-11.1651
▁접수한	-11.1651
▁물어	-11.1654
▁요금이	-11.1658
▁연결하	-11.166
▁수사권	-11.1663
▁결재	-11.1663
▁민주평화당	-11.1666
▁수위	-11.1669
▁정밀	-11.1671
▁도착할	-11.1671
▁여러분들	-11.1671
▁낮다	-11.1672
조직	-11.1674
▁연구진	-11.1675
▁수준에	-11.1675
32	-11.1675
예	-11.1678
▁짐작	-11.1679
▁말라	-11.168
▁도약	-11.168
▁뜨겁	-11.168
▁소개하고	-11.1682
▁갔	-11.1682
▁표본	-11.1683
▁살아가는	-11.1684
▁배정	-11.1684
▁올라온	-11.169
▁출국	-11.1693
도와	-11.1693
▁구역	-11.1695
▁함유	-11.1701
▁메이	-11.1703
▁드러내	-11.1709
계약	-11.1712
본부장	-11.1713
▁야간	-11.1716
▁걸음	-11.1716
▁다큐멘터리	-11.1716
▁승소	-11.1717
▁원주	-11.1718
지금	-11.1718
▁받아들이	-11.1721
▁공직자	-11.1721
▁랩	-11.1722
▁업소	-11.1722
부문	-11.1727
▁시인	-11.1728
국제	-11.1729
▁무너지	-11.1731
팔렘방	-11.1731
디자인	-11.1733
▁화해	-11.1733
브	-11.1734
▁흐름이	-11.1737
▁어때	-11.1737
▁위원회에서	-11.1738
▁대략	-11.1738
▁수혜	-11.1738
해진다	-11.1739
▁1960	-11.174
▁민간위탁	-11.1741
▁익숙	-11.1741
▁수원시	-11.1741
▁연령	-11.1741
▁겨우	-11.1742
▁메신저	-11.1742
▁쪽에	-11.1743
▁코스피	-11.1743
▁돌아올	-11.1743
▁견적	-11.1744
장에	-11.1745
▁너한테	-11.1747
▁달했다	-11.1748
▁들어설	-11.1749
담	-11.175
▁아파	-11.1752
▁높아지면서	-11.1755
전통적인	-11.1755
▁확보하고	-11.1755
▁매운	-11.1757
▁내놨다	-11.1757
▁기다려야	-11.1757
▁김영철	-11.1758
▁인명피해	-11.1758
▁사용하면	-11.1759
▁만기	-11.176
▁전격	-11.176
▁제어	-11.176
▁언론에	-11.176
하였으나	-11.176
▁신기술	-11.1762
▁홍역	-11.1763
▁평택항	-11.1764
▁밑	-11.1766
▁쿠폰	-11.1766
▁오사카	-11.1767
▁있죠	-11.1767
▁방송사	-11.1767
▁명문	-11.1768
▁마쳤다	-11.1769
▁오후에	-11.1769
▁정준영	-11.1769
▁들어간다	-11.177
▁경기장	-11.1771
▁모르겠다	-11.1772
▁신흥국	-11.1772
▁수소	-11.1772
▁엘리베이터	-11.1773
▁누워	-11.1775
▁네덜란드	-11.1775
▁벌어졌다	-11.1776
▁두되	-11.1777
▁기술개발	-11.1777
▁말이야	-11.1778
▁안타	-11.1782
▁보호자	-11.1782
▁마크	-11.1783
▁JTBC	-11.1786
▁영광	-11.1788
▁수업에	-11.1789
▁개선될	-11.1789
▁것인가	-11.1791
▁시원한	-11.1791
▁쓰이는	-11.1792
▁앉아서	-11.1794
▁힙합	-11.1796
▁창문	-11.1798
▁돕고	-11.1799
▁떨어지고	-11.1799
▁도와주	-11.18
▁청와대와	-11.1802
관광	-11.1802
▁중국산	-11.1803
▁재벌	-11.1805
▁잠재력	-11.1805
▁신뢰도	-11.1806
▁풍	-11.1807
▁요인으로	-11.1807
만대	-11.1808
▁욕구	-11.181
해주셔서	-11.181
▁공연장	-11.1812
▁확보하기	-11.1812
▁관계기관	-11.1814
▁경고했다	-11.1814
▁총수	-11.1819
▁하나님께서	-11.182
▁촬영한	-11.1825
▁때문이라고	-11.1825
▁KTX	-11.1829
▁켜	-11.1829
▁형식으로	-11.1829
▁일어나는	-11.183
▁한자리에	-11.1831
광	-11.1832
확인	-11.1834
▁갖추	-11.1839
▁속이	-11.1844
보험	-11.1846
▁돌아온	-11.1848
▁방안에	-11.1849
▁지목	-11.1851
▁문화원	-11.1852
▁숨겨	-11.1852
▁달이	-11.1853
▁느껴지는	-11.1854
▁바꾸고	-11.1855
▁국가와	-11.1855
임	-11.1856
▁기자회견에서	-11.1857
▁파워	-11.1857
▁계획에	-11.1857
▁고용부	-11.1857
▁좋겠습니	-11.1858
▁없었고	-11.186
▁있으신가	-11.1864
▁모은다	-11.1864
▁끌어	-11.1866
너	-11.1867
▁하반기에	-11.1869
▁잃고	-11.1872
▁봤는데	-11.1874
SNS	-11.1875
▁주위	-11.188
▁경과	-11.1882
원들이	-11.1882
▁조립	-11.1885
남북	-11.1885
▁검토해	-11.1887
▁변경할	-11.1888
▁늦어	-11.1889
▁음악이	-11.189
▁설득	-11.189
▁협동조합	-11.1892
행정	-11.1893
정의	-11.1894
계획	-11.1898
▁발표할	-11.19
▁활기	-11.19
▁조성에	-11.1903
▁부사장	-11.1905
▁좋았다	-11.1906
▁전담	-11.1909
잔	-11.1911
시험	-11.1912
▁겹치	-11.1914
▁희생자	-11.1915
신고	-11.1916
▁티	-11.1916
▁모델이	-11.1922
▁먹지	-11.1922
견	-11.1923
▁허락	-11.1923
▁목격자	-11.1925
▁내면	-11.1934
▁김성	-11.1942
였어요	-11.1943
▁제보	-11.1944
송	-11.1944
선이	-11.1946
결정	-11.1947
하다고	-11.1948
지난	-11.1949
▁보험사	-11.1958
▁음반	-11.1959
▁이례적	-11.1959
▁공개된다	-11.1963
▁누락	-11.1966
▁일정에	-11.1967
복지	-11.1967
▁회사와	-11.1971
▁예매	-11.1974
순위	-11.1974
관에서	-11.198
▁한국전쟁	-11.1984
커	-11.1988
▁골프장	-11.1989
▁원이	-11.199
▁전면에	-11.199
룡	-11.199
▁기아차	-11.1991
▁그들에게	-11.1994
▁스트리밍	-11.1998
▁추진한	-11.1999
▁모범	-11.1999
▁계신	-11.1999
극	-11.2002
심이	-11.2002
▁모금	-11.2002
▁듣	-11.2003
▁거주하고	-11.2004
▁효율성	-11.2004
▁생활에	-11.2005
▁전반적	-11.2008
▁PD	-11.2009
▁기금을	-11.201
▁안전에	-11.201
▁압도적	-11.2011
고를	-11.2014
운용	-11.2017
▁치아	-11.2022
▁추경	-11.2027
손	-11.2029
▁구매하	-11.2029
▁지지층	-11.2031
차량	-11.2032
▁브리핑	-11.2032
▁베네수엘라	-11.2033
이든	-11.2035
▁중소기업이	-11.2035
▁골자	-11.2035
▁방치	-11.2037
▁이용자들	-11.2038
▁쏟아져	-11.2038
▁청탁	-11.2041
▁관계공무원	-11.2041
▁관리하고	-11.2043
▁1970	-11.2045
▁늘어	-11.2046
▁괜찮아	-11.2048
▁수술을	-11.2048
▁생긴다	-11.205
▁사생활	-11.2053
▁가져오	-11.2054
▁횡령	-11.2054
▁떨	-11.2058
▁놓치	-11.2058
▁거짓	-11.2059
▁교재	-11.206
▁추천하는	-11.2064
▁헌법재판소	-11.2066
▁나옵니	-11.2067
▁그림이	-11.2067
▁이루어질	-11.2067
▁경기도농업기술원	-11.2068
▁하락한	-11.2069
▁무용	-11.2071
▁알려주시면	-11.2071
▁모르겠어요	-11.2073
규제	-11.2074
▁윤씨	-11.2079
▁블라디	-11.2079
▁보내준	-11.208
단의	-11.208
▁신청하면	-11.2084
▁시내버스	-11.2085
▁타당성	-11.209
전문	-11.209
▁보여줬다	-11.2092
▁신고했다	-11.2092
▁타결	-11.2094
▁도대체	-11.2095
▁안정성	-11.2095
▁형제	-11.2098
▁하나만	-11.2098
▁자녀들	-11.2098
▁깊게	-11.21
▁편안하	-11.2101
▁와중에	-11.2103
▁부분에서	-11.2104
회째	-11.2105
▁결정된	-11.2106
▁편안한	-11.2108
▁인공	-11.211
▁만남이	-11.2111
▁국산	-11.2112
▁앞장서	-11.2112
부와	-11.2113
▁불공정	-11.2114
▁공표	-11.2114
▁강풍	-11.2115
▁지키는	-11.2116
▁블루	-11.2117
▁냉장고	-11.2118
시키기	-11.2119
▁도자기	-11.212
▁행정처분	-11.2121
▁KIA	-11.2122
▁요구에	-11.2126
▁면모	-11.2127
▁키워	-11.2128
▁고난	-11.2129
추가	-11.2129
▁높여	-11.213
▁특성에	-11.2137
▁용이	-11.2138
▁대사관	-11.2138
▁배운	-11.2141
▁가사	-11.2146
상담	-11.2146
▁오전에	-11.2148
▁났	-11.2148
▁믿는	-11.215
▁대학에서	-11.2152
▁논의했다	-11.2152
▁떼	-11.2157
▁품격	-11.2158
▁시점에서	-11.216
▁민원이	-11.2161
만명이	-11.2164
▁가능하게	-11.2166
▁뽑아	-11.2168
▁동화	-11.2168
▁나은	-11.2169
▁합격자	-11.2171
▁주도한	-11.2171
▁자리로	-11.2172
▁기관에	-11.2173
시간에	-11.2174
▁결과로	-11.2174
▁작곡	-11.2175
▁결실	-11.218
▁패	-11.2181
▁괜찮은	-11.2182
▁완료된	-11.2183
하셔야	-11.2186
▁위탁받	-11.2188
▁성숙	-11.2191
주기	-11.2191
퍼	-11.2192
▁불과한	-11.2195
▁안전하고	-11.2195
▁해당한다	-11.2195
하길	-11.2197
▁넘지	-11.2199
▁고성	-11.2201
▁옥	-11.2202
▁단가	-11.2203
▁혁신성장	-11.2205
만원에	-11.2207
한화	-11.2209
▁본격화	-11.2212
이므로	-11.2213
▁숨지	-11.2213
▁중지	-11.2214
허가	-11.2215
암	-11.2218
▁다가오는	-11.222
택	-11.222
데도	-11.2223
일수록	-11.2223
▁토요일에	-11.2224
▁말했	-11.2225
▁적용할	-11.2225
▁시점에	-11.223
술에	-11.2231
▁1995	-11.2231
▁원단	-11.2232
품	-11.2233
▁끌	-11.2234
▁대학에	-11.2234
▁쓰기	-11.2234
▁KB	-11.2235
▁항소심	-11.2236
및	-11.2236
▁다닐	-11.2236
▁쉽	-11.2238
▁고민이	-11.2241
▁선정한	-11.2242
▁대표자	-11.2242
▁작품에	-11.2244
▁맞이하	-11.2244
▁헌법	-11.2245
▁가려고	-11.2247
▁이뤄진다	-11.2248
▁판교	-11.2248
▁확정되면	-11.2249
▁대표로	-11.225
▁조성하고	-11.225
▁공무원으로	-11.2252
▁보편적	-11.2254
▁제출받	-11.2255
보면	-11.2255
▁움직이	-11.2255
▁세제	-11.2256
▁영세	-11.2258
▁체크인	-11.2258
▁제출할	-11.227
으로는	-11.2271
째	-11.2272
▁수상자	-11.2273
▁네티즌	-11.2275
▁참석하는	-11.2275
▁수렴	-11.2277
▁중재	-11.2278
▁퇴직	-11.2278
▁본부	-11.228
현지시각	-11.2283
▁겨울철	-11.2284
▁도청	-11.2285
▁47	-11.2285
▁전산	-11.2286
학생	-11.2287
▁주인이	-11.2289
해졌다	-11.2289
▁임상	-11.2292
▁갖추어	-11.2294
▁살려	-11.2296
▁미래에	-11.23
▁쏟아지	-11.2301
▁포기하	-11.2301
촌	-11.2304
▁인간이	-11.2304
동연	-11.2305
권이	-11.2305
▁동해	-11.2307
▁신분증	-11.231
▁돌려	-11.231
됐다는	-11.2312
▁지난해보다	-11.2317
▁말씀해	-11.2317
▁법관	-11.2317
▁중순	-11.2319
▁연루	-11.2321
▁들어온	-11.2324
▁매매	-11.2327
▁지원하겠다	-11.2329
▁덮	-11.2331
오는	-11.2333
▁없음	-11.2334
▁느꼈	-11.2336
▁독	-11.2338
▁민주	-11.2338
▁더했다	-11.2342
▁국가주석	-11.2342
▁손흥민이	-11.2344
▁가수들	-11.2346
▁증가에	-11.2346
▁남한	-11.2346
▁시리아	-11.2352
▁태어나	-11.2361
▁경찰관	-11.2362
d	-11.2364
▁방역	-11.2367
▁감사원	-11.2368
▁광역	-11.2369
종이	-11.2369
▁임대주택	-11.2369
▁정도는	-11.2373
▁군산	-11.2373
▁운영비	-11.2378
실래요	-11.2379
▁승진	-11.2379
▁건물에	-11.2381
100	-11.2382
▁선진	-11.2386
▁카드로	-11.2386
텔레콤	-11.2387
▁등장한	-11.2388
▁염려	-11.2388
▁비만	-11.239
▁평일	-11.2391
▁추운	-11.2391
▁신청했다	-11.2391
문화가	-11.2392
▁매장에서	-11.2393
▁목회자	-11.2393
▁배우들	-11.2396
▁신형	-11.2396
▁모듈	-11.2397
▁이슬람	-11.2397
▁서둘러	-11.2398
▁위안화	-11.2399
▁분야별	-11.2399
보수	-11.24
▁영등포구	-11.24
▁황의조	-11.24
▁장소로	-11.2401
▁있으시면	-11.2402
▁자유로운	-11.2402
▁제외하면	-11.2403
▁감사드립니다	-11.2405
▁위탁기간	-11.2406
▁사회복지시설	-11.2406
k	-11.2411
▁달린	-11.2412
▁피로	-11.2413
▁개성공단	-11.2413
▁무조건	-11.2414
▁복무	-11.2414
▁않았어	-11.2415
▁한국문화원	-11.2416
▁불거졌다	-11.2421
▁뜻깊	-11.2422
▁촬영이	-11.2423
안전	-11.2426
▁놓인	-11.2427
신청	-11.2429
▁사후	-11.2431
▁감안해	-11.2431
시와	-11.2432
▁증권사	-11.2433
▁거두고	-11.2434
▁반발하고	-11.2435
▁우리나라에서	-11.2436
▁않거나	-11.2437
▁누구보다	-11.2438
▁제휴	-11.2443
▁양극화	-11.2444
인증	-11.2445
식이	-11.2445
전쟁	-11.2447
보니	-11.2447
▁자체적으로	-11.2451
▁뮤직	-11.2452
▁불과하다	-11.2453
▁예방하기	-11.2453
▁소스	-11.2454
▁후원금	-11.2454
▁극우	-11.2454
▁욕설	-11.2455
▁저렴하	-11.2456
고루	-11.246
▁다루는	-11.246
▁시작되기	-11.2462
▁의석	-11.2463
▁산불이	-11.2464
▁공시	-11.2465
▁환수	-11.2465
▁월요일에	-11.2465
▁명백	-11.2466
▁최적화	-11.2468
호에서	-11.2468
▁해안	-11.2469
▁인식하고	-11.247
▁보아	-11.2475
▁묶어	-11.2476
▁붉은	-11.248
▁안성	-11.2486
▁CNN	-11.2488
▁모래	-11.2489
▁없었어	-11.2489
▁체계를	-11.2491
▁마련돼	-11.2491
▁계속될	-11.2494
▁공론화	-11.2496
▁부근	-11.2502
▁기원	-11.2502
▁마련할	-11.2505
▁않았기	-11.2506
▁위안부	-11.2507
▁외국인들	-11.2508
▁미안해	-11.251
▁요구된다	-11.251
▁보건소	-11.2518
▁박수	-11.2519
▁재건축	-11.2521
▁보좌관	-11.2521
▁제시하는	-11.2522
웅	-11.2528
▁되었어요	-11.2528
▁연락해	-11.2529
▁인력이	-11.2529
2003	-11.253
▁거론	-11.2532
▁나갔다	-11.2534
▁책임자	-11.2534
▁해방	-11.2536
▁논의하는	-11.2538
▁구로구	-11.2539
앤	-11.254
▁물리적	-11.2541
▁대응할	-11.2542
센터에서	-11.2543
▁W	-11.2543
▁놓	-11.2543
▁광주형	-11.2545
▁매물	-11.2546
▁교직원	-11.2546
▁맺고	-11.2546
▁엄청나	-11.2548
▁의하면	-11.2548
살이	-11.2548
▁카풀	-11.255
▁증가율	-11.2551
▁음	-11.2551
▁일본어	-11.2552
▁분류	-11.2552
▁해법	-11.2554
▁자랑	-11.2554
▁출력	-11.2555
▁착수	-11.2556
▁블록	-11.2557
▁봐요	-11.2559
▁동료들	-11.2561
▁연예인들	-11.2561
운반	-11.2563
▁단기간	-11.2573
▁트럭	-11.258
되었던	-11.258
컵	-11.258
▁수면	-11.2581
▁생기	-11.2583
▁삼성이	-11.2584
▁약속이	-11.2584
향이	-11.2584
상으로	-11.2586
맨	-11.2587
▁선교	-11.2589
▁극단적	-11.2589
▁병행	-11.2591
▁화요일	-11.2593
해달라고	-11.2593
▁사흘	-11.2594
▁남용	-11.2594
▁가르쳐	-11.2595
▁들어가면	-11.2596
▁피할	-11.2598
▁이미지가	-11.2602
▁건강관리	-11.2606
▁구직자	-11.2608
▁갑니	-11.2609
▁왜곡	-11.2609
▁규명	-11.261
▁그러하	-11.2618
▁눈치	-11.2618
▁근대	-11.2618
▁추진된다	-11.2621
▁좌우	-11.2624
▁경북도	-11.2626
▁받았다고	-11.2628
▁도정	-11.2634
▁감정이	-11.2635
▁맞추어	-11.2638
이었지만	-11.2639
되었으면	-11.2639
▁노트	-11.2642
▁가볍	-11.2643
년의	-11.2643
현황	-11.2646
▁교과서	-11.2647
▁이하로	-11.2648
▁언론이	-11.2649
▁찍	-11.265
인사들이	-11.2652
▁학생들과	-11.2655
시를	-11.2656
▁가해	-11.266
관리하여야	-11.266
▁왔	-11.2663
코드	-11.2663
액을	-11.2665
▁작품으로	-11.2665
▁제조업체	-11.2666
장애인	-11.267
▁각오	-11.2671
기관의	-11.2672
▁놓여	-11.2672
연맹	-11.2675
소한	-11.2676
▁가상	-11.2677
▁업	-11.2681
점에서	-11.2681
▁못했	-11.2684
▁보유자	-11.2688
▁저조	-11.2689
▁관하여는	-11.2693
▁끄는	-11.2693
▁보험금	-11.2695
▁제품들	-11.2697
▁하나하나	-11.2697
금액	-11.2702
▁저번에	-11.2703
▁부작용	-11.2704
▁유적	-11.2705
▁회식	-11.2705
▁썼	-11.2706
▁기록이	-11.271
▁머무	-11.2712
▁인지	-11.2713
▁준비되어	-11.2715
▁봉	-11.2716
▁남겨	-11.2718
▁소위원회	-11.272
▁모르	-11.272
▁위법	-11.2721
이닝	-11.2722
2000	-11.2724
▁인사말	-11.2726
▁입구에	-11.2726
▁선포	-11.2729
▁유예	-11.2732
▁넷플릭스	-11.2736
법이	-11.2737
▁감상	-11.274
▁아니었다	-11.2741
▁척추	-11.2742
▁로버트	-11.2743
▁페이지	-11.2744
▁체력	-11.2745
▁보내주신	-11.2746
▁성관계	-11.2746
▁아닌지	-11.2747
▁동결	-11.2747
▁동물들	-11.2747
▁지붕	-11.2747
▁채무	-11.2748
▁한눈에	-11.2749
▁저한테	-11.275
▁쉴	-11.2752
▁있겠지만	-11.2754
▁재학	-11.2754
▁면밀	-11.2754
▁남양주	-11.2756
▁햇빛	-11.2756
▁태양	-11.2757
▁의사결정	-11.2757
▁쌍둥이	-11.2758
▁나만	-11.2759
▁먼지	-11.276
▁아쉬운	-11.276
▁연평균	-11.276
▁영문	-11.2761
▁of	-11.2761
▁무인	-11.2761
▁했는지	-11.2763
▁넘긴	-11.2763
▁해수욕장	-11.2763
▁생활폐기물	-11.2764
▁비위	-11.2766
▁적었다	-11.2766
▁싶은데요	-11.2767
▁시중	-11.2767
▁정권이	-11.277
▁디자인이	-11.2771
▁바이러스	-11.2771
▁단일팀	-11.2771
▁6·13	-11.2772
▁성희롱	-11.2774
▁일정으로	-11.2777
▁보복	-11.2779
▁조건이	-11.2784
▁후보를	-11.2787
▁식약처	-11.2789
▁스타벅스	-11.2791
▁문제다	-11.2792
▁상태였다	-11.2793
▁태어	-11.2794
▁돌아갈	-11.2794
▁인사들	-11.2794
▁포항시	-11.2796
▁불고	-11.2796
▁모르고	-11.2798
▁접대	-11.2799
▁드루킹	-11.28
▁도의회	-11.2801
▁링크	-11.2802
▁신부	-11.2804
▁국채	-11.2804
▁목요일	-11.2806
▁아세안	-11.2807
▁요청이	-11.2807
▁효력	-11.2807
▁편리한	-11.2807
▁뒷받침	-11.2807
▁순차	-11.2808
▁당선인	-11.2808
▁교섭단체	-11.281
▁음원	-11.281
▁연료	-11.281
▁기사는	-11.2811
▁도착했	-11.2812
▁착수했다	-11.2812
▁내륙	-11.2814
▁서민	-11.2815
▁빛이	-11.2815
▁리콜	-11.2818
테	-11.2818
▁만나기	-11.282
▁GS	-11.282
▁핀테크	-11.2821
▁아이콘	-11.2822
▁교수의	-11.2824
▁LED	-11.2824
▁늘어났다	-11.2825
▁되자	-11.2825
▁존재감	-11.2827
▁문제의	-11.2829
▁섬세	-11.2829
▁좋아서	-11.2829
하려	-11.283
▁사서	-11.283
▁끝으로	-11.2831
▁그녀에게	-11.2831
▁궁금한	-11.2833
▁구조적	-11.2834
▁사무관	-11.2834
됐다고	-11.2838
▁일주일에	-11.2839
▁청취	-11.284
▁꼽았	-11.2841
밥	-11.2841
해서는	-11.2842
▁기록해	-11.2842
▁좋았	-11.2843
▁해상에서	-11.2844
▁푹	-11.2845
▁방송에	-11.2849
▁불이익	-11.285
▁그려진	-11.2851
▁낙태	-11.2853
▁사실에	-11.2853
▁산림청	-11.2854
▁목적지	-11.2854
아파트	-11.2855
▁과천	-11.2855
풍	-11.2857
▁역사의	-11.2858
▁품	-11.2859
▁거니	-11.286
▁장기화	-11.2862
▁팀장	-11.2863
▁신용	-11.2865
▁개인적으로	-11.2866
▁배경이	-11.2868
▁검토한	-11.2871
▁유발	-11.2873
되었고	-11.2874
▁불가피하다	-11.2876
▁마시는	-11.288
▁아마도	-11.288
▁팝	-11.288
▁교민들	-11.2881
▁되었고	-11.2886
▁국방	-11.2886
▁열흘	-11.2892
▁좋게	-11.2893
▁산업부	-11.2893
▁차별화	-11.2897
▁일대에	-11.2897
▁뛰어	-11.2899
▁행운	-11.29
▁환자를	-11.2902
모든	-11.2903
▁칩	-11.2908
▁평가하고	-11.2914
▁크림	-11.2914
▁수단	-11.2916
▁환전	-11.2916
▁타입	-11.2919
▁상점	-11.2919
었으면	-11.2924
투어	-11.2926
▁교통안전	-11.2926
▁동작구	-11.2927
▁차지한	-11.2928
▁기숙사	-11.293
▁사내	-11.293
▁그러면서	-11.2933
▁축	-11.2935
▁제출된	-11.2938
▁증정	-11.2939
▁72	-11.2939
▁약정	-11.2948
▁공공기관이	-11.2948
▁확인되면	-11.295
도는	-11.295
수와	-11.2951
▁딸기	-11.2956
▁공간에	-11.296
▁느꼈다	-11.2964
위인	-11.2964
▁샐러드	-11.2965
▁은행에	-11.2966
▁캠퍼스	-11.2967
▁더위	-11.2968
▁나타난다	-11.2971
▁투약	-11.2972
▁나왔	-11.2973
▁골목	-11.2973
밤	-11.2977
속도로	-11.2978
▁거지	-11.2982
▁결렬	-11.2983
학년도	-11.2984
▁체류	-11.2986
▁체납	-11.299
▁차에	-11.299
▁컵	-11.2991
▁근절	-11.2995
▁매력이	-11.3
▁재직	-11.3002
▁귀여	-11.3002
▁느낀다	-11.3004
▁투자해	-11.3004
▁지혜	-11.3009
▁사용하여	-11.301
▁환경오염	-11.3012
▁불어	-11.3013
▁확립	-11.3013
▁떠오르	-11.3017
▁일본군	-11.3017
▁발길	-11.3017
▁개발과	-11.3018
▁집중하고	-11.3022
양이	-11.3023
사에서	-11.3023
▁당부	-11.3027
▁장병	-11.3032
▁결심	-11.3032
▁양보	-11.3035
▁소수	-11.3039
▁발생한다	-11.3042
▁티셔츠	-11.3042
▁환경에	-11.3045
▁먹으	-11.3048
▁이해하는	-11.3048
▁선택해	-11.3048
▁보게	-11.3049
▁공공시설	-11.3051
군에	-11.3055
▁구축하는	-11.3058
▁흡수	-11.3059
폭	-11.3061
막	-11.3061
▁경상북도	-11.3064
▁상하이	-11.3064
▁감추	-11.3065
▁콘크리트	-11.3065
▁참여자	-11.3067
▁구매자	-11.3067
▁시연	-11.307
▁프로모션	-11.3072
▁배우자	-11.3075
품을	-11.3076
▁경찰서	-11.3078
하라고	-11.3079
▁간담회에서	-11.3079
혁신	-11.308
▁조성된	-11.308
▁시행된	-11.3081
▁사라졌다	-11.3082
▁속초	-11.3082
▁차관이	-11.3083
▁결성	-11.3085
▁정치인	-11.3086
▁영화에	-11.3087
▁지금부터	-11.3089
▁의료진	-11.3089
교육감	-11.3091
▁한국문화	-11.3092
학원	-11.3094
▁일회용	-11.3095
▁일괄	-11.3099
▁카리스마	-11.3101
▁한진그룹	-11.3101
▁그렇군요	-11.3101
▁뉴욕타임스	-11.3101
▁미안하지만	-11.3102
▁출하	-11.3102
▁자신만	-11.3103
▁아래에	-11.3104
▁대금	-11.3104
▁도착해	-11.3106
▁땐	-11.3109
▁학교폭력	-11.3112
▁막혀	-11.3114
▁지나면	-11.3114
▁행사장	-11.3115
▁무거운	-11.3116
▁떠올랐다	-11.3116
▁집행유예	-11.3117
▁이렇다	-11.3117
▁걱정하지	-11.3117
▁왕실	-11.3119
▁차별화된	-11.3122
▁골라	-11.3122
▁오르면서	-11.3124
▁넘겼다	-11.3125
정적인	-11.3126
▁같은데요	-11.3127
우리가	-11.3127
▁거기서	-11.3128
▁방송인	-11.3129
의회	-11.313
▁제천	-11.313
▁빅뱅	-11.3131
▁경쟁사	-11.3132
▁맡는다	-11.3132
▁상정	-11.3133
▁아동학대	-11.3133
▁과징금	-11.3133
▁당뇨병	-11.3133
▁창의적인	-11.3133
▁단일화	-11.3136
▁신약	-11.3136
▁비롯하여	-11.3138
자녀가	-11.3139
▁강화하기	-11.314
▁요청합니다	-11.3142
▁성당	-11.3142
▁도시농업	-11.3145
▁내려진	-11.3146
▁정산	-11.3147
▁셔츠	-11.3147
▁인하대	-11.3148
▁맘	-11.3149
▁업무상	-11.315
▁생각했다	-11.3152
▁항공권	-11.3153
▁것이어서	-11.3153
▁좁은	-11.3154
매체	-11.3156
▁디저트	-11.3157
웨이	-11.3157
시겠어요	-11.3158
▁독도	-11.3158
▁고령	-11.3163
▁경영권	-11.3163
▁되어서	-11.3164
▁시행한다	-11.3165
하나	-11.3165
▁통산	-11.3166
배가	-11.3166
▁공직선거법	-11.3167
▁병력	-11.3167
▁성공할	-11.3168
▁취하	-11.3168
▁하에	-11.3169
▁뜨겁다	-11.3169
▁설문	-11.3171
폰	-11.3172
▁열매	-11.3176
▁들어왔다	-11.3177
▁누르	-11.3178
▁확연	-11.3178
▁성장하는	-11.3178
▁무시	-11.3181
▁SW	-11.3181
▁판매하	-11.3181
▁대접	-11.3181
▁작용했다	-11.3182
▁테마파크	-11.3184
▁납품	-11.3184
▁보시면	-11.3184
▁로맨스	-11.3184
▁나타나고	-11.3186
▁바뀌었다	-11.3186
▁일어났다	-11.3188
▁주목할	-11.319
▁융자금	-11.319
▁자택	-11.3191
▁취소된	-11.3194
▁설명해	-11.3195
딩	-11.3199
었고	-11.3199
▁마사지	-11.3201
▁설치하	-11.3206
▁행태	-11.3207
▁되어야	-11.3208
▁못했고	-11.3208
▁수립하고	-11.3209
▁발명	-11.3209
▁즐기고	-11.3211
풀	-11.3211
▁한옥	-11.3214
교실	-11.3214
▁맑	-11.3214
▁가정의	-11.3216
▁문제점이	-11.3217
▁펼친다	-11.3219
▁염증	-11.322
▁취소할	-11.3221
▁굴	-11.3221
▁기능성	-11.3224
1987	-11.3225
▁교사가	-11.3227
▁행동이	-11.3229
▁결과적으로	-11.3231
▁미션	-11.3231
▁발표하고	-11.3232
▁저하	-11.3234
▁행동에	-11.3238
▁선전	-11.324
▁것만으로	-11.324
▁전망치	-11.324
튼	-11.3242
▁자리잡	-11.3243
편이	-11.3244
위주의	-11.3244
경찰서	-11.3244
▁운영자	-11.3244
▁강요	-11.3245
재용	-11.3245
정도	-11.3246
▁규정하는	-11.3248
▁양천구	-11.3249
▁소년	-11.3249
▁공부할	-11.3249
▁중계	-11.3252
▁필리핀에	-11.3255
▁엔터테인먼트	-11.3255
▁소방관	-11.3257
노조	-11.3259
▁유학생	-11.3259
▁내놓고	-11.326
▁톱	-11.3261
▁있으니까	-11.3261
▁억제	-11.3262
▁대비한	-11.3265
정은	-11.3265
▁세금이	-11.3266
▁시일	-11.3268
▁들어오	-11.3268
역사	-11.3269
▁우울증	-11.327
▁명소	-11.327
▁직접적	-11.3272
공단	-11.3275
▁사용하기	-11.3278
▁결핵	-11.3279
갔어요	-11.3284
▁컸	-11.3286
▁전체에	-11.3286
▁떠	-11.3286
▁다가왔	-11.3287
부산	-11.3287
▁불평등	-11.3288
▁시위대	-11.3291
▁판매되	-11.3291
스를	-11.3291
▁다룬	-11.3292
5,000	-11.3296
▁손잡	-11.3297
지방	-11.3299
▁정보화	-11.3299
▁고객과	-11.33
▁그리는	-11.33
▁콩	-11.3303
부에	-11.3303
▁지정하여	-11.3303
▁경남도	-11.3304
▁커진	-11.3306
▁기적	-11.3308
▁이모	-11.3308
▁지원한	-11.3309
부적절한	-11.3309
였는데	-11.331
▁걸로	-11.3312
▁공격수	-11.3313
▁관리하여야	-11.3314
▁금융시장	-11.3314
▁적혀	-11.3314
▁투자자들이	-11.3315
정이	-11.3317
▁데리	-11.3317
▁로비	-11.3319
치료	-11.3319
▁걷기	-11.3319
활동에	-11.3322
▁취소하고	-11.3322
▁들었	-11.3323
▁움직이는	-11.3324
▁베를린	-11.3324
분석	-11.3324
▁체크	-11.3327
▁해임	-11.3327
어져	-11.3328
▁시작된다	-11.3329
워	-11.3337
▁칭찬	-11.334
▁연계해	-11.334
대응	-11.3341
▁간판	-11.3345
▁출고	-11.3347
▁해결하는	-11.3348
▁강화에	-11.3348
▁싶다고	-11.3348
▁종사하	-11.3349
상과	-11.3351
▁줍	-11.3352
▁생계	-11.3352
메	-11.3352
정원	-11.3357
▁뉴욕에서	-11.3357
드라마	-11.336
▁짙	-11.336
▁줄기	-11.3362
▁이루어	-11.3362
▁도구	-11.3362
▁처방	-11.3364
점검	-11.3365
▁53	-11.3366
▁상징하는	-11.3367
▁비하	-11.3367
▁무역전쟁이	-11.3369
애	-11.337
수요	-11.3372
▁좋아해	-11.3373
▁대피	-11.3375
홈런	-11.3379
▁쿠키	-11.3381
▁지연되	-11.3381
▁마련해야	-11.3387
드루킹	-11.3387
▁최강	-11.3388
해져	-11.3389
▁1,	-11.3389
도서관	-11.339
▁종전	-11.339
▁돌아보	-11.3394
▁형이	-11.3397
▁투명성	-11.3397
▁향기	-11.3402
▁표면	-11.3404
준다	-11.3405
▁만들었	-11.3407
욱	-11.3409
▁아래로	-11.3412
▁내달	-11.3413
▁경연	-11.3414
▁정면	-11.3415
되었으며	-11.3416
▁소속기관	-11.342
980	-11.3422
▁신청자	-11.3423
▁이자	-11.3424
종합	-11.3424
▁감자	-11.3425
적이	-11.3425
▁해명	-11.3429
▁외국인이	-11.3431
▁놓은	-11.3432
▁공간에서	-11.3432
▁불가피	-11.3432
▁해줄	-11.3433
▁플러스	-11.3433
▁주었다	-11.3435
▁몰리	-11.3438
▁채우	-11.344
▁증세	-11.344
▁영혼	-11.3441
80	-11.3441
▁돼야	-11.3441
곳으로	-11.3443
▁동남아시아	-11.3445
▁중으로	-11.3445
▁흘러	-11.3449
▁작품들	-11.3449
▁김상	-11.345
▁재활	-11.3454
▁해주	-11.3455
▁지역화폐	-11.3457
▁달아	-11.3459
▁남산	-11.346
▁부총리가	-11.3462
순식	-11.3462
아이	-11.3463
였고	-11.3463
▁아닐까	-11.3464
▁말아야	-11.3465
▁산업에	-11.3466
▁상황과	-11.3468
▁YG	-11.3469
▁이듬해	-11.347
▁선거제	-11.347
▁부의장	-11.347
▁통장	-11.3471
▁선보여	-11.3472
▁드러낸	-11.3472
시께	-11.3473
▁거둘	-11.3473
유치원	-11.3473
▁완료되면	-11.3475
▁본래	-11.3475
미터	-11.3476
▁국민일보	-11.3476
▁만들어내	-11.3477
조치	-11.3477
▁잇달	-11.3478
▁찾아볼	-11.3478
▁않더라도	-11.3479
▁이뤄져야	-11.348
▁표지	-11.3481
▁다를	-11.3485
▁올라왔다	-11.3485
▁늘어나면서	-11.3486
▁시민의	-11.3486
▁시험이	-11.3487
유로	-11.3488
▁개최되었다	-11.3489
▁계열	-11.3489
▁지배구조	-11.3489
▁연대	-11.3489
▁신재생에너지	-11.349
▁기내식	-11.349
▁공인중개사	-11.3491
▁기본적	-11.3491
▁실명	-11.3493
을까요	-11.3494
▁마실	-11.3494
▁면역력	-11.3495
▁연락처	-11.3497
나무	-11.3498
▁때문이었다	-11.3498
▁지키기	-11.3499
▁들어와	-11.35
▁상승한	-11.3504
▁남부	-11.3504
▁강제징용	-11.3505
▁전당대회	-11.3505
▁원장이	-11.3506
▁어려웠	-11.3507
▁부통령	-11.3508
▁김용	-11.3509
▁프레임	-11.3511
▁마시	-11.3512
▁욕심	-11.3513
▁빠졌다	-11.3514
▁바뀌어	-11.3517
▁담겨있다	-11.3519
▁많기	-11.352
▁읽을	-11.352
▁쉼터	-11.352
▁GTX	-11.352
▁그러니까	-11.3521
▁동부	-11.3524
홍	-11.3525
1996	-11.3526
▁사안이	-11.3528
▁경제성장	-11.3531
▁정확하	-11.3531
▁미뤄	-11.3532
▁있겠습니다	-11.3533
▁길로	-11.3536
▁힐링	-11.3536
▁본청	-11.3537
▁밝히	-11.3538
▁비싸	-11.3538
▁캄보디아	-11.3539
▁불가	-11.354
▁지상파	-11.3542
▁시비	-11.3543
존	-11.3544
▁보이지만	-11.3547
▁필요하지	-11.3548
▁부구청장	-11.3549
▁들면	-11.355
▁바르	-11.355
▁곽	-11.355
▁법안이	-11.355
▁혁명	-11.3552
▁미술관	-11.3556
▁등장한다	-11.3556
▁선거제도	-11.3557
▁물결	-11.3558
▁조치로	-11.3559
▁프로야구	-11.3559
▁정책실장	-11.3559
▁진지	-11.3559
가족들이	-11.356
▁구성하고	-11.356
▁무단	-11.3562
▁피드백	-11.3563
▁품종	-11.3564
▁FC	-11.3564
▁서비스에	-11.3565
▁버리고	-11.3565
▁행정적	-11.3567
▁모여서	-11.3567
▁넘겨	-11.3567
▁나가고	-11.3567
▁악재	-11.3568
▁겨냥	-11.3569
▁올라와	-11.357
▁부탁드	-11.3571
▁찍고	-11.3571
▁효과적으로	-11.3573
▁터널	-11.3573
▁있었을	-11.3574
▁N	-11.3575
초등학교	-11.3576
▁지난주에	-11.3582
▁하죠	-11.3583
▁못했다는	-11.3583
▁교육과	-11.3584
▁줄어들고	-11.3584
▁의자	-11.3585
V	-11.3587
▁오세요	-11.3589
▁기대했다	-11.3595
▁계승	-11.3598
러시아	-11.3599
▁하네요	-11.3599
▁가시	-11.3599
▁복용	-11.3606
▁생산하는	-11.3607
▁인천국제공항	-11.3608
▁전달하는	-11.3608
▁화학	-11.3611
▁커지면	-11.3611
▁시설에	-11.3618
▁혼	-11.3619
▁봤어요	-11.3619
▁리조트	-11.3622
▁운영과	-11.3624
▁박수를	-11.3627
양호	-11.3627
▁출제	-11.3631
▁비슷	-11.3632
▁중간선거	-11.3633
▁소개할	-11.3633
▁곳곳	-11.3636
▁전화해	-11.3644
▁제출했다	-11.3644
▁섬유	-11.3644
▁구리	-11.3647
▁난방	-11.3649
▁새끼	-11.3649
수준	-11.365
호를	-11.365
▁출판	-11.365
결과	-11.3651
▁기관에서	-11.3655
▁제발	-11.3655
▁일산	-11.3657
▁라오스	-11.3657
▁염색	-11.3657
▁등재	-11.3658
▁재차	-11.3659
부모가	-11.3661
▁띠	-11.3661
▁권위	-11.3661
▁철학	-11.3661
▁중학생	-11.3662
▁임직원들	-11.3662
▁녹지	-11.3662
▁라이프	-11.3666
망을	-11.3667
수당	-11.3668
▁고조되	-11.3668
효과	-11.3669
▁물고기	-11.3674
▁공유재산	-11.3675
단과	-11.3676
▁나와서	-11.3678
▁향상에	-11.3679
▁수급	-11.3689
▁금속	-11.3689
등급을	-11.3689
▁자로	-11.3689
▁인력과	-11.369
▁책상	-11.3696
▁민간기업	-11.3697
▁수거	-11.37
▁개막식	-11.3701
호로	-11.3704
▁달라진	-11.3704
▁프리미어리그	-11.3705
▁구제	-11.3705
▁다니	-11.3705
▁협정	-11.3705
식으로	-11.3706
대회를	-11.3706
▁김종	-11.3707
▁몫	-11.3708
▁완공	-11.3708
▁프로듀서	-11.3708
▁그랬	-11.3708
▁채취	-11.3713
▁싫어	-11.3714
▁세탁	-11.3715
▁도가	-11.3716
▁존재한다	-11.3721
▁상황으로	-11.3724
▁동행	-11.3724
▁펼친	-11.3725
▁선물로	-11.3726
▁물놀이	-11.3727
▁57	-11.3728
▁빌보드	-11.3731
▁주목받	-11.3733
▁지휘자	-11.3734
▁시계	-11.3735
▁수비수	-11.3738
▁배경에	-11.3739
▁국정	-11.374
설비	-11.3741
▁적게	-11.3743
▁라이트	-11.3743
▁연결된	-11.3744
▁우위	-11.3745
▁토론토	-11.3746
▁사법농단	-11.3747
▁후기	-11.3751
대통령	-11.3751
▁알려줘	-11.3753
▁할까요	-11.3757
▁벤처	-11.3758
정된	-11.376
▁46	-11.3761
▁방향에	-11.3761
촬영	-11.377
▁최장	-11.3771
유가	-11.3773
됐으나	-11.3773
▁알려졌	-11.3773
▁리모델링	-11.3776
▁전수	-11.3776
▁자율적	-11.3777
▁적도	-11.3782
▁기록물	-11.3783
▁안팎에서	-11.3785
▁케이티	-11.3788
▁MC	-11.3792
▁떨어진다	-11.3794
▁실패한	-11.3794
▁영감	-11.3804
▁학술	-11.3809
▁잠실	-11.3811
▁키워드	-11.3812
▁구성원들	-11.3813
▁집값이	-11.3815
▁빼고	-11.3816
▁주어진	-11.3818
▁정신이	-11.3818
▁한국노총	-11.3824
거래	-11.3824
▁목에	-11.3827
▁무덤	-11.3827
끔	-11.3828
가운	-11.3829
▁꼽	-11.383
▁농림축산식품부	-11.383
▁참석한다	-11.3831
▁실감	-11.3832
▁시작되	-11.3833
사단	-11.3836
▁약속했다	-11.3838
▁부재	-11.3841
▁사임	-11.3841
▁의심되	-11.3842
▁예우	-11.3843
큽	-11.3844
▁상향	-11.3845
▁이익이	-11.3845
이었는데	-11.3849
▁모르겠어	-11.3849
▁내용으로	-11.3852
▁우편	-11.3852
▁제임스	-11.3854
보니까	-11.3854
▁제품과	-11.3855
▁나타날	-11.3855
▁공개할	-11.3856
▁구성하되	-11.3856
▁농작물	-11.3856
▁자아냈다	-11.3857
▁날에	-11.3857
▁이르기까지	-11.3857
▁2030	-11.3857
▁펼쳐질	-11.3859
술	-11.3859
▁약물	-11.3861
▁조사해	-11.3862
▁들어서는	-11.3862
▁시선이	-11.3862
▁1997	-11.3863
▁시도해	-11.3864
▁편의성	-11.3864
▁산책	-11.3865
▁움직일	-11.3865
▁흔적	-11.3866
▁안타까	-11.3866
▁구축해	-11.3868
▁매번	-11.3869
다녀온	-11.3869
▁일종	-11.387
▁가려	-11.387
▁찬반	-11.3871
▁위험도	-11.3872
▁일제강점기	-11.3873
▁돌입했다	-11.3873
▁납치	-11.3874
▁시사했다	-11.3874
▁취향	-11.3874
▁대한민국이	-11.3875
▁사료	-11.3875
▁좋아하지	-11.3877
▁임시정부	-11.3878
단체가	-11.3878
▁바람직하다	-11.3879
▁통신망	-11.3879
▁맞춤	-11.3881
▁있네요	-11.3881
▁공개해	-11.3882
▁호소하	-11.3882
▁복음	-11.3883
▁피곤해	-11.3883
▁발견했다	-11.3884
▁넘어섰다	-11.3888
▁반품	-11.3888
▁우즈벡	-11.3889
▁시흥시	-11.389
▁처우	-11.389
▁통지하여	-11.389
▁1500	-11.389
▁알레르기	-11.389
▁제도적	-11.3891
▁못했어요	-11.3892
신의	-11.3893
▁받으려	-11.3894
▁의결권	-11.3896
▁출석한	-11.3897
▁주한미군	-11.3899
▁교황	-11.39
▁가까워	-11.39
▁방문하여	-11.3901
▁복사	-11.3903
▁방문한다	-11.3904
▁조달	-11.3904
▁선언했다	-11.3905
▁사용된	-11.3906
y	-11.3906
뜩	-11.3907
▁우크라이나	-11.3909
▁운영되고	-11.391
▁함께한	-11.391
▁모습에	-11.3913
▁인천공항	-11.3913
▁경보	-11.3914
▁끝이	-11.3915
▁맺었다	-11.3916
▁196	-11.3916
al	-11.3917
▁대신해	-11.3917
▁공세	-11.3917
▁밝히고	-11.3918
▁이력서	-11.3919
▁사실관계	-11.392
▁정성	-11.3922
▁동맹	-11.3923
▁아이들에게	-11.3924
체육관에서	-11.3927
방에서	-11.3928
▁특허청	-11.393
▁흔들	-11.3931
공무원	-11.3932
▁지역별로	-11.3932
▁빨간	-11.3932
▁청주시	-11.3933
▁단말기	-11.3934
다니	-11.3934
▁유료	-11.3936
결과를	-11.3939
▁쉽고	-11.3939
년생	-11.394
▁시스템에	-11.394
▁선택이	-11.3941
▁전역에	-11.3941
▁지난번	-11.3942
▁정서	-11.3943
▁크로스	-11.3944
기능	-11.3944
▁아파트에	-11.3945
▁신화	-11.3945
▁도마	-11.3947
▁장난감	-11.395
▁치안	-11.395
▁약한	-11.3952
▁특색	-11.3954
▁줄줄	-11.3955
▁아닌데	-11.3957
▁현실화	-11.3958
소가	-11.396
▁필터	-11.396
▁지목된	-11.396
▁가졌	-11.3962
▁걸리	-11.3967
▁노무현	-11.3968
▁대신에	-11.3968
▁베스트	-11.3971
▁선택하는	-11.3972
▁이유에	-11.3973
▁섞	-11.3973
▁인연이	-11.3973
▁모자	-11.3974
▁파란색	-11.3977
▁88	-11.3978
▁보람	-11.3979
연대	-11.3979
▁싶었다	-11.3979
▁맡았	-11.3984
▁없어도	-11.3985
▁약국	-11.3985
▁쉽다	-11.3985
▁깨지	-11.3986
▁알려지	-11.3989
▁지각	-11.3989
영화	-11.3989
▁로고	-11.399
해주시면	-11.3991
▁고쳐	-11.3991
곧	-11.3991
▁부패	-11.3992
▁날개	-11.3993
▁때만	-11.3995
▁질서	-11.3999
▁구축에	-11.3999
▁헤	-11.3999
▁이용해서	-11.3999
▁58	-11.3999
▁목록	-11.4001
▁각급	-11.4001
▁등급	-11.4001
▁일대에서	-11.4002
▁사무실에서	-11.4005
▁검토하여	-11.4008
▁국무위원장과	-11.4009
▁춘천	-11.4009
▁만하다	-11.401
▁수확	-11.4011
▁주방	-11.4014
▁토대	-11.4016
▁새겨	-11.4018
▁방송국	-11.402
▁우수성	-11.4023
여년	-11.4025
▁직원들과	-11.4027
▁이끈	-11.4028
▁경기도청	-11.4028
▁로드맵	-11.4031
▁독립운동	-11.4032
▁깔끔	-11.4032
예술	-11.4038
▁ICT	-11.4039
▁바꾼	-11.404
▁현실적	-11.404
▁연방	-11.404
▁만세	-11.4042
의원	-11.4042
▁형성된	-11.4043
2)	-11.4045
▁친한	-11.4046
▁기관과	-11.4047
강에	-11.4048
▁항소심에서	-11.4049
▁임명한	-11.405
▁고령자	-11.4051
▁작전	-11.4052
▁노동자가	-11.4055
▁메모리	-11.4056
상황	-11.4056
▁커지는	-11.4057
전부터	-11.4058
▁방제	-11.4058
▁안된다	-11.4059
청년	-11.406
▁멀티	-11.4061
▁열연	-11.4062
▁불길	-11.4062
▁한국형	-11.4064
▁비교하면	-11.4064
이라서	-11.4064
▁해산	-11.4064
▁오피스	-11.4064
▁응용	-11.4066
▁송도	-11.4067
▁배분	-11.4067
▁대회의	-11.407
▁됩니	-11.4071
▁분당	-11.4071
▁세입	-11.4073
▁멈춰	-11.4074
▁주님	-11.4077
지방자치단체	-11.4077
▁곡으로	-11.4078
▁재생에너지	-11.4082
▁늘어난다	-11.4084
▁개선과	-11.4088
▁취득한	-11.4088
▁믿어	-11.409
기까지	-11.4093
▁판로	-11.4094
▁협약에	-11.4099
해지고	-11.41
▁부산에서	-11.4103
▁우선순위	-11.4104
▁제작된	-11.4105
▁전후	-11.4108
▁급식	-11.4108
▁상실	-11.4111
내는	-11.4111
▁중반	-11.4113
▁북구	-11.4118
▁공군	-11.412
▁챔피언스리그	-11.4121
음이	-11.4124
▁양상	-11.4125
▁인문학	-11.4125
▁부탁드려	-11.4127
▁무늬	-11.4127
▁자진	-11.4128
▁시티	-11.413
▁신고자	-11.413
▁상응	-11.4131
빛	-11.4133
▁교사들이	-11.4133
▁그룹이	-11.4134
▁병역	-11.4135
▁진정성	-11.4138
▁여겨	-11.4138
▁구정	-11.414
▁판단한	-11.414
▁기뻐	-11.4143
▁해촉	-11.4149
희망	-11.415
▁새우	-11.4151
▁충주	-11.4151
▁51	-11.4152
▁층	-11.4154
▁방식에	-11.4154
▁원천	-11.4155
딘	-11.4156
▁있길	-11.4156
▁재학생	-11.4156
▁전술	-11.4157
▁축산	-11.4161
세운	-11.4161
▁취해	-11.4163
스트	-11.4165
국이	-11.4165
▁토론을	-11.4166
▁유럽의	-11.4166
▁반찬	-11.4167
▁이론	-11.4168
▁140	-11.4168
▁VR	-11.4169
차로	-11.4171
대출	-11.4171
조정	-11.4172
경찰	-11.4174
▁항의	-11.4175
▁맛과	-11.4177
▁중국어	-11.4178
▁없으니	-11.4181
▁분기	-11.4181
▁전문인력	-11.4184
▁코트	-11.4185
▁수단으로	-11.4187
▁공방	-11.4188
▁하우스	-11.4188
▁집중력	-11.4188
°	-11.4188
▁팬들과	-11.4188
▁서울시와	-11.4188
▁장소에서	-11.4189
▁경관	-11.419
▁오피스텔	-11.419
▁학살	-11.4191
▁뜻으로	-11.4192
▁새벽에	-11.4195
▁전하고	-11.4197
▁없는지	-11.4198
투명한	-11.4201
▁슬픔	-11.4201
▁포도	-11.4204
▁낮춰	-11.4204
▁마드리드	-11.4208
▁통역	-11.4208
▁불신	-11.4209
▁여가	-11.4213
뷰티	-11.4213
▁미안	-11.4216
▁마크롱	-11.4217
▁연령대	-11.4218
위원장	-11.4221
▁과거와	-11.4222
▁사용량	-11.4223
▁삼성생명	-11.4223
여건이	-11.4224
▁정하고	-11.4224
약속을	-11.4225
▁상자	-11.4226
▁사회에서	-11.4229
▁용도	-11.423
▁로이터통신	-11.4231
▁정문	-11.4233
▁2%	-11.4235
▁도입해	-11.4236
▁싼	-11.4242
▁가정폭력	-11.4244
일으킬	-11.4244
▁수질	-11.4245
▁급증하	-11.4248
클럽	-11.4248
끼리	-11.425
▁이뤄져	-11.4251
▁청소년의	-11.4252
▁김관영	-11.4254
▁월평균	-11.4255
▁충청남도	-11.4255
▁마침내	-11.4255
▁음식물류	-11.4256
▁메이저리그	-11.4256
▁순조롭게	-11.4256
▁도입이	-11.4256
▁상원의원	-11.4258
▁모르지만	-11.4259
▁띈다	-11.4259
▁있었으나	-11.4261
▁부모님이	-11.4262
▁케이스	-11.4263
인력	-11.4264
▁위치에	-11.4265
▁하나씩	-11.4266
사회	-11.4267
▁항	-11.4267
▁회장과	-11.4268
▁담았다	-11.4268
▁은혜	-11.4269
▁없었지만	-11.4271
▁결집	-11.4271
▁농지	-11.4271
▁횟수	-11.4272
▁온실가스	-11.4273
▁말하면	-11.4273
▁정류장	-11.4275
▁코레일	-11.4275
▁북핵	-11.4276
▁알려지지	-11.4276
대에서	-11.4276
▁진상규명	-11.4278
▁초대형	-11.4278
들로부터	-11.4279
▁사업추진	-11.428
▁방향이	-11.428
▁해외로	-11.4283
▁1,500	-11.4284
▁검진	-11.4284
▁느끼게	-11.4284
▁정신건강	-11.4284
▁이해해	-11.4285
▁빅	-11.4286
▁필요해	-11.4286
▁도면	-11.4288
▁분담	-11.4288
▁기승	-11.4288
▁그래요	-11.4288
▁장래	-11.4288
▁경기도교육청	-11.4289
▁토끼	-11.429
▁개발했다	-11.4291
▁걸어서	-11.4291
▁돌아와	-11.4291
▁공정거래법	-11.4294
▁국정감사에서	-11.4296
▁익숙하지	-11.4296
▁에어	-11.4297
▁나왔습니다	-11.4297
▁무혐의	-11.4297
▁CD	-11.4298
▁3·4	-11.4299
▁부문에	-11.43
▁장시간	-11.43
▁김밥	-11.43
▁실습	-11.4301
▁민심	-11.4301
▁발전소	-11.4301
▁알코올	-11.4302
▁들었는데	-11.4303
▁심장	-11.4304
▁찍는	-11.4305
▁만들어졌다	-11.4306
생산	-11.4307
▁언론과	-11.4308
▁소진	-11.4308
▁대우	-11.4309
▁받아서	-11.4309
▁최종적으로	-11.4311
▁모르겠네	-11.4312
기록	-11.4313
▁매칭	-11.4313
▁감염병	-11.4313
▁용도로	-11.4314
▁원료	-11.4314
▁것이기	-11.4315
▁천연	-11.4315
▁해산물	-11.4316
▁이탈	-11.4316
▁다문화가족	-11.4316
▁보이면서	-11.4316
▁전달할	-11.4316
▁최고위원	-11.4318
처분	-11.4319
제도가	-11.432
▁하시는	-11.432
▁미세	-11.432
▁있겠다	-11.4321
심사	-11.4321
▁분명하다	-11.4322
▁안다	-11.4323
▁호남	-11.4323
▁수준인	-11.4325
▁바가	-11.4325
대한민국	-11.4327
▁컨소시엄	-11.4328
▁전시장	-11.433
역량	-11.433
▁지급하	-11.4331
▁환자에게	-11.4331
▁희망이	-11.4332
▁소문	-11.4332
▁때면	-11.4332
▁당내	-11.4333
▁구할	-11.4333
▁영예	-11.4334
▁살았	-11.4335
▁토론이	-11.4336
세트	-11.4336
해본다	-11.4336
▁먹방	-11.4337
▁모였다	-11.4337
▁보기에	-11.4337
▁송환	-11.4337
▁파란	-11.4338
▁경총	-11.4339
▁예술가	-11.4341
▁현대화	-11.4342
▁강조하고	-11.4343
▁감소하고	-11.4344
▁그려	-11.4344
▁푸른	-11.4345
천원	-11.4346
▁강화된	-11.4346
▁110	-11.4348
▁환호	-11.4349
모델	-11.435
▁조카	-11.435
▁출석해	-11.4351
▁말하지	-11.4352
▁아프	-11.4352
29	-11.4353
스는	-11.4353
▁영구	-11.4355
▁핵심이	-11.4355
고용	-11.4356
▁ICO	-11.4357
▁가능한지	-11.4359
▁경매	-11.4359
▁참석하고	-11.4359
▁외신	-11.4359
▁만찬	-11.436
▁물리	-11.436
▁유래	-11.4363
▁여사	-11.4363
▁엑소	-11.4365
▁공공성	-11.4366
기간이	-11.4366
▁비영리	-11.4366
▁:	-11.4367
▁거액	-11.437
▁얇	-11.437
▁계속되고	-11.4372
▁전역에서	-11.4372
▁활용하	-11.4375
▁초기에	-11.4376
▁거세	-11.438
▁진료비	-11.4381
▁읽어	-11.4383
▁유일하	-11.4384
▁한창	-11.4385
▁매진	-11.4385
▁근로자들	-11.4385
▁마침	-11.4388
▁사랑하고	-11.4391
줘요	-11.4392
체계	-11.4395
▁만났	-11.4397
▁통과한	-11.4397
▁전문적	-11.44
▁평년	-11.44
▁깔	-11.4401
▁기법	-11.4403
실장은	-11.4405
▁연기력	-11.4406
1000	-11.4408
▁앞다	-11.4411
▁상반기에	-11.4411
방지	-11.4413
▁수행한다	-11.4415
뜻	-11.4415
▁완	-11.4416
▁증가해	-11.4416
▁옛날	-11.4417
▁하였	-11.4417
▁방문이	-11.4418
▁회화	-11.4421
▁실비	-11.4423
▁개발하고	-11.4426
▁양해	-11.4427
▁군데	-11.4428
▁홍대	-11.4429
▁분야로	-11.443
▁지리적	-11.4433
▁배경에는	-11.4433
▁출간	-11.4436
▁정신적	-11.4436
▁마주	-11.4438
기획	-11.4441
▁해지	-11.4443
진이	-11.4444
▁계약서	-11.4445
노선	-11.4446
제한	-11.4448
▁개발자	-11.4449
릭	-11.4449
표가	-11.4451
▁시드니	-11.4453
빠질	-11.4458
타점	-11.4459
강원도	-11.446
▁외식	-11.4462
▁가게에	-11.4465
▁본문	-11.4466
▁함량	-11.4467
▁추출	-11.4469
a	-11.447
▁적다	-11.4476
▁삶에	-11.4477
▁증선위	-11.4477
▁생선	-11.4481
▁신차	-11.4482
놓고	-11.4485
▁온다	-11.4487
▁끔찍	-11.4488
시기	-11.4491
▁장부	-11.4494
▁여기에서	-11.4497
문이	-11.4498
▁영화관	-11.4499
▁방송되	-11.4502
▁도시에서	-11.4502
▁동굴	-11.4503
▁확대한다	-11.4507
▁사랑의	-11.4507
▁이천	-11.4509
▁예배	-11.4509
▁자리매김	-11.451
협약	-11.4511
▁관여	-11.4512
▁고민하고	-11.4512
▁이후로	-11.4514
▁익	-11.4517
▁불꽃	-11.4518
▁낮에	-11.4519
▁배송비	-11.4521
▁무관	-11.4523
▁저소득	-11.4523
▁민원인	-11.4524
▁제한적	-11.4525
▁아나운서	-11.4526
▁이별	-11.4528
▁라인업	-11.4529
하였고	-11.453
▁산재	-11.4531
누	-11.4534
번지	-11.4535
▁나뉘어	-11.4537
▁발견한	-11.4541
▁바쁘	-11.4541
▁공사장	-11.4546
▁국군	-11.4549
▁기술적	-11.4551
▁61	-11.4551
▁어떠	-11.4551
▁변동이	-11.4555
▁모습과	-11.4555
절로	-11.4555
터널	-11.4555
▁살아가	-11.4556
▁거울	-11.4556
▁식당이	-11.4557
실적	-11.4557
▁욕망	-11.4558
▁사업계획	-11.4559
광주	-11.456
▁낭비	-11.4562
▁척	-11.4565
▁울	-11.4567
▁경질	-11.4568
LG	-11.4568
▁올라오	-11.4569
인천	-11.457
▁부산에	-11.4571
▁소개하	-11.4571
▁상태에	-11.4572
▁변경된	-11.4572
▁정수	-11.4575
▁올랐	-11.4576
▁생산한	-11.4577
▁드릴까요	-11.4581
▁성취	-11.4583
▁시조	-11.4583
▁맞춘	-11.4583
▁매장에	-11.4586
행하는	-11.4586
▁전문기관	-11.4589
▁산소	-11.4589
▁존재하는	-11.4595
▁작용한	-11.4595
▁호텔에	-11.4595
▁성동구	-11.4595
▁국가들	-11.4596
▁되지만	-11.4597
연패	-11.4597
▁탄력근로제	-11.4601
▁정당이	-11.4602
▁인접	-11.4603
갖	-11.4604
▁이었다	-11.4607
▁부서장	-11.4611
▁계란	-11.4612
▁당대표	-11.4613
▁근접	-11.4613
▁일원	-11.4615
영국	-11.4615
팝	-11.4615
▁방송이	-11.4616
▁구형	-11.4618
▁추구	-11.4618
▁목이	-11.4619
향후	-11.4619
▁해결책	-11.462
▁게임이	-11.4623
▁경기력	-11.4624
버닝썬	-11.4624
▁할리우드	-11.4624
▁증액	-11.4624
조원에	-11.4624
▁여주	-11.4625
▁보컬	-11.4627
▁그리스	-11.4628
▁활성화하고	-11.463
▁권장	-11.4631
▁과실	-11.4631
▁주거환경	-11.4632
▁회장을	-11.4632
▁운영하기	-11.4632
▁사망했다	-11.4632
학회	-11.4633
▁제공했다	-11.4634
▁겨울에	-11.4637
6000	-11.4637
▁후보지	-11.464
▁출발한	-11.4641
▁항공편	-11.4642
8000	-11.4642
▁발굴해	-11.4642
▁제고	-11.4643
▁수여	-11.4644
▁방지하	-11.4645
페스티벌	-11.4645
▁일요일에	-11.4646
▁홍콩에서	-11.4648
▁정상적	-11.4651
▁있기에	-11.4652
▁소셜	-11.4652
▁논쟁	-11.4652
▁한일	-11.4653
▁하원	-11.4655
▁결정에	-11.4655
▁걱정하는	-11.4656
▁호조	-11.4658
▁처리한다	-11.4658
▁112	-11.4659
▁도입된	-11.4659
▁교단	-11.466
인치	-11.4663
개선	-11.4663
▁당뇨	-11.4664
▁성형	-11.4669
▁남는	-11.4669
▁캘리포니아	-11.467
▁세포	-11.4671
▁전두환	-11.4671
▁외무상	-11.4672
▁주차요금	-11.4672
▁티저	-11.4672
▁과기정통부	-11.4672
▁겪었다	-11.4674
▁밝혀졌다	-11.4675
▁고창	-11.4675
▁근황	-11.4677
▁에이스	-11.4678
▁달라질	-11.4678
▁지킬	-11.4679
▁입소문	-11.4681
▁던졌다	-11.4685
▁프리	-11.4686
동에	-11.4687
였지만	-11.4687
▁우수사례	-11.4687
▁폭넓	-11.4689
▁벌어	-11.4689
▁막걸리	-11.4689
▁든든	-11.4689
▁고성능	-11.4689
▁왕복	-11.469
개국에서	-11.469
IC	-11.4691
▁소통하	-11.4691
▁김대중	-11.4692
▁반영될	-11.4692
▁납세자보호관	-11.4692
▁설명한	-11.4693
식과	-11.4694
▁구성돼	-11.4695
테크	-11.4696
▁충족	-11.4696
▁퇴원	-11.4697
3000	-11.4698
담당	-11.4698
▁사각지대	-11.4698
▁고백	-11.47
▁알렸다	-11.4702
▁몸매	-11.4702
▁폭탄	-11.4704
▁빼앗	-11.4704
▁접수됐다	-11.4704
▁극복하고	-11.4705
▁뚜껑	-11.4706
▁톡톡	-11.4706
▁동해안	-11.4708
▁오더	-11.4709
▁전기요금	-11.4711
▁이뤘다	-11.4712
▁동아시아	-11.4712
▁과학적	-11.4712
▁적용될	-11.4712
버	-11.4713
▁성장과	-11.4713
▁실전	-11.4713
▁하반기부터	-11.4715
▁홍보대사	-11.4716
▁주위에	-11.4717
▁성장해	-11.4717
▁말했다고	-11.4719
▁들었어	-11.4719
▁특이	-11.472
▁발라	-11.4722
정할	-11.4722
▁살리	-11.4723
(6	-11.4724
▁대응하기	-11.4726
▁평가하는	-11.4726
▁유명하다	-11.4727
오늘	-11.4727
▁성접대	-11.4728
▁견학	-11.4728
▁기여하고	-11.4729
▁시험에	-11.4729
▁왔어	-11.4729
회말	-11.473
▁케어	-11.4731
▁지하수	-11.4731
▁적발된	-11.4731
▁광범위	-11.4732
▁사회복지	-11.4733
▁회동	-11.4733
▁보일러	-11.4733
▁정도였다	-11.4737
▁제출해야	-11.4738
▁학교생활	-11.4739
▁토양	-11.4741
▁지원대상자	-11.4742
▁우려해	-11.4742
▁교역	-11.4742
▁우려되	-11.4743
▁이끌었다	-11.4744
차전에서	-11.4745
▁투자할	-11.4747
▁진출한	-11.4748
▁인정하고	-11.4748
▁장군	-11.4749
▁물었다	-11.4749
깁	-11.4749
▁제공되는	-11.4749
▁가능하다면	-11.475
▁바보	-11.4751
▁편의시설	-11.4751
▁상습	-11.4753
▁군대	-11.4753
▁찾아야	-11.4756
▁물어봐	-11.4757
▁기념품	-11.4757
▁장기적으로	-11.476
▁못하면서	-11.4761
▁믿는다	-11.4762
구간	-11.4765
▁3.1	-11.4766
마크	-11.4767
▁성수기	-11.4768
▁허위사실	-11.4768
▁일상생활	-11.477
둘	-11.4771
▁국민에게	-11.4772
다운	-11.4776
▁금연	-11.4776
▁편견	-11.4777
아직	-11.4777
▁무관하	-11.4779
버스	-11.478
▁충분하다	-11.4782
▁남아있다	-11.4783
▁보내주	-11.4783
▁새마을	-11.4783
▁쏟	-11.4783
문재인	-11.4785
▁네티즌들	-11.4786
▁남기	-11.4786
쪽으로	-11.4787
▁소통하고	-11.4789
▁행보에	-11.479
▁갖기	-11.4792
▁아티스트들	-11.4793
▁카페에서	-11.4793
감사	-11.4795
▁언론사	-11.4796
▁드시	-11.4796
▁베테랑	-11.4798
▁목격	-11.4798
▁마두	-11.48
▁리드	-11.4801
▁나누	-11.4803
▁SUV	-11.4805
▁확고	-11.4805
▁친구에게	-11.4805
▁조국	-11.4805
잖아	-11.4806
▁통로	-11.4807
▁명분	-11.4812
▁보고서에	-11.4815
▁지정하고	-11.4815
통합	-11.4815
볼게요	-11.4816
▁소화기	-11.4817
▁낮아	-11.4818
▁걸렸	-11.4819
이사장	-11.482
▁수강생	-11.4821
▁지었다	-11.4824
▁조선시대	-11.4825
▁업적	-11.4827
▁레	-11.4828
▁재해	-11.483
‘	-11.4831
▁정통	-11.4832
▁반납	-11.4835
▁시기는	-11.4838
▁완성도	-11.4838
▁서울중앙지검	-11.4838
▁보내기	-11.4839
▁고객사	-11.4841
▁표기	-11.4842
▁초과하는	-11.4844
▁치료제	-11.4845
▁배우가	-11.4846
해준다	-11.4847
▁명성	-11.4851
▁사진에	-11.4854
점은	-11.4855
▁농사	-11.4858
▁음식과	-11.4859
▁들지	-11.4859
지난해	-11.4859
▁정해져	-11.4861
▁걸맞	-11.4861
▁욕	-11.4861
▁발표하는	-11.4865
▁혈액	-11.4866
기반	-11.487
분기에	-11.4873
▁믿	-11.4877
▁장터	-11.4877
▁보내드리	-11.488
▁수입이	-11.488
▁확보했다	-11.488
▁넘기	-11.4882
▁LNG	-11.4883
▁뛰어나다	-11.4885
▁양주	-11.4885
▁일들이	-11.4885
▁설교	-11.4886
사인	-11.4887
천억	-11.4887
▁장을	-11.4889
▁만들어야	-11.4889
▁방이	-11.4891
▁귀하	-11.4892
▁커플	-11.4892
▁진압	-11.4892
▁전인	-11.4893
만개	-11.4894
▁총리와	-11.4894
▁육	-11.4896
받지	-11.4898
탄	-11.49
▁성분이	-11.4902
▁적합	-11.4904
▁감사의	-11.4905
▁케미	-11.4905
▁유용	-11.4905
▁제품들이	-11.4906
군에서	-11.4909
▁없지	-11.4914
집에	-11.4915
▁재판이	-11.4916
▁따르	-11.4918
▁서민들	-11.4921
▁넥슨	-11.4924
층으로	-11.4925
▁살이	-11.4926
▁게시판	-11.4927
▁불필요	-11.4929
▁정상회의	-11.493
▁판매할	-11.493
▁납세자	-11.4933
보고서	-11.4935
▁싣	-11.4935
▁참석하	-11.4937
▁근로	-11.4938
소식에	-11.494
▁정보기술	-11.4943
▁가자	-11.4943
▁안개	-11.4944
▁간접	-11.4944
상태	-11.4945
▁모아지	-11.4945
▁밝히기	-11.4947
▁아마추어	-11.4949
아카데미	-11.4953
▁구성했다	-11.4953
▁따져	-11.4954
한반도	-11.4956
▁모이	-11.4956
▁등이다	-11.4957
▁자치단체	-11.4958
법에	-11.4958
▁고등학생	-11.4958
▁요소로	-11.4959
▁초부터	-11.496
▁세계가	-11.4965
▁사무실에	-11.4969
▁판단에	-11.4969
▁게시판에	-11.4971
▁마련하는	-11.4974
▁후보와	-11.4978
▁말도	-11.4979
▁가져	-11.4982
▁길거리	-11.4983
▁자치	-11.4984
▁슈팅	-11.4986
홍보	-11.4987
▁공직	-11.4991
▁그런지	-11.4991
▁담보	-11.4993
▁역을	-11.4994
춘	-11.4997
▁유연	-11.5
▁소셜미디어	-11.5
▁컨셉	-11.5002
▁“‘	-11.5002
▁탁	-11.5003
▁빌딩	-11.5007
만들기	-11.5008
▁해변	-11.5009
▁가르	-11.5009
▁서비스로	-11.501
피해	-11.5013
▁입맛	-11.5013
▁스타들	-11.5014
▁소통이	-11.5016
▁가축	-11.5018
개월이	-11.5019
▁저축은행	-11.502
▁막고	-11.502
▁전환이	-11.5021
▁관중	-11.5022
▁소금	-11.5022
▁팬이	-11.5023
목이	-11.5027
▁온라인으로	-11.5028
이후	-11.503
▁사회공헌	-11.5031
▁통행	-11.5032
주일	-11.5032
▁유권자	-11.5033
▁말씀이	-11.5033
▁다양하	-11.5034
34	-11.5035
▁개최하고	-11.5036
▁줄이	-11.5039
▁격	-11.504
▁조짐	-11.504
▁교회에	-11.5041
▁신장	-11.5042
▁흔	-11.5042
사용	-11.5044
▁견	-11.5044
▁거부하	-11.5044
▁전하는	-11.5044
▁해병대	-11.5045
▁사업체	-11.5049
▁국제적	-11.5051
▁진단이	-11.5051
▁적용된	-11.5051
▁건강증진	-11.5053
국내	-11.5053
▁신조	-11.5053
▁주고받	-11.5054
▁빠르고	-11.5055
▁교원	-11.5058
▁군인	-11.5059
CC	-11.5062
▁회의실	-11.5063
▁호흡기	-11.5064
▁세수	-11.5069
▁태풍이	-11.5069
▁AP	-11.507
▁출범한	-11.5072
▁괜찮을까	-11.5072
▁시민과	-11.5073
▁사육	-11.5077
▁평가전	-11.5079
▁업계에	-11.508
▁체온	-11.5081
▁경품	-11.5081
잖아요	-11.5082
▁코미디	-11.5083
▁MOU	-11.5083
▁해외여행	-11.5085
셨습니다	-11.5088
▁여신	-11.5091
(15	-11.5095
▁거주자	-11.5095
▁적고	-11.5095
퉈	-11.5096
언더파	-11.5096
▁아카데미	-11.5097
▁권한이	-11.5097
▁사이트에	-11.51
▁도시락	-11.5103
▁감찰	-11.5104
▁마땅	-11.5104
▁액수	-11.5104
▁홍영표	-11.5105
▁휘발유	-11.5105
▁자부심	-11.5105
▁면역	-11.5106
▁삼성물산	-11.5106
▁은산분리	-11.5106
▁어두운	-11.5106
▁골드만삭스	-11.5106
▁지방보조금	-11.5107
▁실거래가	-11.5109
▁납부한	-11.5109
▁느껴진다	-11.5109
▁가능할까요	-11.511
▁전달한	-11.5111
▁토로했다	-11.5111
▁사용허가	-11.5112
▁자식	-11.5112
▁흰색	-11.5114
▁나흘	-11.5115
▁스피커	-11.5115
▁보냈어요	-11.5115
▁미안해요	-11.5117
▁은평구	-11.5117
놓은	-11.5117
▁고충민원	-11.5118
▁법정에	-11.5118
▁핵무기	-11.5121
▁요새	-11.5121
▁안양	-11.5122
▁콘셉트	-11.5123
▁크리스티	-11.5123
▁옥수수	-11.5124
▁컨디션	-11.5124
▁다가올	-11.5124
▁청렴	-11.5124
▁오스트리아	-11.5126
▁악수	-11.5128
▁가져야	-11.5129
48	-11.5131
▁지난해까지	-11.5131
▁활발하	-11.5133
부드럽게	-11.5133
▁좋아해서	-11.5133
▁있느냐	-11.5134
▁구성하며	-11.5135
▁바른	-11.5136
▁못했지만	-11.5136
▁지켜야	-11.5136
▁시작되었다	-11.5138
▁대형마트	-11.514
▁구속됐다	-11.514
▁나타났	-11.5141
▁위기가	-11.5142
▁당첨	-11.5142
▁중시하는	-11.5143
▁핀	-11.5143
▁변형	-11.5144
▁영원	-11.5144
▁OLED	-11.5145
▁원하시는	-11.5146
▁경남지사	-11.5147
▁경상남도	-11.5147
▁남해안	-11.5148
▁펜스	-11.5148
부동산	-11.5148
▁다운로드	-11.5149
▁선정하여	-11.515
▁퀴즈	-11.5151
▁풀이	-11.5152
▁타면	-11.5153
▁반박했다	-11.5154
▁시행하고	-11.5154
▁기본소득	-11.5155
▁상위권	-11.5156
▁붐	-11.5156
하나요	-11.5157
소송에서	-11.5158
▁김해	-11.5159
▁소독	-11.516
▁커서	-11.5161
▁일원에서	-11.5162
▁베트남에서	-11.5162
▁소식통	-11.5162
▁명목으로	-11.5163
▁쇄신	-11.5164
▁성북구	-11.5166
▁가짜뉴스	-11.5166
▁타이	-11.5167
▁풍경이	-11.517
▁숨지고	-11.5171
▁바라며	-11.5171
알	-11.5171
▁통영	-11.5172
▁잃었다	-11.5173
▁모드	-11.5176
▁일도	-11.5177
▁비춰	-11.5177
일째	-11.5178
▁예상치	-11.5179
▁세우고	-11.518
▁색이	-11.518
▁본질	-11.5181
▁닦	-11.5183
운영을	-11.5183
▁떡볶이	-11.5184
▁난이도	-11.5188
▁정보통신기술	-11.5189
▁기쁘다	-11.5189
▁거품	-11.519
▁영향력이	-11.519
▁공판	-11.5191
▁한달	-11.5191
▁신청인	-11.5192
▁고도화	-11.5193
▁보인다고	-11.5196
▁시급한	-11.5197
▁기다릴	-11.5197
▁제반	-11.5198
▁다양하고	-11.5199
룸	-11.5199
▁협력이	-11.52
범위	-11.5201
▁협치	-11.5202
▁사법	-11.5203
▁답변이	-11.5209
▁더블	-11.5209
▁형성되	-11.5209
▁벌여	-11.5215
▁사람들과	-11.5216
▁처지	-11.5217
▁질의	-11.5217
▁해외에	-11.5217
▁지적한	-11.5219
▁내어	-11.5223
▁BTS	-11.5225
▁근처에서	-11.5225
헌	-11.523
▁대단한	-11.5231
경이	-11.5231
▁연중	-11.5231
▁해명했	-11.5235
▁재킷	-11.5236
▁만들겠다	-11.5236
▁일련	-11.5237
▁군사적	-11.5237
▁증명서	-11.5237
년대에	-11.5239
▁합산	-11.524
▁연도	-11.524
한류	-11.524
▁신세계	-11.5241
▁돈으로	-11.5242
▁짓는	-11.5244
▁펼쳐지	-11.5247
▁상주	-11.5247
▁노인들	-11.5248
▁진행되	-11.5251
▁여기까지	-11.5251
▁간식	-11.5252
▁항소	-11.5253
▁당선자	-11.5254
▁저렴	-11.5258
▁접경지역	-11.5258
▁브리핑에서	-11.5259
▁작성하고	-11.526
▁의병	-11.5261
▁한정	-11.5261
▁교육기관	-11.5261
▁기울	-11.5262
조선	-11.5262
▁표했다	-11.5265
▁지인	-11.5267
인과	-11.5268
냐고	-11.5268
▁고려해야	-11.5268
▁보내지	-11.5271
▁이어서	-11.5272
▁받으면서	-11.5272
▁배포	-11.5276
▁실패했다	-11.5276
▁공개하	-11.5276
▁참가했다	-11.5277
임이	-11.5278
▁살리기	-11.528
▁무장	-11.528
▁찾아내	-11.5281
▁건강이	-11.5282
고가	-11.5283
▁대세	-11.5285
▁쓰여	-11.5285
▁고르	-11.5285
▁중이	-11.5285
▁우대	-11.5286
타운	-11.5291
▁노력해	-11.5292
▁전국이	-11.5293
▁상장사	-11.5296
▁임의	-11.5297
외의	-11.5297
▁X	-11.5297
▁슛	-11.5297
▁확인해야	-11.5297
라인	-11.5299
▁아니라면	-11.5299
▁성장에	-11.53
▁회피	-11.5301
▁75	-11.5302
▁정책은	-11.5305
▁둘러	-11.5307
▁지은	-11.531
중학교	-11.5311
▁운영되는	-11.5313
▁표현할	-11.5314
DC	-11.5315
▁컨퍼런스	-11.5316
▁회원국	-11.5316
▁시상	-11.5319
▁행복하	-11.532
▁태우	-11.5321
▁외화	-11.5321
▁예정돼	-11.5322
▁화재로	-11.5323
▁판단할	-11.5324
▁선거에	-11.5325
▁좋아하	-11.5335
▁넘어선	-11.5336
▁높을	-11.5336
▁적용된다	-11.5339
▁반영하	-11.534
▁선정한다	-11.5341
▁가계	-11.5341
▁하와이	-11.5343
▁받으	-11.5347
▁분명한	-11.5349
▁또다	-11.5351
▁돌리	-11.5352
▁재계	-11.5353
▁진동	-11.5354
▁정답	-11.5355
▁주장에	-11.5356
37	-11.536
▁의료기관	-11.5361
▁운영한	-11.5362
▁버스에	-11.5363
▁몰랐	-11.5364
▁김학의	-11.5364
▁현지인	-11.5366
▁작은도서관	-11.5367
▁국무회의	-11.5368
▁법조계	-11.5369
▁의원과	-11.537
▁명에	-11.5371
뼈	-11.5371
민원	-11.5372
▁대만에서	-11.5373
여행	-11.5373
료	-11.5374
▁원형	-11.5375
▁몰랐다	-11.5377
▁개정안에	-11.538
▁상인들	-11.5381
▁현실과	-11.5381
▁김장	-11.5381
▁63	-11.5382
▁저지	-11.5382
▁등장	-11.5383
▁안전점검	-11.5384
▁털	-11.5385
▁옵션	-11.5388
▁셧다운	-11.5389
▁개발하는	-11.539
벌	-11.5392
▁달간	-11.5394
▁대학생들	-11.5395
▁최고치	-11.5396
▁1·2	-11.5398
▁마을에	-11.5401
▁선별	-11.5402
·4	-11.5409
▁알았	-11.541
▁190	-11.5411
▁먹어야	-11.5412
제작	-11.5417
▁입대	-11.5419
▁좌	-11.5425
▁준비할	-11.5428
도의	-11.5429
▁막말	-11.5432
▁지불하	-11.5432
비율	-11.5437
▁수익이	-11.5438
▁보류	-11.5441
▁싫	-11.5442
▁상업	-11.5445
▁러시아월드컵	-11.5447
▁수용할	-11.545
었다는	-11.5451
극적으로	-11.5453
▁레드	-11.5455
▁엄중	-11.5455
▁공연에	-11.5458
▁교섭	-11.5459
▁뒷	-11.5459
▁의무화	-11.546
▁친절	-11.546
▁먹었	-11.5463
▁보건	-11.5466
▁효과적	-11.5467
▁표현한	-11.547
▁언론인	-11.5471
건강	-11.5471
▁채로	-11.5476
▁도달	-11.5477
▁대주주	-11.5479
전보다	-11.548
였습니	-11.548
▁수준에서	-11.5483
▁신뢰성	-11.5483
▁믿을	-11.5484
분까지	-11.5484
방식	-11.5486
▁바뀔	-11.5489
▁대면	-11.5491
▁존경	-11.5491
렛	-11.5492
련	-11.5493
▁Y	-11.5493
▁안쪽	-11.5493
탑	-11.5494
이런	-11.5496
▁마련하기	-11.5498
▁체	-11.5499
▁기대해	-11.55
▁위험성	-11.5502
▁기록할	-11.5504
▁침	-11.5505
▁쌓아	-11.5507
▁굵	-11.5508
▁소방서	-11.5509
▁사드	-11.5509
▁필요하고	-11.5511
▁경기도시공사	-11.5512
▁강사로	-11.5516
▁거론되	-11.5516
중소기업	-11.5519
차원	-11.552
▁양성평등	-11.552
▁이용객	-11.5521
▁싸우	-11.5521
▁지원과	-11.5523
▁시상식	-11.5524
▁공헌	-11.5531
▁시급하다	-11.5532
▁청산	-11.5533
▁대응이	-11.5534
▁도박	-11.5535
▁유지하기	-11.5535
▁의존하	-11.5536
▁단계별	-11.5536
▁곡선	-11.554
▁업체인	-11.554
유지	-11.5545
하시는	-11.5545
▁수사단	-11.5545
▁사격	-11.5546
▁심도	-11.5548
▁본관	-11.5548
▁게시물	-11.5549
▁종료된	-11.5549
성의	-11.555
▁무효	-11.555
▁소극적	-11.555
▁패러다임	-11.555
▁농기원	-11.5551
▁제로페이	-11.5553
▁호선	-11.5553
사무	-11.5553
▁들러	-11.5555
9000	-11.5555
▁95	-11.5559
▁이낙연	-11.5559
▁음악에	-11.5559
▁코엑스	-11.5559
▁의구심	-11.5559
▁재능기부	-11.5559
▁짜증	-11.556
▁하드웨어	-11.556
▁사단법인	-11.556
▁폴더블폰	-11.556
▁6·25	-11.5561
▁콜	-11.5561
▁녹음	-11.5561
▁무상급식	-11.5561
▁떠날	-11.5561
▁식품의약품안전처	-11.5562
▁퍼	-11.5564
▁국방장관	-11.5565
▁고생	-11.5565
▁농식품부	-11.5566
▁국토	-11.5566
▁일으켰	-11.5566
▁정교	-11.5567
▁남양주시	-11.5569
체계를	-11.557
▁학교급식	-11.557
▁개개인	-11.557
▁프로젝트에	-11.5571
▁서산	-11.5571
▁분열	-11.5572
하이닉스	-11.5572
▁내놓았다	-11.5572
▁생애	-11.5573
▁즉석	-11.5573
▁밝혔지만	-11.5573
▁잔여	-11.5575
▁고전	-11.5576
▁감소할	-11.5577
▁이뤄지면	-11.5577
▁짧게	-11.5578
▁목재	-11.5578
▁도의원	-11.5578
▁윤곽	-11.5578
▁테슬라	-11.5579
▁스피드	-11.5579
▁샷	-11.558
▁블룸버그	-11.558
▁도로가	-11.558
▁자치법규	-11.558
▁김현미	-11.5581
▁갖지	-11.5581
▁소고기	-11.5582
▁연방준비제도	-11.5582
▁민관	-11.5583
▁기초연금	-11.5583
▁도착하	-11.5583
충	-11.5583
▁재즈	-11.5583
▁경제협력	-11.5583
▁생중계	-11.5584
▁중견	-11.5584
▁도모하기	-11.5584
족	-11.5584
▁상무부	-11.5584
▁있었으며	-11.5585
▁다툼	-11.5585
버린	-11.5587
▁고마워요	-11.5587
▁미국으로	-11.5587
▁논평	-11.5591
▁수립하여	-11.5592
▁육아휴직	-11.5594
▁이어갈	-11.5594
▁주문했는데	-11.5595
▁뭐라고	-11.5596
▁오빠	-11.5597
▁먹어요	-11.5597
▁I	-11.5598
▁‘2017	-11.5598
▁농식품	-11.5599
▁협의해	-11.56
추	-11.56
▁씨와	-11.5602
▁예상했	-11.5602
▁판결했다	-11.5603
▁참석자	-11.5603
▁비준	-11.5606
▁삶은	-11.5606
▁아레나	-11.5606
명씩	-11.5607
사에	-11.5608
▁나오면서	-11.561
▁없거나	-11.561
▁청문회	-11.561
▁경영에	-11.5611
▁도시디자인	-11.5612
▁케인	-11.5612
▁기업으로	-11.5613
▁악용	-11.5616
▁양평	-11.5617
▁재선	-11.5617
▁야채	-11.5618
▁개선된	-11.5619
▁특활비	-11.5621
▁계엄령	-11.5621
▁기억하고	-11.5622
능력이	-11.5622
▁열렸	-11.5622
▁자존심	-11.5622
▁현대모비스	-11.5624
겠네요	-11.5624
▁주목하고	-11.5625
▁창의성	-11.5626
▁사람이에요	-11.5626
▁안정화	-11.5627
▁의사소통	-11.5627
▁생각했던	-11.5628
▁부담해야	-11.5628
▁최상	-11.5629
▁확대되고	-11.5631
▁의무가	-11.5631
▁이야기하고	-11.5632
▁타이어	-11.5633
▁우려된다	-11.5635
n	-11.5635
▁그쳤다	-11.5635
▁기반이	-11.5636
▁생기고	-11.5637
▁제시하고	-11.5637
▁가능해요	-11.5637
▁실체	-11.5638
▁맞아요	-11.5638
▁마련한다	-11.5638
▁달러로	-11.564
▁잃지	-11.5642
▁O	-11.5642
▁리버풀	-11.5642
▁녹화	-11.5643
▁편입	-11.5644
▁역동적	-11.5645
▁LPG	-11.5648
▁벼	-11.5648
▁책임지	-11.5649
라운드에서	-11.565
▁이제부터	-11.5651
▁반박	-11.5652
▁상봉	-11.5652
▁국제유가	-11.5654
▁도시계획	-11.5655
▁역할에	-11.5656
▁운임	-11.5657
▁연동	-11.5657
▁선수를	-11.5658
▁추위	-11.5659
▁고른	-11.5659
▁가계대출	-11.566
▁넣었다	-11.5661
수사	-11.5661
▁불황	-11.5662
▁멘토	-11.5662
▁황금	-11.5663
▁폐원	-11.5663
▁머	-11.5663
▁재질	-11.5664
▁게스트	-11.5667
▁부르	-11.5668
▁파악하기	-11.567
▁않았는데	-11.567
▁농어촌	-11.5671
▁가속화	-11.5671
▁깨고	-11.5671
▁대응에	-11.5671
▁걸리는	-11.5673
▁서쪽	-11.5674
▁약속한	-11.5677
▁소원	-11.5678
▁주도권	-11.5682
▁그들과	-11.5686
▁다스	-11.5687
▁무형문화재	-11.5688
▁쌍	-11.5689
▁블랙	-11.5692
▁대본	-11.5693
▁유일하다	-11.5693
▁엑스포	-11.5694
▁의원을	-11.5695
▁받았고	-11.5696
▁복지부	-11.5697
▁계곡	-11.5698
▁부산지역	-11.5698
▁주소지	-11.5698
사실	-11.5699
▁장미	-11.5699
▁말아	-11.5704
기만	-11.5704
▁전신	-11.5705
▁불균형	-11.5706
계의	-11.5707
화와	-11.5708
지역에서	-11.5708
▁겨냥해	-11.571
AR	-11.5712
승인	-11.5712
▁컴백	-11.5712
▁납입	-11.5712
▁참고해	-11.5713
▁개정된	-11.5713
▁자치회관	-11.5715
▁공지	-11.572
▁구하기	-11.5722
이를	-11.5722
▁종사	-11.5724
해달라	-11.5724
▁소홀	-11.5725
▁수감	-11.5727
류가	-11.5729
60	-11.5731
▁클러스터	-11.5732
▁동쪽	-11.5732
▁전세	-11.5733
성에	-11.5734
여건	-11.5736
경력이	-11.5739
보가	-11.574
▁소개한다	-11.5742
▁이념	-11.5742
▁교량	-11.5742
중심	-11.5742
기관인	-11.5742
▁잡았	-11.5743
▁대안이	-11.5743
▁전수조사	-11.5744
▁폐업	-11.5744
▁달라는	-11.5745
기업과	-11.5745
▁LH	-11.5746
▁발의한	-11.5746
▁일어났	-11.5746
이거나	-11.5746
▁화산	-11.5747
구민	-11.5748
▁도의	-11.5752
▁대기업과	-11.5753
▁나노	-11.5754
▁위탁운영	-11.5755
▁반려견	-11.5755
▁오산	-11.5756
▁친분	-11.5759
그동안	-11.5761
“	-11.5766
▁인정했다	-11.5771
액이	-11.5772
▁학력	-11.5773
▁정신과	-11.5773
▁도교육청	-11.5774
▁고립	-11.5774
▁자신과	-11.5776
▁꼬집었	-11.5777
징수	-11.5778
▁커진다	-11.5779
▁업그레이드	-11.5781
▁이윤	-11.5781
▁쉬워	-11.5781
▁비단	-11.5783
▁식당에	-11.5783
▁멘토링	-11.5783
▁착륙	-11.5785
▁유감	-11.5786
▁텃밭	-11.5788
▁투자한	-11.5788
▁결정하고	-11.5791
▁깔려	-11.5791
▁설사	-11.5793
▁환급	-11.5793
건물	-11.5794
행하여야	-11.5795
▁IP	-11.5796
▁드라마에	-11.5796
▁판단에서	-11.5797
▁일당	-11.5797
▁부자	-11.5798
▁공기업	-11.5801
소득	-11.5802
▁과잉	-11.5803
▁시험지	-11.5804
▁시달리	-11.5804
▁목표가	-11.5806
▁착한	-11.5806
하였는데	-11.5807
됐고	-11.5808
▁구도	-11.581
▁활약이	-11.5812
▁들여다보	-11.5813
▁논란으로	-11.5813
▁질환이	-11.5815
▁단백질	-11.5817
▁통신장비	-11.5817
▁만들어서	-11.5819
▁팔고	-11.5821
시장이	-11.5829
▁자에게	-11.5835
▁글씨	-11.5839
재정적	-11.5841
▁담당관	-11.5844
따라	-11.5844
▁행정기관	-11.5846
▁던져	-11.5847
▁육상	-11.585
▁깊	-11.5851
연합회	-11.5851
▁정책적	-11.5853
▁개인적	-11.5853
▁효	-11.5854
▁책정	-11.5854
▁3∼4	-11.5856
▁일으키는	-11.5857
▁바위	-11.5857
▁스태프	-11.5859
▁조성하기	-11.586
▁내각	-11.5862
▁업체와	-11.5864
54	-11.5864
▁옥상	-11.5866
▁확진	-11.5866
▁줄여	-11.5867
내로	-11.5867
▁의미하는	-11.5868
▁바라보	-11.5868
▁아이들과	-11.5869
▁받아들여	-11.587
▁실시된	-11.587
▁이럴	-11.587
▁갑작스러	-11.5871
▁선배	-11.5872
파크	-11.5874
▁확정했다	-11.5874
▁알았다	-11.5875
▁결정적	-11.5877
심의위원회	-11.5878
연이	-11.5881
▁속으로	-11.5883
▁진전이	-11.5883
▁넓어	-11.5884
▁나타	-11.5885
내역	-11.5887
세기에	-11.5888
체제	-11.5892
기술을	-11.5892
▁이산가족	-11.5894
▁금강산	-11.5899
▁그해	-11.5901
▁취직	-11.5906
▁여행객	-11.5907
왜	-11.591
소리	-11.591
▁국가에서	-11.591
▁실시하여	-11.5914
솔	-11.5915
▁원으로	-11.5915
▁지사와	-11.5916
▁배웠	-11.5916
▁유효	-11.5917
▁해주고	-11.5918
캠퍼스	-11.5918
참여	-11.592
▁인용	-11.5923
▁던진	-11.5924
건강하고	-11.5925
▁도보	-11.5926
▁반복되	-11.5928
▁추진하겠다	-11.5928
▁아니기	-11.5932
▁이루어지는	-11.5935
▁구경	-11.5937
▁연구에	-11.5939
영상	-11.5939
▁생략	-11.5942
▁국정감사	-11.5942
▁취업에	-11.5943
▁전설	-11.5944
▁미래가	-11.5946
예정	-11.5947
▁산출	-11.5949
▁입소	-11.5949
▁중앙은행	-11.5952
▁공주	-11.5953
책은	-11.5953
것	-11.5954
▁알기	-11.5955
▁금연구역	-11.5955
▁멍	-11.5955
▁순환	-11.5957
▁좌절	-11.5959
▁인상에	-11.5961
글	-11.5962
하자마자	-11.5963
▁도착했다	-11.5965
▁신축	-11.5966
▁양자	-11.5968
▁나간	-11.5969
▁카라	-11.5969
소재로	-11.5969
음악	-11.597
▁샌드위치	-11.5972
▁전임	-11.5972
▁마트	-11.5973
기사를	-11.5974
▁확인해보	-11.5975
사업이	-11.5976
등은	-11.5977
▁기념일	-11.5977
43	-11.5979
▁이라크	-11.5981
▁성장한	-11.5983
▁후보로	-11.5984
▁수송	-11.599
부장	-11.5991
무리	-11.5992
▁관련자	-11.5993
▁비무장지대	-11.5993
▁상품권	-11.5995
▁한국인들	-11.5995
▁히트	-11.5995
▁처리하고	-11.5997
▁낮고	-11.5997
철도	-11.5998
블	-11.5998
▁권리가	-11.5999
▁타임	-11.6001
▁기부금	-11.6001
▁노래방	-11.6004
▁페	-11.6004
과거	-11.6004
▁비영리법인	-11.6005
강전	-11.6007
▁알려줄	-11.6008
▁매도	-11.6008
▁고지	-11.6009
밸리	-11.601
▁빨라	-11.6013
▁올릴	-11.6015
▁그러니	-11.602
▁수급자	-11.6022
▁결승전	-11.6022
▁낡	-11.6023
▁협력사	-11.6023
▁분양가	-11.6024
손학규	-11.6027
리지	-11.603
이용	-11.6033
▁징수한	-11.6034
▁마이클	-11.6035
▁쓰러져	-11.6035
▁포스트시즌	-11.6035
용할	-11.6035
▁대목	-11.6035
▁벗어난	-11.6036
▁오리지널	-11.6036
▁신념	-11.6037
▁20∼30	-11.6038
▁많았지만	-11.6038
▁모레	-11.6038
▁모르겠지만	-11.6039
▁그러므로	-11.6039
▁별개로	-11.6039
▁전시된	-11.6041
▁테니까	-11.6041
규칙	-11.6043
파장이	-11.6043
버리는	-11.6043
▁많았던	-11.6043
▁스테이크	-11.6046
▁선사한다	-11.6047
▁거치면서	-11.6047
인들에게	-11.6049
▁벌금형	-11.6049
▁또래	-11.6049
상에서	-11.605
▁풍성한	-11.6051
▁인정하지	-11.6051
부터는	-11.6052
수한	-11.6052
▁선제적	-11.6052
▁말았다	-11.6052
▁양도	-11.6053
▁초과하지	-11.6053
▁가뭄	-11.6054
▁판소리	-11.6056
장관	-11.6058
▁원산지	-11.6058
▁군부대	-11.6058
▁주먹	-11.6058
▁모스크바	-11.6058
월말까지	-11.6058
▁레알	-11.6058
▁햄버거	-11.606
▁섞여	-11.606
▁태아	-11.606
▁조현우	-11.6061
▁쌓이	-11.6061
▁변경하고	-11.6061
▁자본금	-11.6061
▁예고했다	-11.6061
▁분석됐다	-11.6061
▁조선일보	-11.6062
으로도	-11.6063
▁구보	-11.6064
▁나눴다	-11.6064
▁기후	-11.6064
▁야	-11.6065
▁기둥	-11.6065
상에	-11.6066
▁해결해야	-11.6066
▁응급	-11.6067
▁전해진다	-11.6069
농가	-11.6072
▁부친	-11.6073
▁보유세	-11.6076
▁비주얼	-11.6076
▁공청회	-11.6077
▁심사위원	-11.6077
▁민간전문가	-11.6078
▁눌러	-11.6078
▁필요하지만	-11.6078
▁올리기	-11.6079
▁참석하여	-11.608
▁사물인터넷	-11.608
▁통화정책	-11.608
▁VIP	-11.6081
▁레이저	-11.6081
▁신생아	-11.6081
▁1:1	-11.6082
▁스마트시티	-11.6082
▁주민자치회	-11.6083
▁이틀간	-11.6084
▁사실이지만	-11.6084
▁창구	-11.6084
화학	-11.6085
▁워너원	-11.6085
▁촘촘	-11.6087
▁중소벤처기업부	-11.6088
▁안되는	-11.6088
▁파스타	-11.6089
▁위안	-11.6089
▁원작	-11.6089
▁라돈	-11.6089
▁남해	-11.609
▁이르렀다	-11.6091
▁얻기	-11.6091
▁압축	-11.6092
▁여행자	-11.6093
▁받거나	-11.6095
▁타율	-11.6096
▁분과위원회	-11.6098
▁괜찮으	-11.6099
▁익명	-11.61
▁유공자	-11.6101
▁가도	-11.6101
▁증거인멸	-11.6102
▁와이파이	-11.6102
▁발언에	-11.6103
▁광장에서	-11.6107
▁도출	-11.6108
▁달콤한	-11.6109
▁남아있	-11.6109
▁펜션	-11.611
▁놀이터	-11.6112
▁발달장애인	-11.6113
▁항만	-11.6116
▁시작했고	-11.6121
▁급감	-11.6121
▁책에	-11.6122
▁하락하고	-11.6122
는데도	-11.6123
▁경사노위	-11.6124
▁그것에	-11.6124
▁필자	-11.6125
▁막는	-11.6126
▁편리	-11.6126
▁당사	-11.6126
▁배워	-11.6129
악	-11.6129
년만	-11.613
▁근본적으로	-11.6131
▁기밀	-11.6132
▁늘리고	-11.6133
▁뜻한다	-11.6133
▁발휘하	-11.6133
▁좋겠	-11.6135
▁선정하고	-11.6137
▁질문이	-11.6139
▁시상식에서	-11.614
▁고마워	-11.614
▁설치되어	-11.6141
▁조회수	-11.6141
▁어울리	-11.6143
▁돌파했다	-11.6143
▁결산	-11.6143
▁트위터에	-11.6143
▁시카고	-11.6145
틴	-11.6146
▁세력이	-11.6146
▁은행권	-11.6147
▁음식물	-11.6147
▁섰다	-11.6148
▁만들어지	-11.6149
▁총회	-11.6149
▁카드사	-11.615
▁규칙이	-11.6151
통계	-11.6151
▁않자	-11.6153
▁게이트	-11.6154
▁이수	-11.6156
▁시간대	-11.6159
▁들어가서	-11.616
▁발병	-11.6161
▁일입니다	-11.6161
▁것이냐	-11.6162
▁교내	-11.6162
▁우정	-11.6163
▁미추홀구	-11.6163
우는	-11.6165
▁tvN	-11.6167
변	-11.6167
▁두며	-11.6169
▁선정하는	-11.6169
▁평양에서	-11.6169
개에	-11.617
▁터치	-11.617
▁결함	-11.6174
▁전투기	-11.6175
▁혼잡	-11.6176
▁홍보하고	-11.6176
▁고려하고	-11.618
▁1993	-11.6184
▁팔아	-11.6185
▁육수	-11.6187
▁해설	-11.6187
▁제주도에	-11.6188
▁격렬	-11.6189
▁한유총	-11.6189
▁구비	-11.619
▁한국인이	-11.6192
▁지적에	-11.6193
▁갱신	-11.6194
▁매체들	-11.6196
▁가져온	-11.6197
▁도모	-11.6198
▁승계	-11.62
▁않으려	-11.62
전력이	-11.6201
▁강릉시	-11.6202
▁기자간담회	-11.6202
청장	-11.6203
안타	-11.6204
▁동상	-11.6204
▁거래량	-11.6205
▁이동할	-11.6205
▁저희에게	-11.6206
▁뽐내	-11.6207
▁계시는	-11.6209
큰	-11.6209
▁가정에서	-11.6211
▁뒀다	-11.6214
▁우호	-11.6214
▁와	-11.6216
▁요금제	-11.6216
▁경찰관이	-11.6218
▁권고했다	-11.6219
가격	-11.6219
▁세월	-11.6221
▁연관성	-11.6222
▁위성	-11.6223
겨져	-11.6225
▁사업장에	-11.6228
▁이미지와	-11.6229
▁촛불	-11.6229
▁900	-11.6233
물로	-11.6234
티스	-11.6234
▁봤어	-11.6235
▁유지해	-11.6236
할수록	-11.6237
▁셰프	-11.6237
▁구의원	-11.6238
▁보건소장	-11.6238
▁전문의	-11.6239
▁시가	-11.6244
▁김정	-11.6244
백만	-11.6245
▁경험한	-11.6246
▁스캔들	-11.6249
▁교육지원청	-11.6249
▁달려가	-11.625
▁설치돼	-11.6251
▁남는다	-11.6255
▁준비해야	-11.6257
▁끝나지	-11.6258
▁개발사업	-11.6259
▁인권위	-11.6259
▁친서	-11.6259
▁시간대에	-11.6261
▁무더기	-11.6262
▁김병	-11.6262
▁많다고	-11.6262
▁대통령에	-11.6263
▁납부하	-11.6264
▁걸린다	-11.6264
▁고인	-11.6267
▁상품으로	-11.6267
▁챔피언	-11.6269
했음에도	-11.6271
▁준비에	-11.6271
▁공백	-11.6273
▁시장으로	-11.6273
▁광복	-11.6274
▁결론이	-11.6276
▁기업체	-11.6277
▁이로	-11.6278
▁가치관	-11.628
▁추방	-11.6282
▁삭감	-11.6282
▁규칙에	-11.6287
▁구축하고	-11.6288
점과	-11.6288
▁진주	-11.6288
▁음식에	-11.629
밍	-11.6292
▁허용하	-11.6292
▁상인	-11.6293
수도	-11.6298
▁수단이	-11.6299
마켓	-11.6301
▁지난해부터	-11.6303
▁묘사	-11.6303
▁저가	-11.6306
▁의존도	-11.6306
▁아쉬움이	-11.6308
▁노동조합	-11.6308
▁서명한	-11.6311
▁짚었	-11.6313
장애	-11.6314
▁운영된다	-11.6315
▁구원	-11.6316
르게	-11.6316
소재	-11.6317
▁범인	-11.6317
요금	-11.6318
▁다치	-11.6319
▁197	-11.6321
▁들어왔	-11.6322
▁장기적	-11.6322
▁국민적	-11.6323
▁진열	-11.6324
▁휘	-11.6326
야만	-11.6327
▁어찌	-11.6329
▁빈곤	-11.6329
▁일관	-11.633
▁나간다	-11.6331
▁공개모집	-11.6332
십니까	-11.6334
▁양호	-11.6336
▁역전	-11.6337
90	-11.6338
▁내려가	-11.6339
▁주시고	-11.6339
▁신사업	-11.6341
▁안경	-11.6343
▁불안정	-11.6344
▁보행	-11.6345
▁균형발전	-11.6345
사장	-11.6346
▁김지사	-11.6347
▁조항이	-11.6348
▁이끌어내	-11.6348
▁서양	-11.6348
▁찾아보	-11.6349
▁최우수상	-11.635
쳤다	-11.635
70	-11.6358
▁몸으로	-11.6359
항공	-11.636
▁써야	-11.636
▁체중	-11.6362
▁설명하는	-11.6362
시에는	-11.6362
▁촉발	-11.6363
플랫폼	-11.6363
위의	-11.6364
▁다녀오	-11.6364
▁사용했다	-11.6365
▁지급하지	-11.6366
▁밝혀지	-11.6367
▁도로에서	-11.6368
▁효율성을	-11.6369
▁이승	-11.6369
희정	-11.637
가며	-11.637
매치	-11.6371
▁가담	-11.6371
▁부담감	-11.6372
▁인종	-11.6372
▁미용	-11.6372
▁뺀	-11.6372
▁금융회사	-11.6373
▁창출에	-11.6376
▁일치	-11.6376
▁공작	-11.6381
▁확대되	-11.6384
▁노동부	-11.6385
▁170	-11.6388
▁줬	-11.6388
▁해가	-11.6391
▁찾아와	-11.6391
▁꼬	-11.6392
당과	-11.6397
거리는	-11.6397
▁길어	-11.6398
▁갚	-11.6399
▁영상에	-11.64
▁단점	-11.6402
▁수료	-11.6402
▁힘들었	-11.6403
▁의회의	-11.6404
▁작성하	-11.6405
▁짧	-11.6407
▁대개	-11.6407
▁제기돼	-11.6407
▁미국인	-11.6409
▁유기	-11.6411
▁차종	-11.6413
▁창고	-11.6417
▁열광	-11.6422
▁정함	-11.6424
▁기념행사	-11.6424
▁신입생	-11.6425
▁대치	-11.6427
▁광명	-11.6427
자에	-11.6428
▁연인	-11.6428
▁계류	-11.6428
▁원화	-11.643
▁않은데	-11.643
▁안건이	-11.643
GM	-11.643
▁원격	-11.6431
협회가	-11.6434
▁뒤에도	-11.6436
▁문항	-11.6436
▁문건에	-11.6438
▁드러	-11.644
회에서	-11.6445
▁감당	-11.6445
▁육성에	-11.6445
▁학문	-11.6448
▁무시하	-11.6449
▁느	-11.6452
▁365	-11.6454
었어	-11.6459
▁확보해	-11.646
▁유럽에서	-11.646
▁요청하	-11.6461
▁리뷰	-11.6462
▁입건	-11.6464
▁하도급	-11.6465
▁발음	-11.6465
▁변화와	-11.647
정하지	-11.6471
▁챔피언십	-11.6471
▁식당에서	-11.6471
▁칸	-11.6474
▁76	-11.6474
▁포기한	-11.6474
▁대변인이	-11.6481
신청서	-11.6481
▁전년도	-11.6482
▁훔	-11.6486
당의	-11.6486
▁법규	-11.6488
▁차이점	-11.6488
시에서	-11.6489
홀	-11.649
▁부담금	-11.6491
▁빈번	-11.6492
네트워크	-11.6494
▁청도	-11.6494
▁비빔밥	-11.6496
▁남아있는	-11.6499
▁쌓인	-11.6499
▁전달하고	-11.6505
▁요원	-11.6505
▁가지로	-11.6505
▁확	-11.6505
45	-11.6505
▁러시아의	-11.6507
드릴까요	-11.6507
보호	-11.6509
▁예년	-11.6512
▁주문했다	-11.6515
▁곡이	-11.6518
▁소속팀	-11.6518
▁애플이	-11.652
▁기능은	-11.652
▁색깔이	-11.6522
▁사면	-11.6522
낀	-11.6523
▁윤리	-11.6523
(10	-11.6525
▁돌아가는	-11.6526
▁가마	-11.6527
근로자	-11.6527
▁리듬	-11.6528
▁톤	-11.6531
▁보행자	-11.6532
▁높기	-11.6533
▁고구려	-11.6533
▁설렘	-11.6533
▁건넨	-11.6533
▁브랜드로	-11.6533
▁되었다고	-11.6534
▁살펴볼	-11.6535
▁멜로디	-11.6535
▁가상화폐	-11.6535
▁로이터	-11.6535
▁오키나와	-11.6536
▁페널티킥	-11.6536
▁포트폴리오	-11.6536
▁슈퍼주니어	-11.6536
▁당황	-11.6536
▁생각하면	-11.6537
▁기술로	-11.6537
▁7∼8	-11.6538
▁오르면	-11.6538
▁이순신	-11.6538
▁돼지고기	-11.6538
▁노란색	-11.6538
▁체납액	-11.654
▁표지판	-11.654
▁명예훼손	-11.6541
▁펼쳐졌다	-11.6541
▁수소차	-11.6543
▁맞을	-11.6543
▁누구인지	-11.6545
▁대강당에서	-11.6545
국민	-11.6545
▁밝히면서	-11.6547
캠프	-11.6547
▁공천	-11.6547
▁민간위원	-11.6548
▁이승우	-11.6549
▁의존	-11.655
조로	-11.655
▁검출된	-11.655
▁우리나라에	-11.655
▁핫	-11.6551
정치	-11.6551
성장	-11.6552
The	-11.6552
처	-11.6553
▁자율주행차	-11.6553
▁노원구청장	-11.6554
▁고혈압	-11.6556
▁전해져	-11.6556
▁한숨	-11.6556
▁어쨌든	-11.6557
▁종부세	-11.6557
▁오토바이	-11.6558
▁고품질	-11.656
▁87	-11.6563
▁들어가기	-11.6563
실로	-11.6564
▁필수적인	-11.6564
▁천안시	-11.6565
▁매뉴얼	-11.6565
▁안방극장	-11.6565
▁내구성	-11.6565
▁수험생	-11.6566
서로	-11.6566
▁범죄예방	-11.6567
▁판매된	-11.6568
▁연도별	-11.657
▁장벽	-11.657
▁마라	-11.6571
▁밝히지	-11.6574
▁그래야	-11.6574
▁우수상	-11.6574
▁물론이고	-11.6574
연준	-11.6574
▁동메달	-11.6575
봐야	-11.6575
▁신청사	-11.6575
▁장거리	-11.6575
▁2·4	-11.6576
▁비서관	-11.6576
▁직면한	-11.6576
▁배송이	-11.6577
▁발전과	-11.6577
▁신한은행	-11.6577
▁대안으로	-11.6579
▁여학생	-11.6579
▁어쩌면	-11.658
▁선출된	-11.6581
▁지역아동센터	-11.6581
▁드라이브	-11.6582
▁번식	-11.6582
▁마을공동체	-11.6583
▁황씨	-11.6583
▁거론된	-11.6584
▁연결되	-11.6584
▁찾았	-11.6586
▁소방차	-11.6586
▁이루어지고	-11.6587
▁사로잡고	-11.6588
고속도로	-11.6589
▁보강	-11.659
▁마블	-11.6591
▁흑자	-11.6591
▁포착됐다	-11.6592
▁누구에게	-11.6592
▁탐방	-11.6595
정과	-11.6595
▁15%	-11.6596
▁기대하기	-11.6596
▁친환경차	-11.6596
▁바람직	-11.6597
▁탈세	-11.6598
▁손실이	-11.6598
▁찍었다	-11.6601
▁경유	-11.6604
지지	-11.6604
▁조씨	-11.6605
▁인터넷전문은행	-11.6607
▁채용비리	-11.6608
▁시각장애인	-11.6608
물이	-11.6609
▁주민과	-11.661
▁뛰어나	-11.661
진단	-11.6611
▁충	-11.6611
▁참고인	-11.6612
▁건설사	-11.6613
킵	-11.6614
▁부천시	-11.6614
움을	-11.6615
▁게다가	-11.6615
▁적당한	-11.6616
발생	-11.6616
▁엔지니어	-11.6617
▁맞습니다	-11.6618
▁아쉽다	-11.6618
▁받았지만	-11.6618
▁혈관	-11.662
었으나	-11.662
▁인턴	-11.6624
▁소비자에게	-11.6624
▁높아져	-11.6626
▁렌터카	-11.6627
▁CGV	-11.6627
▁DNA	-11.6627
▁평가해	-11.6627
▁국정농단	-11.6628
▁본다면	-11.6629
▁지내는	-11.6631
(11	-11.6632
▁이마트	-11.6633
▁지원센터	-11.6634
▁맛집	-11.6634
▁절실	-11.6635
▁소속공무원	-11.6635
본명	-11.6636
규정	-11.6638
하느라	-11.6638
▁관건이	-11.6639
▁조짐이	-11.664
▁과열	-11.664
▁포토	-11.6641
▁떠오르고	-11.6641
▁혼란이	-11.6641
▁진상	-11.6642
▁시작됐	-11.6643
▁광주지역	-11.6644
▁아리랑	-11.6646
▁응시	-11.6646
▁지지하는	-11.6647
재로	-11.6647
▁보이는데	-11.6648
▁양념	-11.6648
▁깊다	-11.6649
▁가중	-11.6649
▁시민들에게	-11.6649
▁순천	-11.665
▁좋지만	-11.665
▁나가야	-11.6651
▁협력하여	-11.6654
됨	-11.6655
▁부른다	-11.6656
▁추측	-11.6658
▁버섯	-11.6658
▁국영	-11.6659
▁축산물	-11.666
▁해소하	-11.6661
J	-11.6662
▁비엔날레	-11.6662
▁경기지역	-11.6662
▁떨어졌	-11.6663
▁진행돼	-11.6665
▁재무	-11.6667
서야	-11.6669
▁등장해	-11.6671
▁뜻하는	-11.6671
직원	-11.6673
북한이	-11.6673
▁경로당	-11.6674
▁포지션	-11.6675
차가	-11.6675
▁음료수	-11.6675
이었어	-11.6675
▁받았어	-11.6675
▁렌즈	-11.6676
▁담당부서	-11.6677
기적으로	-11.6678
▁국도	-11.6678
▁민주화운동	-11.6678
▁시작했	-11.668
▁고려대	-11.6681
정에	-11.6684
▁이의신청	-11.6685
함께	-11.6685
▁여겨지	-11.6685
▁장애물	-11.6687
▁번씩	-11.6687
교육청	-11.6688
▁벤처기업	-11.6688
▁건의했다	-11.6688
▁포털	-11.6689
▁민속	-11.669
▁몰고	-11.669
▁붙인	-11.6691
등록	-11.6692
▁도래	-11.6694
▁올라가는	-11.6695
▁현실에서	-11.6695
▁인파	-11.6696
미사일	-11.6699
▁것인데	-11.6699
▁가전	-11.6701
▁소개한	-11.6701
▁이뤄졌	-11.6702
▁인명	-11.6704
r	-11.6705
▁중앙에	-11.6707
▁수요일에	-11.6707
▁납	-11.6707
▁쳐	-11.6709
▁실려	-11.6709
▁기대되	-11.671
▁한두	-11.6712
▁만난다	-11.6712
▁조치할	-11.6715
▁살아있	-11.6715
▁공익	-11.6717
▁과자	-11.6718
▁CBS	-11.6721
징	-11.6722
▁어려웠다	-11.6723
현장	-11.6723
▁85	-11.6723
▁이것들	-11.6725
주와	-11.6725
가시면	-11.6725
▁부각	-11.6726
▁문이	-11.6727
▁추진계획	-11.6727
▁회복세	-11.6729
▁주셨	-11.673
▁교과	-11.673
▁시민사회단체	-11.673
▁벨	-11.6732
▁요청하고	-11.6732
▁부모와	-11.6736
▁도모하고	-11.6737
치며	-11.6739
▁근무하	-11.6739
▁도시로	-11.6739
▁68	-11.674
등에	-11.674
▁나가기	-11.6744
▁표정이	-11.6747
분과	-11.6747
▁지난번에	-11.6748
▁참조	-11.675
▁강점이	-11.675
▁GM	-11.675
▁마라톤	-11.675
▁관리비	-11.6752
▁정도에	-11.6756
▁남구	-11.6759
▁달해	-11.6761
개정안이	-11.6761
▁소외계층	-11.6762
▁고층	-11.6763
던데	-11.6763
▁찾는다	-11.6765
으므로	-11.6767
▁공장에	-11.6768
▁들어선다	-11.6769
팀장	-11.6769
▁안심하	-11.677
▁규격	-11.6774
▁기류	-11.6774
▁이전까지	-11.6776
박람회	-11.6776
▁건조한	-11.6777
▁평가한	-11.6778
▁촬영된	-11.6779
▁상황에서도	-11.6779
▁산타	-11.678
▁타워	-11.6782
화하는	-11.6783
▁발판	-11.6784
x	-11.6785
특히	-11.6786
사회를	-11.6786
▁주문하	-11.6787
▁설명할	-11.6788
▁개정이	-11.6791
▁위치는	-11.6792
▁돌아다니	-11.6792
이었고	-11.6793
▁덩	-11.6796
▁도자	-11.6796
▁선고했다	-11.6797
▁신나	-11.6797
▁자동화	-11.68
▁나이에	-11.6802
▁지금보다	-11.6804
▁의회에	-11.6807
▁착	-11.6808
▁하이	-11.681
▁분기별	-11.6812
▁이재	-11.6812
▁침투	-11.6812
노동	-11.6817
▁재생	-11.6817
▁않으면서	-11.6821
▁단계에	-11.6822
▁돕는다	-11.6823
보다도	-11.6823
▁위력	-11.6823
▁데서	-11.6826
점검을	-11.6826
▁대학교에	-11.6827
▁분배	-11.6827
되는데	-11.6827
▁가정에	-11.6827
▁싱가포르에서	-11.6828
▁선점	-11.6829
▁충격에	-11.683
▁회원이	-11.6834
▁국가적	-11.6836
▁정신질환자	-11.6837
▁시설로	-11.6837
▁대책으로	-11.684
▁멕시코에서	-11.6842
독	-11.6843
들어	-11.6843
▁관광객들	-11.6844
였으며	-11.6844
박물관	-11.6845
▁응모	-11.6845
▁복장	-11.6846
▁동대문구	-11.6848
부의	-11.6849
▁무한	-11.685
▁내로	-11.6851
경험과	-11.6852
▁상설	-11.6852
▁합작	-11.6852
▁빼돌	-11.6852
▁설치하여	-11.6854
▁팬클럽	-11.6855
▁젖	-11.6858
최저임금	-11.6858
▁선생이	-11.6858
▁사로잡	-11.686
▁더운	-11.6863
▁공룡	-11.6863
▁이벤트에	-11.6864
▁김의	-11.6864
▁대학원	-11.6865
▁민주당의	-11.6866
▁감리	-11.6867
▁유진	-11.687
▁되었	-11.6872
적을	-11.6873
▁수강생들	-11.6873
브랜드	-11.6873
했어	-11.6874
▁실망	-11.6874
▁찾으	-11.6875
▁청년이	-11.6876
▁꺼	-11.6877
세의	-11.6877
▁집주인	-11.6878
▁희	-11.6879
▁공존	-11.6881
사업의	-11.6882
▁제출하면	-11.6882
▁누구든	-11.6885
▁쌓여	-11.6886
▁양상이	-11.6887
래요	-11.6888
▁판례	-11.6891
▁해결해	-11.6894
▁연예계	-11.6896
환자	-11.6903
▁산다	-11.6903
▁치러진	-11.6904
▁고속	-11.6905
▁현실에	-11.6908
▁이따	-11.6909
▁기준은	-11.6914
▁아시안컵	-11.6915
▁연구자	-11.6918
만여명	-11.6919
효	-11.6921
▁참여하지	-11.6921
▁부여하는	-11.6922
▁기침	-11.6922
▁법적으로	-11.6925
삼성	-11.6926
▁예약한	-11.6926
해줍니	-11.6927
▁시장과	-11.6929
▁경합	-11.6932
▁시즌에	-11.6933
▁벌이	-11.6933
▁인체	-11.6936
런트	-11.6937
▁월세	-11.6938
▁장악하	-11.6939
▁분포	-11.6942
▁제한이	-11.6943
▁문제들이	-11.6944
▁접견	-11.6944
▁우체국	-11.6945
▁원리	-11.6946
▁당당	-11.6949
▁프로그램과	-11.6951
하시고	-11.6951
▁TF	-11.6951
▁스카이	-11.6952
▁밝혀진	-11.6953
▁사고에	-11.6955
▁이득	-11.6955
▁물러나	-11.6956
▁없었다는	-11.6956
▁사측	-11.6958
▁연구자들	-11.6958
▁행안부	-11.696
채널	-11.6961
자본	-11.6962
▁시의회	-11.6964
▁출발하는	-11.6966
▁소외	-11.6967
▁중이라	-11.6967
▁일행	-11.6968
▁방문객	-11.6973
▁유기농	-11.6974
▁정상에	-11.6977
▁패소	-11.6977
▁유튜버	-11.6978
▁주름	-11.6982
▁퍼레이드	-11.6985
과장	-11.6985
갔다	-11.6987
ing	-11.6988
▁가평	-11.6989
▁학교와	-11.6989
▁편안	-11.699
▁모니터	-11.6991
공유	-11.6991
▁연고	-11.6994
해준	-11.6995
▁수납	-11.6997
시대	-11.6999
▁규제개혁	-11.6999
▁심해지	-11.7001
▁분단	-11.7001
▁폰	-11.7003
하느냐	-11.7008
▁이해하지	-11.7009
▁연예	-11.701
▁벽화	-11.7011
상이	-11.7011
▁무선	-11.7012
▁교육감이	-11.7012
공을	-11.7013
공간	-11.7014
▁물의	-11.7014
무리한	-11.7014
▁예금	-11.7015
▁점령	-11.7016
▁유가족	-11.7017
운영하는	-11.7018
▁안락사	-11.702
▁취지에	-11.7021
▁순방	-11.7025
▁맞다	-11.7027
▁동계올림픽	-11.7029
의도적으로	-11.703
▁과제로	-11.7031
▁출시한	-11.7031
정숙	-11.7032
▁카타르	-11.7032
▁의식이	-11.7034
닝	-11.7035
해드릴게요	-11.7036
산을	-11.7038
▁왔던	-11.7038
▁재임	-11.7039
▁끝나자	-11.704
좋은	-11.7046
▁조심스럽	-11.7046
▁여력	-11.7048
▁시흥	-11.705
손혜원	-11.7055
플러스	-11.7055
▁길어지	-11.7056
▁단독주택	-11.7058
▁견딜	-11.7059
▁낙후	-11.7059
유플러스	-11.7059
▁곰	-11.706
▁아토피	-11.7061
▁프리킥	-11.7061
▁가져올	-11.7061
▁김병준	-11.7061
▁무실점	-11.7061
▁특사경	-11.7062
▁내부통제	-11.7062
▁행정소송	-11.7062
▁어울려	-11.7063
▁감사드린다	-11.7063
▁나름대로	-11.7063
▁자존감	-11.7063
▁정부서울청사	-11.7063
▁들어갔	-11.7063
▁국군기무사령부	-11.7063
▁빌린	-11.7063
▁요트	-11.7063
▁재무장관	-11.7064
▁서울산업진흥원	-11.7064
▁형평성	-11.7064
▁국가인권위원회	-11.7064
▁효능	-11.7065
▁알선	-11.7065
▁무사히	-11.7065
▁아름다워	-11.7066
▁행정절차	-11.7067
▁연체율	-11.707
▁기울여	-11.707
▁다쳐	-11.7072
▁엇갈리	-11.7072
기보다는	-11.7072
▁지역별	-11.7073
▁입수	-11.7073
▁부적합	-11.7073
▁괜찮아요	-11.7073
▁팽팽	-11.7074
▁묻자	-11.7075
300	-11.7075
▁떠나는	-11.7075
▁첨예	-11.7075
▁나누며	-11.7076
받는	-11.7078
▁택지	-11.7078
잡을	-11.7079
▁사로잡았다	-11.708
▁정비사업	-11.7082
▁언덕	-11.7083
▁죽이	-11.7083
▁아낌없	-11.7084
▁목걸이	-11.7084
▁상상력	-11.7084
▁오로	-11.7084
▁완성차	-11.7084
▁트와이스	-11.7085
▁쌍용차	-11.7085
▁하실	-11.7085
▁임상시험	-11.7086
▁브로커	-11.7086
▁소녀시대	-11.7086
▁부른	-11.7087
▁기성용	-11.7087
되었을	-11.7088
▁참여연대	-11.7088
▁품질이	-11.7089
▁바라본	-11.709
▁후보들	-11.709
▁설레	-11.7091
▁않으며	-11.7091
▁우버	-11.7092
렇듯	-11.7093
▁겉으로	-11.7093
▁두루	-11.7095
▁유소년	-11.7096
▁읽기	-11.7096
▁신혼부부	-11.7096
▁청춘	-11.7098
▁국왕	-11.7099
▁그랜드	-11.71
▁충원	-11.71
▁긴축	-11.7102
▁김경	-11.7102
숨	-11.7102
▁세무	-11.7105
▁퇴진	-11.7105
▁단계적으로	-11.7106
▁소련	-11.7106
치기	-11.7107
▁키우	-11.7107
평화	-11.7109
▁몰아	-11.711
▁그린벨트	-11.711
▁추진되고	-11.711
▁공개되	-11.7111
▁위반행위	-11.7112
▁통행료	-11.7112
▁어디까지	-11.7113
▁삼바	-11.7113
▁지주사	-11.7113
▁고수	-11.7114
▁원재료	-11.7114
▁구조물	-11.7116
▁판단되	-11.7117
▁부르며	-11.7117
▁필요하	-11.7118
▁시작될	-11.7118
▁피하기	-11.7119
▁갖췄다	-11.7119
▁방에	-11.7119
▁어렵지	-11.712
였어	-11.712
▁삼성전자서비스	-11.7121
▁경제성장률	-11.7121
▁부검	-11.7122
▁희망하	-11.7123
▁있듯이	-11.7124
▁그렇기	-11.7125
▁말씀하시는	-11.7126
▁바라보고	-11.7127
예산	-11.7128
▁9·13	-11.7131
▁향수	-11.7131
탈	-11.7131
에서만	-11.7132
▁충분하지	-11.7132
▁하트	-11.7133
▁저명	-11.7133
만평	-11.7133
▁마찰	-11.7134
▁연계한	-11.7134
▁요구사항	-11.7134
▁인정된다	-11.7135
▁경험할	-11.7135
▁배추	-11.7135
▁관리하	-11.7136
▁돌파구	-11.7137
▁건강과	-11.7138
▁수영장	-11.7139
율을	-11.7142
▁위장	-11.7143
▁세션	-11.7143
▁배출량	-11.7144
▁도에	-11.7144
▁무난	-11.7146
▁99	-11.7148
▁알림	-11.7148
▁등지에서	-11.7148
조에서	-11.715
▁식량	-11.7151
h	-11.7151
▁내세우	-11.7151
▁걸림돌이	-11.7152
▁나쁘지	-11.7153
46	-11.7154
▁당국자	-11.7154
▁흙	-11.7156
▁출연진	-11.7156
▁벨트	-11.7157
▁홍준표	-11.7157
▁구성이	-11.7159
▁생각하	-11.7161
▁사라지고	-11.7161
▁ABC	-11.7162
▁사업계획서	-11.7164
▁후회	-11.7167
▁보건의료	-11.7168
▁사회적으로	-11.7169
▁디자인과	-11.7169
국회	-11.7169
▁반영할	-11.717
VR	-11.7171
▁고래	-11.7172
▁표현하	-11.7172
▁터라	-11.7174
중에서	-11.7176
▁글자	-11.7176
▁노리	-11.7177
▁대리인	-11.7177
▁아이스	-11.7178
▁도주	-11.7181
엽	-11.7181
▁쉬고	-11.7181
▁최후	-11.7183
▁김희	-11.7183
TF	-11.7184
▁받았는데	-11.7185
▁4·27	-11.7186
▁수수료율	-11.7187
▁포함된다	-11.7191
▁맹	-11.7192
진은	-11.7192
▁세율	-11.7194
▁펼치	-11.7195
▁출입구	-11.7196
▁생성	-11.7199
▁유익	-11.72
▁붙이	-11.7203
▁84	-11.7204
▁하락했다	-11.7205
▁여성가족부	-11.7205
▁파열	-11.7207
▁기르는	-11.7207
8,000	-11.7208
▁연체	-11.721
▁샀	-11.721
▁얘기할	-11.721
▁상황이라	-11.7213
귀	-11.7214
▁사령관	-11.7214
길래	-11.7215
▁사냥	-11.7215
▁선순환	-11.7216
▁승격	-11.7216
▁접점	-11.7217
▁콜라	-11.7217
▁미쳤다	-11.7218
▁오케스트라	-11.7219
미래	-11.722
▁만들어졌	-11.7221
f	-11.7222
▁헬스케어	-11.7222
▁간직	-11.7222
▁표현이	-11.7223
▁나서서	-11.7226
가격이	-11.7227
▁리얼	-11.7228
7,000	-11.7229
전형	-11.723
▁유세	-11.723
▁동양	-11.723
▁신원	-11.7232
55	-11.7232
▁잔잔	-11.7234
▁레벨	-11.7235
▁인스타그램에	-11.7237
▁빌릴	-11.7238
▁문화행사	-11.7242
▁누르면	-11.7242
▁혼합	-11.7242
▁슈	-11.7243
▁미용실	-11.7243
▁평가에	-11.7245
▁입주기업	-11.7245
▁페이스	-11.7247
▁한전	-11.7248
▁맺어	-11.725
▁하니까	-11.725
시설과	-11.7254
▁약자	-11.7254
▁두려워	-11.7255
▁분할	-11.7256
번호	-11.7257
립	-11.7262
▁해준다	-11.7263
▁적립	-11.7263
아트	-11.7264
▁조형물	-11.7266
조합	-11.7267
▁정씨	-11.7268
▁일본으로	-11.7269
▁출판사	-11.7269
▁한중	-11.7269
▁절반이	-11.727
▁공로	-11.727
▁찬양	-11.727
▁역세권	-11.727
▁타선	-11.7271
▁해왔다	-11.7272
행복	-11.7273
유통	-11.7273
하였습니	-11.7275
▁중단된	-11.7275
▁퍼지	-11.7275
차관	-11.7276
▁시점이	-11.7277
▁작품들이	-11.728
▁메뉴로	-11.7284
달라는	-11.7284
▁좋은데	-11.7284
▁아파트에서	-11.7285
▁특성이	-11.7285
▁좋아할	-11.7286
▁낙동강	-11.7286
▁때문이라	-11.7292
▁보직	-11.7295
▁주요국	-11.7295
▁마켓	-11.7296
▁지점에서	-11.7296
▁인생이	-11.7299
▁있었다면	-11.7301
▁출발해	-11.7305
▁함정	-11.7306
▁자라	-11.7306
전략	-11.7306
▁듣지	-11.7308
▁평택시	-11.7309
▁셀	-11.7312
▁호주에서	-11.7313
▁교복	-11.7313
황	-11.7316
넷	-11.7317
▁준비했다	-11.732
▁노력하는	-11.7326
▁잡힌	-11.7326
▁재판에서	-11.7329
▁미달	-11.733
▁세상이	-11.733
▁날카로	-11.7332
▁시간표	-11.7332
▁비난을	-11.7337
▁재능이	-11.7337
▁69	-11.734
▁전통의	-11.7341
▁실무협상	-11.7342
▁잠이	-11.7342
▁선수들과	-11.7343
▁드리고	-11.7345
▁포함하	-11.7348
▁쿠	-11.7349
▁손이	-11.7349
▁가라앉	-11.7349
팔	-11.7351
▁전형적	-11.7353
▁빠졌	-11.7357
IS	-11.7358
▁했으며	-11.7361
▁송영	-11.7365
▁알고리즘	-11.7365
▁생활비	-11.7366
▁판매하고	-11.7369
▁기술에	-11.7372
▁대학과	-11.7373
▁4000	-11.7373
▁노선이	-11.7374
격	-11.7374
▁저축	-11.7377
것으로	-11.738
▁입장권	-11.7381
▁자정	-11.7383
▁방문하고	-11.7383
▁금요일에	-11.7386
▁힘들고	-11.7387
▁어딘가	-11.7387
▁도중에	-11.739
▁높지	-11.7392
▁장난	-11.7393
▁소재지	-11.7397
▁혁신이	-11.7401
▁이길	-11.7401
가능한	-11.7403
혁	-11.7406
수로	-11.7407
미세먼지	-11.7412
배우	-11.7412
▁군민	-11.7414
아시아	-11.7416
▁묶	-11.7417
▁잘못이	-11.7421
어차	-11.7422
33	-11.7427
▁검수	-11.7427
국에서	-11.7427
▁들어선	-11.7429
▁하므로	-11.743
▁교사들	-11.7432
▁편한	-11.7432
▁판매한다	-11.7437
▁이용하면	-11.7437
작전	-11.7439
▁직급	-11.7439
쿠	-11.7441
▁치과	-11.7442
▁막바지	-11.7443
▁동대문	-11.7444
▁모아진	-11.7444
▁생물	-11.7445
▁교감	-11.7445
▁자문에	-11.745
▁흑인	-11.745
▁개선하기	-11.745
▁정보통신	-11.7453
▁않던	-11.7455
00	-11.7457
▁복지시설	-11.7459
▁구성한	-11.7459
노인	-11.7461
▁작가들이	-11.7461
자녀	-11.7463
▁평생학습	-11.7464
▁잃어버	-11.7466
지급	-11.7469
▁조건에	-11.7469
융합	-11.7469
▁구독	-11.747
▁붓	-11.7471
주고	-11.7471
(14	-11.7471
▁사리	-11.7472
▁미지수	-11.7472
▁이후부터	-11.7473
▁정해	-11.7474
▁겁	-11.7474
▁토큰	-11.7475
▁지하철역	-11.7476
▁전쟁이	-11.7478
▁승점	-11.7482
▁야구장	-11.7483
소장	-11.7483
▁한양대	-11.7483
62	-11.7484
▁정세	-11.7485
▁팀에서	-11.7488
▁한여름	-11.7492
호텔	-11.7492
▁다투	-11.7494
▁지시에	-11.7494
베트남	-11.7496
▁수탁기관	-11.7499
▁방문객들	-11.7499
▁활발	-11.7502
베	-11.7502
▁영토	-11.7502
바이오	-11.7503
▁찾아온	-11.7506
▁사령탑	-11.7508
▁싶다면	-11.7511
주택을	-11.7512
차선	-11.7515
뉴스	-11.7517
▁이어가	-11.7519
▁방콕	-11.752
▁김창	-11.752
▁라운드	-11.7522
▁평이	-11.7523
▁행복해	-11.7524
▁49	-11.7524
▁상원	-11.7524
변하지	-11.7524
고교	-11.7525
▁아들을	-11.7526
이니	-11.7527
▁고민하	-11.7527
하였을	-11.7531
▁거두	-11.7531
▁정점	-11.7535
▁기념관	-11.7535
▁김성수	-11.7537
▁월스트리트저널	-11.7539
▁마스터	-11.7545
▁줄고	-11.7546
▁가정이	-11.7548
▁주민센터	-11.7548
▁셋째	-11.7549
시간제	-11.755
▁연출한	-11.7551
▁검거	-11.7552
▁수집한	-11.7552
▁눈물이	-11.7554
▁찍을	-11.7554
▁이루어진다	-11.7557
▁‘1	-11.7557
▁달라지	-11.7558
▁결선	-11.7558
▁주파수	-11.7559
▁활용하여	-11.7559
▁민족의	-11.7561
▁등판	-11.7561
▁밑에	-11.7561
턴	-11.7562
▁유치원에	-11.7563
부지사	-11.7564
▁평등	-11.7564
▁발생했을	-11.7566
수출	-11.7567
▁부위에	-11.7568
▁어휘	-11.7569
▁이민자	-11.7571
▁떠오른	-11.7572
짐	-11.7573
▁작가들	-11.7575
▁외국에서	-11.7576
▁원조	-11.7576
▁토너먼트	-11.7578
오던	-11.7578
▁인권을	-11.7579
▁집필	-11.758
▁성별이	-11.7581
음악과	-11.7582
▁조치에	-11.7582
▁칠레	-11.7583
억원대	-11.7583
i	-11.7584
▁월별	-11.7586
▁주부	-11.7586
-1	-11.7589
▁사야	-11.7589
지침	-11.7593
▁생각해보	-11.7594
▁서울시교육청	-11.7594
▁봄이	-11.7598
▁보육교사	-11.7599
▁부임	-11.7601
▁챙기	-11.7601
▁사상자	-11.7604
팅	-11.7605
▁국민은행	-11.7606
싼	-11.7607
▁맨유	-11.7607
▁백자	-11.7608
WSJ	-11.7608
▁개발된	-11.7609
▁규탄	-11.7609
수탁자	-11.7609
▁김모	-11.7609
개그맨	-11.7609
▁음악적	-11.7609
▁민정수석	-11.7612
▁들어서면	-11.7613
▁아시	-11.7614
▁메이저	-11.7614
▁연안	-11.7614
▁식중독	-11.7614
▁깃발	-11.7615
▁자긍심	-11.7616
▁노회찬	-11.7616
▁눈여겨	-11.7616
▁스티브	-11.7616
▁첩보	-11.7616
▁저수지	-11.7616
▁페이팔	-11.7616
▁타이틀	-11.7617
▁데이비드	-11.7617
▁사외이사	-11.7617
▁질의응답	-11.7617
▁권한대행	-11.7617
▁롯데마트	-11.7617
▁심폐소생술	-11.7618
▁수돗물	-11.7618
▁전라남도	-11.7618
▁숙명여고	-11.7619
▁관리주체	-11.7619
▁아랍에미리트	-11.7619
▁펴낸	-11.7619
▁서울교통공사	-11.7619
▁만듭	-11.762
▁신촌	-11.762
▁가리키	-11.762
▁동창	-11.762
▁개입한	-11.7621
▁내비쳤다	-11.7621
▁발생하면	-11.7621
▁아우르	-11.7621
▁합친	-11.7622
▁시중은행	-11.7623
▁상파울루	-11.7624
▁그야	-11.7624
▁휩싸인	-11.7624
▁미생물	-11.7626
▁징역형	-11.7626
▁차분	-11.7626
▁두드러진	-11.7626
▁그렇습니다	-11.7626
▁북상	-11.7626
▁판매한	-11.7627
위해	-11.7627
▁가로막	-11.7627
▁소중함	-11.7629
▁사후관리	-11.763
년여	-11.7631
▁시민사회	-11.7631
▁참신	-11.7631
▁뺨	-11.7634
▁롯데그룹	-11.7634
▁얼마인가요	-11.7635
▁신작	-11.7636
▁인허가	-11.7636
▁공중	-11.7636
호기	-11.7636
새로운	-11.7637
▁김태	-11.7637
▁청구한	-11.7637
▁동점	-11.7637
등이	-11.7637
▁달걀	-11.7638
▁시장조사	-11.7639
▁태블릿	-11.764
▁디테일	-11.764
▁오바마	-11.764
▁골문	-11.7641
▁쓰나미	-11.7641
지지율이	-11.7642
▁호수	-11.7642
▁지분율	-11.7644
▁언론들	-11.7644
▁미성년자	-11.7645
▁제한된	-11.7645
▁존재가	-11.7645
▁많아지고	-11.7645
▁인삼	-11.7646
▁실업률	-11.7646
▁비슷하	-11.7646
▁중부	-11.7646
▁득표율	-11.7646
▁극복하기	-11.7647
향	-11.7647
▁이승현	-11.7647
▁어렵지만	-11.7647
▁보여주었다	-11.7648
▁공동대표	-11.7649
▁출입문	-11.7649
▁주어지	-11.765
▁말해주	-11.765
▁특검팀	-11.765
▁막히	-11.765
▁해리	-11.7651
▁화물차	-11.7651
▁논산	-11.7652
▁이동이	-11.7652
▁분쟁이	-11.7652
▁오르며	-11.7652
소통	-11.7653
조절	-11.7653
▁출신이	-11.7654
▁간단하게	-11.7656
▁주문할	-11.7657
▁시의원	-11.7657
▁해운대	-11.7657
▁우회	-11.7658
▁밀착	-11.7659
▁깊숙	-11.766
▁오염물질	-11.766
▁예상돼	-11.7661
▁강행	-11.7661
▁유의해야	-11.7663
론이	-11.7664
▁청년층	-11.7664
▁레시피	-11.7666
▁괴롭힘	-11.7666
▁탄압	-11.7666
식은	-11.7666
▁상생협력	-11.7667
▁크루즈	-11.7667
▁직권남용	-11.7667
▁뇌물수수	-11.7668
▁파트너십	-11.7668
▁헌재	-11.7668
▁대기오염	-11.7668
▁텐데요	-11.7668
▁서해안	-11.7668
▁전용면적	-11.7669
▁교류협력	-11.7669
▁대우조선해양	-11.7669
▁중증장애인	-11.767
▁실증	-11.767
▁옷이	-11.7671
▁생활용품	-11.7671
▁도망	-11.7671
물의	-11.7672
▁금지하는	-11.7672
▁공존하는	-11.7672
▁상여금	-11.7673
▁신경전	-11.7673
▁단체로	-11.7673
▁의욕	-11.7674
▁점심시간	-11.7676
▁취득세	-11.7678
이었습니다	-11.7679
디스플레이	-11.768
▁곤란한	-11.768
언이	-11.7681
▁유리하다	-11.7682
▁도시가	-11.7682
▁잠시만	-11.7684
▁벤츠	-11.7684
▁연탄	-11.7687
▁솔직	-11.7688
▁브	-11.7688
▁비트	-11.769
▁출석하	-11.769
KT	-11.769
▁행렬	-11.7692
▁순회	-11.7692
▁파격적	-11.7692
▁맞벌이	-11.7693
▁간행물	-11.7694
999	-11.7694
▁면이	-11.7694
▁위헌	-11.7695
▁사표	-11.7695
▁써서	-11.7696
페이	-11.7696
▁전제로	-11.7697
▁호황	-11.7697
설계	-11.7698
▁방사선	-11.7698
▁탱크	-11.7698
▁다쳤다	-11.7699
▁살펴보고	-11.7699
회초	-11.7699
▁수요자들	-11.77
회의에서	-11.77
뷰	-11.7703
▁카페에	-11.7705
▁다니고	-11.7705
오프라인	-11.7705
▁검경	-11.7705
▁팀에	-11.7708
용품	-11.7709
어를	-11.771
▁끼치	-11.7712
▁포인트가	-11.7712
NYT	-11.7714
▁솔릭	-11.7716
▁발견하고	-11.7717
▁법인세	-11.7718
▁반기	-11.7719
▁이루어지	-11.7719
▁고액	-11.7719
▁허브	-11.772
강남스타일	-11.772
▁군이	-11.7721
▁국가로	-11.7721
FTA	-11.7723
▁자기가	-11.7724
호텔에서	-11.7724
석이	-11.7724
▁마을이	-11.7725
▁발급받	-11.7725
▁왕자	-11.7725
▁향하고	-11.7725
▁여배우	-11.7727
▁재계약	-11.7728
▁맞춰서	-11.7729
마루	-11.773
▁독재	-11.773
▁방류	-11.7731
OECD	-11.7732
갑니	-11.7734
▁발굴하고	-11.7734
▁한파	-11.7734
과학	-11.7734
▁만들지	-11.7734
▁동북아	-11.7734
인구	-11.7735
▁검출됐다	-11.7736
▁생활환경	-11.7736
▁선수들에게	-11.7737
▁콜센터	-11.7737
▁가야금	-11.7739
▁대입	-11.774
▁재건	-11.7741
▁투입되는	-11.7744
▁파장	-11.7745
▁강구	-11.7745
▁저평가	-11.7746
가가	-11.7746
▁심각성	-11.7747
▁국가에	-11.7748
▁없애는	-11.7749
조건	-11.7749
▁천재	-11.775
▁체납자	-11.775
▁빠지고	-11.775
▁묻지	-11.7752
▁전망하고	-11.7753
▁중기부	-11.7753
▁도저	-11.7754
▁합성	-11.7754
거야	-11.7755
▁투명	-11.7756
▁때로	-11.7757
▁주민들에게	-11.776
위와	-11.7762
▁전라북도	-11.7764
▁자체로	-11.7766
▁접근할	-11.7766
▁샤워	-11.7766
▁사진으로	-11.7766
▁싶을	-11.7768
▁주니어	-11.777
팀과	-11.7773
▁정상회담에	-11.7776
▁보호하는	-11.7777
▁전망에	-11.7783
▁단식	-11.7783
관리에	-11.7783
▁발견해	-11.7785
▁일감	-11.7785
▁350	-11.7786
자리	-11.7788
▁걷고	-11.7788
▁영업시간	-11.7789
▁포천	-11.7791
▁조성하는	-11.7792
▁설탕	-11.7793
▁직진	-11.7794
▁불합리	-11.7796
사용자	-11.7797
▁좋아하고	-11.7798
▁주어야	-11.78
▁바르셀로나	-11.7801
▁나타내는	-11.7801
▁만났다	-11.7802
▁시작하고	-11.7802
현이	-11.7802
▁진출이	-11.7802
▁지지부진	-11.7805
▁주민참여	-11.7806
▁전한다	-11.7811
▁사용한다	-11.7811
▁이유에서	-11.7814
▁DB	-11.7814
▁사무국장	-11.7815
▁근무한	-11.7815
서에	-11.7815
▁도덕적	-11.7817
나가는	-11.7818
▁경신	-11.7819
▁살펴보	-11.7819
▁맵	-11.7823
▁사운드	-11.7823
▁세심	-11.7823
▁발휘	-11.7824
타워	-11.7825
▁생체	-11.7825
▁좋으면	-11.7825
▁고소장	-11.7826
▁바지	-11.7826
▁지형	-11.7828
▁손길	-11.7829
▁도착하는	-11.783
▁함께할	-11.783
▁신도	-11.7831
▁있는데요	-11.7832
▁뿐입니다	-11.7832
모를	-11.7834
▁높아진다	-11.7834
▁다가가	-11.7837
▁양대	-11.7839
▁맞추기	-11.784
▁사업주	-11.784
▁방한	-11.7841
▁갖춰	-11.7844
▁졸업생	-11.7845
▁화분	-11.7846
▁발생하였	-11.7847
▁언급하	-11.7848
▁연꽃	-11.785
탕	-11.7852
▁설날	-11.7853
▁실종자	-11.7855
▁협력업체	-11.7856
▁호소했	-11.7857
▁인정받아	-11.786
내에서	-11.7861
▁영역에서	-11.7862
▁신고하	-11.7862
▁승객이	-11.7862
▁주문하고	-11.7863
머리	-11.7867
▁임금이	-11.7868
▁부주의	-11.7868
▁고통받	-11.7869
▁천장	-11.7869
▁옆에서	-11.7872
조와	-11.7876
▁있습니	-11.7876
▁곤란	-11.7877
▁북한에서	-11.7878
▁심층	-11.7879
페	-11.7881
▁추격	-11.7881
▁부인했다	-11.7881
▁언	-11.7882
▁냉각	-11.7883
▁노출되	-11.7884
▁사업과	-11.7884
▁생산된	-11.7885
▁통화에서	-11.7886
▁처리하는	-11.7887
▁복제	-11.7887
▁선택했다	-11.789
▁보이기	-11.789
▁그러지	-11.7893
▁일간지	-11.7894
▁주민에게	-11.7894
▁통관	-11.7896
▁창설	-11.7897
▁밀도	-11.7899
▁거주지	-11.79
하라	-11.7902
▁추측이	-11.7904
람	-11.7904
▁때와	-11.7905
▁서비스업	-11.7906
추진	-11.7906
▁테	-11.7906
▁잔치	-11.7907
▁보장하는	-11.7908
▁번영	-11.7911
▁은행들	-11.7911
기업이	-11.7912
▁여성에게	-11.7912
▁국면	-11.7913
▁장수	-11.7913
▁기업인들	-11.7917
▁만족할	-11.7918
▁댐	-11.7919
▁부양	-11.7921
▁비슷하다	-11.7921
▁광주광역시	-11.7923
▁풀고	-11.7923
▁가맹점주	-11.7924
▁서울역	-11.7924
▁67	-11.7928
매우	-11.793
▁요구되	-11.7931
소된	-11.7932
▁은행이	-11.7934
▁축복	-11.7935
금지	-11.7935
나눔	-11.7936
▁한반도에	-11.7937
▁포진	-11.7938
▁친근	-11.7939
▁정차	-11.794
▁수탁	-11.7942
▁전남도	-11.7944
자유한국당	-11.7946
▁국회의원들	-11.7947
▁가능했다	-11.795
스쿨	-11.7951
49	-11.7952
제재	-11.7952
▁영웅	-11.7952
▁규제로	-11.7956
▁전철	-11.7961
까봐	-11.7962
이가	-11.7966
바꾸는	-11.7967
▁건전성	-11.797
▁주의보	-11.797
▁금천구	-11.7973
▁시작돼	-11.7974
▁다저스	-11.7975
▁국물	-11.7978
▁예측이	-11.7978
▁고충	-11.7978
▁코인	-11.7982
▁두어	-11.7984
남기	-11.7984
▁갯벌	-11.7985
제주	-11.7987
▁추천하고	-11.7989
▁탔	-11.799
▁불로	-11.799
▁쏘	-11.7993
▁확대된다	-11.7994
▁펜	-11.7994
▁소설가	-11.7995
년제	-11.7996
▁할까	-11.7996
▁시작하기	-11.7998
▁미모	-11.8
▁총리를	-11.8001
▁주관하	-11.8003
방향	-11.8004
▁아쉬워	-11.8007
▁초점이	-11.8007
▁갈래	-11.8009
77	-11.801
▁이색	-11.8011
▁눈높이에	-11.8012
지역에	-11.8013
▁부분이다	-11.8013
▁구간에	-11.8014
▁열리	-11.8014
▁근무제	-11.8016
쌍	-11.8017
▁계약에	-11.8018
▁잘라	-11.8019
▁영남	-11.802
▁팬덤	-11.802
▁내렸	-11.8021
연기	-11.8021
▁안무	-11.8024
재가	-11.8025
▁빗	-11.8026
▁이용료	-11.8028
▁주제의	-11.8029
▁탐	-11.8031
▁행정관	-11.8031
▁스마트폰과	-11.8033
▁노후화	-11.8035
▁자연과	-11.8035
▁IoT	-11.8037
어질	-11.8037
전체	-11.8037
▁정신질환	-11.804
어지면서	-11.804
▁이용하	-11.804
▁장병들	-11.8041
▁시험장	-11.8041
아는	-11.8043
벽	-11.8043
▁대기업이	-11.8043
▁시켜	-11.8044
항에서	-11.8046
▁총선에서	-11.8049
▁대화에	-11.805
봅	-11.805
▁구에	-11.805
▁드림	-11.8056
▁단절	-11.8057
▁다녀	-11.8058
▁중인데	-11.8059
▁알려줄게	-11.8059
▁마산	-11.806
▁우승자	-11.8061
▁거다	-11.8063
▁대책에	-11.8063
▁광교	-11.8063
▁적용하	-11.8065
▁할인이	-11.8065
▁낙	-11.8065
▁결과물	-11.8067
▁OECD	-11.8068
▁약화	-11.8068
구청장은	-11.8069
▁종료되	-11.807
▁포용	-11.807
▁우리은행	-11.8074
▁주식시장	-11.8074
▁일로	-11.8077
▁챙기는	-11.8078
▁곁	-11.8079
65	-11.808
▁내리면	-11.808
▁기지	-11.808
여금	-11.808
▁준비된	-11.8081
▁졸업식	-11.8081
▁근본	-11.8081
▁이력	-11.8084
▁현명	-11.8084
▁기자단	-11.8084
김정은	-11.8085
▁용량	-11.8086
▁한시적	-11.8086
▁전통문화	-11.8089
▁공무원들	-11.8089
육성	-11.809
▁의원실	-11.809
주시면	-11.8092
▁마비	-11.8093
▁지급대상	-11.8095
전액을	-11.8095
▁완료한	-11.8098
▁개가	-11.8099
▁시력	-11.81
▁보험회사	-11.8102
▁점과	-11.8103
까지만	-11.8103
▁풀기	-11.8106
▁더는	-11.811
▁세우는	-11.8116
▁위상	-11.8116
▁대부	-11.8118
▁인생에	-11.8121
▁맞이해	-11.8122
▁킨텍스	-11.8122
▁사우디아라비아	-11.8125
▁드러나지	-11.8128
금리	-11.8129
▁치러	-11.8129
▁산업계	-11.8131
청구	-11.8132
시경	-11.8132
▁나서기	-11.8133
그룹이	-11.8133
▁하락이	-11.8134
▁발전이	-11.8136
연의	-11.8137
▁졸	-11.8138
▁주전	-11.8138
마음대로	-11.8139
용이	-11.8141
▁갈게	-11.8141
▁단골	-11.8142
사업자	-11.8145
▁자질	-11.8145
▁업종에	-11.8145
▁환상	-11.8146
▁전제	-11.8148
▁미친다	-11.8152
▁직종	-11.8152
위험	-11.8157
▁전문기업	-11.8162
▁방화	-11.8162
▁엘	-11.8163
▁두번째	-11.8164
▁년간	-11.8165
▁다가온	-11.8165
당을	-11.8166
▁육지	-11.8168
▁부상이	-11.8168
▁대체복무	-11.8169
▁유람선	-11.8172
▁비대위	-11.8172
▁다운	-11.8172
연합	-11.8173
▁메시	-11.8174
▁러시아와	-11.8174
▁국토교통위원회	-11.8174
과목	-11.8176
▁개선하고	-11.8178
▁주사	-11.8179
▁사진들	-11.818
▁56	-11.818
장소	-11.8181
▁제안이	-11.8181
▁갇	-11.8182
▁오른다	-11.8183
▁두려움	-11.8183
▁눈앞에	-11.8184
▁어떻	-11.8185
▁택시기사	-11.8186
▁광경	-11.8187
▁범위에	-11.8187
▁반복적	-11.8188
뇨	-11.8189
빨리	-11.8189
▁비극	-11.819
▁플레이어	-11.8191
▁고통이	-11.8193
▁시행되	-11.8193
비율이	-11.8194
▁두통	-11.8194
쁩	-11.8197
신속처리안건	-11.8197
집행	-11.8199
▁습관이	-11.8199
▁강화해	-11.8199
교수	-11.82
500	-11.8203
작은	-11.8203
▁방출	-11.8203
▁균열	-11.8204
▁출시된	-11.8204
▁일찌	-11.8204
▁임진왜란	-11.8204
▁유동인구	-11.8205
▁재적위원	-11.8205
▁날에는	-11.8205
▁마이크로닷	-11.8205
▁샌프란시스코	-11.8206
▁워싱턴포스트	-11.8206
▁개발제한구역	-11.8206
▁오리	-11.8206
▁시절에	-11.8206
▁삼성바이오에피스	-11.8206
▁하루하루	-11.8206
▁말하자면	-11.8207
▁버티	-11.8207
▁고맙습니다	-11.8208
▁외면	-11.8208
▁알았는데	-11.8209
▁진행됐으며	-11.8209
▁업황	-11.8209
▁새삼	-11.8209
▁회계처리	-11.8209
▁토종	-11.8209
축	-11.821
▁예정이어서	-11.821
▁대한체육회	-11.8211
▁예산편성	-11.8211
▁말씀해주세요	-11.8211
▁취소한	-11.8212
▁삼겹살	-11.8212
▁모르겠습니다	-11.8212
▁키운	-11.8212
▁중기센터	-11.8213
▁독일과	-11.8213
▁정취	-11.8214
▁손꼽히	-11.8214
▁사은품	-11.8214
▁가능해진다	-11.8215
▁나왔지만	-11.8215
▁교부하여야	-11.8216
▁공매	-11.8216
▁구분하	-11.8216
▁안타까움	-11.8217
▁예고한	-11.8218
▁신생	-11.8218
▁생각하세요	-11.8218
▁생방송	-11.8218
▁싫어요	-11.8218
▁뜨거웠다	-11.8219
▁장려상	-11.8219
▁밝히며	-11.8221
▁도착하면	-11.8222
건축	-11.8222
▁전자상거래	-11.8222
▁관리하기	-11.8223
▁닿지	-11.8223
민이	-11.8224
▁쏟아졌다	-11.8224
▁출전한	-11.8224
▁솜	-11.8224
데이	-11.8224
▁언급하며	-11.8225
▁공교	-11.8225
▁부상자	-11.8225
▁진행이	-11.8225
▁두께	-11.8226
▁예술의	-11.8226
위원장이	-11.8227
뉴	-11.8227
엄마	-11.8228
▁전방	-11.8229
▁목욕	-11.8229
▁로켓	-11.8229
▁걸립니다	-11.8229
▁스페셜	-11.8229
▁문화유산	-11.823
▁랜드마크	-11.823
▁손톱	-11.823
▁초계기	-11.823
▁양해각서	-11.8231
▁맨체스터	-11.8231
▁불구속	-11.8231
▁바리스타	-11.8231
▁음란물	-11.8231
▁감수성	-11.8231
▁블랙리스트	-11.8232
▁무소속	-11.8232
▁수소전기차	-11.8232
▁아메리카노	-11.8232
▁오브	-11.8232
▁로스앤젤레스	-11.8232
▁들어가지	-11.8232
▁로컬	-11.8233
▁주택시장	-11.8233
▁경기침체	-11.8234
리면서	-11.8234
▁설비투자	-11.8235
▁아파서	-11.8235
▁택시업계	-11.8235
▁사물놀이	-11.8236
▁반발했다	-11.8237
▁1982	-11.8237
▁위촉위원	-11.8237
▁캐나다에서	-11.8238
▁구에서	-11.8239
▁같았다	-11.8239
▁the	-11.824
▁색채	-11.8241
▁가는데	-11.8242
▁소개하며	-11.8242
▁아웃	-11.8242
Y	-11.8244
▁이루기	-11.8246
▁협약식	-11.8246
▁성령	-11.8246
▁중의	-11.8246
▁풍미	-11.8246
▁나타내고	-11.8246
▁실상	-11.8247
▁포털사이트	-11.8247
▁팁	-11.8248
▁가디언	-11.8249
▁가능하면	-11.8249
▁병사	-11.825
▁살피고	-11.825
▁청정	-11.825
▁공무원에	-11.8252
쩍	-11.8252
▁괴	-11.8254
▁최소화하기	-11.8255
▁벤치마킹	-11.8255
▁반영됐다	-11.8255
▁채운	-11.8256
▁다짐했다	-11.8257
하니	-11.8259
▁쭉	-11.8259
▁고무	-11.826
▁수입차	-11.826
▁비대위원장	-11.826
▁전기자동차	-11.8261
▁비치하고	-11.8261
▁분량	-11.8263
중에	-11.8263
▁필요시	-11.8264
동으로	-11.8264
종목	-11.8266
▁따뜻하고	-11.8267
▁경연대회	-11.8268
▁플레이오프	-11.8268
▁보내면	-11.8268
▁소각	-11.8269
▁호랑이	-11.8269
▁죄송합니다만	-11.8269
▁미치	-11.827
▁대중음악	-11.8271
▁받았으며	-11.8271
▁경감	-11.8272
▁맞대	-11.8273
▁로드	-11.8273
▁담합	-11.8274
▁아쉽게	-11.8274
▁전시관	-11.8276
▁관리해	-11.8276
민들이	-11.8276
▁소나무	-11.8277
▁식민지	-11.8278
▁4∼5	-11.8278
였	-11.8279
▁교육비	-11.828
젠	-11.8281
▁단거리	-11.8281
▁노란	-11.8283
▁사칭	-11.8284
▁서예	-11.8284
▁독해	-11.8285
▁127	-11.8286
▁총격	-11.8287
▁마무리됐다	-11.8287
▁참여하며	-11.8288
▁1,200	-11.8289
▁그리스도	-11.8291
▁되었는데	-11.8291
▁만드는데	-11.8291
▁느껴졌다	-11.8291
▁무상교육	-11.8292
부족	-11.8292
▁사회주의	-11.8292
▁예상한다	-11.8293
▁버스는	-11.8294
물에	-11.8294
부품	-11.8295
▁초안	-11.8295
▁부지에	-11.8295
▁임대사업자	-11.8296
▁실업자	-11.8296
▁갓	-11.8296
시리즈	-11.8296
▁관리한다	-11.8297
위권	-11.8298
▁가까워지	-11.8298
▁강북	-11.8299
▁사법행정	-11.8299
▁드러난다	-11.8299
뱅크	-11.83
▁위원장에게	-11.83
▁압도	-11.8301
▁위기감	-11.8301
▁보시고	-11.8303
%	-11.8304
지방재정법	-11.8306
졌어요	-11.8306
시켜야	-11.8306
▁판매자	-11.8307
▁도왔다	-11.8307
▁차지할	-11.831
기본법	-11.8311
부장판사	-11.8312
▁보충	-11.8312
▁사과했다	-11.8313
모임	-11.8313
입	-11.8314
▁라벨	-11.8315
▁해본	-11.8315
44	-11.8315
▁돌아오는	-11.8315
▁불법촬영	-11.8316
▁개각	-11.8316
▁4·3	-11.8317
▁교육생	-11.8317
▁깊어지	-11.8317
▁독일에서	-11.8317
▁줄어	-11.8318
▁싶지만	-11.8318
PC	-11.8318
혔다	-11.832
▁않다면	-11.832
▁사랑이	-11.8321
▁접하고	-11.8322
▁외신들	-11.8322
▁근무시간	-11.8322
▁위주	-11.8323
▁나왔고	-11.8325
▁어깨에	-11.8325
위원장은	-11.8327
▁보고했다	-11.8327
▁해결하고	-11.8329
▁주최로	-11.833
▁지급된다	-11.8331
▁생산과	-11.8331
▁휴대폰으로	-11.8333
▁지급한	-11.8334
▁제시할	-11.8334
▁현수막	-11.8335
▁여행지	-11.8335
▁남기고	-11.8337
▁비서	-11.8338
▁멀어	-11.8341
박스	-11.8342
성폭력	-11.8343
좌	-11.8345
▁역으로	-11.8346
▁전임자	-11.8346
투명하게	-11.8346
▁와해	-11.8347
▁한마당	-11.8348
비와	-11.8348
사법농단	-11.8349
▁굵직	-11.835
▁제때	-11.8351
▁혁신적	-11.8352
▁안전진단	-11.8354
▁의향	-11.8355
더라	-11.8356
▁울고	-11.8357
▁62	-11.8358
참	-11.8359
IoT	-11.8359
GDP	-11.8361
▁환기	-11.8362
▁까다로	-11.8366
▁여당이	-11.8366
▁단풍	-11.8366
▁없애	-11.8367
▁말하며	-11.8368
▁홍수	-11.8368
▁주유소	-11.837
▁갖다	-11.8371
▁여행사	-11.8372
▁윤종	-11.8373
▁공동조사	-11.8373
▁박상	-11.8373
▁묻어나	-11.8374
▁입맛에	-11.8375
▁개학	-11.8378
▁높인다	-11.8378
▁입상	-11.8379
해주신	-11.838
판에	-11.838
▁신입사원	-11.838
▁유입되는	-11.838
▁상임위원장	-11.8381
▁셈	-11.8381
▁피우	-11.8382
▁메모	-11.8382
주에	-11.8383
▁폴란드	-11.8383
▁다짐	-11.8383
▁출연한다	-11.8385
▁주어졌	-11.8385
▁고루	-11.8385
▁차지한다	-11.8386
▁주도했다	-11.8387
▁꼬리	-11.8388
검찰	-11.839
▁순서에	-11.8392
▁절단	-11.8392
▁넘었다	-11.8395
IMF	-11.8396
▁존중하	-11.8397
유를	-11.8397
▁전라도	-11.8398
소비	-11.84
▁쇠	-11.84
▁역할과	-11.8401
▁화폐	-11.8401
▁산모	-11.8401
▁캠핑	-11.8402
분경	-11.8403
▁야권	-11.8404
▁생각하기	-11.8405
▁해당되는	-11.8405
▁투여	-11.8406
▁NC	-11.8406
▁IB	-11.8406
▁기록하	-11.8408
▁만나지	-11.8408
헨	-11.8408
▁공문	-11.841
▁지역발전	-11.8413
▁의상	-11.8415
▁최저임금이	-11.8419
▁자란	-11.8419
2,000	-11.8419
▁불거지	-11.8423
▁UAE	-11.8424
▁텐트	-11.8425
▁줄어든다	-11.8425
▁황사	-11.8426
▁총괄부서	-11.8428
▁전동	-11.8429
금은	-11.843
▁유가	-11.8432
컨설팅	-11.8434
에서의	-11.8435
▁입술	-11.8436
▁대담	-11.8437
▁사안에	-11.844
▁후문이	-11.8443
면에서	-11.8444
▁지나도	-11.8445
▁기획사	-11.8446
▁행사할	-11.8447
▁히어로즈	-11.8447
▁해보고	-11.8448
▁몰카	-11.8448
▁억지	-11.8448
▁가락	-11.8449
▁지주	-11.8449
꽃	-11.8449
▁교민	-11.845
▁관료	-11.845
▁식탁	-11.8452
▁끼치는	-11.8454
되더라도	-11.8454
▁처음이라	-11.8456
▁걸었다	-11.8456
▁경기장에서	-11.8458
합시다	-11.8459
▁달라진다	-11.8461
전과	-11.8461
▁일상에서	-11.8462
▁만나면	-11.8462
▁죽을	-11.8462
▁남북한	-11.8464
▁김천	-11.8464
▁감소하는	-11.8464
켈	-11.8465
▁십자가	-11.8465
기엔	-11.847
▁정정	-11.847
▁용품	-11.8473
▁공개하고	-11.8476
▁지자체와	-11.8478
▁인터넷에	-11.8479
▁국회의	-11.8479
▁샤	-11.8479
▁본격화되	-11.8479
▁전례	-11.848
▁그라운드	-11.8481
▁구체화	-11.8482
▁오전까지	-11.8482
▁겹쳐	-11.8483
▁인도네시아에서	-11.8484
▁국가정보원	-11.8485
▁소품	-11.8486
▁마이	-11.8487
▁클래스	-11.8488
▁등록한	-11.8491
▁미투	-11.8492
▁피곤	-11.8493
▁대내외	-11.8496
▁자제	-11.8496
▁다르다는	-11.8497
▁지방의회	-11.8499
전의	-11.85
▁침몰	-11.85
▁세우	-11.8503
았으면	-11.8503
▁침묵	-11.8503
▁탐사	-11.8505
▁보호하고	-11.8508
▁상사	-11.8511
▁담장	-11.8511
▁비정상적	-11.8513
▁그중에서	-11.8513
▁담임	-11.8514
▁닫	-11.8514
▁춘천시	-11.8514
▁1%	-11.8517
▁구성하는	-11.8517
▁조성한	-11.8517
▁끝났	-11.8519
▁나타나지	-11.8519
▁운반	-11.8519
▁이례적인	-11.852
▁누설	-11.8521
▁출토	-11.8521
▁폴	-11.8525
위탁	-11.8526
▁필요한데	-11.8526
▁성차별	-11.8528
▁오르지	-11.853
▁도입했다	-11.853
▁IS	-11.853
▁깨달았	-11.8534
▁유지하면서	-11.8535
전국	-11.8536
▁전달해	-11.854
▁조사단	-11.8553
잘	-11.8554
▁설치가	-11.8555
▁안정된	-11.8555
점수	-11.8556
▁의정부시	-11.8556
b	-11.8556
▁기대하는	-11.8558
▁무서워	-11.8558
▁대부분이다	-11.8559
▁급한	-11.8559
▁작가와	-11.856
배에	-11.8561
▁계엄	-11.8565
▁파악해	-11.8565
▁빠	-11.8568
▁도시철도	-11.8568
▁증폭	-11.8569
▁출근하	-11.8569
▁시행한	-11.8571
시속	-11.8573
▁시스템은	-11.8575
기기	-11.8577
▁들게	-11.8578
▁솔	-11.8586
▁싸움을	-11.8586
▁정전	-11.8586
▁왕이	-11.8588
장벽	-11.8589
▁나고	-11.8592
▁중남미	-11.8592
▁경협	-11.8592
▁시야	-11.8593
▁푼	-11.8594
▁청자	-11.8595
▁중단한	-11.8597
▁그러기	-11.86
▁건국	-11.8601
름	-11.8604
▁개최하	-11.8604
▁지원계획	-11.8605
▁명세	-11.8605
콩	-11.861
▁초까지	-11.8611
▁한창이	-11.8615
▁관여한	-11.8621
분으로	-11.8621
계가	-11.8625
▁낮추는	-11.863
▁깎	-11.8634
말부터	-11.8635
▁서점	-11.8635
▁정자	-11.8637
실은	-11.8637
시오	-11.8638
▁자영업	-11.8639
▁거리로	-11.864
▁사태에	-11.8642
짐에	-11.8642
동물	-11.8644
▁7000	-11.8647
▁호텔이	-11.8647
▁영상으로	-11.8648
▁실무자	-11.8648
형이	-11.8649
▁SM	-11.8649
없네요	-11.8649
▁결합한	-11.8649
▁수천	-11.865
▁떠올리	-11.8651
▁이용객이	-11.8651
가락	-11.8659
▁도서관에서	-11.8659
▁조언했	-11.8661
▁무대로	-11.8662
▁관객과	-11.8665
스럽게	-11.8668
▁인사청문회	-11.8668
▁영역이	-11.867
움	-11.8672
춤	-11.8676
▁파악한	-11.8676
이젠	-11.8679
경남	-11.8683
▁확정되	-11.8687
▁비추	-11.8691
▁연초	-11.8691
▁온천	-11.8691
▁자에	-11.8692
무늬	-11.8692
▁킹	-11.8693
▁기대에	-11.8694
51	-11.8694
▁플랜	-11.8695
하므로	-11.8696
▁상부	-11.8698
▁구실	-11.8698
▁8,000	-11.8698
▁수직	-11.8699
▁입장료	-11.8702
노트	-11.8703
▁이전과	-11.8704
의학과	-11.8706
▁귀찮	-11.8707
▁창의적	-11.8708
▁진행하	-11.8708
앱	-11.871
▁in	-11.8711
▁같고	-11.8712
▁자이언츠	-11.8713
▁장마	-11.8714
▁시작을	-11.8715
▁협상에서	-11.8716
▁아프지	-11.8716
▁일간	-11.8717
▁의견서	-11.8719
▁곤	-11.8723
▁연구기관	-11.8723
사람	-11.8724
어난	-11.8726
워져	-11.8728
▁과도	-11.8728
▁능동적	-11.8728
모가	-11.8728
▁꾸려	-11.8729
▁83	-11.8729
쉬	-11.8731
▁약관	-11.8734
▁세밀	-11.8736
▁비결	-11.8738
▁출신으로	-11.8739
▁중저가	-11.8742
데이터	-11.8742
물질	-11.8742
▁맥락	-11.8743
▁학생부	-11.8743
7000	-11.8744
▁실적에	-11.8744
▁전환한	-11.8745
인재	-11.8746
▁믿지	-11.875
▁수행하고	-11.875
▁임차인	-11.875
체험을	-11.8753
시장에서	-11.8753
요청	-11.8755
▁들어올	-11.8755
경쟁	-11.8756
▁취업이	-11.8757
▁자극하	-11.8758
▁보내주시	-11.8761
▁뛰어들	-11.8762
▁면세	-11.8765
▁전문성이	-11.8766
▁싸움이	-11.8766
▁산업화	-11.8766
▁사립	-11.8768
▁개념이	-11.8768
웠던	-11.8769
▁산지	-11.877
▁진도	-11.877
▁개체	-11.8771
가정	-11.8771
권의	-11.8772
어린이	-11.8774
▁발이	-11.8774
됐는지	-11.8774
▁구로	-11.8775
▁날려	-11.8776
▁감사하다	-11.8777
▁남북경협	-11.8778
▁검색어	-11.8778
▁정오	-11.8778
공정	-11.8778
▁주축이	-11.8778
정지	-11.8779
▁논의하기	-11.8779
일부	-11.8779
▁개선방안	-11.8779
▁수험생들	-11.878
▁나올지	-11.878
▁노래는	-11.878
▁타협	-11.878
▁불거지자	-11.8781
▁PO	-11.8781
▁조현	-11.8782
▁디렉터	-11.8782
▁평가받	-11.8782
▁78	-11.8783
프랑스	-11.8783
광장에서	-11.8784
마당	-11.8785
▁장씨	-11.8785
받을	-11.8786
▁굿	-11.8786
▁유치에	-11.8788
▁두바이	-11.879
연수	-11.8793
▁목회	-11.8794
▁퇴출	-11.8795
▁아시안게임에서	-11.8797
▁한마디	-11.8798
▁레이스	-11.8799
▁부여된	-11.88
▁콜롬비아	-11.88
피해자	-11.8801
▁알려지자	-11.8802
▁소명	-11.8803
천여명	-11.8804
▁정치가	-11.8804
▁응답했다	-11.8804
▁입장에	-11.8805
▁단계로	-11.8805
▁요청해	-11.8806
하셔서	-11.8807
▁캐스팅	-11.8808
고도	-11.881
▁부작용이	-11.8813
▁개인별	-11.8814
▁증권	-11.8815
▁증가가	-11.8816
▁입는	-11.8816
▁향하	-11.8816
보전	-11.8818
▁수료생	-11.8819
▁유선	-11.8821
▁구조로	-11.8821
▁흔들릴	-11.8822
μ	-11.8822
거꾸로	-11.8822
er	-11.8822
총장	-11.8822
▁말레이시아에서	-11.8823
▁삼성화재	-11.8823
공주	-11.8825
▁딴	-11.8826
▁글쎄	-11.8827
▁우뚝	-11.8827
▁풀려	-11.8827
▁저변	-11.8827
▁속옷	-11.8828
▁위협이	-11.8828
▁레전드	-11.8828
▁이튿날	-11.8828
▁캐버노	-11.8828
▁토마토	-11.8828
▁클린턴	-11.8828
▁열렬	-11.8828
▁맞물려	-11.8828
▁백두산	-11.8829
▁팀워크	-11.8829
▁최첨단	-11.8829
▁쓰러진	-11.8829
▁프리랜서	-11.8829
▁커리큘럼	-11.8829
▁블랙핑크	-11.8829
▁데이	-11.8829
▁그렇죠	-11.8829
▁국빈방문	-11.8829
▁매트리스	-11.8829
▁산부인과	-11.8829
▁이산화탄소	-11.883
▁크로아티아	-11.883
▁정규리그	-11.883
▁포르투갈	-11.883
▁물러난	-11.883
▁구매해	-11.8831
▁사회관계망서비스	-11.8831
▁삼성증권	-11.8831
▁녹색성장	-11.8831
▁무너진	-11.8832
▁갈아타	-11.8832
▁원본	-11.8832
▁금리인상	-11.8832
▁빈자리	-11.8832
▁나름	-11.8833
▁사업연도	-11.8833
▁걸리나요	-11.8833
▁기다려주세요	-11.8833
▁외국계	-11.8834
▁오름세	-11.8834
▁굳건	-11.8834
▁국제기구	-11.8835
▁바빠서	-11.8835
▁대변	-11.8835
▁시즌이	-11.8836
먼	-11.8836
▁않았으나	-11.8837
▁호스트	-11.8837
▁돌연	-11.8837
▁밤새	-11.8837
▁해양수산부	-11.8838
(30)	-11.8838
▁지불해야	-11.8838
▁저작권	-11.8838
▁시골	-11.8839
▁넘겨졌다	-11.8839
▁강정호	-11.8839
▁일정기간	-11.8839
▁개헌	-11.8839
았어요	-11.8839
▁나왔어요	-11.884
슈	-11.884
▁자랑한다	-11.8842
▁2025	-11.8843
▁참여했으며	-11.8843
▁털어놓	-11.8844
▁드리는	-11.8845
▁서울시의	-11.8845
▁유료방송	-11.8846
▁구상이	-11.8847
▁원자력	-11.8849
▁대용량	-11.8849
▁독립운동가	-11.8849
▁왠	-11.8849
▁스펙	-11.8849
텍	-11.8849
▁선보이며	-11.885
힘	-11.885
염	-11.8852
▁일이라고	-11.8852
▁세부사항	-11.8855
▁태어났	-11.8855
▁불확실	-11.8855
▁문희상	-11.8856
▁임종석	-11.8856
우가	-11.8857
▁인권침해	-11.8857
▁남녀노소	-11.8857
▁카슈끄지	-11.8857
▁가계부채	-11.8857
▁유네스코	-11.8857
▁걸리지	-11.8857
▁연동형	-11.8858
받고	-11.8858
단장	-11.8858
▁정책실명제	-11.8858
▁네팔	-11.8858
▁우리와	-11.8859
▁거리에서	-11.8859
▁한국토지주택공사	-11.8859
▁외교관	-11.886
▁근로소득	-11.886
▁그려져	-11.886
▁급수	-11.886
▁이루어지지	-11.886
▁산사태	-11.886
▁걸려요	-11.8861
▁교통카드	-11.8861
▁골목길	-11.8862
▁엉덩이	-11.8862
▁하얀	-11.8864
▁단연	-11.8864
▁토익	-11.8864
▁중증	-11.8864
▁기획조정실장	-11.8865
▁로그인	-11.8865
▁노화	-11.8866
▁발견되지	-11.8867
▁폭언	-11.8867
▁버디	-11.8868
▁기피	-11.8868
▁퇴직금	-11.8868
▁망명	-11.8869
▁외교적	-11.887
▁저마다	-11.887
▁경남도지사	-11.8871
▁유나이티드	-11.8871
불이	-11.8871
▁가만	-11.8874
▁심상	-11.8874
▁흑	-11.8875
▁뒤에서	-11.8876
▁법관들	-11.8877
▁기여하기	-11.8877
▁부족하다는	-11.8877
했거나	-11.8877
▁여객선	-11.8878
▁시급	-11.8878
▁사랑받는	-11.888
▁램프	-11.888
▁폴리	-11.8881
▁노사정	-11.8882
▁동물이	-11.8882
▁모르겠는데	-11.8883
▁일탈	-11.8883
▁만끽	-11.8883
아야	-11.8884
▁생각된다	-11.8884
▁지니	-11.8885
▁황희찬	-11.8885
▁형상	-11.8885
수학	-11.8886
▁성형외과	-11.8886
▁줄다리기	-11.8886
▁장례	-11.8886
▁통화가	-11.8886
▁박정희	-11.8887
▁오토	-11.8887
▁입어	-11.8887
▁테니스	-11.8888
▁이태원	-11.8888
▁어젯밤에	-11.8889
▁공공디자인	-11.8889
▁넘어야	-11.889
▁쓰인	-11.889
▁팩스	-11.889
▁교육훈련	-11.889
▁명함	-11.889
▁생겨서	-11.8891
▁설정하고	-11.8891
▁제작하는	-11.8891
▁분뇨	-11.8892
▁격리	-11.8892
▁번만	-11.8892
▁꼽혔다	-11.8894
▁내주	-11.8894
▁이강인	-11.8895
▁넓고	-11.8895
▁성평등	-11.8896
▁상승폭	-11.8897
▁손님들	-11.8897
▁표명	-11.8898
▁놀라게	-11.8898
관계자	-11.8898
▁발생하기	-11.8899
▁NH	-11.8899
▁용지	-11.8899
▁다르기	-11.8899
▁잡혔다	-11.89
▁김모씨	-11.89
▁개편안	-11.89
▁책임지고	-11.8901
▁나서면서	-11.8901
▁더이상	-11.8902
▁낚시	-11.8902
▁터져	-11.8904
▁중단하고	-11.8905
▁시점이다	-11.8905
▁일자리와	-11.8905
▁절대적	-11.8906
▁학자들	-11.8907
▁청소년이	-11.8908
▁되니	-11.8909
▁전공을	-11.8909
렌	-11.891
▁등장하고	-11.891
▁달라졌다	-11.8913
▁실물	-11.8914
▁절실하다	-11.8914
▁거론하	-11.8915
▁지능형	-11.8915
▁기대되고	-11.8916
사무의	-11.8916
▁그렇지만	-11.8918
▁포획	-11.8918
▁복지서비스	-11.8918
▁쏟아지고	-11.8919
▁중형	-11.892
▁관객들에게	-11.892
▁김명수	-11.8921
▁작지만	-11.8921
▁시교육청	-11.8923
▁메리	-11.8923
▁우즈	-11.8924
▁상영관	-11.8925
▁모으는	-11.8925
▁상태라	-11.8925
만원씩	-11.8926
▁드러내는	-11.8927
▁맹활약	-11.8927
>(	-11.8928
▁컴퓨터에	-11.8929
▁손목	-11.8929
▁민화	-11.8929
▁축하하고	-11.8929
▁바꿨다	-11.8929
▁월등	-11.8932
▁생각하며	-11.8933
▁사막	-11.8933
▁무드	-11.8933
▁도발	-11.8933
▁갈음	-11.8935
제공	-11.8935
물과	-11.8936
▁재산권	-11.8936
▁적정성	-11.8937
렬	-11.8937
▁종결	-11.8938
▁취업지원	-11.8939
▁당연하다	-11.894
▁주머니	-11.8942
▁강화될	-11.8942
▁달랐다	-11.8942
▁보트	-11.8944
▁쿠데타	-11.8944
▁마일리지	-11.8946
컴퍼니	-11.8947
핀	-11.8947
▁불렀다	-11.8947
▁센터에	-11.8948
▁커뮤니케이션	-11.8948
▁가르치고	-11.8949
설이	-11.895
▁어선	-11.895
▁혼인	-11.895
▁확대됐다	-11.895
▁보였	-11.8954
가장	-11.8954
▁출시했다	-11.8954
▁수업료	-11.8954
▁조건부	-11.8955
▁여러가지	-11.8957
했더니	-11.8957
▁평가에서	-11.8958
▁술자리	-11.8958
▁이보다	-11.8959
위에서	-11.8961
▁관내에	-11.8961
▁맡겨	-11.8963
▁누리꾼들	-11.8963
▁치러지	-11.8963
박근혜	-11.8963
구와	-11.8965
▁저질렀다	-11.8966
회와	-11.8967
▁십	-11.8967
▁벗어나지	-11.8967
사무소	-11.8968
▁무엇일까	-11.897
▁철새	-11.8971
단독	-11.8971
▁전통적	-11.8972
▁일식	-11.8973
▁터미널	-11.8973
그것이	-11.8974
▁장성	-11.8974
▁낭독	-11.8974
▁체결하고	-11.8975
▁김진	-11.8976
▁멀리서	-11.8977
▁몸체	-11.8983
▁야당이	-11.8984
▁입주민	-11.8985
왼쪽	-11.8985
▁시행되면	-11.8986
▁촉진하	-11.8987
▁건설공사	-11.8987
▁받아들여지	-11.8989
홈	-11.8991
▁지원하기로	-11.8992
▁관여하	-11.8992
▁도시에	-11.8993
▁드러내고	-11.8993
▁고발했다	-11.8994
▁투자하고	-11.8995
▁농협	-11.8996
힌다	-11.8998
▁주인공인	-11.8998
▁에버랜드	-11.9
▁제작사	-11.9
었으며	-11.9
▁적시	-11.9001
오후	-11.9002
▁본회의에서	-11.9002
대전	-11.9003
▁기반시설	-11.9005
오고	-11.9008
▁결말	-11.9008
▁죽어	-11.901
▁계급	-11.9011
▁동물원	-11.9011
▁개수	-11.9012
▁잃는	-11.9012
▁적당	-11.9013
▁운동화	-11.9016
▁석유화학	-11.9016
WP	-11.9016
▁순찰	-11.9018
▁미스	-11.9018
계획에	-11.9018
▁신당	-11.9018
▁결정된다	-11.9019
밭	-11.9019
▁할인된	-11.902
성은	-11.9021
▁식단	-11.9021
▁당국에	-11.9024
안은	-11.9025
▁김부	-11.9026
▁확인하지	-11.9026
▁전개되	-11.9027
▁계약금	-11.9027
▁파견된	-11.9028
확대	-11.9028
▁곤충	-11.9029
만약	-11.903
▁김정일	-11.903
▁로봇이	-11.9031
▁음악회	-11.9036
의원이	-11.9036
▁프로그램에서	-11.9036
▁개선해	-11.9037
▁사역	-11.9038
년도에	-11.9039
▁시도하는	-11.9039
신이	-11.9041
겔	-11.9041
▁구미시	-11.9042
▁이룬다	-11.9043
▁기록되어	-11.9046
▁86	-11.9046
▁열망	-11.9047
▁비용으로	-11.9048
▁74	-11.9049
▁키우기	-11.905
▁기세	-11.9053
표에	-11.9055
▁들이받	-11.9058
사이트	-11.9059
▁투자금	-11.9061
▁소방공무원	-11.9062
▁타격이	-11.9065
▁간담회에	-11.9066
▁의료인	-11.9069
▁문화교류	-11.9069
▁가평군	-11.907
▁수수	-11.907
▁어머니와	-11.907
▁모습이었다	-11.9072
▁배치해	-11.9073
▁예산에	-11.9073
얼	-11.9074
▁친척	-11.9075
▁산책로	-11.9076
▁고려하	-11.9077
시설이	-11.9077
▁안착	-11.9078
▁동력이	-11.9079
▁취임식	-11.908
▁창조	-11.908
▁교차로	-11.9081
▁잊고	-11.9082
▁세척	-11.9082
▁규제완화	-11.9082
셨어요	-11.9083
▁이마	-11.9085
▁아담	-11.9089
▁발생률	-11.909
▁자연재해	-11.9092
▁봉투	-11.9092
▁말과	-11.9094
업소	-11.9095
화로	-11.9095
▁현행법	-11.9096
▁수익금	-11.9096
▁지나서	-11.9097
창출과	-11.9101
▁간섭	-11.9102
▁흥	-11.9106
▁절정	-11.9107
▁통계에	-11.9108
▁그만두	-11.911
▁조사하는	-11.9112
▁잡혀	-11.9115
▁아일랜드	-11.9118
현장에서	-11.9119
위반	-11.9119
▁장려	-11.912
▁선고됐	-11.912
경기에	-11.912
▁자리한	-11.9123
▁자율성	-11.9125
▁폭로한	-11.9126
▁나들이	-11.9126
▁출품	-11.9129
▁연기에	-11.913
부로	-11.913
▁채용한	-11.9133
▁경호	-11.9133
있긴	-11.9134
▁바이어들	-11.9135
▁중장기	-11.9138
▁학급	-11.9139
▁명시하여	-11.9139
통일	-11.9141
▁진술했다	-11.9141
기보다	-11.9142
▁대미	-11.9145
▁지원책	-11.9148
▁막강	-11.9149
▁구하라	-11.915
▁화면에	-11.9151
▁다하고	-11.9151
설명회	-11.9151
▁북한군	-11.9151
▁오늘까지	-11.9152
▁호출	-11.9152
▁나갔	-11.9154
▁휴게소	-11.9155
▁배부	-11.9157
주된	-11.9159
▁심각하다	-11.916
▁담당할	-11.916
▁병원이	-11.9161
▁상속	-11.9163
옵니	-11.9166
▁입에	-11.9167
▁농가에	-11.9167
개소에	-11.9168
▁벌인다	-11.9168
▁정치인들	-11.9168
on	-11.917
케어	-11.9171
▁접어들	-11.9172
▁생명이	-11.9174
▁오후부터	-11.9175
물품	-11.9175
▁확인해보니	-11.9176
▁출생	-11.9178
▁가구에	-11.9178
▁발전하는	-11.9179
▁분해	-11.9182
▁끊기	-11.9182
니깐	-11.9183
▁황제	-11.9186
▁영암	-11.9187
▁진술이	-11.9189
스와	-11.919
년엔	-11.919
▁앓는	-11.9193
▁반영하고	-11.9193
리아	-11.9197
▁그리기	-11.92
▁겹치면	-11.9201
▁고발한	-11.9201
▁둔화되	-11.9203
▁압수	-11.9205
▁포스트	-11.9205
▁연주자	-11.9205
겼다	-11.9207
▁불복	-11.9207
▁일하	-11.9209
▁필요했다	-11.921
c	-11.921
리기	-11.921
▁입안	-11.9211
했	-11.9211
설치	-11.9213
▁성질	-11.9213
▁모형	-11.9213
▁응시자	-11.9214
▁상의	-11.9216
▁꽃이	-11.9216
▁지방에서	-11.9217
▁들려주	-11.9219
수익	-11.9221
▁원금	-11.9222
▁주거지	-11.9223
▁심리적	-11.9225
▁4,000	-11.9227
▁96	-11.9227
▁방미	-11.9228
▁공사에	-11.9228
56	-11.9232
▁베일	-11.9232
벨	-11.9233
해진	-11.9233
▁구축한	-11.9236
▁낫다	-11.9238
▁푸드	-11.924
▁해고	-11.9241
▁구매하고	-11.9243
시고	-11.9244
합	-11.9245
▁줄지	-11.9249
▁외곽	-11.9251
▁신상	-11.9253
▁물질이	-11.9255
종헌	-11.9256
▁일어난다	-11.9257
▁훈련이	-11.9257
▁프	-11.9258
▁상임위원회	-11.926
▁기재한	-11.9261
▁벽에	-11.9261
▁생산되는	-11.9265
▁괜찮을	-11.9265
▁방향성	-11.9266
▁증진에	-11.9267
▁계산이	-11.9268
▁전체회의	-11.9269
▁반영되	-11.927
▁불씨	-11.9271
▁넓혀	-11.9271
▁예로	-11.9273
역으로	-11.9273
▁달성했다	-11.9275
▁수술이	-11.9275
▁수도권에	-11.9276
▁위반으로	-11.9279
▁발행한	-11.928
▁선거운동	-11.9282
해선	-11.9285
지표	-11.9285
▁휴가철	-11.9288
인사	-11.9288
▁캐	-11.929
▁이성	-11.9292
▁중량	-11.9296
▁알려주시	-11.9296
▁대상에서	-11.9296
▁표적	-11.9297
▁고리	-11.9297
▁숨져	-11.9297
보급	-11.9297
▁채널이	-11.9297
여할	-11.9298
보단	-11.9298
▁예정으로	-11.9302
▁장애인이	-11.9303
”(	-11.9304
▁치솟	-11.9305
▁시민들과	-11.9305
▁충청북도	-11.9306
▁조류	-11.9307
▁포기할	-11.9307
▁미처	-11.931
▁한마음	-11.9311
▁뛰는	-11.9314
▁증언이	-11.9315
▁민사	-11.9317
▁조성한다	-11.9319
다시피	-11.9319
▁수사팀	-11.932
▁작고	-11.932
전자가	-11.932
줘	-11.9321
▁인정받는	-11.9322
▁원정	-11.9323
학습	-11.9324
▁안건에	-11.9324
▁명으로	-11.9325
행동	-11.9326
▁모텔	-11.9329
있어	-11.9329
▁칠곡	-11.933
▁해온	-11.9331
▁관계에	-11.9335
▁111	-11.9336
자원	-11.9337
▁금액으로	-11.9337
▁중이라는	-11.9339
▁유지관리	-11.934
체육	-11.9343
▁레이더	-11.9344
▁돕	-11.9346
비핵화	-11.9346
식품	-11.9347
▁공휴일	-11.9347
▁기본법	-11.9349
령이	-11.935
▁우아	-11.935
▁치는	-11.9352
▁단호	-11.9353
▁암기	-11.9354
▁흘러가	-11.9354
▁소설이	-11.9354
월과	-11.9355
▁회전	-11.9356
▁부모들	-11.9356
도에	-11.9357
▁기금운용	-11.9358
▁극중	-11.9359
▁법이	-11.9359
▁부과하	-11.9362
택시	-11.9363
▁도서관에	-11.9366
▁그러고	-11.9368
▁경주시	-11.9369
▁드러났	-11.9369
청장은	-11.937
내에	-11.9371
▁표준화	-11.9372
연도	-11.9373
▁조경	-11.9374
▁백남준	-11.9376
▁얘기해	-11.9377
▁튀	-11.9377
▁즐기기	-11.9381
▁호텔로	-11.9381
해외	-11.9381
▁이란에서	-11.9383
임금	-11.9384
▁협약식에	-11.9384
▁기관장	-11.9385
워진	-11.9385
▁신년	-11.9385
▁어업	-11.9388
▁온몸	-11.939
현대	-11.9392
▁일체	-11.9394
▁중심지	-11.9394
▁한은	-11.9395
▁매개	-11.9397
광고	-11.9399
▁글에서	-11.9399
▁기사에	-11.9399
줬다	-11.94
▁교육환경	-11.94
▁바탕	-11.94
▁들으	-11.94
▁역사에서	-11.9404
있던	-11.9404
기의	-11.9405
죄	-11.9405
현지	-11.9406
차산업	-11.9409
▁센	-11.9409
득점	-11.9411
▁어울릴	-11.9413
▁인상적이	-11.9414
▁주주총회	-11.9414
▁이르렀	-11.9418
▁발탁	-11.9418
▁주축	-11.9419
▁웃는	-11.9421
▁무사	-11.9422
▁넉넉	-11.9423
▁질타	-11.9423
재산	-11.9423
▁동전	-11.9425
▁온라인에서	-11.9427
▁온전	-11.9431
▁규모에	-11.9433
▁동등	-11.9433
▁하나님께	-11.9434
▁호가	-11.9436
패로	-11.9438
▁출석하여	-11.9438
▁구직	-11.9438
▁적재	-11.9439
▁밴	-11.9441
No	-11.9442
터미널	-11.9442
▁성장동력	-11.9443
▁대중화	-11.9443
의료	-11.9443
▁공통점	-11.9444
▁대응하	-11.9446
굿	-11.9447
▁생산이	-11.9447
라리	-11.9448
▁악성	-11.945
▁강성	-11.9451
▁세계대전	-11.9453
판이	-11.9454
▁일과	-11.9455
▁공부하	-11.9458
▁초반에	-11.9459
▁설립자	-11.946
변호사	-11.9461
▁쫓	-11.9461
▁상륙	-11.9468
▁봐서	-11.947
▁물품이	-11.947
▁특례	-11.9471
▁베어스	-11.9472
▁진출하는	-11.9474
혜택	-11.9475
▁지방자치	-11.9476
▁보았	-11.9476
▁수년간	-11.9477
▁에릭	-11.9478
▁b	-11.9479
▁심의에	-11.948
▁재편	-11.948
▁교류의	-11.9481
▁전선	-11.9482
71	-11.9483
▁감지	-11.9484
▁있는데다	-11.9485
▁개표	-11.9486
▁소포	-11.9486
▁자제하	-11.9487
부진이	-11.9487
▁부진에	-11.9488
건에서	-11.9489
▁비판하	-11.949
▁a	-11.9491
▁준우승	-11.9491
재정	-11.9492
▁야근	-11.9492
정비	-11.9493
▁퍼즐	-11.9493
▁옮긴	-11.9493
▁찔러	-11.9494
▁천막	-11.9494
▁질적	-11.9494
▁선착순	-11.9494
▁경복궁	-11.9494
▁오프닝	-11.9494
▁예컨대	-11.9494
▁악순환	-11.9494
▁사립학교	-11.9495
▁스릴러	-11.9495
▁에피소드	-11.9495
▁간접흡연	-11.9495
▁카탈로그	-11.9495
▁타슈켄트	-11.9495
▁세종학당	-11.9495
▁시가총액	-11.9495
▁여기저기	-11.9495
▁집중호우	-11.9495
▁바닷물	-11.9495
▁타이틀곡	-11.9496
▁국제교류	-11.9496
▁홈플러스	-11.9496
닷컴	-11.9496
▁모험	-11.9496
▁일으켜	-11.9496
▁가전제품	-11.9496
▁뮬러	-11.9496
▁기획예산과장	-11.9496
▁나아질	-11.9496
▁지휘봉	-11.9497
아낸다	-11.9497
▁무역갈등	-11.9497
▁선임연구위원	-11.9497
▁예비사회적기업	-11.9497
▁출석위원	-11.9497
▁올라갈	-11.9498
▁모두발언	-11.9498
▁시작하면	-11.9498
▁단위기간	-11.9498
▁김일성	-11.9499
▁고강도	-11.9499
▁세탁기	-11.95
▁주인공이	-11.9501
▁보도자료	-11.9501
▁올시즌	-11.9501
▁천주교	-11.9503
▁부드럽고	-11.9503
굴	-11.9504
▁현장실습	-11.9504
▁보내주시면	-11.9505
▁축제에	-11.9505
▁점검에	-11.9505
표시	-11.9506
▁새누리당	-11.9507
▁풍물	-11.9507
▁펼치며	-11.9507
점포	-11.9508
▁피난	-11.9508
▁달아났다	-11.9508
▁싶네요	-11.9509
▁트리	-11.9509
▁띄었다	-11.9511
▁시사	-11.9511
▁보호구역	-11.9511
▁각광받	-11.9512
▁원한다면	-11.9512
▁적합하	-11.9512
▁만나볼	-11.9513
▁뭔지	-11.9513
▁숨어	-11.9513
▁자아내	-11.9513
▁해결되지	-11.9513
▁실현하기	-11.9514
▁마취	-11.9514
▁농담	-11.9515
▁익히	-11.9515
▁김제	-11.9516
▁비례대표	-11.9516
▁배치되어	-11.9517
▁둘이	-11.9517
▁믿습니다	-11.9517
▁다량	-11.9518
▁나오자	-11.9518
▁뵙	-11.9519
▁앞당	-11.9519
▁알았습니다	-11.952
▁전문지식	-11.9521
▁출근길	-11.9522
▁앉아있	-11.9522
산업단지	-11.9523
▁셀카	-11.9523
▁웬만	-11.9523
▁미네랄	-11.9523
▁호날두	-11.9523
▁가급적	-11.9523
▁유승민	-11.9524
▁샤오미	-11.9524
▁맞대결	-11.9525
▁선물세트	-11.9525
▁앞당겨	-11.9525
▁여름방학	-11.9525
▁가상현실	-11.9525
▁욕실	-11.9525
▁평화협정	-11.9526
▁국내총생산	-11.9526
▁특수활동비	-11.9526
▁지폐	-11.9526
▁아동수당	-11.9526
▁경기둔화	-11.9526
▁공산당	-11.9526
▁중앙아시아	-11.9527
▁전년대비	-11.9527
▁대기오염물질	-11.9528
공동체	-11.9528
▁이겨내	-11.9528
▁고작	-11.9528
▁검찰총장	-11.9528
▁과정으로	-11.9529
▁반영되지	-11.9529
▁파급력	-11.9529
▁따뜻	-11.953
▁냉	-11.9531
▁끓	-11.9532
▁친절하게	-11.9532
▁괜찮습니다	-11.9532
어진	-11.9533
▁샌드박스	-11.9534
▁주택담보대출	-11.9535
▁들어오면	-11.9535
▁해양레저	-11.9536
▁생산자	-11.9537
▁몸싸움	-11.9537
▁대국민	-11.9537
▁일곱	-11.9537
▁황당	-11.9537
▁풍속	-11.9537
▁진상조사단	-11.9538
▁현대차그룹	-11.9538
▁뭉쳐	-11.9539
▁총기	-11.9539
▁유류세	-11.9539
▁들어서면서	-11.9539
어졌다	-11.954
▁아내를	-11.954
▁부흥	-11.954
▁이루어졌다	-11.954
▁1,2	-11.954
▁의료서비스	-11.954
▁타깃	-11.954
▁대리점	-11.954
▁숙박시설	-11.9541
▁넓게	-11.9541
▁평가된다	-11.9542
▁만점	-11.9543
▁Q	-11.9543
▁빨대	-11.9544
▁래퍼	-11.9544
▁퍼트	-11.9544
▁청소년들에게	-11.9545
▁올리면서	-11.9545
▁항암제	-11.9546
▁스승	-11.9546
▁거듭나	-11.9546
년대부터	-11.9546
▁생리대	-11.9546
지요	-11.9547
▁작용하고	-11.9547
▁최소화하고	-11.9547
▁선발한	-11.9547
분위	-11.9548
▁되었을	-11.9548
▁그루	-11.9548
▁연례	-11.9548
▁끝났다	-11.9549
▁꼽히	-11.9549
▁상식	-11.9549
▁단단한	-11.9549
▁참가한다	-11.9549
▁대부분이었다	-11.955
수수료	-11.955
▁야경	-11.955
▁QR	-11.9553
▁드문	-11.9554
▁센트럴	-11.9555
▁배출가스	-11.9555
▁66	-11.9556
▁다루	-11.9556
▁공소시효	-11.9556
▁색감	-11.9556
▁교통약자	-11.9556
▁하려는	-11.9557
▁우수기업	-11.9558
▁김지	-11.9558
▁실무위원회	-11.9558
▁이상이면	-11.9559
대장	-11.9559
▁작업은	-11.9559
▁처리해야	-11.956
정당	-11.9561
▁국무위원	-11.9561
▁증시에	-11.9561
▁특보	-11.9562
▁은행에서	-11.9562
▁조종사	-11.9562
▁관공서	-11.9563
▁밤이	-11.9565
▁차량으로	-11.9565
▁빚어	-11.9566
▁불가능해	-11.9566
▁날이에요	-11.9567
59	-11.9568
▁상황이지만	-11.9568
▁뮤지션	-11.9568
전통시장	-11.9568
▁압류	-11.957
▁포천시	-11.957
▁을지로	-11.957
▁서브	-11.957
▁강타	-11.9571
▁파행	-11.9577
▁인성	-11.9578
▁교통수단	-11.9578
▁직속	-11.958
▁비밀번호를	-11.958
▁궁극적으로	-11.958
흥	-11.9582
▁업체에서	-11.9584
▁희귀	-11.9584
▁모임이	-11.9584
직원에게	-11.9585
▁스탬프	-11.9586
▁안보리	-11.9586
▁열리기	-11.9586
매출	-11.9587
▁문턱	-11.9587
▁살인사건	-11.9589
▁제한된다	-11.9589
▁명시	-11.9589
틀린	-11.9589
▁경제협력개발기구	-11.9591
▁위쪽	-11.9591
▁동탄	-11.9592
▁감경	-11.9594
▁고려했다	-11.9594
▁멈추지	-11.9595
▁높인	-11.9595
▁박성	-11.9595
▁고기압	-11.9595
심의회	-11.9595
▁보다는	-11.9596
▁대체복무제	-11.9596
▁토크	-11.9597
▁탁구	-11.9597
▁참고로	-11.9598
▁주범	-11.9598
▁키즈	-11.96
▁산하기관	-11.96
주시기	-11.9601
치와	-11.9601
코스	-11.9602
▁사무처장	-11.9602
▁체인	-11.9602
▁목표치	-11.9602
▁비난하	-11.9603
▁담판	-11.9603
양의	-11.9605
▁유동성	-11.9605
▁김종민	-11.9606
빅	-11.9606
스로	-11.9607
금이	-11.9607
겨	-11.9608
▁팔리	-11.9608
▁수상작	-11.9609
▁대장	-11.961
▁백신	-11.9611
▁완벽하	-11.9611
▁후반에	-11.9612
기관이	-11.9612
▁셀프	-11.9613
▁잡히지	-11.9613
▁검사장	-11.9614
▁보이게	-11.9615
▁솜씨	-11.9616
▁습지	-11.9618
▁아름답고	-11.9618
출연기관	-11.9619
▁충북도	-11.962
▁추억이	-11.962
▁재사용	-11.9622
▁노골적	-11.9622
▁고용보험	-11.9623
시한	-11.9623
▁경선	-11.9623
▁의결로	-11.9624
플	-11.9624
▁믿음이	-11.9625
▁역사에	-11.9625
▁내리지	-11.9625
마케팅	-11.9627
▁예타	-11.9627
▁이천시	-11.9627
▁청중	-11.9627
스마트	-11.9628
▁판매가격	-11.9629
▁호르몬	-11.963
▁대두	-11.963
▁씨에게	-11.963
▁증권가	-11.9631
▁마르	-11.9631
▁감명	-11.9632
지부	-11.9632
중구	-11.9632
▁재발급	-11.9633
대상자	-11.9635
공항	-11.9636
▁구입해	-11.9636
▁독립성	-11.964
▁특별회계	-11.964
▁&	-11.964
▁좌파	-11.9642
▁누비	-11.9643
▁체험하고	-11.9643
▁협력체계	-11.9644
출연	-11.9645
[...]
