<unk>	0
<s>	0
</s>	0
.	-3.04451
▁	-3.9414
의	-3.9835
,	-4.11551
▁수	-5.03373
▁것	-5.07385
고	-5.09175
▁있다	-5.23737
▁등	-5.25669
한	-5.31283
일	-5.38573
▁이	-5.40137
▁‘	-5.51652
)	-5.5489
는	-5.574
’	-5.61235
다	-5.62095
▁“	-5.6232
(	-5.62853
들	-5.67242
▁그	-5.67661
”	-5.71729
▁있는	-5.77076
할	-5.77951
년	-5.85176
인	-5.8593
·	-5.8666
하는	-5.89414
?	-5.94642
▁제	-5.94735
▁한다	-6.04689
지	-6.06911
▁1	-6.10181
월	-6.13077
기	-6.14792
게	-6.22331
▁및	-6.2303
▁한	-6.23192
▁나	-6.24309
▁전	-6.26497
▁2	-6.33968
▁경우	-6.36088
▁대한	-6.39921
▁내	-6.40623
▁때	-6.41497
▁3	-6.42786
▁우리	-6.50755
▁중	-6.53336
명	-6.57774
▁위해	-6.58015
이다	-6.59793
▁한국	-6.61093
▁당신	-6.62816
이	-6.65254
도	-6.67629
하게	-6.70485
▁저	-6.70839
▁따라	-6.72067
▁더	-6.74126
하고	-6.76146
가	-6.78143
히	-6.7863
▁이번	-6.79693
▁지난	-6.80063
▁5	-6.81191
▁미국	-6.83382
▁4	-6.83896
개	-6.86035
▁안	-6.86094
며	-6.86176
▁할	-6.87475
▁함께	-6.87902
▁통해	-6.88048
된	-6.90788
서	-6.91155
▁밝혔다	-6.91266
시	-6.9301
▁경기도	-6.93169
▁10	-6.94856
은	-6.94871
▁사람	-6.99507
자	-6.99634
▁대통령	-6.99922
▁있습니다	-7.00884
습니다	-7.00901
만	-7.01154
입니다	-7.02669
했다	-7.02824
이라고	-7.03147
던	-7.03164
▁많은	-7.04856
▁문제	-7.0588
▁정부	-7.07122
하기	-7.09887
▁후	-7.10615
▁지역	-7.11075
위한	-7.11621
▁가장	-7.12291
▁중국	-7.12661
▁이상	-7.13298
▁때문	-7.13735
▁하는	-7.15013
▁다른	-7.15049
▁6	-7.15434
▁말했다	-7.16252
▁구청장	-7.17575
▁서울	-7.1779
대	-7.17861
▁다음	-7.17977
▁시장	-7.19705
▁했다	-7.19737
▁대해	-7.19743
▁시간	-7.20202
▁것이다	-7.20279
조	-7.22195
▁김	-7.22569
▁사업	-7.23118
1	-7.25418
적인	-7.26766
해	-7.27049
▁관련	-7.27425
▁큰	-7.27799
하여야	-7.28139
▁각	-7.28717
▁두	-7.28928
요	-7.29053
▁일	-7.29248
▁잘	-7.29643
▁필요한	-7.29955
▁같은	-7.3077
2	-7.31211
▁7	-7.31661
▁또는	-7.31852
과	-7.33391
면	-7.33902
▁말	-7.34923
▁가운데	-7.35175
▁있어	-7.35336
▁뒤	-7.36846
▁8	-7.3735
▁결과	-7.37724
▁올해	-7.3851
야	-7.38705
▁최근	-7.3901
▁지원	-7.39394
▁지난해	-7.41031
▁앞	-7.41041
▁지금	-7.41362
▁이후	-7.41739
▁경찰	-7.4197
▁상황	-7.42306
▁있도록	-7.42378
▁국내	-7.43007
▁점	-7.43152
▁특히	-7.43576
▁현재	-7.43889
씨	-7.44183
될	-7.44205
▁시	-7.45628
▁하고	-7.46728
▁이날	-7.47003
▁모두	-7.47621
▁등이	-7.48462
항	-7.48778
▁기업	-7.49402
면서	-7.4941
▁따른	-7.49545
▁다양한	-7.49556
▁게	-7.49989
▁9	-7.50135
▁주	-7.50338
▁제품	-7.50557
장	-7.50878
▁대표	-7.5151
▁있다는	-7.51922
▁많이	-7.52323
합니다	-7.52354
▁대상	-7.53765
▁다시	-7.5426
▁없는	-7.55028
▁사람들	-7.55181
▁일본	-7.55364
▁북한	-7.55648
함	-7.55705
▁자신	-7.56408
▁행사	-7.56693
▁세계	-7.57745
▁될	-7.5798
-	-7.58195
회	-7.58255
▁20	-7.58571
▁관심	-7.59399
▁오늘	-7.59432
▁사항	-7.59545
▁하나	-7.60078
▁운영	-7.60084
▁정도	-7.6173
▁관계자	-7.61862
▁데	-7.62064
▁내용	-7.62142
분	-7.63516
▁경기	-7.64048
하여	-7.64262
성	-7.64864
▁의원	-7.64949
차	-7.65337
이하	-7.6563
▁모든	-7.65832
하지	-7.66749
▁직접	-7.66827
해야	-7.67733
▁12	-7.67899
▁위하여	-7.68313
▁곳	-7.68636
원	-7.70322
되는	-7.70479
나	-7.7053
▁해	-7.70754
"	-7.70857
라	-7.70891
▁네	-7.72135
▁보고	-7.72157
▁따르면	-7.72495
▁집	-7.72588
▁가능성	-7.72612
을	-7.727
라는	-7.72854
▁11	-7.73312
한다	-7.73434
▁모습	-7.7345
▁사실	-7.73492
▁30	-7.73882
▁총	-7.75338
▁과정	-7.75981
▁교육	-7.76082
▁된다	-7.76572
▁다만	-7.77617
▁서비스	-7.77742
▁관리	-7.77829
시간	-7.77945
▁조사	-7.7821
▁너무	-7.7842
▁있을	-7.78979
▁영화	-7.79318
▁사용	-7.79363
제	-7.79466
위	-7.79598
▁좋은	-7.79603
▁너	-7.79796
▁오후	-7.79801
진	-7.80334
▁당시	-7.80448
」	-7.80505
▁때문이다	-7.80573
▁규정	-7.80585
▁일부	-7.81267
이라는	-7.81787
▁처음	-7.81973
▁사건	-7.8223
억원	-7.82232
라고	-7.82447
▁없다	-7.82799
▁생각	-7.83169
▁조례	-7.83315
호	-7.83328
▁해당	-7.83738
▁위원장	-7.8442
▁「	-7.84564
▁동안	-7.84749
▁아니라	-7.85101
▁활동	-7.85138
주	-7.85501
▁관한	-7.85816
▁이유	-7.85962
▁이런	-7.86599
도록	-7.87441
▁여기	-7.87816
억	-7.88022
▁새로운	-7.8854
하면서	-7.8862
▁간	-7.89181
▁약	-7.8935
▁날	-7.89384
▁기술	-7.8999
▁있다고	-7.903
하며	-7.90442
3	-7.90498
▁높은	-7.90664
▁있었다	-7.9077
적	-7.90889
했던	-7.91451
▁학교	-7.91592
▁않은	-7.9161
▁속	-7.91665
여	-7.91669
▁사진	-7.9257
▁A	-7.92593
▁가격	-7.92617
▁어떤	-7.93175
로	-7.93435
▁첫	-7.93805
수	-7.93904
돼	-7.94213
▁자리	-7.94329
▁또	-7.94711
▁예산	-7.95175
▁회사	-7.95435
▁위원	-7.95532
▁어떻게	-7.95715
▁프로그램	-7.95813
▁문	-7.96957
▁검찰	-7.9703
▁있어요	-7.97225
▁추가	-7.97346
▁합니다	-7.97464
▁문화	-7.97657
▁국회	-7.98414
▁중심	-7.98428
▁지	-7.98672
리	-7.98684
▁만큼	-7.99086
▁규모	-7.99205
상	-7.99268
▁도	-7.99407
▁기준	-7.99584
와	-7.9981
에	-8.00176
▁볼	-8.00515
세	-8.0059
▁설치	-8.01258
▁보인다	-8.01358
건	-8.01501
▁사고	-8.01666
▁이어	-8.01914
▁위	-8.02744
▁이들	-8.02768
▁마음	-8.0282
▁오전	-8.02913
사	-8.02918
▁트럼프	-8.0316
▁않고	-8.03426
만원	-8.03597
▁감독	-8.0387
▁여러	-8.04224
▁영향	-8.04542
▁기존	-8.04784
▁정보	-8.05081
▁공연	-8.05225
▁필요	-8.05447
▁경제	-8.05499
이라	-8.0566
▁있고	-8.05901
▁혐의	-8.06331
▁오는	-8.06585
▁정책	-8.07012
▁아직	-8.0708
▁여성	-8.07124
▁주요	-8.07349
▁설명했다	-8.07614
▁열린	-8.07742
지만	-8.0781
▁건	-8.07851
▁원	-8.0792
▁만	-8.08351
▁있으며	-8.08739
▁장	-8.08755
▁없이	-8.08805
▁받은	-8.09097
▁계획	-8.09211
▁예정이다	-8.0925
▁15	-8.09945
'	-8.10134
▁줄	-8.10525
▁못	-8.10664
▁전국	-8.1067
어	-8.11074
▁그리고	-8.11633
▁좀	-8.11825
▁그녀	-8.12331
▁분야	-8.12344
▁목적	-8.12366
▁기간	-8.12641
▁피해	-8.12808
해서	-8.13073
▁눈	-8.13105
점	-8.1326
▁차	-8.13422
▁업무	-8.13549
▁평가	-8.13589
층	-8.14103
▁수사	-8.14384
▁국가	-8.14695
▁그것	-8.14743
▁다	-8.14795
▁그들	-8.15012
▁대해서	-8.15178
▁바로	-8.1534
▁의견	-8.15412
▁된	-8.15455
▁어느	-8.15714
▁난	-8.16093
▁미	-8.16217
▁추진	-8.16596
▁우려	-8.17138
▁손	-8.17166
▁같이	-8.172
▁회장	-8.17651
▁현장	-8.17771
▁가족	-8.1791
▁개발	-8.18005
▁번	-8.18433
▁최대	-8.19441
니다	-8.19758
▁방법	-8.19848
길	-8.19901
▁학생들	-8.20144
▁부분	-8.20273
▁박	-8.20309
했습니다	-8.20369
미	-8.20472
▁호의	-8.20516
조제	-8.20678
▁정말	-8.20768
▁달	-8.2078
▁100	-8.20807
▁있지만	-8.2113
▁거	-8.21336
▁투자	-8.21634
▁의미	-8.22254
▁이야기	-8.22271
▁학생	-8.22329
별	-8.22438
▁자	-8.22648
나요	-8.22808
▁역할	-8.23211
형	-8.23246
▁법	-8.23754
▁사	-8.24005
다는	-8.24019
▁기회	-8.2441
전	-8.24457
▁이미	-8.24684
▁관계	-8.24701
▁물	-8.24731
▁받고	-8.24948
▁차량	-8.25226
▁효과	-8.25292
▁적	-8.25454
▁방식	-8.25898
선	-8.25992
▁상태	-8.26174
▁매우	-8.26221
▁인기	-8.26262
▁사이	-8.26409
▁구	-8.26719
▁수준	-8.26726
였다	-8.26752
▁위원회	-8.26801
▁계속	-8.26937
▁장관	-8.27364
▁가	-8.27404
▁배우	-8.2749
▁먼저	-8.27674
▁의혹	-8.27857
▁얼마	-8.27908
▁일정	-8.27975
▁청와대	-8.27991
▁팀	-8.27996
▁도지사	-8.28108
▁공무원	-8.28324
▁논란	-8.28603
▁않는	-8.28666
▁전체	-8.28671
▁이것	-8.28999
▁아닌	-8.29026
▁더욱	-8.29286
▁비	-8.2936
식	-8.29804
▁않았다	-8.30775
▁시설	-8.3081
▁것입니다	-8.30899
▁말한다	-8.30938
▁음식	-8.31178
▁교수	-8.31263
m	-8.313
용	-8.31345
4	-8.31373
▁또한	-8.31665
▁결정	-8.31785
비	-8.3223
▁기대	-8.32263
▁이름	-8.32539
엔	-8.32663
니	-8.32849
▁않	-8.33197
▁전했다	-8.33406
법	-8.33563
▁있나요	-8.33566
▁내년	-8.33692
▁부산	-8.34035
이에요	-8.34208
운	-8.34479
▁입장	-8.3453
됐다	-8.3464
▁해외	-8.34812
▁19	-8.34914
▁저희	-8.34917
번	-8.35383
▁사회	-8.35419
▁돈	-8.35425
▁바	-8.35569
후	-8.35689
▁확인	-8.35779
▁회의	-8.3595
▁변화	-8.36076
▁몇	-8.36342
▁비용	-8.36549
중	-8.36622
▁범위	-8.36731
거나	-8.36823
간	-8.37163
하거나	-8.37339
▁외	-8.37569
▁기관	-8.37642
▁불	-8.37802
▁연구	-8.37811
▁책	-8.37883
▁일자리	-8.38092
▁친구	-8.38128
▁작품	-8.38567
▁밖	-8.38573
▁분석	-8.38624
▁크게	-8.38775
▁지급	-8.39048
권	-8.3905
▁되는	-8.3925
▁보면	-8.39789
▁상품	-8.39992
▁고객	-8.40044
▁위해서	-8.40191
내	-8.40235
▁대부분	-8.40287
▁방안	-8.40718
여명	-8.40784
▁하루	-8.40789
▁됐다	-8.40991
▁자료	-8.41121
▁발전	-8.41495
군	-8.41806
▁개선	-8.41979
▁조치	-8.42044
▁최고	-8.42061
▁환경	-8.42148
력	-8.42193
▁도움	-8.42367
▁연	-8.42375
▁오	-8.42386
▁대	-8.42607
▁조	-8.42653
▁각종	-8.42821
▁해요	-8.43375
하도록	-8.43414
▁대학	-8.43639
▁강	-8.43738
실	-8.4384
▁서울특별시	-8.43877
▁알	-8.43994
▁중인	-8.44143
▁18	-8.44198
▁가지고	-8.44284
▁수도	-8.44708
▁나온다	-8.4486
▁가지	-8.45182
▁있는데	-8.45702
▁글로벌	-8.4571
▁조금	-8.4571
▁온	-8.45769
▁입	-8.45943
▁14	-8.45961
▁하지만	-8.46176
부	-8.46186
▁안전	-8.46271
▁성장	-8.46294
▁새	-8.46368
▁노력	-8.46767
▁경험	-8.46821
▁대하여	-8.46853
▁정	-8.46925
▁살	-8.47054
▁삶	-8.47159
▁실제	-8.47189
동	-8.4727
▁그동안	-8.47342
▁전망	-8.47462
지역	-8.47541
▁건강	-8.47619
▁초	-8.47803
▁13	-8.47889
▁17	-8.48044
▁확대	-8.48132
▁부담	-8.48185
5	-8.48347
▁있기	-8.48439
개월	-8.48678
▁선수	-8.48759
▁신	-8.4886
질	-8.48951
▁영어	-8.49157
▁이제	-8.49202
▁직원	-8.49271
▁과거	-8.49275
▁음악	-8.49309
▁앞서	-8.49358
▁않아	-8.49407
▁나타났다	-8.49408
▁지난달	-8.49441
▁주변	-8.4951
명의	-8.49596
▁개인	-8.49647
▁올	-8.50123
▁주장	-8.50133
▁우선	-8.50135
했어요	-8.50205
▁지적	-8.50242
▁진행	-8.50249
데	-8.50336
▁참여	-8.50453
▁역시	-8.50516
▁이용	-8.50624
구	-8.50894
▁양	-8.50922
▁세	-8.50947
▁16	-8.50998
위원회	-8.51384
스	-8.51544
▁그런	-8.51567
▁힘	-8.51586
▁후보	-8.51593
▁들어	-8.51703
▁생활	-8.51773
금	-8.51837
▁여행	-8.52339
당	-8.52483
▁서로	-8.52711
▁환자	-8.52799
▁업체	-8.52839
▁신고	-8.53026
▁받을	-8.53094
▁측	-8.53101
자들	-8.53251
▁나라	-8.53593
▁인해	-8.53712
▁게임	-8.53792
▁준비	-8.53872
▁시스템	-8.53906
감	-8.53948
▁25	-8.53952
▁K	-8.54266
▁각각	-8.54343
▁신청	-8.54572
▁공동	-8.54621
▁사례	-8.54642
▁소속	-8.54902
▁물론	-8.55082
▁현지	-8.55357
▁판매	-8.5541
▁작업	-8.55473
▁이렇게	-8.55644
▁활성화	-8.55676
▁국민	-8.557
▁방송	-8.55797
▁요구	-8.55838
▁향	-8.56007
▁있	-8.561
▁갈	-8.56315
▁유	-8.56477
해요	-8.568
율	-8.56858
▁들	-8.5695
▁산업	-8.57191
▁단체	-8.57287
▁남	-8.57935
▁가능한	-8.5821
안	-8.58306
▁여부	-8.58336
▁주민	-8.58363
▁대회	-8.58502
▁인상	-8.58559
▁정상회담	-8.58727
▁자체	-8.59094
▁몸	-8.59099
▁보	-8.59207
▁본	-8.59215
▁씨	-8.59475
▁시작	-8.5954
년간	-8.5966
▁최초	-8.59668
▁생산	-8.59941
▁알고	-8.59963
▁무엇	-8.59972
다고	-8.60119
▁번째	-8.60167
▁건물	-8.60231
▁있게	-8.60265
▁목표	-8.60435
▁걸	-8.60504
▁거쳐	-8.60505
▁병원	-8.606
▁도시	-8.609
▁왜	-8.61058
▁아무	-8.61119
▁공간	-8.61341
▁하며	-8.61595
▁아파트	-8.61634
▁받아	-8.61795
는데	-8.62088
▁한다는	-8.62171
▁계획이다	-8.62188
▁기능	-8.62228
곳	-8.62303
▁심의	-8.62358
팀	-8.62392
▁강화	-8.62514
신	-8.62846
▁하	-8.62877
▁50	-8.63035
▁증가	-8.63046
▁외국인	-8.63347
어요	-8.63406
▁알려졌다	-8.63415
▁길	-8.63493
▁강조했다	-8.63702
▁도내	-8.63825
▁영상	-8.63834
▁부	-8.63915
▁24	-8.64021
센터	-8.64116
▁이전	-8.64133
하면	-8.64521
▁남성	-8.64728
▁논의	-8.64754
▁북	-8.64775
▁방문	-8.6503
▁드라마	-8.65156
에선	-8.65179
▁계약	-8.65209
▁어려운	-8.65263
▁대비	-8.65274
▁아이	-8.65279
▁인사	-8.65366
▁협상	-8.65444
▁사랑	-8.6572
▁이내	-8.65761
▁같다	-8.65828
배	-8.65997
▁상대	-8.66045
▁우리나라	-8.66098
▁해당하는	-8.66157
▁주문	-8.66173
▁두고	-8.66446
▁나왔다	-8.66783
이었다	-8.66801
▁디자인	-8.6692
▁내일	-8.67136
▁기록	-8.67249
▁아이들	-8.67256
▁미래	-8.6733
▁지정	-8.67406
▁반	-8.67417
▁한국의	-8.67517
▁서	-8.67586
▁수출	-8.6762
되어	-8.67658
▁23	-8.6767
▁무대	-8.6778
▁않다	-8.67866
▁마지막	-8.68161
▁어디	-8.68193
▁기	-8.68281
▁가치	-8.68302
▁이러한	-8.68624
▁규제	-8.68782
▁하지	-8.68804
▁것이라는	-8.68881
▁채	-8.69162
▁성과	-8.69217
▁있어서	-8.69291
▁40	-8.69525
▁문재인	-8.69532
▁검사	-8.6955
▁팬들	-8.69898
▁남북	-8.70062
▁수업	-8.70351
▁별지	-8.70393
▁시행	-8.70698
심	-8.70736
▁우수	-8.70782
▁위험	-8.70969
관	-8.71113
▁자동차	-8.71528
▁제출	-8.71549
▁인터넷	-8.71741
▁갖고	-8.71885
▁비핵화	-8.7206
▁전문	-8.72176
▁인근	-8.72795
▁해야	-8.72878
▁매년	-8.73056
▁27	-8.73062
▁없어	-8.73147
▁관련해	-8.73217
▁수요	-8.73225
으면	-8.7329
▁쪽	-8.73643
시장	-8.73733
▁역사	-8.73884
화	-8.7389
▁분위기	-8.73967
했다고	-8.74021
▁받는	-8.74111
▁방	-8.74296
▁책임	-8.74409
▁베트남	-8.74566
▁당	-8.7464
러	-8.74655
▁가수	-8.74757
▁러시아	-8.74792
▁21	-8.75049
▁2016	-8.7511
▁22	-8.75134
▁언론	-8.75158
▁주제	-8.75274
▁그럼	-8.75307
▁판단	-8.75325
▁뜻	-8.75387
▁달리	-8.75429
▁호텔	-8.75456
▁군	-8.75476
▁중소기업	-8.75681
6	-8.75715
▁공급	-8.75799
▁전문가	-8.75849
▁발생	-8.75935
▁거예요	-8.76212
▁개	-8.76279
▁많다	-8.76342
▁브랜드	-8.76605
▁2018	-8.76751
▁아침	-8.76844
▁중요한	-8.77159
▁발	-8.77183
▁축제	-8.77197
▁제도	-8.77269
▁활용	-8.7733
▁운동	-8.77393
▁바랍니다	-8.77447
▁제대로	-8.77527
▁서울시	-8.77575
치	-8.77651
▁받았다	-8.77802
▁협력	-8.77809
▁보호	-8.7808
▁않는다	-8.78183
▁독일	-8.78509
)’	-8.78599
▁가능하다	-8.78694
▁고	-8.78824
▁가진	-8.78884
▁청년	-8.78925
▁발표	-8.78934
▁혹시	-8.79012
천	-8.79031
▁만들어	-8.79097
▁공개	-8.79134
▁남자	-8.79348
▁영국	-8.79426
▁장소	-8.79439
▁핵심	-8.79467
▁실시	-8.79482
▁합의	-8.79528
음	-8.79862
▁원인	-8.79979
▁치료	-8.79992
▁수가	-8.80032
▁있던	-8.80177
단	-8.80714
▁온라인	-8.80733
▁같아요	-8.80747
▁버스	-8.80753
▁28	-8.80845
▁노래	-8.809
▁아래	-8.80915
▁주민들	-8.81239
▁설명	-8.81279
▁글	-8.81356
▁거야	-8.81397
▁평균	-8.81433
되고	-8.8144
온	-8.81464
▁도입	-8.81475
▁모	-8.81599
▁밤	-8.81661
▁감사	-8.81668
▁이곳	-8.81692
▁최종	-8.8172
▁콘텐츠	-8.81937
▁발생한	-8.81983
▁싶	-8.82289
▁구조	-8.82571
▁되고	-8.82992
▁거래	-8.83214
임	-8.83275
▁사회적	-8.83281
▁쉽	-8.83467
▁맛	-8.83595
등	-8.83624
▁내부	-8.83693
▁끝	-8.83791
▁비해	-8.83804
▁못한	-8.84039
7	-8.84111
▁26	-8.84152
▁실적	-8.84276
▁장애인	-8.8441
▁공장	-8.84449
산	-8.84649
▁사전	-8.84725
▁처리	-8.84965
사업	-8.85019
▁절차	-8.85429
▁가는	-8.85569
▁대한민국	-8.85635
▁요청	-8.85787
▁출신	-8.85866
▁실제로	-8.85893
▁만든	-8.8595
▁그룹	-8.86095
▁재판	-8.86229
▁연락	-8.86268
▁집중	-8.86276
▁부동산	-8.86343
▁소식	-8.86402
▁선	-8.86455
▁적극	-8.86538
▁유지	-8.86748
▁시즌	-8.87124
▁모델	-8.87181
종	-8.87339
▁필요하다고	-8.87375
▁됩니다	-8.87423
▁얘기	-8.87465
▁명	-8.87591
▁공	-8.87814
▁구매	-8.87823
▁불법	-8.88113
▁소비자	-8.88391
▁같아	-8.88477
▁도로	-8.88481
▁적극적	-8.88548
집	-8.88566
항의	-8.88593
▁대신	-8.88791
▁배	-8.89111
▁비롯	-8.89163
▁중구	-8.89165
▁연기	-8.89182
▁되	-8.89345
▁누구	-8.896
▁친구들	-8.89863
▁B	-8.89963
정	-8.90038
되지	-8.90068
▁여자	-8.90207
▁만나	-8.90327
시민들	-8.90372
▁거리	-8.90401
▁자유한국당	-8.90532
▁차이	-8.90542
호서식	-8.9058
▁시대	-8.90591
▁지속적	-8.90641
▁민주당	-8.9078
▁주세요	-8.90899
▁일반	-8.91248
▁보도했다	-8.91281
▁한류	-8.91296
▁기반	-8.91332
▁꼭	-8.91662
▁없습니다	-8.91741
▁삼성	-8.91749
▁이유로	-8.92052
▁선수들	-8.92097
▁지사	-8.92147
▁홍보	-8.92329
▁대화	-8.92351
▁작은	-8.92585
▁전화	-8.92645
▁동시	-8.9278
▁예	-8.92917
▁꿈	-8.92975
▁제작	-8.93021
▁미세먼지	-8.93029
▁경쟁	-8.93034
▁구성	-8.93058
으며	-8.93108
문	-8.93129
▁공사	-8.93244
▁2017	-8.93247
▁조성	-8.93303
▁변경	-8.93307
▁뿐	-8.93428
▁여전히	-8.93439
▁목소리	-8.93441
▁피해자	-8.9345
난	-8.93498
▁하는데	-8.93686
▁국제	-8.93695
▁업계	-8.93723
▁시험	-8.93851
▁방향	-8.93868
▁신규	-8.93934
▁개최	-8.93944
릴	-8.94
▁최	-8.94129
하였다	-8.94212
현지시간	-8.94332
▁보내	-8.94372
▁마을	-8.94385
었던	-8.94531
▁동	-8.94605
▁통한	-8.94622
구청장	-8.94634
▁현실	-8.94735
▁은행	-8.94888
▁예정	-8.94926
▁하면	-8.95017
▁비롯해	-8.95255
▁규칙	-8.95261
▁대책	-8.95284
린	-8.95352
▁결국	-8.95398
km	-8.95468
▁저녁	-8.95618
▁관객	-8.95653
▁유럽	-8.9569
▁사유	-8.95952
기간	-8.96065
▁질문	-8.96177
개의	-8.96182
소	-8.96362
▁시민	-8.96463
▁의사	-8.96499
▁법원	-8.96591
▁특별한	-8.96774
역	-8.96858
▁2015	-8.97141
▁인천	-8.97169
▁스스로	-8.9725
이라며	-8.97262
아	-8.97344
▁평화	-8.9764
8	-8.97737
▁검토	-8.97763
▁주택	-8.97785
▁대응	-8.97822
▁예약	-8.97881
▁조정	-8.98005
▁구체적	-8.98248
시설	-8.98392
▁어려움	-8.98431
▁매출	-8.98461
▁총리	-8.98471
▁행동	-8.98568
▁나섰다	-8.98588
▁스마트폰	-8.9861
▁금액	-8.98617
▁옷	-8.98647
▁공식	-8.98695
▁보도	-8.98789
),	-8.98963
▁비판	-8.99366
▁곧	-8.99437
▁참석한	-8.99531
▁확보	-8.9954
▁단	-8.99568
▁그렇게	-8.99698
▁매	-8.99759
▁어제	-8.99852
▁능력	-9.00039
▁선거	-9.00245
▁정상	-9.0036
▁체험	-9.00404
▁속도	-9.00568
▁필요하다	-9.01049
▁희망	-9.01066
▁선정	-9.01172
▁있는지	-9.0122
▁김씨	-9.01392
했지만	-9.01427
▁높다	-9.01456
습니까	-9.01552
▁그래서	-9.01685
▁되어	-9.01877
▁반응	-9.01939
▁마련	-9.01981
▁원하는	-9.02107
▁막	-9.02129
▁상	-9.02201
항상	-9.02341
▁해서	-9.02386
▁명이	-9.02425
물	-9.02459
겠다는	-9.02472
▁없다는	-9.02589
▁형태	-9.0261
▁구축	-9.02617
▁의한	-9.02804
▁수입	-9.029
9	-9.03053
▁29	-9.03091
▁머리	-9.03119
▁크다	-9.03164
▁위반	-9.03294
됩니다	-9.03297
▁돼	-9.03297
▁지원할	-9.03402
▁성공	-9.03611
▁발언	-9.03628
▁거의	-9.03667
▁없었다	-9.03776
▁관련된	-9.03856
▁대형	-9.04192
▁소	-9.04244
석	-9.04285
이고	-9.04306
▁위탁	-9.04496
▁작성	-9.04527
▁한번	-9.0456
▁앞두고	-9.04569
▁요즘	-9.0468
▁맞아	-9.04681
▁예상	-9.04741
받은	-9.04752
▁한다고	-9.04788
▁데이터	-9.04848
볼	-9.04852
▁잘못	-9.04864
▁보는	-9.0493
▁행위	-9.0504
▁효율적	-9.05376
▁성	-9.05477
▁완전	-9.05591
▁선택	-9.057
▁무	-9.05798
▁바람	-9.05811
▁하나님	-9.05812
▁달러	-9.05825
▁직원들	-9.05965
▁고용	-9.0602
▁없	-9.06075
▁의장	-9.06169
▁자기	-9.06265
▁소재	-9.0627
기에	-9.06321
▁따로	-9.06336
이며	-9.0648
▁교회	-9.06519
▁조직	-9.06606
▁성적	-9.06619
▁승리	-9.06688
▁제재	-9.06794
▁프로젝트	-9.06798
계	-9.06846
▁한국어	-9.06892
▁상승	-9.07009
▁시기	-9.07051
▁세상	-9.07092
▁열	-9.07215
▁카드	-9.07244
만명	-9.07282
▁해결	-9.07471
▁얼굴	-9.07527
▁서류	-9.07575
▁마	-9.0767
▁31	-9.0779
▁자주	-9.07875
란	-9.07883
▁나와	-9.08264
▁최저임금	-9.08274
▁인도	-9.08591
▁전략	-9.08826
▁실	-9.08831
었다	-9.08993
하던	-9.09015
▁광고	-9.09037
▁인식	-9.09051
G	-9.09077
▁심사	-9.09124
▁광주	-9.09272
▁해도	-9.09291
▁같습니다	-9.09375
▁인터뷰	-9.09485
표	-9.09652
▁행정	-9.09736
▁계기	-9.09746
▁산	-9.09782
▁예상된다	-9.09823
인들	-9.09885
▁아	-9.10062
▁화재	-9.10153
▁제공	-9.10181
▁적용	-9.10199
▁기업들	-9.10325
▁주장했다	-9.10399
▁더불어민주당	-9.10402
▁본인	-9.1042
▁단순	-9.10642
▁아니	-9.10647
▁제안	-9.10848
▁보다	-9.1086
▁에너지	-9.10906
▁주는	-9.10933
▁법률	-9.10947
▁점검	-9.10955
급	-9.11073
▁배경	-9.11136
겠습니다	-9.11324
▁포함한	-9.11414
▁차례	-9.11481
▁수립	-9.11577
▁등록	-9.11713
▁별도	-9.11803
▁이해	-9.11836
▁200	-9.11866
▁가정	-9.1197
▁도널드	-9.11989
초	-9.12132
▁보고서	-9.12468
▁전통	-9.12517
▁대출	-9.12679
▁딸	-9.12814
한다는	-9.12858
트	-9.12881
▁승인	-9.12883
된다	-9.12955
▁관광	-9.12983
▁그대로	-9.13025
▁2014	-9.1311
▁결제	-9.13207
▁넘는	-9.13234
▁김정은	-9.13298
▁찾는	-9.13365
▁사장	-9.13379
▁민간	-9.13694
▁혁신	-9.13785
▁부문	-9.13972
활동	-9.13993
▁하기	-9.14119
▁갈등	-9.14247
▁여름	-9.14253
▁삼성전자	-9.14364
▁타고	-9.14366
▁시절	-9.14372
▁어린이	-9.14564
되면서	-9.1459
▁통	-9.14714
▁감소	-9.14737
▁한반도	-9.14819
판	-9.14929
▁채용	-9.14972
▁빨리	-9.14994
기업	-9.15024
▁없을	-9.15052
▁<	-9.15163
▁아시아	-9.15232
인데	-9.15285
▁건설	-9.15684
▁작가	-9.15783
▁의해	-9.15939
▁아주	-9.1594
▁반대	-9.15987
▁만드는	-9.16096
회의	-9.16114
▁열리는	-9.16167
▁기사	-9.16225
▁인	-9.16262
▁있으면	-9.16275
▁인간	-9.16319
▁소리	-9.1636
▁좋아하는	-9.16367
▁낮	-9.16476
▁혜택	-9.16551
혀	-9.16644
▁취업	-9.16736
D	-9.16741
분기	-9.16765
▁전문가들	-9.16837
▁이미지	-9.16898
▁이용자	-9.16914
▁분	-9.17
▁지방	-9.17282
▁심	-9.17299
▁자금	-9.17319
▁그림	-9.17322
▁위기	-9.17322
▁관광객	-9.17497
▁현상	-9.17501
이기	-9.17881
주로	-9.18054
▁메시지	-9.18122
▁제한	-9.18176
▁주말	-9.18359
▁불구하고	-9.18539
▁피	-9.18608
▁원내대표	-9.1861
론	-9.18634
▁찾아	-9.18661
▁사용자	-9.18685
▁홍콩	-9.18753
▁미리	-9.18845
▁블록체인	-9.1898
▁의지	-9.1908
▁보니	-9.19112
▁60	-9.19127
▁언제	-9.19218
▁공격	-9.19224
▁비중	-9.19377
▁진출	-9.19483
쪽	-9.19579
▁특정	-9.19611
▁조건	-9.19712
현	-9.19752
▁당국	-9.19784
▁홈페이지	-9.1981
▁청소년	-9.19847
하	-9.19883
▁옆	-9.19939
▁전시	-9.19992
경기	-9.20023
▁소통	-9.20088
▁아버지	-9.20228
▁연속	-9.20236
▁오래	-9.20315
량	-9.20352
▁인구	-9.20422
▁공항	-9.2044
▁담당	-9.20523
▁선발	-9.20578
▁협의	-9.20658
▁경영	-9.20659
▁상담	-9.20671
▁임기	-9.20708
▁예방	-9.20855
▁높	-9.20965
▁있을까요	-9.21059
▁강원도	-9.21059
▁이벤트	-9.21128
▁고민	-9.21254
▁노	-9.21374
▁프랑스	-9.2148
▁않도록	-9.21598
▁자녀	-9.21603
없이	-9.21648
가지	-9.21709
▁놓고	-9.21751
▁창출	-9.21952
▁범죄	-9.21954
▁찾	-9.2199
▁보기	-9.2209
▁소송	-9.22124
▁경쟁력	-9.22167
기관	-9.22178
▁호	-9.22358
그룹	-9.2253
년대	-9.2256
주년	-9.22593
▁꾸준	-9.22642
▁대구	-9.22736
▁인력	-9.22745
률	-9.22779
▁오히려	-9.23053
▁방침이다	-9.23057
▁보이는	-9.23203
▁발표한	-9.23484
업체	-9.23566
▁운영하는	-9.23598
>	-9.23724
▁것이에요	-9.23872
▁수수료	-9.2422
영	-9.24237
▁공부	-9.24478
▁소득	-9.24537
운영	-9.24543
▁이하	-9.24549
▁연장	-9.24559
▁부과	-9.24744
▁낮은	-9.24997
▁플랫폼	-9.25008
▁설립	-9.2501
었습니다	-9.25037
▁열심히	-9.2505
▁외부	-9.25194
조의	-9.25226
▁덧붙	-9.25319
▁불편	-9.25469
▁비율	-9.25492
▁500	-9.255
이자	-9.25531
▁무료	-9.25615
▁모여	-9.25805
▁둘	-9.25823
▁없다고	-9.25907
▁보여	-9.2594
▁사는	-9.25948
▁빠르	-9.26024
세요	-9.26134
▁개정	-9.2614
▁직무	-9.26148
▁영	-9.26173
▁벌	-9.26181
했을	-9.26211
▁취지	-9.26306
▁촬영	-9.26316
▁단계	-9.26324
교육	-9.26434
▁장면	-9.26453
▁전망이	-9.26486
▁중요하다	-9.26546
학교	-9.26579
▁판결	-9.26701
▁변호사	-9.26732
▁시작한	-9.26793
▁행복	-9.26802
▁위치한	-9.2691
▁지도	-9.2696
친	-9.26977
▁나온	-9.2705
▁명의	-9.27054
▁피부	-9.27069
하고자	-9.27098
▁회담	-9.27268
▁통합	-9.27288
’(	-9.2731
▁대규모	-9.2731
▁근무	-9.27365
▁사실상	-9.27512
▁물건	-9.27568
▁TV	-9.27718
▁강력	-9.27738
되었습니다	-9.27835
▁젊은	-9.27939
▁매일	-9.27988
▁새로	-9.2804
▁반도체	-9.28259
▁맞는	-9.28264
사항	-9.28453
▁기억	-9.28779
관리	-9.28836
▁중앙	-9.28873
단체	-9.29017
▁골	-9.29078
우	-9.29346
▁스포츠	-9.29396
▁제주	-9.29679
▁부상	-9.2987
▁여	-9.30032
▁나오는	-9.30135
▁축구	-9.30226
▁조선	-9.30324
▁순간	-9.30352
▁못하고	-9.3036
▁북미	-9.30498
▁아니다	-9.3061
▁했습니다	-9.30637
▁쉽지	-9.30682
▁역	-9.30762
▁육성	-9.30877
▁특별	-9.3099
▁대법원	-9.31011
▁못하는	-9.31112
▁자연	-9.31193
▁향상	-9.3122
▁않으면	-9.31306
▁술	-9.31396
▁자세	-9.31488
▁싶어	-9.31629
▁교통	-9.31699
▁늘	-9.3192
▁우	-9.32
▁엄마	-9.3203
▁담긴	-9.32129
▁최선	-9.3224
▁어렵다	-9.32319
▁않습니다	-9.32328
▁바란다	-9.32472
▁못했다	-9.32564
▁고려	-9.32603
▁싱가포르	-9.32615
▁싶어요	-9.32689
▁표현	-9.32693
약	-9.32714
▁위치	-9.3283
만약	-9.33005
▁공유	-9.33022
▁완화	-9.33032
과정	-9.3313
▁중이다	-9.33137
▁한국당	-9.3315
냥	-9.33238
▁타	-9.33272
▁단지	-9.33457
▁목사	-9.33854
▁정치	-9.33951
▁시작했다	-9.33952
▁되면	-9.3397
▁목	-9.34174
▁부탁	-9.34198
▁먹고	-9.342
▁보이고	-9.34277
▁경남	-9.34325
▁눈길	-9.34326
▁담	-9.34477
▁기자	-9.34492
▁현	-9.34546
▁증거	-9.34656
▁정하는	-9.34656
▁편	-9.34779
조원	-9.34859
▁센터	-9.34874
했다는	-9.34901
▁싶은	-9.35031
▁전부	-9.35037
▁매장	-9.35062
다른	-9.35242
▁LG	-9.35397
▁연간	-9.3547
▁혼자	-9.35536
였던	-9.35623
▁관하여	-9.35645
학년	-9.35652
▁지자체	-9.35674
▁배송	-9.35692
▁장비	-9.35706
▁연결	-9.35749
▁끝난	-9.35765
청	-9.35808
▁기본	-9.36063
▁가구	-9.36101
▁강한	-9.36138
▁참여하는	-9.36216
▁상당	-9.36232
▁선생님	-9.36265
▁만들	-9.36307
▁측면	-9.36391
▁정확한	-9.36418
▁정당	-9.36487
▁택시	-9.36685
▁요리	-9.36765
▁노조	-9.36893
▁300	-9.37201
▁우승	-9.37283
▁경북	-9.373
긴	-9.37458
터	-9.37485
되었다	-9.37519
국	-9.37525
있는	-9.37528
▁걱정	-9.37529
▁차원	-9.37633
▁창업	-9.37634
▁수도권	-9.37641
▁반드시	-9.37704
▁나이	-9.37725
▁본다	-9.37728
지원	-9.37757
▁평소	-9.37764
▁메일	-9.37801
수록	-9.37806
▁인도네시아	-9.37826
▁훈련	-9.37906
▁겁니다	-9.37917
씬	-9.37994
▁바탕	-9.38019
▁본격적	-9.38033
▁이란	-9.38111
▁길이	-9.38116
&	-9.38123
▁재	-9.38274
▁학습	-9.38348
▁가서	-9.38424
때	-9.3849
했고	-9.38532
하겠습니다	-9.38559
▁콘서트	-9.38655
▁아동	-9.38946
▁선물	-9.39028
▁받	-9.39146
이번	-9.3926
려	-9.39391
▁아들	-9.39406
▁왔다	-9.39464
▁하락	-9.39471
▁2019	-9.39476
▁보수	-9.39554
강	-9.39593
▁한국인	-9.39607
▁부위원장	-9.39664
▁일대	-9.39675
▁약속	-9.39818
▁좋다	-9.39848
▁임	-9.40097
▁국민들	-9.40206
▁접수	-9.40405
▁폭	-9.40413
▁결혼	-9.40487
▁보였다	-9.40584
10	-9.40698
경	-9.40718
▁기금	-9.40888
▁화제	-9.40911
▁초기	-9.40933
▁바다	-9.40938
▁공공기관	-9.40941
▁되지	-9.40979
▁일단	-9.4098
속	-9.41061
▁건가요	-9.41079
이지만	-9.41105
▁법인	-9.41196
▁종류	-9.41221
▁전환	-9.41322
▁상반기	-9.41384
▁준	-9.4148
▁갑	-9.41525
▁교체	-9.41598
▁제주도	-9.41614
▁대기업	-9.41661
살	-9.41704
▁그러나	-9.41712
▁금융	-9.41793
▁허가	-9.41826
▁통화	-9.41853
▁제공하는	-9.419
▁기념	-9.41901
▁사용하는	-9.41931
동안	-9.42066
▁노인	-9.42132
▁파	-9.4219
▁참가	-9.42234
▁예술	-9.42278
까	-9.42284
▁비교	-9.4237
▁인증	-9.42382
하는데	-9.42389
▁소비	-9.42417
▁컴퓨터	-9.42491
▁국무위원장	-9.42529
▁경기도지사	-9.42556
▁취소	-9.42607
▁소개	-9.42687
▁되기	-9.4278
▁탓	-9.42842
▁무슨	-9.42946
▁회원	-9.43125
방	-9.43317
▁뉴욕	-9.43755
▁할인	-9.44054
▁교육부	-9.44233
▁식당	-9.44261
▁후보자	-9.4427
본	-9.44401
서비스	-9.44402
▁요인	-9.44418
▁전반	-9.44461
▁남편	-9.44509
▁간사	-9.44554
▁부모	-9.44658
▁세금	-9.44666
▁제일	-9.44686
▁셈이	-9.44689
▁최대한	-9.44727
▁어	-9.44907
▁심각	-9.45151
말	-9.45181
인가요	-9.45228
▁2013	-9.45271
▁발굴	-9.45323
▁식사	-9.45379
드	-9.45438
▁교육감	-9.45447
▁2012	-9.45465
▁과제	-9.45495
▁전날	-9.45706
▁처벌	-9.45748
▁지원하는	-9.45831
▁70	-9.45899
주세요	-9.45932
▁받지	-9.45954
▁처분	-9.46306
▁충분히	-9.46318
▁어머니	-9.4647
▁많아	-9.46516
▁전기	-9.46751
해주세요	-9.46759
▁노동자	-9.46814
▁있어야	-9.46866
▁의회	-9.46955
▁전해졌다	-9.46957
▁있지	-9.47099
▁긴급	-9.47119
▁동물	-9.47135
▁여론	-9.4718
▁매력	-9.4722
▁대만	-9.47309
▁금리	-9.47342
▁카페	-9.47364
▁사태	-9.47375
▁원칙	-9.47382
▁임금	-9.47393
▁훨	-9.47486
▁의하여	-9.475
▁이용할	-9.4751
▁근거	-9.4754
▁없고	-9.47567
▁의결	-9.47579
▁날씨	-9.47625
져	-9.4777
드립니다	-9.47775
▁특징	-9.47799
▁작년	-9.47907
▁인생	-9.4794
▁절반	-9.47959
▁분들	-9.47987
▁가을	-9.48052
▁추천	-9.48221
▁긴장	-9.48232
▁나머지	-9.48243
▁지지	-9.48275
▁멕시코	-9.48333
▁가게	-9.48376
▁없어요	-9.48456
▁다소	-9.48479
▁유통	-9.48611
▁답변	-9.48685
▁별	-9.48752
▁정확	-9.48783
▁기분	-9.48861
태	-9.48882
▁황	-9.48949
▁관측	-9.4895
▁시행령	-9.48956
하려는	-9.48972
▁보조금	-9.49037
▁해석	-9.49063
▁근로자	-9.49286
▁좋아	-9.49324
▁땅	-9.49326
▁교사	-9.49556
▁맞춰	-9.49564
▁개정안	-9.49629
▁거기	-9.49632
▁넘	-9.49698
▁국방부	-9.49699
A	-9.49725
▁밝힌	-9.4977
연	-9.49801
▁맡	-9.49928
▁이용해	-9.50046
파	-9.50088
▁복지	-9.50143
▁곳곳	-9.5024
인한	-9.50346
▁메뉴	-9.50396
리그	-9.50414
▁전면	-9.50628
코	-9.50665
▁지적했	-9.5074
▁직후	-9.50821
달러	-9.50837
▁그러	-9.50882
▁말고	-9.50895
▁즉시	-9.50914
▁빠른	-9.50961
저	-9.51075
료	-9.51095
▁따른다	-9.51123
▁수술	-9.51145
▁커피	-9.51185
네요	-9.51196
▁SK	-9.51243
많은	-9.51263
▁들어가	-9.51264
했으며	-9.51401
▁물품	-9.51486
업무	-9.51498
▁요금	-9.51518
▁재정	-9.51574
재	-9.51601
라도	-9.51638
▁들고	-9.5168
▁부서	-9.51685
런	-9.51821
▁있음	-9.51873
액	-9.51928
▁시도	-9.51971
▁알려	-9.52027
▁수익	-9.52029
▁확산	-9.5203
▁되었다	-9.52079
▁구민	-9.52252
▁폭염	-9.52255
씩	-9.52291
▁출시	-9.52307
▁비슷한	-9.52372
▁개혁	-9.52415
▁참여한	-9.52556
▁마케팅	-9.52571
▁발생했다	-9.526
▁상대적	-9.52619
인지	-9.52657
▁분명	-9.52703
30	-9.52939
울	-9.52958
▁많았다	-9.52966
▁통신	-9.52992
▁한계	-9.53009
▁질	-9.53016
▁참석했다	-9.53041
증	-9.53116
▁이동	-9.53143
기술	-9.53193
▁하다	-9.53197
▁느낌	-9.53225
▁있었습니다	-9.53234
▁진	-9.53283
▁맞	-9.53315
협회	-9.53415
▁먹을	-9.53478
▁외국	-9.53578
▁가족들	-9.53592
▁부족	-9.53615
▁포함	-9.53722
▁크기	-9.53776
▁사이트	-9.53787
▁양국	-9.53813
▁시점	-9.53891
▁아름다운	-9.53932
▁페이스북	-9.53932
▁하반기	-9.53955
▁별표	-9.53973
▁공정	-9.54052
▁경비	-9.54074
▁앱	-9.54138
한다고	-9.54185
▁귀	-9.54185
▁부진	-9.5424
▁자격	-9.54288
▁영업	-9.54317
▁나선	-9.54371
▁상황이다	-9.54438
▁진행된	-9.54461
승	-9.54469
▁대전	-9.54484
▁현대	-9.54486
▁증상	-9.54528
▁낸	-9.54605
▁종	-9.54666
절	-9.54736
▁남아	-9.54756
날	-9.54768
▁노동	-9.54774
▁법령	-9.54919
▁전쟁	-9.54984
▁얻	-9.55021
것	-9.55126
▁가입	-9.55181
▁사무	-9.55194
▁나올	-9.55258
▁브라질	-9.55271
▁지속	-9.55272
▁SNS	-9.55283
▁감정	-9.55382
▁교류	-9.55486
▁스마트	-9.55578
▁소방	-9.55604
▁장점	-9.5561
산업	-9.55611
▁캐나다	-9.55611
▁사상	-9.55613
▁세계적	-9.55721
▁호주	-9.55758
▁홍	-9.5577
▁아이디어	-9.55857
▁원활	-9.5587
더	-9.55907
▁태풍	-9.5597
▁관세	-9.56114
▁모바일	-9.56226
박	-9.56246
자기	-9.56363
▁시군	-9.56426
▁협약	-9.56444
▁기대된다	-9.56452
▁품질	-9.56599
▁갖춘	-9.56617
▁부족한	-9.56659
우리	-9.56678
▁참	-9.56697
▁공공	-9.56766
▁실력	-9.56804
▁넘어	-9.56935
개소	-9.57059
▁안내	-9.57144
▁스페인	-9.57258
철	-9.57271
▁주소	-9.57306
▁특성	-9.57334
▁한편	-9.57345
▁했어요	-9.57572
▁위협	-9.57594
▁주식	-9.5765
준	-9.57654
▁지나	-9.57757
▁유치원	-9.57936
▁그곳	-9.57968
▁않아요	-9.57988
▁유명	-9.58028
▁회복	-9.58159
▁디지털	-9.58231
▁순	-9.58293
▁강남구	-9.58298
C	-9.58318
▁유일	-9.5832
▁집행	-9.58326
▁카메라	-9.58334
▁도서관	-9.58372
▁이달	-9.58405
▁즐길	-9.58428
▁있었	-9.58463
▁가까이	-9.58475
둔	-9.58549
▁진행된다	-9.58565
▁전력	-9.58595
▁운행	-9.58646
▁투표	-9.58684
직	-9.58775
▁원래	-9.58784
▁시선	-9.5879
민	-9.58873
반	-9.58962
망	-9.592
▁여러분	-9.59223
▁동영상	-9.59226
▁참석	-9.59244
▁철저	-9.59246
▁기대감	-9.5925
정보	-9.59299
▁대변인	-9.59305
▁이익	-9.59431
▁기자회견	-9.5949
▁발견	-9.59511
관계	-9.59557
됨	-9.59612
▁팔	-9.59616
▁가고	-9.59626
▁금	-9.5966
▁아내	-9.59713
제도	-9.59724
▁유명한	-9.59733
정부	-9.59768
▁부부	-9.59802
▁움직임	-9.5995
▁지시	-9.59962
대회	-9.60048
▁구속	-9.60062
분야	-9.60131
▁반면	-9.60144
▁진술	-9.60182
▁만들기	-9.60244
▁요소	-9.60309
▁봄	-9.60343
정책	-9.60357
개국	-9.6045
▁경	-9.60515
∼	-9.6058
▁설	-9.60623
▁걸쳐	-9.60629
▁오랜	-9.60632
▁주가	-9.60653
▁무역	-9.60678
▁싶다	-9.60745
▁확인할	-9.60834
▁유치	-9.60963
▁있다면	-9.60971
한국	-9.60987
환경	-9.61032
▁진단	-9.61047
줄	-9.61112
낼	-9.61173
조사	-9.61357
▁알게	-9.61369
▁역량	-9.61434
▁안건	-9.61496
▁밥	-9.61577
▁추	-9.61579
▁공개된	-9.6163
▁출장	-9.6166
▁발생하는	-9.61674
▁부회장	-9.61729
▁인권	-9.61814
▁태국	-9.61858
▁신뢰	-9.61966
▁위촉	-9.62085
▁강사	-9.62143
▁꽃	-9.62145
▁말씀	-9.62155
▁전남	-9.62166
▁이외	-9.6222
▁협조	-9.62394
▁사망	-9.62494
▁증시	-9.62506
▁기온	-9.62508
▁보통	-9.6251
라며	-9.62562
▁나오고	-9.62677
마을	-9.62686
▁멤버	-9.62781
▁주고	-9.62923
▁동의	-9.62967
▁바른미래당	-9.62997
세기	-9.63101
▁먹는	-9.63119
▁제외한	-9.63199
▁재판부	-9.63243
▁빛	-9.63312
▁자전거	-9.63338
▁대표팀	-9.63401
▁열고	-9.63403
▁주목	-9.63411
▁후반	-9.63458
/	-9.63474
▁팬	-9.63582
▁원장	-9.63615
▁강남	-9.63684
▁정황	-9.6369
▁시각	-9.63717
▁그때	-9.6379
▁인프라	-9.63881
▁기록했다	-9.63884
▁대로	-9.63949
▁앨범	-9.63984
다가	-9.64002
▁의무	-9.64004
▁비행기	-9.64065
▁토론	-9.64089
▁듯	-9.64279
▁함	-9.64308
▁서식	-9.64352
▁전년	-9.64418
▁입주	-9.64445
▁점이다	-9.64539
기준	-9.64573
▁방문해	-9.64584
▁캐릭터	-9.64615
▁화장품	-9.64653
▁인정	-9.64724
▁전달	-9.64805
▁커지고	-9.64812
▁하면서	-9.64908
▁언어	-9.64946
▁직업	-9.64994
그	-9.6505
▁순위	-9.65062
▁부품	-9.65065
시스템	-9.65108
▁친환경	-9.65187
▁감사합니다	-9.65213
▁근처	-9.65233
▁중요	-9.65238
▁필요성	-9.65409
계획	-9.6546
▁모양	-9.65553
▁남은	-9.65613
▁이사장	-9.65616
▁클럽	-9.65679
▁생명	-9.65703
Pop	-9.65749
▁보안	-9.65798
▁권리	-9.65855
▁종목	-9.65898
네	-9.65902
▁돌	-9.65953
▁대표적인	-9.65963
책	-9.66026
▁출연	-9.66044
골	-9.66093
루	-9.66114
▁의원들	-9.66122
▁평양	-9.66213
류	-9.66258
▁나무	-9.66317
▁인물	-9.6634
▁기초	-9.66355
▁살고	-9.66461
운동	-9.66524
했는데	-9.66561
▁현금	-9.66565
▁설계	-9.66633
▁구간	-9.66672
▁어린이집	-9.66678
▁파일	-9.66695
▁수탁자	-9.66697
▁금감원	-9.66892
▁새벽	-9.66918
주의	-9.66948
해온	-9.66952
세대	-9.66968
▁2010	-9.66984
▁뭐	-9.6702
▁만난	-9.6704
▁겨울	-9.6705
▁극	-9.67074
▁임명	-9.67076
▁허	-9.67202
▁2011	-9.67207
▁마무리	-9.67257
▁조기	-9.67309
▁정치적	-9.67366
▁참석해	-9.67378
▁신경	-9.67476
▁아니냐	-9.67541
▁했지만	-9.67588
▁포장	-9.67653
▁세대	-9.67677
문제	-9.67814
▁잠	-9.67868
▁문건	-9.67963
▁것들	-9.6806
▁있을지	-9.68137
▁추세	-9.68172
▁지하철	-9.68328
▁포함해	-9.6833
▁이슈	-9.68379
분의	-9.68402
원의	-9.68409
▁모집	-9.68438
오	-9.68465
도시	-9.68516
▁존재	-9.68584
▁전시회	-9.68671
▁태도	-9.68695
▁업종	-9.68733
▁지진	-9.68772
▁시작된	-9.68795
려고	-9.68812
▁열린다	-9.68818
▁기여	-9.68839
해도	-9.68846
되면	-9.68901
▁미만	-9.68901
▁노선	-9.68915
▁거주	-9.68943
▁월드컵	-9.68985
▁실질적	-9.68987
▁제조	-9.69103
▁소비자들	-9.69134
▁윤	-9.69149
▁김문수	-9.69157
▁가까운	-9.69198
마	-9.69201
▁구성된	-9.69202
▁바라	-9.69203
▁선언	-9.69212
체	-9.69288
▁만들고	-9.69373
▁폭행	-9.69544
▁적은	-9.6959
▁활약	-9.69617
같은	-9.69624
▁역대	-9.69703
▁하겠습니다	-9.69709
써	-9.6974
분쯤	-9.69741
▁도민	-9.69794
▁발표했다	-9.69893
디	-9.6991
▁안정적	-9.69913
발	-9.69929
문화	-9.70009
▁독립	-9.7001
▁이메일	-9.70019
▁국내외	-9.70111
든	-9.70117
▁지방자치단체	-9.70152
▁향해	-9.70216
▁못해	-9.70218
▁운전	-9.703
▁여야	-9.70312
었어요	-9.70453
▁다수	-9.70471
▁(	-9.70529
▁충격	-9.70652
▁당장	-9.70657
▁2000	-9.7066
까요	-9.70704
▁드러났다	-9.7084
▁자유	-9.70863
▁쓴	-9.70921
행위	-9.71224
▁건축	-9.71229
▁사무실	-9.7125
▁취	-9.71282
▁청구	-9.71343
▁단위	-9.7136
▁권	-9.71362
▁일제	-9.71443
▁키	-9.71459
▁높이	-9.71597
▁토대	-9.71601
▁열렸다	-9.71645
가구	-9.71917
병원	-9.71937
▁힘든	-9.72174
힌	-9.72223
▁것인지	-9.72271
▁가득	-9.72274
▁지식	-9.7238
▁사정	-9.724
▁부정적	-9.72419
▁무역전쟁	-9.72437
▁나선다	-9.72442
보	-9.72476
시킬	-9.72493
▁지분	-9.72499
▁듣고	-9.72561
돈	-9.72595
▁보여주	-9.72608
▁법안	-9.72637
▁숨	-9.72665
가요	-9.72684
▁유튜브	-9.72718
▁체결	-9.72779
▁장기	-9.72822
모	-9.72913
▁이건	-9.72995
▁열어	-9.73081
11	-9.73112
서울특별시	-9.73138
▁성격	-9.73146
▁알려진	-9.73299
▁법적	-9.73361
자료	-9.73379
▁수행	-9.73513
이라도	-9.73683
병	-9.73726
▁법정	-9.73793
▁발생할	-9.73918
▁보관	-9.7403
▁겸	-9.741
▁범행	-9.74124
▁종합	-9.74158
▁일주일	-9.74205
▁운전자	-9.74209
하세요	-9.7423
▁그래도	-9.74371
▁겪	-9.74378
▁죽	-9.74385
▁미디어	-9.7441
▁부모님	-9.74464
이야	-9.74502
▁확인됐다	-9.74507
▁휴가	-9.74574
▁겪고	-9.74596
▁봐	-9.7461
▁차관	-9.74655
▁간담회	-9.74767
무	-9.74823
공원	-9.74825
▁질병	-9.74852
▁충남	-9.74864
▁기소	-9.74888
▁난민	-9.74955
▁받아야	-9.7509
▁나갈	-9.75142
▁좋지	-9.75188
▁점수	-9.75336
▁와서	-9.75436
▁가능합니다	-9.75445
▁병	-9.75509
▁개편	-9.75694
▁이행	-9.75728
패	-9.75739
▁힘들	-9.75795
▁살아	-9.75836
▁기부	-9.75851
▁잠시	-9.75852
▁보낸	-9.75973
▁현황	-9.76087
▁애	-9.76089
▁참여할	-9.76102
▁고객들	-9.76121
이었던	-9.76157
▁시위	-9.76197
▁가야	-9.76249
▁기타	-9.76259
▁민원	-9.76262
▁많	-9.76267
▁일상	-9.763
▁당연	-9.76337
▁건립	-9.76395
설	-9.76413
▁입고	-9.76439
▁핵	-9.76441
▁전원	-9.76566
▁혹은	-9.76595
▁재산	-9.76626
▁초청	-9.76629
▁경제적	-9.7665
▁일찍	-9.76668
▁그린	-9.76745
▁부총리	-9.76764
▁말레이시아	-9.76773
▁시청자들	-9.76818
▁노력하여야	-9.76831
▁리	-9.76882
▁그런데	-9.76885
▁해소	-9.76918
▁흐름	-9.77018
S	-9.77048
▁대체	-9.77099
▁주차장	-9.77112
타	-9.77152
▁롯데	-9.77189
▁인정하는	-9.77205
▁떨어진	-9.77258
하려면	-9.77272
▁의료	-9.77316
▁필리핀	-9.77355
▁그러면	-9.77402
▁직장	-9.77414
▁새롭	-9.77474
▁하늘	-9.77479
▁하나요	-9.77528
▁유출	-9.77548
▁늘고	-9.77563
▁문서	-9.77618
▁자산	-9.77659
▁권한	-9.77669
입니까	-9.77766
▁재난	-9.77784
▁강원	-9.77817
▁않았	-9.7787
사진	-9.77959
▁어린	-9.78102
▁그간	-9.7816
▁통과	-9.78205
▁유사	-9.78268
▁필요하다는	-9.78381
▁알려져	-9.78385
▁연출	-9.78429
▁터키	-9.7843
▁2008	-9.78465
▁참여해	-9.78494
업계	-9.785
거리	-9.78527
▁기계	-9.78596
▁정권	-9.78604
▁수원	-9.7861
▁정신	-9.78639
▁본격	-9.78764
▁고등학교	-9.78999
▁채널	-9.79067
▁접근	-9.79166
편	-9.79202
점점	-9.7922
▁보상	-9.79399
▁할머니	-9.79412
▁폼페이오	-9.79443
행사	-9.79459
▁의식	-9.79475
▁교	-9.79486
▁반발	-9.79544
했으나	-9.79644
불	-9.79716
▁악화	-9.79762
▁중단	-9.79785
값	-9.79944
▁소상공인	-9.79945
▁교육청	-9.79997
단계	-9.80009
▁했는데	-9.80046
▁사업장	-9.80074
▁시설물	-9.80094
▁잡고	-9.80144
▁영역	-9.80195
▁의심	-9.8027
자의	-9.80273
▁만남	-9.8032
결과	-9.80349
▁이어질	-9.80371
▁스타	-9.80388
▁다리	-9.80464
▁납부	-9.80504
▁자문	-9.80519
두	-9.80555
▁수정	-9.80789
▁80	-9.80881
경기도	-9.81016
남	-9.8107
▁국토교통부	-9.81114
▁송	-9.81163
▁실시한	-9.81182
▁쓰는	-9.81188
어야	-9.81227
▁가면	-9.8123
대상	-9.81252
카드	-9.81323
갈	-9.81354
▁불안	-9.81371
▁끌고	-9.81427
▁광주시	-9.81429
일간	-9.81436
▁좋	-9.81451
▁먹	-9.81454
▁예측	-9.81544
곤	-9.81686
▁건축물	-9.81723
▁소유	-9.81723
▁출석	-9.81761
른바	-9.81769
▁포함된	-9.81935
▁감	-9.81946
▁실험	-9.81953
▁비밀	-9.81963
▁멋	-9.82037
프	-9.82055
▁재미있	-9.82071
▁정한다	-9.82122
▁공원	-9.82122
▁울산	-9.82142
▁떨어져	-9.82164
▁최소	-9.82176
▁그만큼	-9.82196
▁포인트	-9.82197
▁분석했다	-9.82346
▁기획	-9.82347
더라도	-9.82385
▁문자	-9.82388
▁보조	-9.82436
▁면접	-9.82519
움	-9.82622
▁곡	-9.82654
▁맛있	-9.82762
▁국회의원	-9.82836
▁급격	-9.82863
칠	-9.82885
▁단속	-9.82928
▁수집	-9.82978
하겠다	-9.83004
▁생각해요	-9.83044
▁사과	-9.83182
▁가방	-9.83189
▁번호	-9.8324
▁철도	-9.83243
▁비즈니스	-9.83257
▁네트워크	-9.83287
▁것이라	-9.833
▁신속	-9.83334
채	-9.83424
끄는	-9.83464
상황	-9.83474
▁고려해	-9.83708
▁대폭	-9.83708
▁오른	-9.83756
▁굉장	-9.83768
▁나중	-9.83939
▁누	-9.83957
▁바닥	-9.83974
▁실내	-9.83996
하려고	-9.84042
▁진짜	-9.84057
▁대북	-9.84059
▁맞춤형	-9.84083
▁졸업	-9.84127
▁예전	-9.84193
▁누가	-9.84199
▁자동	-9.84209
▁당부했	-9.84228
▁들었다	-9.84233
▁이어지고	-9.84238
▁스타트업	-9.84266
대한	-9.84293
▁식	-9.84393
▁상처	-9.84401
▁스트레스	-9.84478
▁않기	-9.84595
▁대거	-9.84629
▁강의	-9.84704
▁압박	-9.84723
차례	-9.84837
▁공모	-9.84842
정부의	-9.84846
▁하여	-9.8498
▁않게	-9.85006
▁구글	-9.85037
▁아시안게임	-9.85049
▁표시	-9.85183
▁구분	-9.85248
▁연구원	-9.85295
TV	-9.85362
▁토지	-9.85368
▁못할	-9.85376
▁절대	-9.85377
▁선박	-9.85382
▁활용한	-9.85385
단지	-9.85396
바	-9.85428
▁중간	-9.85475
▁커지	-9.85539
▁도심	-9.85542
▁통일	-9.85563
▁신문	-9.85598
▁행정부	-9.85672
▁결	-9.85712
▁샘플	-9.85739
▁동기	-9.85745
▁미술	-9.85746
비용	-9.85947
▁인원	-9.8596
▁국민연금	-9.85976
▁과태료	-9.85987
처	-9.86011
예요	-9.86101
▁지하	-9.86131
▁징계	-9.86286
▁징수	-9.86328
▁파악	-9.86355
▁식품	-9.86371
대가	-9.86535
니까	-9.86542
▁사업자	-9.8659
▁안팎	-9.86596
▁덜	-9.8662
대표	-9.86655
▁주목된다	-9.8666
▁검증	-9.8667
▁암호화폐	-9.86741
▁늘어난	-9.86869
▁했던	-9.86938
▁통계	-9.86939
▁인천광역시	-9.86946
▁이어졌다	-9.86949
▁깊은	-9.86951
▁이뤄질	-9.87
▁상호	-9.87042
▁지점	-9.87176
▁150	-9.87187
▁업체들	-9.87207
▁폐지	-9.87235
▁실현	-9.87279
▁매체	-9.87294
▁취임	-9.87366
▁명확	-9.87589
▁카카오	-9.87741
훈	-9.87752
▁국토부	-9.8779
▁당초	-9.87793
▁지구	-9.87814
▁손흥민	-9.87829
▁섬	-9.87859
간의	-9.88005
김	-9.88092
▁임직원	-9.88126
▁미치는	-9.88165
▁도착	-9.88199
▁해제	-9.88383
▁있으니	-9.88405
▁단축	-9.8841
드리겠습니다	-9.88437
▁악	-9.88443
▁기대한다	-9.88456
▁여성들	-9.88474
▁가능	-9.88475
▁손님	-9.885
등급	-9.88564
포	-9.88595
▁진화	-9.88656
▁좋겠다	-9.88669
▁고통	-9.88682
▁집회	-9.88732
▁연말	-9.88768
▁표	-9.88799
▁투입	-9.88808
▁내리	-9.88996
▁도전	-9.89011
▁대기	-9.89027
▁당일	-9.8905
▁유엔	-9.89054
▁뉴스	-9.89146
▁임원	-9.89224
▁덕분	-9.89268
▁진입	-9.89285
▁일어나	-9.89312
▁농업	-9.89371
▁스타일	-9.89443
「	-9.89486
▁그리	-9.89506
▁숨진	-9.8956
▁진정	-9.89642
▁않았습니다	-9.8971
호선	-9.89765
▁산불	-9.898
▁동네	-9.89846
▁부인	-9.89938
▁총장	-9.90041
▁추석	-9.90075
▁마치고	-9.90085
t	-9.90121
▁쓰고	-9.90263
▁암	-9.90385
▁로봇	-9.9048
봉	-9.90504
▁생각한다	-9.9051
▁표정	-9.90616
▁여의도	-9.90649
▁좋을	-9.90665
▁전용	-9.90692
▁진행한다	-9.90722
▁확인해	-9.9075
▁대선	-9.90751
▁선고	-9.90778
▁풍부	-9.90779
▁대상자	-9.90796
목	-9.90828
▁C	-9.90897
▁인공지능	-9.90997
▁올랐다	-9.91058
▁내고	-9.91174
▁변동	-9.91177
환	-9.91213
▁연극	-9.91246
▁장치	-9.91281
▁민	-9.91285
▁풀	-9.91287
통	-9.91296
이어서	-9.91456
▁확장	-9.91499
▁G	-9.9151
▁있으나	-9.91573
품	-9.91635
▁보이지	-9.91681
▁하겠다	-9.91695
▁정한	-9.91717
협의회	-9.91738
▁정원	-9.91775
▁마치	-9.91793
▁종료	-9.91802
▁없어서	-9.91808
▁높아지고	-9.91842
▁쓰레기	-9.91856
하지만	-9.91867
▁주거	-9.91906
▁비난	-9.91911
▁10%	-9.91937
▁완벽	-9.9196
K	-9.92017
▁수비	-9.92036
▁잇따	-9.92073
▁불만	-9.92076
▁색	-9.92092
▁만족	-9.92132
▁화면	-9.92194
▁떠나	-9.92208
▁생태계	-9.92222
▁들어서	-9.92273
당국	-9.92357
▁정비	-9.92362
▁수상	-9.92367
▁이어지는	-9.92378
▁자신들	-9.92392
▁쓸	-9.92553
▁더불어	-9.92592
다면	-9.92604
▁있었지만	-9.92613
▁받기	-9.92615
!	-9.92656
▁댓글	-9.92662
겐	-9.92679
▁수당	-9.92693
▁하되	-9.92705
양	-9.92734
▁배출	-9.92757
▁직전	-9.928
▁티켓	-9.92813
▁해상	-9.9305
▁면	-9.931
측	-9.93126
▁관련하여	-9.93147
▁초과	-9.93218
▁초등학교	-9.93263
▁분양	-9.93359
▁설치된	-9.93359
▁방침	-9.9336
cm	-9.93361
▁학부모	-9.93378
▁될까	-9.93398
▁박근혜	-9.93418
▁군사	-9.9345
이면	-9.93454
▁삼	-9.93554
▁나오	-9.9359
▁체계	-9.93651
▁‘2018	-9.93654
▁백악관	-9.9371
▁주도	-9.93733
▁기상청	-9.93768
▁느낄	-9.9381
▁캠페인	-9.93815
▁진행되는	-9.93838
▁커뮤니티	-9.93885
능력	-9.93897
▁낼	-9.93928
▁연습	-9.93965
▁결론	-9.93993
▁사안	-9.94001
▁감동	-9.94113
▁여권	-9.94148
▁활용해	-9.94176
▁장애	-9.94216
▁과	-9.94249
가격	-9.94292
▁보험	-9.94343
순	-9.94421
▁가슴	-9.94622
▁변	-9.94668
▁2009	-9.94705
▁과목	-9.94716
▁왕	-9.94764
▁틀	-9.94831
되기	-9.94836
▁뜨거운	-9.94849
▁따뜻한	-9.94876
▁어깨	-9.94958
▁향한	-9.95116
▁추억	-9.95118
▁춤	-9.95141
긍정적인	-9.95144
▁하자	-9.95168
감독	-9.95207
▁운용	-9.95229
▁마찬가지	-9.95317
▁시범	-9.95347
▁재료	-9.95363
▁적지	-9.95369
▁화	-9.95411
▁부당	-9.9545
▁주차	-9.95466
▁안정	-9.95483
▁가량	-9.95573
▁IT	-9.95574
▁계산	-9.95585
▁만날	-9.95685
▁전역	-9.95789
▁참가자들	-9.95867
▁불러	-9.9595
▁멤버들	-9.9601
▁차지했다	-9.9609
▁앉아	-9.96132
▁본사	-9.96214
▁올린	-9.96239
▁높아	-9.96247
성과	-9.96289
▁둔다	-9.96449
▁평가했다	-9.96519
▁심리	-9.96592
▁점차	-9.96626
유	-9.96649
▁확정	-9.96666
▁여건	-9.96681
▁목숨	-9.96709
▁이탈리아	-9.96794
▁성공적	-9.9686
▁1000	-9.969
▁대법원장	-9.97064
▁빠진	-9.97086
▁데뷔	-9.97142
20	-9.97219
록	-9.97257
▁반환	-9.97289
▁이목	-9.97297
▁이용한	-9.97312
즈	-9.9737
▁농가	-9.97383
▁모임	-9.97389
피	-9.97415
▁90	-9.97448
▁통해서	-9.97449
열	-9.97465
▁안전한	-9.97538
받을	-9.97552
행	-9.97552
는지	-9.97553
라면	-9.97673
자금	-9.97677
▁그게	-9.97679
▁집단	-9.97723
▁판	-9.97726
▁어려울	-9.97736
▁나아가	-9.97739
▁풀이된다	-9.97759
근	-9.97771
▁과학	-9.97781
▁마친	-9.978
▁달하는	-9.97819
▁자원	-9.97928
▁S	-9.9795
현장	-9.9799
▁같은데	-9.98023
▁충북	-9.98059
▁산하	-9.98112
▁CCTV	-9.98142
▁맞지	-9.98145
▁지역사회	-9.9817
있다	-9.98174
▁주인공	-9.98205
방식	-9.98223
▁화장실	-9.98241
▁개념	-9.98284
▁대학교	-9.98501
▁단독	-9.98541
▁도와	-9.98601
짝	-9.98608
▁쌀	-9.98629
▁평	-9.98637
▁여당	-9.98746
▁백	-9.98746
▁싶은데	-9.98827
관련	-9.98828
미국	-9.98907
▁잔	-9.98921
▁공동주택	-9.98954
▁구속영장	-9.98964
▁상장	-9.99021
학	-9.99031
▁관내	-9.99071
▁호응	-9.99243
죠	-9.99264
교회	-9.9939
▁선정됐다	-9.99423
▁패션	-9.99469
▁공정위	-9.99475
▁성인	-9.99577
▁박물관	-9.99629
▁준다	-9.99631
▁문제점	-9.99659
▁끝나	-9.99672
▁연휴	-9.99681
▁차별	-9.99703
▁폭력	-9.99717
번째	-9.99817
▁의도	-9.99833
▁담겨	-9.99897
▁보급	-9.99918
▁진행하는	-9.99924
령	-9.99995
▁인재	-10.0003
▁얻고	-10.0008
▁출산	-10.0008
▁품목	-10.0009
▁질환	-10.0015
▁점심	-10.0016
▁죽음	-10.0018
▁시책	-10.0023
매	-10.0023
▁이재명	-10.0024
▁몽골	-10.0025
▁실수	-10.0027
▁생긴	-10.0031
▁사기	-10.0034
▁둔	-10.0035
▁파티	-10.0056
과장	-10.0064
▁주최	-10.0067
▁편지	-10.007
공사	-10.0076
각	-10.0082
▁전자	-10.0084
▁별로	-10.0095
▁반영	-10.0097
▁놀라	-10.0097
규	-10.0098
▁답	-10.0101
▁탈	-10.0109
▁올림픽	-10.0112
▁아빠	-10.0113
▁이용하는	-10.0118
▁방탄소년단	-10.0131
▁신호	-10.0132
▁테스트	-10.0134
▁현대차	-10.0135
▁보유한	-10.0137
▁담당자	-10.0139
▁열차	-10.014
▁개별	-10.0146
▁주의	-10.0152
▁AI	-10.0156
▁정리	-10.0169
▁시내	-10.0174
▁관람	-10.0177
시키는	-10.0178
▁청소년들	-10.0181
▁달성	-10.0185
▁개의	-10.0186
공간	-10.0188
▁에	-10.0188
▁방문한	-10.0194
▁생각하는	-10.0194
▁월요일	-10.0196
▁완료	-10.0197
▁관	-10.0207
▁그렇지	-10.0208
▁장르	-10.0212
▁이사	-10.0215
▁실시한다	-10.0218
▁죄송합니다	-10.022
▁이중	-10.0221
▁사업비	-10.0222
▁제공하고	-10.0227
▁폭발	-10.0231
▁대중	-10.0232
돼야	-10.0236
측이	-10.0236
▁초대	-10.0237
▁긍정적	-10.0238
▁치열	-10.0245
대학교	-10.0246
▁날짜	-10.0249
▁놀이	-10.0256
▁구입	-10.026
▁공기	-10.026
▁2020	-10.0262
▁가졌다	-10.0271
▁기독교	-10.0272
▁엄청	-10.0274
▁인하	-10.0275
▁형성	-10.0283
▁어린이들	-10.0285
크	-10.0288
▁대학생	-10.0291
한다면	-10.0304
▁진행할	-10.0307
▁수능	-10.0313
▁초반	-10.0313
mm	-10.0317
▁성폭력	-10.0317
효과	-10.032
달	-10.0327
▁쓰	-10.0346
▁보완	-10.0348
▁법무부	-10.0349
▁전공	-10.0353
▁수치	-10.0359
▁허용	-10.0363
레	-10.0372
▁개입	-10.0372
▁공개했다	-10.0377
교	-10.0395
▁교환	-10.04
▁붙	-10.04
▁했다는	-10.0402
▁박스	-10.0404
▁1,000	-10.0407
▁투자자들	-10.0412
▁급	-10.0415
▁실행	-10.0429
▁특징이	-10.0431
▁부지	-10.0432
기구	-10.0433
▁재미	-10.0433
▁강제	-10.0435
▁부처	-10.0439
▁참여했다	-10.0439
▁청소	-10.044
▁대안	-10.044
▁각자	-10.044
▁알려주세요	-10.0442
▁찾기	-10.0444
▁생	-10.0444
▁시청	-10.0446
회사	-10.0449
▁지위	-10.0449
▁증가한	-10.0451
▁제공한다	-10.0457
검사	-10.0457
▁코	-10.0463
상당히	-10.0465
백	-10.0466
▁화웨이	-10.0467
시면	-10.0472
▁늦게	-10.0474
▁실패	-10.048
▁아이돌	-10.0484
▁연계	-10.0487
▁커	-10.0488
▁않아도	-10.0496
▁하였다	-10.0503
재단	-10.0506
▁설정	-10.051
▁입지	-10.0516
▁거래소	-10.0518
▁아는	-10.0518
▁자는	-10.0519
주시기	-10.0521
▁빚	-10.0527
▁이뤄졌다	-10.0531
▁실무	-10.0536
▁작성하여	-10.0541
▁말하는	-10.0542
▁재개	-10.0542
▁30%	-10.0543
금액	-10.0545
▁멀리	-10.0556
▁트위터	-10.0558
▁쇼핑	-10.0565
▁국민의	-10.0567
▁고려하여	-10.0572
▁위주	-10.0573
▁웃음	-10.0574
스포츠	-10.0581
▁신발	-10.0582
여야	-10.0584
▁아티스트	-10.0585
▁선정된	-10.0586
▁신청서	-10.0589
연구소	-10.0592
은행	-10.0596
▁당사자	-10.06
▁확인하고	-10.0601
▁값	-10.0603
▁모아	-10.0607
▁조사한	-10.0607
▁추진할	-10.0611
▁찾아가	-10.0617
▁아기	-10.0619
▁따라서	-10.0619
▁화려	-10.0625
▁봤	-10.0632
른	-10.0633
▁매입	-10.0635
▁형식	-10.064
▁왼쪽	-10.0644
▁증진	-10.0645
▁M	-10.0647
겠다	-10.0649
▁발송	-10.0652
▁생일	-10.0653
낸	-10.0663
▁KT	-10.0665
12	-10.0669
▁기획재정부	-10.0671
▁담겼다	-10.0674
▁물량	-10.0678
▁벗어나	-10.0683
▁진행됐다	-10.0694
공장	-10.0696
▁답했다	-10.0704
▁프리미엄	-10.0706
▁곳이다	-10.0708
▁내렸다	-10.071
▁검색	-10.072
달라고	-10.0721
▁전북	-10.0737
님	-10.074
▁지역주민	-10.0741
▁맞게	-10.0742
▁협업	-10.0752
▁응	-10.0754
▁보장	-10.0757
▁임시	-10.0761
▁아니면	-10.0765
토	-10.0768
▁했고	-10.0772
▁유리	-10.0773
▁내다봤	-10.0775
▁행복한	-10.0786
▁박람회	-10.0787
래	-10.0796
▁의문	-10.0798
왔습니다	-10.0805
▁달라	-10.0806
▁노원구	-10.0807
▁충돌	-10.0815
▁진행될	-10.0816
호의	-10.0818
▁적어	-10.0822
려면	-10.0822
▁조사됐다	-10.0823
▁성향	-10.0824
▁도중	-10.0826
▁자본	-10.0826
▁명절	-10.0827
▁네이버	-10.0827
▁증가했다	-10.0828
건의	-10.0829
▁사이즈	-10.0838
▁가동	-10.0839
사회	-10.0842
노	-10.0846
▁수학	-10.0847
▁아마	-10.0848
▁제조업	-10.0849
북한	-10.0851
▁배달	-10.0857
21	-10.0858
▁발행	-10.0858
하다가	-10.0859
▁경력	-10.0865
작업	-10.0868
▁여성의	-10.0874
▁재단	-10.0876
▁20%	-10.0877
껏	-10.0886
▁아닙니다	-10.0907
지구	-10.0907
▁자유롭	-10.0908
▁마이크	-10.091
▁주관	-10.0913
장의	-10.0913
▁문의	-10.0916
▁전망된다	-10.0917
바로	-10.0918
▁지출	-10.0918
▁조처	-10.0919
▁행보	-10.092
▁열었다	-10.092
처리	-10.0923
방법	-10.0928
▁좋습니다	-10.0929
▁부산시	-10.0939
▁추진하고	-10.0943
▁눈물	-10.0944
▁말해	-10.0947
홀	-10.0949
▁긴	-10.095
더니	-10.0957
▁오픈	-10.0961
억달러	-10.0978
▁구성원	-10.0979
▁남녀	-10.098
▁돌아가	-10.0985
▁사용료	-10.0987
▁경계	-10.0995
앞	-10.1
▁발급	-10.1003
▁축하	-10.1005
▁여유	-10.1009
조치	-10.102
▁핸드폰	-10.1025
▁둔화	-10.1035
색	-10.1035
▁전반적	-10.1038
▁독특	-10.1044
▁양성	-10.1048
▁진료	-10.1051
▁인수	-10.1052
버스	-10.1059
▁토요일	-10.1066
려는	-10.1068
림	-10.107
▁위로	-10.1072
▁맺	-10.1073
▁동아리	-10.1092
▁배치	-10.1093
▁편성	-10.1095
▁애플	-10.1102
▁하는지	-10.111
▁있었고	-10.1114
▁출범	-10.1119
립니다	-10.1121
▁정식	-10.1122
▁강조	-10.1123
▁보이	-10.1125
▁이웃	-10.1127
▁간단	-10.1134
▁고향	-10.1135
▁꽤	-10.114
▁체계적	-10.1143
▁동장	-10.1145
▁서면	-10.1158
▁올라	-10.1159
▁휴대폰	-10.1161
▁당분간	-10.1161
▁약간	-10.1161
티	-10.1164
▁영향력	-10.1165
▁모르는	-10.1166
▁넣어	-10.1167
15	-10.1169
됐던	-10.117
▁없지만	-10.1179
▁표창	-10.1181
▁아베	-10.1182
▁발달	-10.1184
시즌	-10.1185
체계	-10.1187
▁구단	-10.1195
▁상상	-10.1199
▁금요일	-10.1205
▁훌륭	-10.1211
▁오른쪽	-10.1218
▁늘었다	-10.1221
▁복귀	-10.1225
▁금지	-10.1227
▁접	-10.1229
▁정착	-10.1236
▁응답	-10.1247
공단	-10.125
▁마리	-10.1255
▁감면	-10.1257
▁매주	-10.126
▁첨부	-10.1261
▁신분	-10.1262
내용	-10.1262
▁테니	-10.1268
▁재고	-10.127
▁뛰어난	-10.1271
여개	-10.1275
▁사용한	-10.1278
▁않았지만	-10.1279
▁짧은	-10.1287
▁불리는	-10.1291
자는	-10.1291
▁높았다	-10.1292
▁냄새	-10.1293
제품	-10.1294
▁않지만	-10.13
▁명칭	-10.1301
찬	-10.1301
▁매각	-10.1302
▁신설	-10.1307
▁주인	-10.131
▁이때	-10.131
▁돌파	-10.1311
▁올렸다	-10.1311
▁한화	-10.1315
를	-10.132
가량	-10.1322
▁강도	-10.1332
▁출전	-10.1334
곡	-10.1341
▁거에요	-10.135
▁파견	-10.1352
▁주기	-10.136
▁계정	-10.1363
▁준용	-10.1363
▁신체	-10.1366
상의	-10.1367
이라면	-10.137
과연	-10.1377
▁제출한	-10.1381
▁촉진	-10.1389
▁절	-10.1393
▁둘러싼	-10.1396
▁무엇인지	-10.1402
▁수리	-10.1402
▁너희	-10.1404
▁대법관	-10.1405
▁개방	-10.1406
폭	-10.1409
▁자연스럽	-10.1413
▁어렵	-10.1413
▁마약	-10.1416
▁혼란	-10.1418
방안	-10.1419
▁말한	-10.1428
▁집값	-10.1434
▁전액	-10.1435
▁시행규칙	-10.1443
▁형	-10.1445
의회	-10.1447
:	-10.1448
▁회계	-10.1449
시험	-10.1454
▁증가하고	-10.1454
▁선임	-10.1455
▁크고	-10.1458
▁펀드	-10.1458
▁열기	-10.1462
▁맥주	-10.1463
▁조언	-10.1464
▁형사	-10.147
하다	-10.1475
▁봤다	-10.1475
▁응원	-10.1476
으나	-10.1478
▁제목	-10.1479
사의	-10.1492
▁지체	-10.1496
▁확인한	-10.1501
▁측정	-10.1501
▁관할	-10.1503
토록	-10.1504
바에	-10.1515
▁부위	-10.1515
▁오랫	-10.152
▁백화점	-10.152
▁열릴	-10.1525
▁통증	-10.1525
▁서명	-10.1525
▁첨단	-10.153
▁나설	-10.1533
▁다수의	-10.1533
▁누군가	-10.1545
▁확실	-10.1546
▁정체	-10.1553
▁존	-10.1555
▁짐	-10.1559
▁배터리	-10.1562
▁비판했다	-10.1563
▁실천	-10.1563
▁외교부	-10.1564
▁번역	-10.1567
▁고양이	-10.1571
▁전기차	-10.1572
▁써	-10.1575
▁않을까	-10.1575
▁세부	-10.158
▁뮤지컬	-10.1582
경제	-10.1585
▁단장	-10.1585
▁이르는	-10.1592
▁갔다	-10.1595
▁개성	-10.1597
▁면제	-10.1598
▁지연	-10.1599
▁종로구	-10.1605
▁지방선거	-10.161
▁뿌리	-10.1611
▁가입자	-10.1616
▁입법	-10.1618
▁연예인	-10.1619
▁강연	-10.1621
창	-10.1622
▁밑	-10.1623
▁캠프	-10.1624
▁내린	-10.1625
▁균형	-10.1628
▁45	-10.1631
▁거부	-10.1632
▁들어간	-10.1633
▁대사	-10.1634
▁입학	-10.1639
▁통보	-10.1642
▁왜냐하면	-10.1652
▁그렇다면	-10.1655
▁국	-10.1656
▁즐거운	-10.1657
13	-10.166
▁합동	-10.1672
▁수석	-10.1674
▁아니한	-10.1675
▁열정	-10.1678
▁통제	-10.168
▁예상되는	-10.1681
▁일하는	-10.1683
▁찾을	-10.1684
▁조명	-10.1685
▁물질	-10.1685
▁보낼	-10.1685
대학	-10.1687
▁각국	-10.1689
▁북측	-10.169
▁징역	-10.1691
▁지휘	-10.1692
▁벌금	-10.1702
▁대가	-10.1706
▁판단했다	-10.1707
▁프로	-10.1709
▁공약	-10.1717
▁R	-10.1718
▁절감	-10.1726
▁화가	-10.173
▁잊	-10.1736
▁수단	-10.1737
구조	-10.1756
생활	-10.1757
▁시정	-10.176
사고	-10.1763
이상	-10.1763
▁방지	-10.1767
▁권력	-10.1768
▁배우들	-10.1771
▁단어	-10.1779
▁휴식	-10.1779
축제	-10.1784
▁마세요	-10.1786
▁얻을	-10.1787
▁침체	-10.1801
▁라인	-10.1802
▁판정	-10.181
▁하노이	-10.1814
▁특별히	-10.1818
▁복구	-10.1823
▁만나는	-10.1824
▁보유	-10.1824
담	-10.1828
▁총선	-10.1828
▁옛	-10.1832
▁현행	-10.1834
▁입구	-10.1837
19	-10.1838
▁야외	-10.1841
▁잃	-10.1842
▁치	-10.1843
▁빠져	-10.1851
▁담배	-10.1851
▁이른	-10.1855
▁받았습니다	-10.1856
▁성분	-10.1861
▁후원	-10.1862
릅니	-10.1868
▁차지하	-10.1869
위원장	-10.1871
▁일반인	-10.1877
▁알아	-10.1878
▁35	-10.1882
시켜	-10.1884
▁기록한	-10.1886
▁조작	-10.1887
▁허위	-10.1888
▁조사하고	-10.1889
나마	-10.189
▁광장	-10.1891
▁폐기물	-10.1892
▁천안	-10.1893
주셔서	-10.1893
▁현안	-10.1894
▁자국	-10.1894
▁부정	-10.1898
▁넘치	-10.1902
▁자영업자	-10.1911
▁농촌	-10.1916
힐	-10.1917
]	-10.192
▁없으면	-10.1923
▁분석된다	-10.1924
▁워싱턴	-10.1925
▁환불	-10.1927
▁경쟁률	-10.1929
연구원	-10.1931
▁쏠리	-10.1931
▁일각	-10.1943
▁진행되고	-10.1943
▁개인정보	-10.1943
▁무게	-10.1946
락	-10.1947
▁코치	-10.1948
▁판사	-10.1953
▁늘어나고	-10.1955
▁투수	-10.1956
▁발생해	-10.196
개발	-10.1963
▁노출	-10.1973
▁체제	-10.1974
▁찾고	-10.1975
▁공감	-10.1978
▁새해	-10.1979
코리아	-10.1987
▁노사	-10.1992
▁와	-10.1992
▁기본적	-10.1994
▁숲	-10.1996
▁지원한다	-10.2
▁컨설팅	-10.2008
▁만들었다	-10.2012
로운	-10.2019
았던	-10.202
▁미중	-10.2027
▁기도	-10.203
▁편의점	-10.203
▁기자들	-10.2033
▁보존	-10.2039
▁진실	-10.204
▁광	-10.2041
▁찬성	-10.2042
▁정규	-10.2043
▁바꿔	-10.2043
▁죄송하지만	-10.2048
▁세종	-10.2048
▁성폭행	-10.2057
▁흔적	-10.2058
▁2007	-10.206
구역	-10.206
▁쉬운	-10.2066
▁온도	-10.2069
▁수량	-10.2071
공	-10.2072
▁지역경제	-10.2075
▁불과	-10.2078
▁많고	-10.2079
실적	-10.2079
여서	-10.208
▁기술력	-10.2081
건설	-10.2082
시킨	-10.2084
▁자격증	-10.2086
희	-10.2086
▁포상	-10.2087
P	-10.2093
▁빅데이터	-10.2093
▁직	-10.2093
▁아이템	-10.2099
▁중요성	-10.21
▁진심	-10.21
▁공포	-10.21
빈	-10.2102
▁이틀	-10.2103
▁기대하	-10.2107
극	-10.2109
▁벽	-10.2111
▁소장	-10.2112
▁생존	-10.2115
▁일요일	-10.2115
여부	-10.2118
▁쇼	-10.2123
▁빈	-10.213
▁냈다	-10.2134
▁거듭	-10.2134
▁공개한	-10.2138
▁충전	-10.214
▁예비	-10.2141
▁창	-10.2144
아예	-10.2144
▁국립	-10.2151
▁33	-10.2153
원장	-10.2155
▁개통	-10.2158
▁동료	-10.2163
▁방북	-10.2163
▁입시	-10.2164
▁받는다	-10.2176
▁종이	-10.2178
▁지도자	-10.218
▁읽	-10.2181
▁박사	-10.2182
▁간부	-10.2186
했는지	-10.2187
▁과장	-10.2193
R	-10.2194
경찰서	-10.2196
▁정치권	-10.22
▁압수수색	-10.2201
▁손해	-10.2211
▁지난주	-10.2212
▁아마존	-10.2222
▁신선	-10.2225
▁세월호	-10.2225
되	-10.2227
본부	-10.2234
▁진로	-10.2237
14	-10.2241
▁경위	-10.2243
▁한식	-10.2248
▁세미나	-10.225
중국	-10.2252
▁추락	-10.2254
▁수행할	-10.2255
▁거대	-10.2258
방송	-10.2258
▁단원	-10.2259
▁음료	-10.2259
주택	-10.2259
대로	-10.2261
▁청	-10.2274
평가	-10.2281
▁넣	-10.2281
▁상위	-10.2283
균	-10.2284
▁120	-10.2286
▁야당	-10.229
▁전통시장	-10.2293
▁관람객	-10.2296
▁세력	-10.2298
▁맡아	-10.2304
▁조화	-10.2305
▁좋겠어	-10.2312
▁마감	-10.2313
▁궁금증	-10.2318
▁장이	-10.232
▁대표이사	-10.2321
▁구상	-10.2322
▁통보하여야	-10.2326
▁최신	-10.2327
▁급여	-10.2332
▁금융당국	-10.2334
▁사업의	-10.2335
▁저렴한	-10.2335
▁뭔가	-10.2343
▁막기	-10.2344
s	-10.2346
▁지닌	-10.2349
▁성별	-10.2351
▁위촉한다	-10.2352
▁노후	-10.2352
e	-10.2354
▁무기	-10.2354
▁보내고	-10.2379
▁신임	-10.2381
▁시신	-10.2382
▁출발	-10.2382
」(	-10.2389
▁접촉	-10.239
▁언급	-10.2393
▁관해	-10.2397
▁저번	-10.2401
▁투자가	-10.2404
▁회	-10.2405
도로	-10.2412
▁건전	-10.2413
▁사랑하는	-10.2413
▁준공	-10.2416
▁서울대	-10.242
▁의뢰	-10.2421
턴	-10.2425
▁주석	-10.2428
▁유해	-10.2429
▁베이징	-10.2436
▁문화예술	-10.2437
▁유력	-10.2439
▁선적	-10.244
▁진행하고	-10.2443
▁트렌드	-10.2445
▁경향	-10.2451
▁강좌	-10.2453
▁D	-10.2454
▁산업혁명	-10.2458
▁훼손	-10.2459
▁예능	-10.2459
회장	-10.246
▁부스	-10.2461
▁몇몇	-10.2461
▁휴대전화	-10.2468
▁제기된	-10.2469
▁제거	-10.2472
▁북미정상회담	-10.2474
▁가능할	-10.2476
▁다음달	-10.2477
▁개막	-10.2483
▁공고	-10.249
▁드러나	-10.2502
▁연임	-10.2502
▁400	-10.2502
▁통신원	-10.2505
▁출입	-10.2505
▁비리	-10.251
이던	-10.2512
상품	-10.2519
▁지원금	-10.2521
▁자가	-10.2524
24	-10.2524
▁특수	-10.2529
▁회원들	-10.2536
▁고급	-10.2543
▁돼요	-10.2544
▁이래	-10.2546
▁문구	-10.2552
▁지정된	-10.2555
▁수십	-10.2558
▁진행한	-10.2558
▁칼	-10.2566
상태	-10.2576
▁미군	-10.2579
▁이끌	-10.2581
▁타격	-10.2583
스러운	-10.2583
▁용기	-10.2584
프로그램	-10.2584
▁가끔	-10.2596
▁문학	-10.2603
▁젊은이들	-10.2605
M	-10.2606
▁있었는데	-10.2611
▁밝히	-10.2615
▁강릉	-10.2618
▁보유하고	-10.2618
▁덕	-10.2631
▁기다리고	-10.2633
▁도쿄	-10.2633
▁명단	-10.2636
▁진전	-10.2653
사가	-10.2657
▁경기도의	-10.2658
25	-10.2661
▁북부	-10.2662
▁침해	-10.2669
▁소설	-10.267
▁상영	-10.2671
▁분석한	-10.2675
▁특허	-10.2677
▁포	-10.2678
▁조각	-10.2685
▁우주	-10.2693
▁걸려	-10.2696
▁폐기	-10.2709
▁김치	-10.2709
지도	-10.2715
▁언제든	-10.2716
▁조항	-10.2718
▁전개	-10.2722
▁설명이	-10.2727
▁톰	-10.2734
전자	-10.2738
▁쇼핑몰	-10.2739
▁하던	-10.2741
B	-10.2744
▁임신	-10.2749
왔다	-10.2751
▁색상	-10.2752
▁동일	-10.2754
소득	-10.2754
▁반려동물	-10.2756
▁고장	-10.2756
▁투자자	-10.2757
▁충분한	-10.276
▁사용하고	-10.2763
▁벌이고	-10.2764
▁제시	-10.2764
▁편의	-10.2765
▁제기되	-10.2766
▁나눠	-10.2768
▁워크숍	-10.2769
▁홈	-10.2771
▁가기	-10.2772
▁이밖	-10.2774
▁32	-10.2776
줍니	-10.2777
▁발견됐다	-10.2779
▁운영한다	-10.278
도지사	-10.2783
▁올려	-10.2783
▁가스	-10.2785
위원	-10.2794
술	-10.2795
▁시민단체	-10.2797
▁설명회	-10.2808
▁농산물	-10.2811
증권	-10.2812
▁정의당	-10.2822
▁차지	-10.2823
▁관광지	-10.2823
▁상가	-10.2832
▁침대	-10.2839
밤	-10.2841
▁민족	-10.2843
▁그래	-10.2844
▁고발	-10.2846
절차	-10.2854
▁보여준다	-10.2856
▁미칠	-10.2858
▁소속사	-10.2859
0	-10.2862
▁고위	-10.2868
▁득점	-10.2868
pop	-10.2872
법인	-10.2873
▁계좌	-10.2874
▁외교	-10.288
시쯤	-10.2883
▁늘어날	-10.2884
가는	-10.2894
23	-10.2894
▁숙소	-10.2898
▁촉구했다	-10.2899
라운드	-10.29
▁모으고	-10.2902
▁염	-10.2903
▁지도부	-10.2906
▁제시한	-10.2908
▁전문성	-10.291
▁적절한	-10.2912
▁차세대	-10.2914
▁오류	-10.2916
▁'	-10.2917
돌	-10.292
▁틈	-10.2922
국가	-10.2929
▁분쟁	-10.293
▁자신감	-10.2931
▁언급한	-10.2931
▁출동	-10.2939
범	-10.2947
됐지만	-10.2951
▁청약	-10.2958
▁미팅	-10.2958
▁계열사	-10.296
▁52	-10.2961
▁성실	-10.2962
▁공인	-10.2962
복	-10.2962
▁일원	-10.2966
▁개발한	-10.2968
▁철거	-10.2972
학과	-10.298
합니까	-10.2981
▁동생	-10.2986
▁뇌	-10.2991
▁밝	-10.2999
▁높이고	-10.3008
▁오면	-10.3008
▁동향	-10.3015
라인	-10.3016
▁배제	-10.3028
▁유물	-10.3039
▁이사회	-10.3042
▁소규모	-10.3042
▁내려	-10.3043
▁사찰	-10.3043
▁“(	-10.3043
▁이뤄지지	-10.305
▁운영하고	-10.305
▁고양시	-10.3051
▁없었던	-10.3054
▁케이팝	-10.3054
▁환경부	-10.3058
▁깊이	-10.3059
▁텐데	-10.3061
▁2022	-10.3068
▁권고	-10.3072
월말	-10.3072
▁본회의	-10.3072
▁도서	-10.3073
▁필요할	-10.3078
▁생각해	-10.3078
▁담고	-10.3079
▁감시	-10.3083
▁좋아요	-10.3086
▁리그	-10.3087
▁경찰관	-10.3088
▁소감	-10.3088
▁시작해	-10.3092
▁제기	-10.3096
▁조절	-10.3099
▁면적	-10.3099
▁협의회	-10.31
공연	-10.3101
▁않아서	-10.3102
17	-10.3104
보세요	-10.311
▁돌봄	-10.3112
▁맞은	-10.3114
▁요구했다	-10.3115
▁원전	-10.3119
▁상당수	-10.3121
▁영화제	-10.3133
▁솔루션	-10.314
▁참고	-10.3141
주시겠어요	-10.3142
업	-10.3152
섬	-10.3155
이란	-10.3162
시티	-10.3167
▁주민의	-10.3174
▁미사일	-10.3182
▁봉사	-10.3187
▁고양	-10.3193
▁드는	-10.3195
▁자카르타	-10.3198
▁국경	-10.3198
언	-10.32
▁극장	-10.3202
▁승부	-10.3206
▁등급	-10.3208
▁나눔	-10.321
작	-10.3214
▁199	-10.3215
▁50%	-10.3216
▁유형	-10.3216
▁보며	-10.3218
▁제품들	-10.3221
▁유행	-10.3221
통신	-10.3224
▁초점	-10.3234
▁즐기는	-10.3235
▁예산안	-10.3246
▁중학교	-10.3246
향	-10.3253
대의	-10.3255
▁도민들	-10.3256
션	-10.3257
▁즉	-10.326
사들	-10.3261
▁가해자	-10.3262
지수	-10.3264
▁소관	-10.3269
놓은	-10.3271
▁사용해	-10.3275
▁일환	-10.3285
▁준비한	-10.3285
천만	-10.3287
▁좌석	-10.3289
보고서	-10.3291
▁알려주	-10.3295
▁되길	-10.3297
▁파리	-10.33
▁마련된	-10.3303
▁지원하기	-10.3305
▁리더	-10.3308
▁근본적	-10.3314
▁비정규직	-10.3314
▁이어진	-10.3315
적이고	-10.3318
▁개설	-10.3319
▁밝혀	-10.332
▁정기	-10.3324
▁사실이다	-10.3324
▁없었	-10.3327
▁만들어진	-10.3331
▁흥미	-10.3338
▁이씨	-10.3339
하시면	-10.334
▁브렉시트	-10.3341
▁어려워	-10.3342
▁좋겠어요	-10.3343
▁종전선언	-10.3349
▁순서	-10.3352
▁통지	-10.3365
▁설비	-10.3375
▁저소득층	-10.3382
▁고기	-10.3384
▁판문점	-10.3387
▁추진한다	-10.3388
▁무더	-10.3391
▁경기북부	-10.3394
▁중점	-10.3395
▁출근	-10.3396
▁증명	-10.3401
▁용역	-10.3404
▁강점	-10.3407
군요	-10.3411
▁밴드	-10.3412
▁이뤄진	-10.3415
손	-10.3417
▁것이고	-10.3417
▁한글	-10.3417
차전	-10.3419
▁시에	-10.3424
▁고교	-10.3426
▁고속도로	-10.3431
▁보험료	-10.3445
▁자회사	-10.3446
계약	-10.3446
▁바뀌	-10.3447
▁철	-10.3448
▁보여주고	-10.3452
▁관장	-10.3455
▁현지인	-10.3465
▁발생하지	-10.3466
▁야구	-10.3473
▁연령	-10.3483
▁티	-10.3485
▁최창식	-10.3486
▁투어	-10.349
▁생길	-10.3495
▁학원	-10.3496
▁있었다고	-10.3496
▁스케줄	-10.3502
▁종사자	-10.3505
▁남북정상회담	-10.3506
▁시공	-10.3507
인력	-10.3509
▁풍경	-10.351
▁제외하고는	-10.351
▁많아서	-10.3511
하나	-10.3511
▁안녕하세요	-10.3513
널리	-10.3513
▁F	-10.3522
▁끈다	-10.3522
▁선생	-10.3526
▁보면서	-10.3527
국장	-10.3528
▁무상	-10.3532
▁지원사업	-10.3532
▁살해	-10.3535
▁사망자	-10.3538
▁분리	-10.3539
▁문장	-10.3541
X	-10.3545
▁동일한	-10.3549
서울	-10.3551
▁안보	-10.3552
▁포함하여	-10.3557
▁청원	-10.3558
▁오지	-10.3559
▁밝혔	-10.3559
▁토론회	-10.356
▁먹어	-10.3565
왕	-10.3565
▁추정	-10.357
▁요청했다	-10.3575
천만원	-10.358
▁취재	-10.3585
▁부여	-10.3588
▁성명	-10.3593
▁며칠	-10.36
▁지원하고	-10.3601
▁입원	-10.3603
▁한인	-10.3605
출	-10.3617
▁승객	-10.362
르	-10.362
외	-10.3623
너	-10.3626
▁소유자	-10.3627
▁나가는	-10.363
▁실장	-10.3635
▁여지	-10.3638
▁연주	-10.3639
16	-10.3643
▁드러냈다	-10.3647
▁행정안전부	-10.3648
▁보인	-10.3648
▁퍼포먼스	-10.3652
▁친	-10.3652
▁자극	-10.3654
▁H	-10.3658
[	-10.3658
▁양측	-10.366
▁포항	-10.366
▁손실	-10.3661
▁제기됐다	-10.3663
▁마련됐다	-10.3663
▁런던	-10.3665
▁수용	-10.3671
▁잡	-10.3684
▁대처	-10.3688
▁과도한	-10.369
셔서	-10.3694
답	-10.3701
규제	-10.3701
▁선진국	-10.3702
▁음식점	-10.3702
군수	-10.3704
▁항공기	-10.3705
름	-10.3706
▁떨어지는	-10.3715
kg	-10.3716
키로	-10.3717
▁종교	-10.3727
카	-10.3731
▁담아	-10.3731
▁스토리	-10.3741
▁작성한	-10.3745
▁제공할	-10.3745
▁음주운전	-10.3746
쯤	-10.3748
▁65	-10.3749
▁진행했다	-10.3749
▁없는데	-10.375
▁공적	-10.3764
▁공무원들	-10.3766
▁버	-10.3771
사건	-10.3775
▁합격	-10.3782
▁댄스	-10.3783
▁융자	-10.3783
▁대행	-10.3784
▁"	-10.3784
▁요구할	-10.3792
▁부득이	-10.3801
▁기차	-10.3804
▁인용해	-10.3804
여건	-10.3806
드릴게요	-10.3807
▁태권도	-10.381
▁다행히	-10.3812
▁비교해	-10.3821
가족	-10.3821
듯	-10.3822
▁요청한	-10.3823
▁믿음	-10.3824
▁특유	-10.3824
▁최저	-10.3824
▁참가자	-10.3825
▁알리는	-10.3827
▁크리스마스	-10.3828
▁줄어들	-10.3831
▁숫자	-10.3831
▁있었어요	-10.3835
▁고용노동부	-10.3837
▁나오지	-10.3841
▁일본인	-10.3844
▁대중교통	-10.3844
▁거주하	-10.3845
▁이어지	-10.3849
▁성남	-10.3853
▁수요일	-10.3857
▁취약	-10.3858
▁페스티벌	-10.386
▁이상인	-10.386
▁학부모들	-10.3861
▁겪는	-10.3863
▁하나인	-10.3868
▁드론	-10.3868
』	-10.3869
▁증가하는	-10.3874
T	-10.3877
▁보냈	-10.3885
▁실시하고	-10.3886
▁채권	-10.3889
▁회수	-10.389
▁개최한다	-10.3894
▁걸릴	-10.3903
▁항목	-10.3903
생	-10.3904
시켰다	-10.3909
주관하는	-10.3911
▁관련해서	-10.392
투	-10.3926
쇼	-10.3928
폰	-10.3932
▁독서	-10.3935
받아	-10.3936
▁토	-10.3936
▁드	-10.3944
▁높이기	-10.3958
▁경기장	-10.3962
▁국무부	-10.3962
▁세트	-10.3963
▁상금	-10.3964
▁시작됐다	-10.3966
▁법원행정처	-10.3966
▁취재진	-10.3968
22	-10.397
▁체포	-10.3974
▁펼쳐진다	-10.3975
▁시리즈	-10.3977
▁에어컨	-10.3995
▁관점	-10.3998
▁플라스틱	-10.4001
▁성경	-10.4003
참	-10.4003
▁산정	-10.4006
▁심한	-10.401
▁찬	-10.4012
▁조합	-10.4019
▁EU	-10.4024
▁지명	-10.4024
▁클	-10.4026
▁알리	-10.4029
▁띄	-10.4037
▁헬기	-10.4038
의원	-10.4039
▁추진하기	-10.4046
▁제외	-10.4047
▁가사	-10.4048
▁대전시	-10.4049
▁태	-10.4057
▁있다며	-10.4061
▁자원봉사자	-10.4063
▁양식	-10.4077
▁영장	-10.4096
톡	-10.4096
인사들	-10.4103
▁보러	-10.4107
▁맡고	-10.4109
▁신용카드	-10.4109
▁딱	-10.4117
규모	-10.4121
▁격차	-10.4121
▁마련했다	-10.4123
▁농도	-10.4123
▁올바른	-10.4126
▁뒤늦게	-10.4127
▁주류	-10.413
개사	-10.4142
▁두산	-10.4144
▁배울	-10.4144
▁아니지만	-10.4145
▁PC	-10.4148
POP	-10.4149
▁100%	-10.4152
▁근육	-10.4154
▁허리	-10.416
▁폐	-10.4164
▁정규직	-10.4165
▁비전	-10.4166
▁무죄	-10.4166
▁경기도의회	-10.417
▁골프	-10.4173
▁최적	-10.4175
▁바이어	-10.4177
▁할지	-10.4178
▁남자친구	-10.4182
▁5·18	-10.4182
▁서버	-10.4185
▁성능	-10.4185
▁얻었다	-10.4186
▁논문	-10.4186
▁주주	-10.4187
▁건조	-10.4191
▁자발적	-10.4192
▁넘어서	-10.4192
하자	-10.4192
▁역사적	-10.4194
▁말이다	-10.4198
▁취약계층	-10.4201
▁근로시간	-10.4204
▁높이는	-10.4207
체제	-10.4207
▁차질	-10.4207
▁가능하	-10.4211
▁수익성	-10.4211
▁전직	-10.4214
빛	-10.4216
발전	-10.422
▁아니고	-10.4223
도서관	-10.4228
▁흥행	-10.4229
북	-10.4229
▁관리자	-10.4236
▁음성	-10.4238
▁보입니다	-10.4247
▁점유율	-10.4259
▁가능해	-10.426
기금	-10.4261
▁임대	-10.4278
▁생각합니	-10.4282
갑	-10.4289
▁CEO	-10.4291
▁완성	-10.4295
▁돕는	-10.4295
▁어떠한	-10.43
▁따	-10.4303
▁여파	-10.4304
▁디스플레이	-10.4305
대비	-10.4309
▁금메달	-10.431
▁확산되	-10.431
꾸	-10.431
▁높였다	-10.4313
18	-10.4318
▁이재	-10.4318
▁차단	-10.4318
▁늘어나는	-10.4321
▁대한항공	-10.4321
▁확률	-10.4323
▁인연	-10.4324
▁같	-10.4326
▁상대방	-10.4328
▁신청한	-10.4328
▁기본계획	-10.4331
▁명령	-10.4333
▁미소	-10.4333
▁가능하며	-10.4333
▁갖는다	-10.4335
이든	-10.4337
▁예정입니	-10.4337
▁시술	-10.434
▁코너	-10.4342
나무	-10.4343
▁꼽힌다	-10.4348
공무원	-10.4351
짜리	-10.4351
주는	-10.4352
마리	-10.4352
▁각호	-10.4353
▁영수증	-10.4353
▁하더라도	-10.4356
▁발견된	-10.4358
▁걸어	-10.436
▁보건복지부	-10.4363
▁모니터링	-10.4366
해질	-10.4367
▁개봉	-10.4375
▁탄생	-10.438
훈련	-10.4381
▁KBS	-10.4381
▁끝나고	-10.4384
▁국장	-10.4387
▁소녀	-10.4392
총	-10.4395
학원	-10.4399
▁하니	-10.4401
▁귀사	-10.4401
므로	-10.4402
▁개최했다	-10.4403
▁기여한	-10.4403
▁심의회	-10.4404
▁쉬	-10.4404
▁얻어	-10.4405
▁의제	-10.4406
▁서초구	-10.4408
비율	-10.4409
▁마련한	-10.441
▁열려	-10.4411
▁싶지	-10.442
▁장식	-10.4422
▁제약	-10.4422
▁공연장	-10.4427
▁오염	-10.4429
이어	-10.4429
츠	-10.4435
롭게	-10.4446
만여	-10.445
▁대표적	-10.4453
▁마포구	-10.4454
▁돼지	-10.4457
▁표준	-10.4459
지는	-10.4462
▁강아지	-10.4462
▁위촉직	-10.4463
▁환영	-10.4466
▁줄어든	-10.4467
▁발목	-10.4473
▁경고	-10.4475
▁탄	-10.4475
▁상승세	-10.4477
▁실종	-10.4478
▁애초	-10.4479
▁안전관리	-10.4482
▁추정되는	-10.4484
잔	-10.4484
▁맡기	-10.4487
▁경주	-10.449
▁회의록	-10.4493
▁인정할	-10.4495
슨	-10.4495
▁잡아	-10.4497
▁치매	-10.4497
▁남쪽	-10.4499
▁클라우드	-10.4499
▁평생	-10.4499
▁종합적	-10.4501
▁뒷	-10.4508
▁지표	-10.4509
▁최씨	-10.4514
▁청주	-10.4516
▁축소	-10.4518
키	-10.452
F	-10.452
▁갤럭시	-10.4523
▁컸다	-10.4532
▁무리	-10.4534
▁머물	-10.4535
▁유입	-10.4543
▁계절	-10.4547
▁획득	-10.455
▁찍	-10.4551
▁교실	-10.4551
대책	-10.4556
▁최소한	-10.4558
▁현직	-10.4559
▁상징	-10.456
▁이끌어	-10.4561
▁박수	-10.4564
기능	-10.4568
▁지수	-10.4572
▁차장	-10.4572
▁보내는	-10.458
▁119	-10.4584
▁항공	-10.4588
▁취득	-10.4588
▁오해	-10.459
▁준수	-10.4593
▁참가해	-10.4594
▁당선	-10.4596
▁누적	-10.4597
▁바라는	-10.4599
▁듯한	-10.4599
▁그날	-10.4603
▁위해선	-10.4605
▁뉴	-10.4606
▁넓은	-10.4611
▁증언	-10.4612
▁점포	-10.4613
▁소문	-10.4615
읍	-10.4616
▁조용	-10.4626
▁아울러	-10.4634
▁벌인	-10.4636
▁남긴	-10.464
▁의존	-10.4643
▁늘리	-10.4644
▁인스타그램	-10.4646
▁다섯	-10.4655
▁보지	-10.4657
겠습니까	-10.466
맛	-10.466
▁뇌물	-10.466
▁불확실성	-10.4664
▁3·1	-10.4664
▁노력하겠다	-10.4666
▁택배	-10.4668
▁거짓말	-10.467
▁알려지	-10.467
▁송파구	-10.4672
▁없기	-10.4673
▁교수님	-10.4674
▁월	-10.4675
▁느끼고	-10.4677
▁먹으면	-10.4682
▁태양광	-10.4687
▁하천	-10.4688
▁기조	-10.4691
▁봉사활동	-10.4701
▁한복	-10.4703
▁근	-10.4705
▁소프트웨어	-10.4709
▁들어갔다	-10.471
피해	-10.4716
▁나가	-10.4716
▁용도	-10.4724
▁높고	-10.4726
▁잡지	-10.4731
▁방해	-10.4736
▁적정	-10.4737
▁빠지	-10.4737
해주는	-10.4737
케	-10.4739
▁용인	-10.474
▁진학	-10.4741
▁업데이트	-10.4741
럼	-10.4741
▁와인	-10.4747
수요	-10.4751
거	-10.4757
▁내지	-10.4767
▁거점	-10.4768
원들	-10.4768
▁드립니다	-10.4769
지원센터	-10.4777
▁코스	-10.4779
▁기기	-10.4781
▁옮겨	-10.4788
▁커버	-10.4789
▁주위	-10.4803
▁입증	-10.4804
▁서구	-10.4808
세계	-10.4811
▁애플리케이션	-10.4813
▁한해	-10.4814
▁참여한다	-10.4814
▁기쁨	-10.4816
▁찍어	-10.4817
▁모았다	-10.4821
▁거친	-10.4821
가치	-10.4825
▁국면	-10.4827
▁열풍	-10.4827
▁찍은	-10.4827
▁시상식	-10.4829
▁홈런	-10.4829
▁다르게	-10.4833
▁36	-10.4834
▁신앙	-10.4835
▁초등학생	-10.4837
▁38	-10.4839
▁여자친구	-10.484
▁명예	-10.4841
▁적합한	-10.4843
▁생겼다	-10.4843
어서	-10.4844
▁압력	-10.4844
▁뚜렷	-10.4845
▁주장한	-10.4848
풍	-10.4853
▁땀	-10.4855
▁250	-10.4857
▁제정	-10.4861
▁인테리어	-10.4866
▁습관	-10.4868
▁통계청	-10.4874
▁나면	-10.489
▁제시했다	-10.4891
▁미치	-10.4894
▁불량	-10.4904
민들	-10.4926
▁희생	-10.493
▁발주	-10.4933
해왔다	-10.4935
▁정기적	-10.4936
▁연봉	-10.4936
▁참사	-10.4936
▁세운	-10.494
2006	-10.4943
▁확충	-10.4945
▁올리	-10.4946
▁참석자	-10.4948
▁소음	-10.4949
▁없게	-10.495
▁수차례	-10.495
차량	-10.4951
시기	-10.4959
▁호흡	-10.4961
▁고객님	-10.4961
▁항공사	-10.497
탄	-10.4979
▁영양	-10.498
L	-10.4986
▁아쉬움	-10.4988
▁필수	-10.4989
▁항소심	-10.4989
▁높아지	-10.4994
▁소요되는	-10.4996
▁참여하고	-10.4996
▁않았어요	-10.5001
H	-10.5004
▁방학	-10.5006
▁민주노총	-10.5008
▁홀	-10.5009
▁타인	-10.5012
▁어른	-10.5015
▁포럼	-10.5016
▁기다려	-10.5016
▁크지	-10.5018
▁들어갈	-10.5022
▁늘어나	-10.5026
▁정의	-10.5027
▁우즈베키스탄	-10.5029
▁붕괴	-10.5029
▁임상	-10.503
▁가질	-10.5031
▁갖추고	-10.5031
▁싸움	-10.5031
▁넌	-10.5032
수당	-10.5034
▁강경	-10.5035
▁벌였다	-10.5036
▁빌	-10.5038
▁강서구	-10.5052
▁동력	-10.5052
물질	-10.5053
▁감각	-10.5055
▁34	-10.506
▁다르다	-10.5062
▁굳	-10.5067
회담	-10.5071
조례	-10.5073
▁화성	-10.5075
▁투기	-10.5077
▁하거나	-10.5078
▁출마	-10.5078
▁드리겠습니다	-10.508
▁상세	-10.508
▁아프리카	-10.5081
▁선도	-10.5082
▁확인했다	-10.5083
▁방문하는	-10.5092
순위	-10.5094
▁『	-10.5096
하되	-10.5096
▁단서	-10.5097
▁작품들	-10.5102
▁운	-10.5105
▁판매가	-10.5105
▁총괄	-10.5108
▁송금	-10.511
▁되며	-10.5114
헌	-10.5117
섭	-10.513
▁모인	-10.513
▁개최한	-10.5133
▁이거	-10.5143
감사	-10.5144
28	-10.5148
▁공단	-10.5154
▁주력	-10.5159
▁건의	-10.5162
▁채택	-10.5163
▁아니라는	-10.5164
▁예외	-10.5165
▁유족	-10.5166
▁제작한	-10.5166
▁쥐	-10.5169
▁네티즌	-10.517
고등학교	-10.5171
▁국무장관	-10.5172
▁유도	-10.5175
(1	-10.5181
▁묘	-10.5182
▁적자	-10.5186
▁승용차	-10.5186
▁개인적	-10.5186
▁매출액	-10.5192
▁펼쳤다	-10.5195
▁비상	-10.5196
▁엔진	-10.52
▁파악하고	-10.5202
▁비공개	-10.5203
▁주실	-10.5211
여성	-10.5211
▁다니는	-10.5211
▁세워	-10.5216
▁않는다면	-10.5217
▁파업	-10.5217
▁예수	-10.522
▁국적	-10.5223
▁지원해	-10.5234
▁고문	-10.5237
▁음주	-10.5237
치료	-10.524
▁지켜보	-10.5243
▁주체	-10.5245
▁한강	-10.5248
▁사용하지	-10.5253
▁거라	-10.5259
▁죄	-10.5261
▁급등	-10.5269
▁법관	-10.527
▁읽고	-10.5273
▁서민	-10.5274
주십시오	-10.5279
옥	-10.5279
▁연설	-10.528
▁그럴	-10.5282
▁금융기관	-10.5283
▁일이다	-10.5284
▁당해	-10.5287
▁면역	-10.5288
▁소형	-10.5288
▁저자	-10.5289
장비	-10.5291
일본	-10.5292
▁시세	-10.5293
▁대량	-10.5295
▁둘째	-10.5295
겠지만	-10.5301
▁입찰	-10.5315
▁차트	-10.5316
주간	-10.5318
▁고정	-10.5324
▁일반적	-10.5324
▁면세점	-10.5325
▁색깔	-10.5328
▁슬	-10.5329
광장	-10.5336
▁조만	-10.5344
평	-10.5347
▁시진핑	-10.5355
자마자	-10.5356
하더라도	-10.536
▁피의자	-10.5361
▁이루	-10.5363
▁정서	-10.5364
▁대체로	-10.5364
▁스웨덴	-10.5364
▁체육	-10.5364
▁무릎	-10.5372
▁작	-10.5373
▁집계됐다	-10.5375
▁인지도	-10.5375
▁묻는	-10.5378
▁대결	-10.5378
▁응답자	-10.538
▁결혼식	-10.5382
센	-10.5382
▁저장	-10.5382
▁국정원	-10.5383
▁스	-10.5384
▁일반적인	-10.5385
스타	-10.5385
▁나타나는	-10.5395
▁연관	-10.5399
▁걸그룹	-10.5403
▁여사	-10.5404
돼서	-10.5405
▁끝내	-10.5406
▁있거나	-10.5409
▁잡은	-10.541
▁할아버지	-10.541
▁처음이	-10.5413
▁환	-10.5415
장치	-10.5416
▁수상자	-10.5421
점검	-10.5423
▁녹색	-10.5424
▁CJ	-10.5426
26	-10.5429
▁브리핑	-10.5432
대상자	-10.5433
룰	-10.5434
▁자칫	-10.5435
▁특별법	-10.5438
규정	-10.5439
▁차지하고	-10.5441
선거	-10.5443
▁연합	-10.5445
▁40%	-10.5445
익	-10.5447
▁동원	-10.5449
▁연수	-10.5453
▁구매할	-10.5456
▁민간인	-10.5456
▁다양	-10.5458
▁부실	-10.5461
▁내게	-10.5461
▁그걸	-10.5462
▁입장이다	-10.5463
(2	-10.5463
▁결정했다	-10.5464
수준	-10.548
▁이집트	-10.5481
▁출	-10.5482
1990	-10.5492
g	-10.5496
▁봐야	-10.5501
▁즐겁	-10.5501
▁리스트	-10.5503
▁노동자들	-10.5506
▁70%	-10.5513
▁문화재	-10.5519
하다는	-10.5524
▁센터장	-10.5525
▁파트너	-10.5529
자동차	-10.5531
▁갖는	-10.5538
▁고가	-10.5539
▁워낙	-10.5541
필	-10.5544
▁흔히	-10.5546
▁감안하면	-10.5548
▁조금씩	-10.5549
▁비록	-10.555
▁주시	-10.555
▁가능한가요	-10.5551
▁예수님	-10.5554
▁다이어트	-10.5555
▁심지	-10.5558
▁천	-10.556
▁은퇴	-10.5561
▁일방적	-10.5561
▁반복	-10.5566
▁입금	-10.5567
▁끌었다	-10.5567
▁감성	-10.557
▁됐	-10.557
▁주목받고	-10.5571
▁초콜릿	-10.5573
▁중동	-10.5574
행정	-10.5574
▁레스토랑	-10.5575
▁먹거리	-10.5575
▁시청자	-10.5575
▁조별	-10.5579
▁패널	-10.558
▁살펴보면	-10.5581
▁접근성	-10.5583
▁낳	-10.5584
▁주재	-10.5585
▁멈추	-10.5585
드는	-10.5586
▁임무	-10.5586
▁나타나	-10.5587
▁북쪽	-10.5587
▁중소	-10.5589
▁된다면	-10.5589
▁언제나	-10.5591
▁위임	-10.5593
상담	-10.5594
▁커질	-10.5595
▁감축	-10.5597
장관	-10.5602
▁기름	-10.5606
▁몰려	-10.5607
▁준비하는	-10.5609
▁맡았다	-10.5613
▁부대	-10.5615
▁비디오	-10.5615
톤	-10.5621
▁이루어져	-10.5621
▁배려	-10.5622
▁격려	-10.5623
▁인쇄	-10.5624
▁U	-10.5631
▁시가	-10.5632
천여	-10.5633
웨이	-10.5636
냐	-10.5638
▁당한	-10.5641
▁많지	-10.5644
▁첫날	-10.5647
▁끝나면	-10.5651
촌	-10.5651
▁세종시	-10.5651
▁지상	-10.5652
부서	-10.5655
▁선사	-10.5657
▁상점	-10.5661
되며	-10.5665
▁생태	-10.5669
▁효과적	-10.5674
호텔	-10.5682
▁최악	-10.5684
▁플레이	-10.5684
사실	-10.5694
▁불가능하다	-10.5699
▁이해하고	-10.5701
삼	-10.5702
▁수익률	-10.5704
▁금고	-10.5705
▁부장판사	-10.5705
▁지장	-10.5708
▁적용한다	-10.571
▁공동체	-10.5713
▁바이오	-10.5714
▁재능	-10.5717
할게요	-10.5718
▁가맹점	-10.5723
▁해양	-10.5725
졌다	-10.5728
▁강동구	-10.5728
▁둘러싸	-10.5732
학생	-10.5735
되어야	-10.5737
▁국가들	-10.5739
▁상관없이	-10.5741
사랑	-10.5745
▁논리	-10.5747
▁아름다움	-10.5747
▁장학금	-10.575
노조	-10.5751
▁탑승	-10.5751
▁성범죄	-10.5755
▁유학	-10.5755
▁되는데	-10.5755
▁유전자	-10.5757
▁기재부	-10.5758
▁농	-10.5762
▁민선	-10.5766
▁나서고	-10.5766
▁산업단지	-10.5767
▁공감대	-10.5767
▁‘2019	-10.5773
▁오늘날	-10.5775
▁노하우	-10.5776
▁이스라엘	-10.5777
AI	-10.5778
▁힘들어	-10.578
▁뷰티	-10.5781
▁감안	-10.5783
▁주최하고	-10.5787
▁고스	-10.579
▁영업이익	-10.579
▁예고	-10.5799
▁서울시장	-10.5806
▁SBS	-10.5806
룸	-10.5815
▁놀	-10.5823
▁신도시	-10.5823
▁창원	-10.5824
▁임용	-10.5824
▁조합원	-10.5826
▁복원	-10.5827
▁효율성	-10.5829
▁도가	-10.5835
▁80%	-10.5844
▁해체	-10.5845
N	-10.5845
견	-10.585
현재	-10.5851
▁주장하는	-10.5853
▁안전성	-10.5858
▁코리아	-10.5859
대출	-10.5861
인하여	-10.5867
▁프리	-10.5874
▁불거	-10.5875
▁성장할	-10.5876
판매	-10.5877
▁진보	-10.5883
파크	-10.5884
▁전세계	-10.5884
▁물류	-10.5885
면적	-10.5886
▁매수	-10.5886
에너지	-10.5889
한국시간	-10.5891
▁다채로	-10.5891
보고	-10.5891
▁대사관	-10.5896
▁정지	-10.5897
▁듣는	-10.5899
▁존중	-10.5905
설비	-10.5905
▁투	-10.5906
▁있을까	-10.5915
▁조리	-10.5915
리지	-10.5918
▁일어난	-10.5918
▁내야	-10.5926
▁통상	-10.5926
▁이뤄져	-10.5927
▁통행	-10.5927
추	-10.5928
▁공화당	-10.5934
▁잡을	-10.5938
협약	-10.5939
▁포함돼	-10.594
▁빼	-10.5942
▁집중되	-10.5945
▁구청	-10.5947
▁국제사회	-10.5949
▁솔로	-10.595
▁나쁜	-10.5951
▁기념식	-10.5951
▁작용	-10.5954
▁지지율	-10.5956
▁뛰	-10.5958
▁접속	-10.5959
▁본선	-10.596
▁말할	-10.5961
▁인건비	-10.5962
2021	-10.5964
▁패스트트랙	-10.5965
▁비행	-10.5966
▁판매량	-10.597
▁성장률	-10.5971
펀드	-10.5972
학기	-10.5973
▁P	-10.5973
▁1∼2	-10.5974
박물관	-10.5974
▁유관기관	-10.5975
▁집안	-10.5977
▁벌어진	-10.598
▁손상	-10.5985
▁대표의	-10.5987
▁않겠다	-10.5993
시나요	-10.5994
▁믿고	-10.5998
▁동반	-10.5998
▁흐르	-10.6
▁부천	-10.6003
▁운영위원회	-10.6004
▁내신	-10.6013
▁마련해	-10.6016
▁스튜디오	-10.6016
▁지속되	-10.6022
▁경영진	-10.6026
척	-10.6027
▁39	-10.6029
▁지급한다	-10.6032
청원	-10.6033
▁센서	-10.6033
▁미얀마	-10.6033
▁중앙정부	-10.6036
▁수색	-10.6036
EU	-10.6041
개월간	-10.6042
칸	-10.6043
▁알리고	-10.6043
▁내릴	-10.6043
▁불리	-10.6049
▁분노	-10.6049
▁이해할	-10.6049
▁이민	-10.605
됐다는	-10.6051
▁고려하면	-10.6052
▁장기적	-10.6053
▁상생	-10.6056
▁금융권	-10.6056
▁설치하고	-10.6058
▁평택	-10.6069
탑	-10.607
▁감염	-10.6071
▁증대	-10.6073
▁영입	-10.6074
었을	-10.6083
나라	-10.609
▁즐겨	-10.609
▁참가한	-10.6098
시행	-10.6099
법원	-10.6102
▁특검	-10.6103
▁발매	-10.6104
▁신청할	-10.6107
▁오프라인	-10.6109
▁실시했다	-10.6111
밥	-10.6113
》	-10.6114
▁걸린	-10.6121
▁탄력	-10.6122
숙	-10.6124
▁소년	-10.6126
▁푸틴	-10.613
▁객실	-10.613
▁고려한	-10.6132
▁시너지	-10.6134
▁결승	-10.6136
▁줄었다	-10.6136
▁선호	-10.6139
▁실정이다	-10.6141
▁끝날	-10.6142
▁카자흐스탄	-10.6145
▁성공했다	-10.6145
▁일들	-10.6146
▁재원	-10.6146
▁아르헨티나	-10.6149
▁패턴	-10.6158
▁소중한	-10.6159
▁피아노	-10.6163
▁쌓	-10.6165
▁극복	-10.6166
▁여론조사	-10.6172
▁주지	-10.6174
▁변호인	-10.6175
▁좋고	-10.6176
▁출구	-10.6176
▁부근	-10.6178
▁도시재생	-10.6179
죄	-10.618
▁마시고	-10.6181
▁작동	-10.6181
올	-10.6182
▁공모전	-10.6184
년째	-10.6185
▁의류	-10.619
▁포토	-10.6191
▁잇	-10.6192
▁해안	-10.6194
▁구현	-10.6199
▁카	-10.6201
▁고유	-10.6206
▁테이블	-10.6212
▁탑재	-10.6214
▁떨어졌다	-10.6216
▁보냈다	-10.622
▁정상화	-10.6224
▁기재	-10.6224
경영	-10.6232
▁취업자	-10.6234
나갈	-10.6238
▁농장	-10.6241
보험	-10.6249
▁합	-10.6252
▁힘들다	-10.6255
체험	-10.6258
▁외신	-10.6265
▁환율	-10.6266
▁몰	-10.6267
▁후배	-10.6268
▁반입	-10.6269
▁들어가는	-10.6273
암	-10.6273
조직	-10.6274
▁방문객	-10.6277
▁말하기	-10.6278
▁살인	-10.6283
▁경찰청	-10.6287
자리	-10.629
▁이걸	-10.6296
▁사연	-10.6297
▁오르는	-10.6297
▁설치해	-10.63
▁직접적	-10.6302
▁펼쳐	-10.6305
▁확신	-10.6308
▁전달했다	-10.6309
엘	-10.6317
▁모은	-10.632
▁피자	-10.6322
▁계층	-10.6331
▁국무총리	-10.6335
십	-10.6335
▁주민등록	-10.6335
▁생각하고	-10.6336
▁금융감독원	-10.6342
▁팀장	-10.6342
▁확대해	-10.6342
▁선보일	-10.6344
▁극단	-10.6344
▁진행되며	-10.6346
치고	-10.6347
▁시청률	-10.6348
▁석탄	-10.635
▁부채	-10.6355
▁인센티브	-10.6359
▁원이	-10.6359
▁노동계	-10.6364
▁공개됐다	-10.6367
▁설득	-10.637
▁인천시	-10.6371
▁모른다	-10.6378
▁라디오	-10.6381
▁객관적	-10.6382
▁비서실장	-10.6386
▁유포	-10.6389
▁25%	-10.639
▁테마	-10.6394
▁대비해	-10.6395
▁보복	-10.6395
▁행	-10.6396
▁맞서	-10.6397
기록	-10.6401
▁정상적	-10.6401
▁촉구	-10.6403
▁빵	-10.6404
▁손해배상	-10.6405
▁44	-10.6408
▁사이버	-10.6409
변경	-10.641
▁비건	-10.6414
▁편이다	-10.6415
▁대단	-10.6416
▁42	-10.6417
▁같아서	-10.6418
▁상환	-10.6419
▁처	-10.6421
▁기후변화	-10.6422
▁버전	-10.6423
▁방어	-10.6432
▁물가	-10.6433
▁추모	-10.6434
▁리스크	-10.6434
▁인형	-10.6439
▁운송	-10.6441
▁목포	-10.6441
만달러	-10.6442
▁대답	-10.6444
▁분실	-10.6446
▁고개	-10.6446
▁한쪽	-10.6448
▁맞고	-10.645
▁우유	-10.6452
만대	-10.6453
▁배당	-10.6454
▁배우고	-10.6454
▁서기	-10.6455
막	-10.6461
▁e	-10.6469
인당	-10.6477
▁기구	-10.6478
▁반등	-10.6478
신고	-10.6481
서류	-10.6483
▁복합	-10.6484
▁과일	-10.6484
조건	-10.6489
결정	-10.6489
▁예선	-10.649
▁양상	-10.6491
일이	-10.6494
▁만료	-10.6502
▁선보인다	-10.6503
▁않았고	-10.6504
▁성추행	-10.651
▁호평	-10.6511
▁하려고	-10.6513
▁사망한	-10.6514
▁탄핵	-10.6521
컵	-10.6523
▁돕기	-10.6523
▁저지른	-10.6526
이니	-10.6531
▁추적	-10.6535
▁해결하	-10.6536
▁대다수	-10.6537
▁현저	-10.654
▁든다	-10.654
▁금품	-10.6542
거래	-10.6543
▁부작용	-10.6545
▁지문	-10.6546
▁정치인	-10.6547
▁조속	-10.6547
▁상용화	-10.6548
▁엄격	-10.6549
▁휴일	-10.6552
▁어쩔	-10.6552
▁뭘	-10.6553
▁벨기에	-10.6556
▁90%	-10.6559
군의	-10.6561
진단	-10.6562
▁알아보	-10.6563
▁이명박	-10.6563
▁외모	-10.6564
분들	-10.6565
▁망	-10.6567
▁특성상	-10.6568
하였으며	-10.6568
▁교통사고	-10.657
▁추천해	-10.6574
FC	-10.6574
▁깜짝	-10.6574
시로	-10.6574
▁의자	-10.6574
▁원유	-10.6577
▁리더십	-10.6578
▁당연직	-10.6578
▁불가능한	-10.6578
▁임대료	-10.658
천억원	-10.6584
▁받으며	-10.6587
▁급증	-10.6587
▁포스코	-10.6587
▁관람객들	-10.6589
▁오랜만	-10.659
▁합의한	-10.6594
▁소개했다	-10.6594
▁느끼는	-10.6595
▁줄이고	-10.6596
▁출자	-10.6597
▁애정	-10.6598
▁분석해	-10.6598
▁강세	-10.6599
▁금융위	-10.6599
▁유럽연합	-10.6601
▁계단	-10.6605
▁앞선	-10.6613
▁난다	-10.6614
▁아닌가	-10.6618
느냐	-10.6619
세워	-10.6621
▁먹이	-10.6622
▁최다	-10.6624
예	-10.6624
으니	-10.6629
▁찾았다	-10.6629
▁바라보는	-10.6629
▁끊이	-10.664
▁고소	-10.6641
▁효율	-10.6649
▁조회	-10.6656
▁동작	-10.6657
▁프랜차이즈	-10.6658
▁제출하여	-10.6661
사유	-10.6661
▁MBC	-10.6662
▁요건	-10.6664
연구	-10.6667
▁끼	-10.6672
▁지정한	-10.6674
▁일선	-10.6678
링	-10.6678
▁수습	-10.6679
▁누리	-10.6681
▁드릴	-10.6682
중인	-10.6683
▁치르	-10.6684
▁자원봉사	-10.6685
▁행진	-10.6689
왔던	-10.6689
▁민주주의	-10.6692
▁썼다	-10.6694
직원	-10.6694
▁쾌적	-10.6697
▁연구개발	-10.6704
짐	-10.6706
▁났다	-10.6708
▁학대	-10.6709
▁코드	-10.6721
▁진행해	-10.6724
▁폐쇄	-10.6728
별지	-10.673
▁강조한	-10.6731
▁시대의	-10.6731
째	-10.6735
▁시행하는	-10.6735
▁부사장	-10.6735
▁부활	-10.6737
▁제조사	-10.6743
거든요	-10.6752
▁쟁점	-10.6753
▁즉각	-10.6754
▁긴밀	-10.6762
▁보육	-10.6766
▁웹사이트	-10.6769
▁국정감사	-10.677
▁무역협상	-10.677
▁뮤직비디오	-10.677
▁최고경영자	-10.6771
▁거죠	-10.6772
진다	-10.6773
▁양산	-10.6778
▁거뒀다	-10.6779
▁복잡한	-10.678
▁2∼3	-10.678
27	-10.6781
▁《	-10.6781
▁깨끗	-10.6784
▁스크린	-10.6787
▁끊임없	-10.6788
▁관악구	-10.6789
▁호기심	-10.679
▁결정한다	-10.6791
▁오가	-10.6792
▁설치한	-10.6792
▁어렵게	-10.6797
▁중순	-10.6797
▁실태	-10.6799
▁열리고	-10.6801
40	-10.6814
▁지인	-10.6814
▁재활용	-10.6815
▁게시판	-10.6824
▁아니라고	-10.6826
▁정해진	-10.6829
▁확보한	-10.683
I	-10.6831
▁중독	-10.6832
▁전투	-10.6833
▁사우디	-10.6833
2005	-10.6839
포인트	-10.684
▁학기	-10.684
▁맨	-10.684
▁없다면	-10.6841
▁낯	-10.6844
▁재발	-10.6847
▁입력	-10.6847
▁주행	-10.6851
▁여러분들	-10.6856
▁융합	-10.6856
▁잡았다	-10.686
▁총재	-10.6861
▁일할	-10.6863
▁중국인	-10.6869
▁층	-10.6873
천천	-10.6877
▁쉬는	-10.6877
▁줄이기	-10.6878
▁선보이는	-10.6878
▁적발	-10.688
▁수행하는	-10.6882
포럼	-10.6884
▁돌아	-10.6886
▁떨어	-10.6886
▁근로	-10.6888
▁진흥	-10.6888
▁다음날	-10.6893
▁요	-10.6896
▁문화적	-10.6898
꽃	-10.6898
▁못하	-10.69
▁체감	-10.6914
▁구호	-10.6915
▁포착	-10.6919
넷	-10.6923
▁맞이	-10.6928
▁쓰지	-10.6931
▁컵	-10.6939
▁광역	-10.6943
리고	-10.6946
▁이용하여	-10.6949
▁뼈	-10.695
▁강화하고	-10.6951
▁답장	-10.6956
▁교사들	-10.6959
브	-10.6959
▁장병	-10.696
공급	-10.6965
▁이주	-10.6966
애	-10.6968
▁노력하고	-10.6971
▁즐거움	-10.6974
▁첫째	-10.6975
▁오디션	-10.6978
▁간편	-10.6978
▁개막식	-10.6979
든지	-10.6984
▁좋아해요	-10.6985
▁복	-10.6986
▁현대자동차	-10.6988
▁태극기	-10.6988
▁대여	-10.6993
번호	-10.6994
했기	-10.6997
역량	-10.6998
▁하락세	-10.6998
▁업무협약	-10.6998
▁이해찬	-10.6999
▁흉기	-10.7001
▁신속하게	-10.7001
▁매니저	-10.7002
▁선보였다	-10.7002
▁건너	-10.7003
▁구조조정	-10.7005
▁포함됐다	-10.7007
▁류현진	-10.7008
▁안전사고	-10.7013
▁의료진	-10.7018
▁콜	-10.7018
▁반영된	-10.7018
▁즐기	-10.7021
▁김포	-10.7021
▁노동당	-10.7021
▁축사	-10.7023
▁제공하기	-10.7025
▁기준금리	-10.7025
▁증가세	-10.7025
금융	-10.7025
▁지침	-10.7026
▁소환	-10.7028
▁아니요	-10.7029
▁신세계	-10.7032
▁수강생	-10.7033
▁사립유치원	-10.7035
▁총력	-10.7035
▁사회적기업	-10.7037
▁대구시	-10.7038
▁케이크	-10.7039
부지사	-10.7041
없는	-10.7044
▁폭로	-10.7046
▁받았	-10.7047
▁비싼	-10.7049
청소년	-10.7049
▁5,000	-10.7053
▁운항	-10.706
▁청사	-10.7065
▁의정부	-10.7069
▁편집	-10.7069
▁간호사	-10.707
▁장착	-10.7072
▁아까	-10.7072
▁선호하는	-10.7073
대장	-10.7079
▁건수	-10.7081
p	-10.7082
▁요구하	-10.7083
▁경로	-10.7084
▁다양성	-10.7085
▁등장하는	-10.7087
▁나누는	-10.7088
▁넣고	-10.7088
▁여름철	-10.7093
▁변수	-10.7103
▁민감	-10.7107
사업자	-10.7111
▁보일	-10.7113
▁집권	-10.7113
▁국방	-10.7119
대통령	-10.7124
▁설립한	-10.7128
▁치킨	-10.7129
▁명품	-10.713
▁될지	-10.7135
이었지만	-10.7137
▁제안한	-10.7137
▁모집한다	-10.714
▁몰라	-10.7142
▁명동	-10.7143
▁공식적	-10.7144
▁옮기	-10.7145
▁없던	-10.7148
▁시중	-10.7152
▁심장	-10.7153
▁소지	-10.7156
▁전형	-10.7157
▁해주세요	-10.716
▁파괴	-10.7167
▁전략적	-10.7174
▁활동하고	-10.7175
▁한국영화	-10.7178
▁선보이	-10.7179
▁문화원	-10.718
▁밀	-10.7181
타운	-10.7188
▁E	-10.719
▁김동	-10.7194
▁기다리	-10.7194
▁저기	-10.7195
▁착공	-10.7196
▁어떨까	-10.7196
▁골키퍼	-10.7196
▁모양새	-10.7197
▁공시	-10.72
▁헌법	-10.7201
▁심화	-10.7203
▁보전	-10.7205
▁지갑	-10.7209
▁실효성	-10.7209
▁무역분쟁	-10.7209
▁지속가능	-10.721
▁고위급	-10.7214
▁방문했다	-10.7216
▁넥센	-10.7217
▁이해관계	-10.7219
▁갖게	-10.7219
▁활력	-10.7222
▁발간	-10.7224
▁커졌다	-10.7229
▁주어진다	-10.723
▁디자이너	-10.7231
▁직장인	-10.7232
▁기다리는	-10.7242
▁나타냈	-10.7247
▁2001	-10.7249
▁180	-10.7251
이었습니다	-10.7252
▁회신	-10.7252
▁교장	-10.7256
▁획기적	-10.7257
▁인정되	-10.7258
▁사법부	-10.726
▁서해	-10.7261
▁받으면	-10.7261
▁이견	-10.7262
십시오	-10.7265
▁급락	-10.7267
▁전체적	-10.7271
▁5%	-10.7272
주기	-10.7275
▁올라가	-10.728
▁인류	-10.7281
▁터	-10.7282
▁창업자	-10.7282
▁촉구하	-10.7288
▁양질	-10.729
보수	-10.7291
팔	-10.7291
▁개척	-10.7292
▁나란	-10.7292
▁탈퇴	-10.7299
지금	-10.7299
▁지역별	-10.73
유치원	-10.7302
▁줄이는	-10.7302
▁집계	-10.7307
퍼	-10.731
부문	-10.731
▁걸음	-10.7313
▁양승	-10.7314
▁저감	-10.7315
▁궁금	-10.7317
다시	-10.7318
▁구름	-10.732
▁준비해	-10.7328
▁대외	-10.7342
▁지방세	-10.7343
▁구성한다	-10.7344
▁가난	-10.7348
▁작가들	-10.7352
▁기상	-10.7355
▁신라	-10.7357
▁제공해	-10.7363
▁교부	-10.7366
▁타는	-10.7369
▁공방	-10.7369
게임	-10.7369
▁제기한	-10.737
▁꼼꼼	-10.7371
▁비치	-10.7372
▁비자	-10.7372
▁결정할	-10.7376
터미널	-10.7383
▁적응	-10.7384
▁창작	-10.739
▁여비	-10.7395
▁분이	-10.7396
▁연금	-10.7396
▁그저	-10.7402
▁웃	-10.741
▁극심	-10.7412
▁여수	-10.7417
▁수위	-10.7418
냈다	-10.7419
▁체결했다	-10.7426
▁들여	-10.7429
▁추정된다	-10.7431
▁느낀	-10.7434
▁기업인	-10.7436
▁결합	-10.7437
▁설문조사	-10.7437
▁남측	-10.7439
▁많았고	-10.7439
▁상무	-10.7442
▁국외	-10.7448
▁600	-10.745
겠어요	-10.745
▁내역	-10.745
5000	-10.7453
▁학	-10.7457
▁아픈	-10.7458
청사	-10.746
▁협회	-10.7461
▁국비	-10.7462
▁동참	-10.7464
▁건데	-10.7464
▁자랑	-10.7465
▁늦	-10.7473
▁어르신	-10.7475
▁선보인	-10.7476
▁연구소	-10.748
▁공략	-10.748
▁혐오	-10.7481
▁빌려	-10.7482
▁위축	-10.7483
▁했어	-10.7487
▁식물	-10.7488
▁컬러	-10.7492
▁가이드	-10.7495
▁제출하	-10.7497
▁느끼	-10.7497
▁우연	-10.7498
▁상권	-10.7499
▁구역	-10.7501
▁버튼	-10.7503
▁갤러리	-10.7504
▁미니	-10.7506
새	-10.7507
▁만화	-10.7513
31	-10.7516
▁테러	-10.7519
▁갖	-10.752
▁패키지	-10.752
▁한데	-10.7523
미터	-10.7523
▁복음	-10.7524
쉽	-10.7525
▁적절	-10.7527
▁차기	-10.7528
▁토트넘	-10.753
▁패	-10.7533
▁198	-10.7536
▁지적도	-10.7536
경찰	-10.7539
▁확대하고	-10.7543
▁구직자	-10.7544
테	-10.7545
▁맘	-10.7548
▁지낸	-10.7549
▁공로	-10.7552
▁지켜	-10.7553
올해	-10.7557
끼리	-10.7559
▁사라진	-10.7563
▁피고인	-10.7563
▁보험사	-10.7574
▁성공한	-10.7576
▁일하고	-10.7579
▁소집	-10.758
존	-10.7581
▁선행	-10.7583
ᆞ	-10.7593
▁시인	-10.7594
▁학업	-10.7594
▁아트	-10.7596
▁과학기술	-10.7597
커	-10.7598
광	-10.7598
성장세	-10.76
이나	-10.7601
이므로	-10.7602
▁의약품	-10.7608
▁입국	-10.7608
오직	-10.7609
▁대목	-10.7611
▁선출	-10.7616
예산	-10.7617
▁기증	-10.7618
▁드릴게요	-10.7618
▁행사장	-10.762
▁명소	-10.7624
▁삼아	-10.7625
▁복수	-10.7631
▁해명	-10.7631
▁가로	-10.7633
보증금	-10.7639
▁보증	-10.7642
▁나타난	-10.7642
▁공직자	-10.7646
▁중반	-10.7648
▁높아질	-10.7651
▁T	-10.7652
▁펼칠	-10.7653
▁가시	-10.7655
▁게재	-10.7655
▁포함한다	-10.7657
▁첨부하여	-10.7658
▁조짐	-10.7658
으면서	-10.7659
▁산업통상자원부	-10.766
▁관행	-10.7661
▁있었는지	-10.7662
소리	-10.7662
▁안타까	-10.7663
▁계	-10.7666
▁스위스	-10.7667
▁지역구	-10.7669
▁대표자	-10.767
▁보여줄	-10.767
▁견해	-10.7671
▁떠난	-10.7676
▁자율주행	-10.7676
윤	-10.7678
투어	-10.7678
▁교민	-10.7684
▁미친	-10.7684
▁막대	-10.7686
▁이르면	-10.7689
▁전후	-10.769
글로벌	-10.769
완	-10.7691
▁건강보험	-10.7692
▁협력해	-10.7696
▁숨졌다	-10.7698
▁용	-10.77
▁숙박	-10.7706
▁의료기기	-10.7706
▁화상	-10.7707
▁학과	-10.7708
▁개관	-10.7714
▁분야별	-10.7714
▁베	-10.7719
▁삼성바이오	-10.7719
▁든	-10.772
▁어르신들	-10.7722
▁절약	-10.7726
▁내륙	-10.7727
▁개원	-10.773
▁유독	-10.7731
▁오르	-10.7733
▁알지	-10.7733
▁주시면	-10.7739
▁착용	-10.774
▁구성해	-10.7741
▁올리고	-10.7745
▁입주자	-10.7746
혁신	-10.7749
협력	-10.7749
▁세제	-10.775
▁전파	-10.775
▁끊	-10.775
되거나	-10.7751
▁군수	-10.7752
심의	-10.7753
송	-10.7754
▁화물	-10.7756
덕	-10.7765
▁생겼	-10.7769
▁나누어	-10.777
▁확실한	-10.7772
▁예상되	-10.7774
▁달려	-10.7774
▁호소	-10.7777
었지만	-10.7778
▁해군	-10.7779
▁헤어	-10.778
▁단가	-10.778
▁고시	-10.7781
▁최소화	-10.7782
▁일시적	-10.7783
▁옥	-10.7784
혜택	-10.7785
주가	-10.7785
시대	-10.7788
팅	-10.7792
▁공유하고	-10.7792
연내	-10.7793
▁스타들	-10.7794
모델	-10.7795
▁연세대	-10.7796
▁맥	-10.7797
영향	-10.7801
▁느껴	-10.7802
▁싸	-10.7804
▁면담	-10.7804
▁푸	-10.7807
▁꺼내	-10.7816
l	-10.7818
▁운명	-10.7821
▁0	-10.7826
▁수주	-10.7834
▁총수	-10.7838
▁길게	-10.784
▁격	-10.7848
▁위생	-10.7856
▁메	-10.7859
▁선두	-10.7859
처분	-10.786
줘서	-10.7862
▁단기	-10.7866
▁페이지	-10.787
▁류	-10.7873
▁지원자	-10.7891
▁예보	-10.7893
▁소화	-10.7897
▁이용객	-10.7898
▁불안감	-10.7899
듯이	-10.79
▁늦은	-10.7906
▁주님	-10.7907
평균	-10.7907
▁메이크업	-10.7908
장이	-10.7912
▁예정이며	-10.7915
▁보내주세요	-10.7915
▁특혜	-10.7916
▁많을	-10.7917
▁출연해	-10.7917
▁수영	-10.7921
▁활발한	-10.7921
▁안산	-10.7921
▁뉴질랜드	-10.7922
▁김경수	-10.7923
투자	-10.7923
▁부족해	-10.7924
▁속속	-10.7924
▁사장님	-10.7926
▁과세	-10.7927
▁지나치	-10.7928
▁국가대표	-10.7929
▁클래식	-10.7931
욱	-10.7932
▁흡연	-10.7932
퍼센트	-10.7933
▁폭우	-10.7934
▁광진구	-10.7935
▁버닝썬	-10.7937
▁합의안	-10.7941
▁꿈꾸는	-10.7942
▁제안했다	-10.7943
▁60%	-10.7945
▁투자유치	-10.7949
현황	-10.7951
인증	-10.7952
▁겉	-10.7952
▁생기	-10.7954
▁말하고	-10.7954
▁수사관	-10.7954
▁구멍	-10.7955
▁한국교회	-10.7955
▁벌어지	-10.7958
▁더해	-10.7959
전쟁	-10.7963
▁심의위원회	-10.7967
▁실태조사	-10.7968
▁로비	-10.7968
창업	-10.7969
▁높아졌다	-10.797
▁아니하다	-10.7972
▁학계	-10.7972
▁합류	-10.7974
▁이뤄지	-10.7974
냅	-10.7975
▁언급했다	-10.7975
▁지방정부	-10.7976
안전	-10.7977
▁제기했다	-10.798
▁붙여	-10.7982
▁외국어	-10.7983
▁오기	-10.7986
▁퇴근	-10.7987
▁목록	-10.7989
▁다를	-10.7989
▁판단하고	-10.7989
▁그거	-10.799
▁3,000	-10.799
▁섭취	-10.799
▁야간	-10.7996
▁연료	-10.7999
▁얼	-10.8003
▁꺾	-10.8005
▁해경	-10.8005
▁주간	-10.8011
▁처한	-10.8019
다보니	-10.8019
▁사용되는	-10.802
시다	-10.8021
▁승	-10.8021
(5	-10.8023
엄	-10.8029
▁준비하고	-10.8029
▁해결할	-10.8032
▁방송사	-10.8032
▁집중적	-10.8034
▁갑질	-10.8035
▁구도	-10.8035
▁그만	-10.8036
트럼프	-10.8036
▁지속될	-10.8037
▁왔는데	-10.8038
로서	-10.8042
▁취하고	-10.8042
소송	-10.8043
▁검	-10.8046
▁행정처	-10.805
지방	-10.8052
신청	-10.8052
▁포함되어	-10.8053
▁이뤄	-10.8054
▁불교	-10.8056
인천광역시	-10.8056
▁주도하	-10.8061
▁위상	-10.8065
▁보석	-10.807
정의	-10.807
▁교육과정	-10.8072
▁커다	-10.8073
▁진영	-10.8075
콘텐츠	-10.8079
▁사라지	-10.8088
▁포상금	-10.8093
CEO	-10.8096
화된	-10.8098
▁석	-10.8104
▁밀려	-10.8107
▁증인	-10.8108
▁급속	-10.8115
▁품	-10.8115
▁묵	-10.8116
영화	-10.8122
치를	-10.8124
▁자치구	-10.8125
▁제공한	-10.8127
▁돌아오	-10.813
▁매매	-10.8131
▁논쟁	-10.8135
▁화요일	-10.8138
▁아이폰	-10.814
▁성남시	-10.8141
▁시작할	-10.8142
▁과반수	-10.8143
연맹	-10.8143
▁주연	-10.8143
▁55	-10.8143
▁거둔	-10.8146
▁가공	-10.8147
다리	-10.8147
▁경기지사	-10.8148
전략	-10.8151
▁개최된다	-10.8152
▁이어갔다	-10.8152
부분	-10.8152
▁텔레비전	-10.8153
▁바꿀	-10.816
웅	-10.8161
▁기한	-10.8163
▁제공된다	-10.8163
▁애사항	-10.8165
▁강렬	-10.8166
▁용산	-10.8167
▁제작진	-10.8167
▁생각할	-10.8168
▁필요해요	-10.817
▁문화체육관광부	-10.8171
▁펼치고	-10.8173
▁방송된	-10.8176
일자리	-10.8177
▁대륙	-10.8179
▁아시아나항공	-10.8179
▁보여준	-10.8193
▁올리는	-10.8195
▁웹	-10.8202
▁후속	-10.8202
▁침입	-10.8205
▁농구	-10.8205
▁금융위기	-10.8207
▁챔피언	-10.821
▁했	-10.8215
▁의미한다	-10.8216
▁기울이	-10.8222
래도	-10.8225
▁들었습니다	-10.8226
▁용산구	-10.8233
W	-10.8241
▁개최된	-10.8242
▁체육시설	-10.8243
▁발사	-10.8246
▁전해	-10.8247
▁못한다	-10.825
▁처방	-10.8253
50	-10.8259
▁감기	-10.8263
▁에어	-10.8264
▁불편한	-10.8269
▁피로	-10.8271
▁합병	-10.8271
▁견제	-10.8272
복지	-10.8274
▁그릇	-10.8275
▁공조	-10.828
▁밝은	-10.8281
▁본부장	-10.8283
▁사퇴	-10.8284
▁일시	-10.8284
▁먹기	-10.8286
▁양육	-10.8286
▁전국적	-10.8289
▁왔어요	-10.8289
구나	-10.8289
▁무엇인가	-10.829
▁자녀들	-10.83
▁심판	-10.8301
▁인적	-10.8305
▁안심	-10.8309
▁적용해	-10.8314
▁헌신	-10.8322
▁금호	-10.8323
의식	-10.8326
▁성황	-10.8327
▁봅	-10.8328
▁생겨	-10.833
IT	-10.8333
걸	-10.8333
▁슈퍼	-10.8335
하신	-10.8338
▁입양	-10.8339
▁라이브	-10.8341
▁거라고	-10.8341
▁변신	-10.8343
▁관심사	-10.8344
▁이송	-10.8346
▁FA	-10.8347
▁인공	-10.8351
▁영화관	-10.8351
고자	-10.8352
▁평창	-10.8355
▁요구한	-10.8358
납	-10.8358
▁수소	-10.8358
보았습니다	-10.8358
▁모금	-10.836
▁LA	-10.8364
▁사용하	-10.8365
▁감소한	-10.8365
▁게시	-10.8371
▁해킹	-10.8372
▁달한다	-10.8374
금리	-10.8376
▁생계	-10.8376
▁정책의	-10.8376
▁취급	-10.8378
▁이루어진	-10.8383
▁내외	-10.8384
▁반영한	-10.8387
▁무척	-10.8387
▁언제쯤	-10.8389
▁입맛	-10.8389
▁토론토	-10.8389
자인	-10.839
나경원	-10.8392
▁수험생	-10.8393
▁활	-10.8393
방지	-10.84
심사	-10.8401
▁골목	-10.8404
▁없으며	-10.8404
▁대리	-10.8405
▁용어	-10.8406
▁육군	-10.8406
▁투쟁	-10.8407
▁농업인	-10.8407
▁발부	-10.8408
정작	-10.8409
▁원료	-10.841
▁코스닥	-10.8411
▁지원대상	-10.8411
▁납품	-10.8411
▁싱글	-10.8411
▁비타민	-10.8413
▁창립	-10.8415
▁스타디움	-10.8415
▁겨울철	-10.8416
▁많아요	-10.8416
▁면허	-10.8421
▁유착	-10.8425
▁얼음	-10.8426
▁엿	-10.8426
▁입점	-10.8427
▁공시가격	-10.8429
▁특화	-10.843
가운	-10.8432
드라마	-10.8432
▁집중된	-10.8434
▁승무원	-10.8435
▁전담	-10.8437
▁담당하	-10.844
▁언니	-10.844
당한	-10.8442
▁미흡	-10.8442
▁방영	-10.8443
▁평범	-10.8443
▁묻	-10.8444
▁순수	-10.8446
▁국악	-10.8446
▁대립	-10.8447
▁주방	-10.8448
▁모범	-10.8448
▁채소	-10.8452
▁동료들	-10.8452
▁치유	-10.8454
▁군산	-10.8456
▁축	-10.8456
▁하게	-10.8458
▁보이며	-10.8459
▁액션	-10.8463
▁민생	-10.8463
검	-10.8463
개선	-10.8463
▁이혼	-10.8465
자원	-10.8466
▁외출	-10.8467
▁되나	-10.847
▁저항	-10.8477
▁정할	-10.8479
▁포기	-10.848
국제	-10.8481
▁크	-10.8482
▁1.5	-10.8483
▁재배	-10.8492
변	-10.8492
놀이	-10.8492
하였을	-10.8492
▁자재	-10.8492
▁도봉구	-10.8494
▁열람	-10.8495
▁할게요	-10.8496
▁개장	-10.8496
유지	-10.8498
▁사후	-10.85
▁당했다	-10.8503
▁마련된다	-10.8503
▁자살	-10.8504
▁감소했다	-10.8507
셔야	-10.8508
▁분식회계	-10.8511
▁발생하고	-10.8519
▁이용하고	-10.852
▁기원	-10.8524
▁중대한	-10.8527
▁김영	-10.8528
연대	-10.8529
▁기무사	-10.8531
▁시작하는	-10.8533
▁수상했다	-10.8533
▁줄일	-10.8536
왜	-10.854
▁석유	-10.8543
재정	-10.8547
▁개발해	-10.8548
▁먼	-10.8549
▁전체의	-10.8553
전문가	-10.8553
▁악기	-10.8555
▁예정이라	-10.8558
▁소방관	-10.8569
▁월드	-10.857
▁다하겠	-10.8574
자산	-10.8578
▁구미	-10.858
▁출퇴근	-10.8583
됐어요	-10.8591
겸	-10.8594
▁그치	-10.8594
▁갖추	-10.8594
▁필요합니	-10.8596
▁이어져	-10.8598
습	-10.8599
디어	-10.86
▁궁금해	-10.8601
▁영하	-10.8601
▁흡수	-10.8603
▁드러난	-10.8604
▁밀집	-10.8606
방향	-10.8606
▁최우선	-10.8607
▁철강	-10.8607
▁앓	-10.861
▁전산	-10.8613
▁개시	-10.8618
▁배상	-10.8621
▁폭발적	-10.8621
▁그렇다	-10.8623
엔터테인먼트	-10.8626
▁평생교육	-10.8627
▁늦어	-10.8628
▁개최되	-10.8631
카페	-10.8632
▁드러내	-10.8637
▁악취	-10.8642
▁남경필	-10.8644
유예	-10.8644
▁탈출	-10.8644
▁목요일	-10.8644
▁코스피	-10.8645
▁국세청	-10.8645
▁마이너스	-10.8646
▁베를린	-10.8646
▁국가주석	-10.8646
▁일상생활	-10.8647
맥	-10.8647
35	-10.865
▁서부	-10.8651
▁국어	-10.8653
▁마련하고	-10.8654
▁알려지면서	-10.8655
▁파손	-10.8655
▁살기	-10.8655
▁볼거리	-10.8655
▁스티븐	-10.8657
▁헝가리	-10.8657
▁박원순	-10.8657
▁여동생	-10.8657
▁아이스크림	-10.866
▁공정거래위원회	-10.8661
▁잡기	-10.8662
▁알겠습니다	-10.8662
▁한꺼	-10.8662
▁쏠린다	-10.8663
▁상하이	-10.8665
▁파급	-10.8665
▁패배	-10.867
▁오사카	-10.8671
▁우산	-10.8672
▁불이익	-10.8673
▁많지만	-10.8675
케어	-10.8676
▁데이트	-10.8678
▁프로세스	-10.8679
▁공정성	-10.868
▁근무하는	-10.868
▁거치	-10.8681
풀	-10.8684
▁나누고	-10.8685
▁원고	-10.8685
▁선호도	-10.8685
쳐	-10.8686
▁못했습니다	-10.8689
▁정준영	-10.869
▁음	-10.8692
▁기량	-10.8693
▁손잡	-10.8694
▁유발	-10.8694
▁어우러	-10.8696
▁사무총장	-10.8697
▁포스터	-10.8698
▁라면	-10.8698
▁키우고	-10.87
▁소요	-10.8704
▁남북관계	-10.8706
▁이뤄지고	-10.8712
▁협의하여	-10.8712
▁상관	-10.8713
원합니다	-10.8714
▁희생자	-10.8717
▁치즈	-10.8719
▁못해서	-10.8724
▁방송국	-10.8724
▁신제품	-10.8725
▁추측	-10.8725
▁키우	-10.8734
▁한국문화원	-10.8737
▁받아들이	-10.8741
▁구성되어	-10.8742
져야	-10.8742
▁2002	-10.8743
▁사회적경제	-10.8745
▁분산	-10.8746
▁하위	-10.8751
▁도착한	-10.8752
▁극단적	-10.8755
▁가요	-10.8755
▁화장	-10.8755
▁디	-10.8757
▁하향	-10.8761
▁합쳐	-10.8767
▁고의	-10.8773
▁만든다	-10.8776
▁만나고	-10.8777
▁반전	-10.8781
정원	-10.8783
▁추첨	-10.8783
▁부착	-10.8786
픈	-10.8787
▁충실	-10.8788
▁제게	-10.8793
련	-10.8795
▁한미	-10.8797
▁침수	-10.8797
▁연체	-10.8798
▁동남아	-10.8799
▁보건소	-10.8801
▁보호자	-10.8803
편의	-10.8803
▁수행하기	-10.8805
▁시범사업	-10.8807
▁안산시	-10.8808
▁김정	-10.8816
▁논	-10.8817
▁일자	-10.8821
접할	-10.8827
▁떡	-10.8829
▁DMZ	-10.8832
▁신청인	-10.8833
▁금방	-10.8834
▁드리	-10.8834
내역	-10.8835
▁많은데	-10.8837
▁타자	-10.8837
▁활동하는	-10.8838
▁벗	-10.884
▁연대	-10.8841
▁아프	-10.8841
▁커플	-10.8842
싱	-10.8848
▁위법	-10.8848
결제	-10.8849
▁이뤄지는	-10.8851
▁소스	-10.8855
파장	-10.8857
▁애니메이션	-10.8858
▁구정	-10.8858
▁자식	-10.8862
▁포스트	-10.8863
▁자사	-10.8863
간담회	-10.8864
▁되는지	-10.8865
▁수상한	-10.8867
▁정하여	-10.8871
▁배정	-10.8871
▁범	-10.8873
가정	-10.8875
▁소위	-10.8877
▁한국인들	-10.8886
▁랩	-10.8886
▁주신	-10.8889
▁초래	-10.8889
▁철수	-10.889
▁깨	-10.889
▁신중	-10.889
▁이동통신	-10.889
천명	-10.8892
▁좌우	-10.8895
시키고	-10.8902
▁어렵다고	-10.8902
▁참가하는	-10.8903
▁열악	-10.8904
▁규정한	-10.8905
▁펴	-10.8906
▁탑	-10.8909
받았다	-10.891
▁숙제	-10.8912
▁활발히	-10.8914
느라	-10.8918
▁블로그	-10.892
▁법조계	-10.8921
▁염증	-10.8921
▁무언가	-10.8922
▁시나리오	-10.8922
▁아르바이트	-10.8922
▁눈빛	-10.8923
▁경제부총리	-10.8924
▁진행되었다	-10.8928
▁동구	-10.893
▁선수단	-10.893
▁남겼다	-10.8931
과제	-10.8933
▁내용이다	-10.8933
▁금융위원회	-10.8935
▁세탁	-10.8935
▁우울증	-10.8935
▁나오면	-10.8936
▁입사	-10.8941
▁사로잡는	-10.8941
▁포즈	-10.8943
▁접수된	-10.8945
▁교정	-10.8945
▁연준	-10.8947
▁소주	-10.8947
▁손가락	-10.8948
▁보세요	-10.895
▁취미	-10.8951
▁5000	-10.8951
▁서울중앙지법	-10.8952
▁지내	-10.8952
▁인천공항	-10.8952
▁2004	-10.8953
▁탁월	-10.8953
가스	-10.8954
▁지내고	-10.8957
▁줘	-10.8961
▁국민일보	-10.8961
▁BMW	-10.8962
故	-10.8965
▁조사결과	-10.8969
▁출하	-10.897
▁한자리	-10.897
▁문화의	-10.897
▁전세	-10.8971
제한	-10.8971
▁싸이	-10.8976
▁걸렸다	-10.8979
▁조율	-10.898
▁대표단	-10.898
▁되면서	-10.8981
▁민간단체	-10.8982
▁48	-10.8982
▁동점	-10.8983
▁장기간	-10.8985
▁육아	-10.8988
▁전무	-10.8988
▁수강	-10.8991
▁만나서	-10.8995
▁경과	-10.8997
▁보상금	-10.9
지고	-10.9001
▁군인	-10.9001
▁증권사	-10.9002
▁세웠다	-10.9004
▁산림	-10.9007
라서	-10.9007
▁부산광역시	-10.9007
랑	-10.901
▁형제	-10.9014
▁재개발	-10.9014
코드	-10.9015
▁참석할	-10.9021
▁지시했다	-10.9022
▁거짓	-10.9036
▁상시	-10.9038
▁신인	-10.9038
▁군대	-10.9038
▁탈락	-10.9046
으	-10.9048
달아	-10.9049
올림픽	-10.9051
허가	-10.9054
았다	-10.9056
목적	-10.906
▁운영자	-10.9061
▁800	-10.9063
▁관찰	-10.9064
▁모색	-10.9068
▁여학생	-10.9069
▁주최한	-10.9071
▁시연	-10.9071
▁선택할	-10.9072
▁KBO	-10.9072
▁2,000	-10.9079
▁가지는	-10.9081
사람	-10.9082
▁지배	-10.9083
해달라고	-10.9084
▁소득주도성장	-10.9088
▁잡는	-10.9092
▁현실화	-10.9095
ha	-10.9098
▁채워	-10.9101
▁문재인정부	-10.9105
역사	-10.9109
▁철회	-10.911
▁행운	-10.911
아파트	-10.911
▁요구하고	-10.9113
▁편리하	-10.9115
▁오신	-10.9118
▁혼	-10.912
▁선정해	-10.912
관광	-10.9121
▁사내	-10.9126
▁투입된	-10.9126
▁됐다고	-10.9128
▁놓	-10.9129
▁추산	-10.9131
▁유지하고	-10.9132
▁구두	-10.9133
▁출국	-10.9135
음악	-10.9136
▁괜찮	-10.9141
동의	-10.9141
▁규정하고	-10.9147
▁전주	-10.9149
▁한은	-10.9149
▁부르	-10.9149
▁메인	-10.9149
▁위치해	-10.915
▁비위	-10.9151
▁부드러	-10.9151
▁벤투	-10.9155
▁단점	-10.9155
▁가르치	-10.9156
▁배우자	-10.9158
▁V	-10.9159
U	-10.9162
아이	-10.9162
▁제외하고	-10.9168
대교	-10.9169
캠프	-10.917
족	-10.9171
▁백제	-10.9173
▁국토	-10.9173
▁앉	-10.9174
▁만기	-10.9174
▁바깥	-10.9174
▁체	-10.9178
▁민주평화당	-10.9179
▁전제	-10.9184
▁내수	-10.9184
▁선고받았다	-10.9185
▁현실적	-10.9186
▁대중문화	-10.9187
▁엄	-10.9187
▁웹툰	-10.9188
하실	-10.9189
▁나은	-10.919
시길	-10.9191
▁어렸을	-10.9191
▁나타내	-10.9197
▁통장	-10.9198
▁책임감	-10.9199
학습	-10.9201
▁주관부서	-10.9203
▁좋아합니다	-10.9203
▁맞추	-10.9204
▁수강료	-10.9206
▁상해	-10.9207
▁과학기술정보통신부	-10.9207
▁의사결정	-10.9209
장애	-10.921
▁김겸	-10.921
▁실형	-10.9211
▁700	-10.9213
▁이룬	-10.9216
단위	-10.9217
▁케이블	-10.922
았습니다	-10.9222
▁간격	-10.9223
▁들었어요	-10.9223
협정	-10.9224
건물	-10.9225
▁관해서	-10.9226
▁결단	-10.9229
▁결승전	-10.923
▁월급	-10.923
▁내기	-10.9232
무대	-10.9233
▁특강	-10.9234
▁확대될	-10.9234
▁신흥국	-10.9235
▁영유아	-10.9236
▁짓고	-10.9237
▁전문적	-10.9238
▁반대하	-10.9239
▁열쇠	-10.9239
범위	-10.9239
▁화합	-10.924
▁생산량	-10.924
▁저출산	-10.9241
▁고난	-10.9241
▁의료기관	-10.9246
▁황교안	-10.9247
추위	-10.9249
▁의	-10.9252
도의	-10.9253
▁마스크	-10.9261
▁짜	-10.9262
기반	-10.9264
▁43	-10.9265
▁건지	-10.9268
▁불가능	-10.9269
▁무덤	-10.9271
▁도구	-10.9274
▁수시	-10.9277
▁점검하고	-10.928
▁싶다는	-10.9283
▁생산성	-10.9286
▁노무현	-10.9289
▁판단해	-10.9291
▁선택한	-10.9291
기사	-10.9293
▁재밌	-10.9294
▁등장했다	-10.9294
▁시행계획	-10.9297
▁기운	-10.9305
▁꼽히는	-10.9305
▁홀로	-10.9306
▁수령	-10.9307
▁걸고	-10.9308
▁하원	-10.9309
▁제조업체	-10.9311
▁패스	-10.9312
▁세일	-10.9312
하다고	-10.9314
▁수급	-10.9316
▁최우수	-10.932
▁정밀	-10.932
▁주장하고	-10.932
▁사라졌다	-10.9322
▁검토하고	-10.9322
공항	-10.9327
▁종일	-10.9329
▁바뀐	-10.9342
▁다문화	-10.9343
사례	-10.9344
▁파주	-10.9346
▁구매한	-10.9346
▁블루	-10.9347
딩	-10.9348
▁문법	-10.9349
▁철학	-10.9351
▁복무	-10.9353
▁기술적	-10.9355
▁전시장	-10.9356
년차	-10.9359
(3	-10.9362
▁발효	-10.9362
있습니다	-10.9362
▁선교사	-10.9365
▁레드	-10.9365
▁표지	-10.9366
분석	-10.9366
▁원천	-10.9368
▁선정했다	-10.9379
▁37	-10.9381
▁덮	-10.9382
▁고대	-10.9388
▁밀접	-10.9391
운반	-10.9393
랜드	-10.9406
▁털어	-10.9408
참여	-10.9409
▁참여자	-10.941
▁지불	-10.941
▁이자	-10.9412
▁널	-10.9413
▁삭제	-10.9416
▁FTA	-10.9419
▁재현	-10.9421
식품	-10.9431
전문	-10.9431
된다고	-10.9431
▁제외한다	-10.9434
▁중계	-10.9435
이라서	-10.9435
꽉	-10.9438
처리하기	-10.9441
▁한다면	-10.9443
▁합리적	-10.9445
▁처리할	-10.9446
▁양이	-10.9447
분간	-10.9448
▁가벼운	-10.9455
▁국정	-10.9455
▁예쁜	-10.9455
▁인보이스	-10.9457
▁축구대표팀	-10.9457
▁같네요	-10.9457
▁붙잡혔다	-10.9457
▁김종	-10.9458
버	-10.9459
▁어우러져	-10.9459
▁잇따르	-10.9462
이기에	-10.9462
둘	-10.9463
▁극대화	-10.9465
▁아픔	-10.9467
▁파문	-10.9467
▁잉글랜드	-10.947
▁대북제재	-10.9471
▁전화번호	-10.9477
▁바쁜	-10.9478
▁나눈	-10.9479
▁끈	-10.9482
▁돌아왔다	-10.9482
▁연구위원	-10.9483
▁스티커	-10.9483
▁약세	-10.9484
청년	-10.9485
당시	-10.9485
▁베네수엘라	-10.9486
▁출생	-10.9487
▁총액	-10.9488
▁지은	-10.9488
▁대대적	-10.9488
▁명목	-10.9489
접수	-10.9491
▁후보들	-10.9491
▁돋보이는	-10.9494
▁들어오	-10.9494
▁않았을	-10.9495
▁추진해	-10.9496
맨	-10.9498
▁의거	-10.9499
▁화성시	-10.9499
▁세무조사	-10.95
▁영문	-10.9501
▁챙겨	-10.9501
▁흰	-10.9502
▁탄탄한	-10.9506
▁인턴	-10.9506
▁고령화	-10.9507
▁돌보	-10.9508
▁불가피한	-10.9509
▁상위권	-10.9509
▁붉은	-10.9509
▁예매	-10.9509
▁추진하	-10.9515
디자인	-10.9515
▁부르는	-10.9518
▁관계공무원	-10.9519
▁제어	-10.952
지난	-10.9522
▁싶어서	-10.9522
▁아름답	-10.9527
▁재벌	-10.9528
▁더위	-10.9529
▁해법	-10.953
▁제보	-10.9532
▁맑은	-10.9533
▁남한	-10.9535
▁유적	-10.9536
▁분당	-10.9537
▁해주는	-10.9538
수사	-10.9539
▁판교	-10.9545
▁경찰서	-10.9546
▁조성사업	-10.9552
▁유망	-10.9552
▁가려	-10.9553
▁일산	-10.9553
▁특	-10.9555
▁동화	-10.9555
▁것이며	-10.9558
▁고등학생	-10.9559
▁정점	-10.9563
▁뿐이다	-10.9563
▁약물	-10.9572
연도	-10.9573
▁매달	-10.9574
▁정보화	-10.9575
▁160	-10.9576
됐으며	-10.9579
▁닭	-10.9582
▁연애	-10.9583
▁독립운동	-10.9584
소장	-10.9584
▁밟	-10.9585
홍	-10.9587
리는	-10.959
E	-10.9594
▁듣기	-10.9595
▁체력	-10.9596
▁승소	-10.9597
▁무렵	-10.9598
▁목회자	-10.9599
고용	-10.9601
▁연다	-10.9606
▁잇는	-10.9608
▁바퀴	-10.961
▁이해하기	-10.9612
▁극적	-10.9612
정도	-10.9613
▁똑같	-10.9618
렸다	-10.9618
▁반영해	-10.9621
▁전송	-10.9623
▁겹치	-10.9623
▁귀국	-10.9624
▁관절	-10.9627
▁마당	-10.9628
▁연구결과	-10.9628
▁흔들	-10.963
▁도와주	-10.9632
▁수혜	-10.964
학회	-10.9642
앤	-10.9642
▁잘하는	-10.9644
룡	-10.9647
▁수원시	-10.9647
▁창원시	-10.9649
▁걷	-10.965
▁수면	-10.9652
▁생생	-10.9653
▁과천	-10.9656
▁검출	-10.9659
▁지나가	-10.9659
▁있었기	-10.9661
▁짓	-10.9661
▁결의	-10.9663
▁작성해	-10.9664
▁오고	-10.9664
▁일어나는	-10.9666
▁날인	-10.9667
▁발령	-10.9674
▁현역	-10.9675
승인	-10.9676
▁구의	-10.9676
▁울산시	-10.9678
▁시계	-10.968
▁인정한	-10.9684
요금	-10.9686
된다면	-10.9688
남북	-10.969
▁장기화	-10.969
▁사법	-10.9691
▁귀여	-10.9692
▁담보	-10.9693
▁라	-10.9693
▁주관한	-10.9693
▁정류	-10.9701
이었는데	-10.9702
▁포기하	-10.9703
▁풍	-10.9707
예술	-10.9707
▁결핵	-10.9713
미르	-10.9717
▁이바지	-10.9718
정함	-10.9724
▁책임자	-10.9724
▁평일	-10.9726
▁난방	-10.9734
최근	-10.9736
▁유니폼	-10.974
▁수백	-10.9741
39	-10.9744
▁있으므로	-10.9744
나의	-10.9744
▁민주화	-10.9744
▁놀러	-10.9745
으세요	-10.9745
초등학교	-10.9746
▁〈	-10.9747
글	-10.9747
▁김성	-10.975
▁꾸	-10.975
▁자매	-10.9751
▁간판	-10.9753
▁언젠가	-10.9755
▁답방	-10.9756
▁예정이에요	-10.9757
▁알아야	-10.9758
▁듯하다	-10.9759
▁왔	-10.9759
▁삼성바이오로직스	-10.9759
▁발표된	-10.976
▁해결책	-10.9761
▁최우수상	-10.9761
▁반찬	-10.9762
확대	-10.9762
▁독점	-10.9765
▁후기	-10.9766
▁풀어	-10.9767
▁하세요	-10.9768
▁단백질	-10.977
▁기숙사	-10.9771
▁관계기관	-10.9773
렛	-10.9774
머리	-10.9776
▁소폭	-10.9776
▁다해	-10.9777
▁기록하며	-10.9778
▁광화문	-10.9781
▁향기	-10.9782
▁협약식	-10.9782
▁계신	-10.9783
생산	-10.9783
▁54	-10.9783
▁경연	-10.9783
▁숨지	-10.9787
▁넘어가	-10.9787
▁가이드라인	-10.9788
▁소속기관	-10.9789
스트	-10.979
▁예정인	-10.9791
지면서	-10.9791
▁기술개발	-10.9791
▁휴대	-10.9791
▁생기는	-10.9793
▁들어오는	-10.9793
▁아끼	-10.9795
▁직위	-10.9795
▁공판	-10.9796
▁행태	-10.9798
관계자	-10.9799
지방자치법	-10.98
▁메르스	-10.9802
▁골프장	-10.9804
ICT	-10.9811
뼈	-10.9813
▁박차	-10.9817
▁영광	-10.982
▁고령	-10.9824
▁표본	-10.9824
데이	-10.9825
▁미술관	-10.9825
▁생각하지	-10.9827
벌	-10.9828
튼	-10.983
▁화해	-10.983
▁130	-10.9831
용품	-10.9831
▁마련되어	-10.9833
▁맞았다	-10.9833
▁높아진	-10.9835
구의	-10.9836
이거나	-10.9837
▁공부하고	-10.9837
▁수영장	-10.9838
현상	-10.9838
▁인정받	-10.9838
▁책상	-10.9839
▁내놓	-10.984
▁중복	-10.9843
▁지키고	-10.9843
▁용인시	-10.9843
▁대학생들	-10.9845
확인	-10.9851
▁요청하는	-10.9855
띤	-10.9855
▁결재	-10.9856
▁신기술	-10.9859
▁흘리	-10.9862
▁대피	-10.9864
▁시작되는	-10.9867
칙	-10.9867
봐	-10.9868
경쟁	-10.9869
▁붙어	-10.987
▁쿠폰	-10.9872
▁뽑	-10.9873
▁잠정	-10.9876
▁노력해야	-10.9876
▁음반	-10.9879
▁소망	-10.9879
▁출신인	-10.988
▁접목	-10.9884
▁시간대	-10.9886
국민	-10.9888
정돼	-10.9889
▁공부하는	-10.989
▁횡령	-10.9898
▁합리적인	-10.9898
▁이어진다	-10.9899
▁포함되	-10.9901
▁횟수	-10.9901
▁공통	-10.9901
▁공론화	-10.9902
▁동부	-10.9903
▁정체성	-10.9906
▁편이	-10.9908
▁확정된	-10.9914
▁모자	-10.9915
▁단일	-10.9918
▁힘입	-10.992
▁가능하고	-10.9924
36	-10.993
▁유아	-10.993
▁정성	-10.9933
▁분류	-10.9934
교육감	-10.9935
▁어울리는	-10.9936
▁구로구	-10.9938
▁공군	-10.9942
▁칠	-10.9943
▁급식	-10.9945
▁혁명	-10.9945
▁공세	-10.9945
이익	-10.9946
▁동쪽	-10.9946
▁통역	-10.9947
▁불참	-10.9949
▁용이	-10.9951
▁시비	-10.9952
▁기내	-10.9952
▁목적지	-10.9958
▁확인하기	-10.9962
▁아닐	-10.9963
▁키우는	-10.9963
▁결정하는	-10.9963
▁것이었다	-10.9966
▁기각	-10.9966
▁주면	-10.9974
〉	-10.9974
▁없음	-10.9976
매체	-10.9978
▁이른다	-10.998
▁방문할	-10.998
▁신용	-10.9981
▁상승했다	-10.9981
▁추구	-10.9982
▁3000	-10.9983
▁뚫	-10.9992
▁리조트	-10.9994
▁신청자	-10.9996
▁녹	-10.9997
▁연인	-10.9999
▁벚꽃	-11
▁무인	-11.0001
▁본격화	-11.0003
▁J	-11.0003
▁협의체	-11.0007
▁수렴	-11.0009
▁얻는	-11.0011
▁콩	-11.0012
▁신축	-11.0013
▁L	-11.0021
클럽	-11.0023
▁확대하는	-11.0027
항공	-11.0028
▁짐작	-11.0028
▁로버	-11.0028
▁벌이는	-11.003
▁걷는	-11.0031
▁아쉽	-11.0031
▁노트북	-11.0034
(7	-11.0036
▁일어날	-11.0037
▁치른	-11.0037
▁아니에요	-11.0038
▁입었다	-11.0039
▁초미세먼지	-11.0039
▁1998	-11.004
항호	-11.0041
▁넘겨진	-11.0042
▁상자	-11.0042
▁59	-11.0043
▁컨테이너	-11.0044
동굴	-11.0047
▁해석된다	-11.0047
▁편견	-11.0047
▁찬반	-11.0048
▁이상한	-11.0051
▁김성태	-11.0051
▁민간위탁	-11.0052
▁신곡	-11.0052
▁제도개선	-11.0053
▁창문	-11.006
과목	-11.0062
▁서대문구	-11.0064
▁결실	-11.0065
100	-11.0066
▁불평등	-11.0066
▁돌려	-11.0067
▁매운	-11.0068
▁한국전쟁	-11.0071
▁규명	-11.0072
▁세월	-11.0072
▁마크	-11.0074
▁못하면	-11.0075
▁함유	-11.0075
▁통일부	-11.0076
▁합격자	-11.0077
▁시내버스	-11.008
▁구제역	-11.0082
▁신분증	-11.0082
▁아이디	-11.0083
▁유죄	-11.0083
▁공백	-11.0083
▁식재료	-11.0083
▁교과서	-11.0083
▁평택항	-11.0084
▁막아	-11.0085
인식	-11.0085
▁어릴	-11.0086
▁작곡가	-11.0091
▁발명	-11.0091
▁힙합	-11.0092
▁불공정	-11.0095
▁취한	-11.0096
정한	-11.0097
▁활기	-11.0097
▁다큐멘터리	-11.0098
▁시작한다	-11.0099
▁방역	-11.01
▁환전	-11.0102
▁항	-11.0102
▁이어가고	-11.0103
▁각별	-11.0105
▁품고	-11.0108
▁놓치	-11.0109
▁수산물	-11.0109
더라고요	-11.011
▁넘기	-11.0111
▁비트코인	-11.0114
▁검은	-11.0115
▁교직원	-11.0118
▁예상하고	-11.0118
▁확인되지	-11.0121
▁읽는	-11.0122
▁자립	-11.0124
무늬	-11.0126
▁성매매	-11.0127
윤씨	-11.0131
▁태양	-11.0132
▁업소	-11.0133
▁있었어	-11.0134
▁처지	-11.0134
▁과감	-11.0136
▁공기청정기	-11.0138
▁지붕	-11.014
지방공무원	-11.014
교육청	-11.0144
▁독도	-11.016
▁편리	-11.0162
▁당부	-11.0164
▁경제정책	-11.0168
▁거론	-11.0173
민의	-11.0176
▁회의실	-11.0178
32	-11.0181
▁출판	-11.0183
▁기록하고	-11.0183
▁불가	-11.0184
▁과실	-11.0186
▁귀가	-11.0187
▁착수	-11.0189
▁일으킨	-11.0189
▁적용한	-11.0195
▁불신	-11.0196
▁성장하고	-11.0196
▁통로	-11.0197
52	-11.0197
▁소수	-11.0198
y	-11.0198
▁체류	-11.0202
▁개발자	-11.0206
▁재학생	-11.0206
▁성당	-11.0207
▁됐고	-11.0209
▁확인하	-11.021
▁투입해	-11.021
▁도입한	-11.0211
▁성숙	-11.0214
택	-11.0218
고속도로	-11.0218
▁가져다	-11.0223
▁분석하고	-11.0223
▁잠깐	-11.0225
▁넓	-11.0228
▁지키	-11.023
▁연령대	-11.023
▁파워	-11.0231
몰	-11.0238
▁부모들	-11.024
▁재무	-11.024
▁회동	-11.0249
▁복사	-11.0252
▁41	-11.0255
▁정면	-11.0256
▁정시	-11.0257
▁속이	-11.0259
▁하시	-11.0262
▁섬세	-11.027
▁잠실	-11.0272
▁속한	-11.0274
▁슛	-11.0274
O	-11.0274
▁가져가	-11.0276
▁간절	-11.0276
모씨	-11.0277
▁왜곡	-11.0279
눌	-11.0281
▁계약서	-11.0288
메	-11.0288
▁환승	-11.0294
▁실시해	-11.0296
▁중지	-11.0297
▁이루는	-11.0297
▁공지	-11.03
▁우편	-11.0303
▁칭찬	-11.0304
듭	-11.031
▁합의했다	-11.0313
▁경매	-11.0316
놨다	-11.0319
젯	-11.032
‧	-11.0321
▁신부	-11.0323
▁총회	-11.0325
▁친절	-11.0327
▁추경	-11.0327
▁자체적	-11.0327
▁누워	-11.0328
▁빛나	-11.033
▁PD	-11.0331
▁자고	-11.0335
▁톱	-11.0335
▁만만치	-11.0337
차원	-11.0337
▁외치	-11.0337
▁전당대회	-11.0339
▁줄어드는	-11.0339
▁원단	-11.034
▁회계연도	-11.034
▁검은색	-11.0342
▁빌딩	-11.0344
▁어때요	-11.0344
▁수확	-11.0344
▁멀	-11.0344
▁청탁	-11.0344
▁공매도	-11.0345
▁반영되	-11.0345
규칙	-11.0346
▁적발됐다	-11.0347
▁정산	-11.0347
▁금융시장	-11.035
▁받아들일	-11.0351
▁잦은	-11.0352
▁학술	-11.0352
▁도약	-11.0352
▁줬다	-11.0354
▁파악됐다	-11.036
▁뒤집	-11.0363
▁일행	-11.0365
▁똑같은	-11.0365
▁장미	-11.0365
수술	-11.0367
▁창단	-11.0367
▁임산부	-11.0367
탈	-11.0368
▁샐러드	-11.0368
해주셔서	-11.0372
▁협박	-11.0372
▁확정됐다	-11.0373
▁흔들리	-11.0374
▁솔직히	-11.0374
▁늘려	-11.038
▁여섯	-11.0381
제재	-11.0381
해줄	-11.0382
▁본문	-11.0388
▁결정한	-11.0388
▁아니야	-11.039
▁참여하여	-11.0394
▁신고자	-11.0394
▁메이	-11.0398
▁추천한	-11.0399
▁위치하고	-11.0401
▁신뢰도	-11.0404
d	-11.0409
만큼	-11.0409
▁압도적	-11.0412
▁가짜	-11.0414
▁몰래	-11.0414
▁잠재력	-11.0417
▁품종	-11.0418
▁쓰기	-11.0423
▁원하지	-11.0425
▁곰	-11.0425
▁울	-11.0426
▁손님들	-11.0426
만여명	-11.0427
▁전문기관	-11.0427
▁이동하	-11.043
▁떠났다	-11.0432
▁검토해	-11.0432
▁황금	-11.0432
▁치아	-11.0436
▁고지	-11.0436
▁같지	-11.0438
▁출연한	-11.0438
▁의상	-11.0438
▁화학	-11.0439
▁모래	-11.044
▁교재	-11.0442
▁떨어지	-11.0448
▁결함	-11.0451
▁받았던	-11.0452
▁누락	-11.0452
▁부족하다	-11.0453
▁무용	-11.0454
▁설명하고	-11.0455
▁갔	-11.0455
하였으나	-11.0458
▁폭탄	-11.0458
▁인지	-11.0459
▁허락	-11.0461
▁했으나	-11.0463
▁이루고	-11.0464
▁대금	-11.0464
▁감자	-11.0464
투표	-11.0466
▁먹으	-11.0467
▁표면	-11.0468
현직	-11.0468
길거리	-11.047
보호	-11.0475
▁터지	-11.0476
▁특이	-11.0476
설계	-11.0482
▁연결해	-11.0483
▁줄기	-11.0485
▁쏘	-11.0486
▁정신적	-11.0487
▁이모	-11.049
신가요	-11.0491
▁나가겠다	-11.0493
▁광주형	-11.0497
▁마침	-11.0498
▁살아가는	-11.0499
▁어렵고	-11.0501
▁펼치는	-11.0501
▁해수욕장	-11.0501
▁중이며	-11.0502
▁감상	-11.0503
▁동원해	-11.0505
이후	-11.0508
▁근절	-11.0508
▁무시	-11.051
38	-11.051
▁소개해	-11.0511
농가	-11.0514
▁촛불	-11.0516
시킨다	-11.0519
▁원주	-11.052
▁치고	-11.052
▁뜨겁	-11.0521
▁테	-11.0523
▁확보할	-11.0527
▁소개하고	-11.0531
환자	-11.0532
▁석방	-11.0536
▁무너지	-11.0536
▁강화하는	-11.0538
릭	-11.0539
게요	-11.054
▁종사	-11.054
▁부서장	-11.0552
▁바뀌어	-11.0555
▁크림	-11.0555
정신	-11.0557
▁익숙	-11.0558
▁내리고	-11.0559
▁체결한	-11.0563
▁영세	-11.0564
▁도모	-11.0565
▁지목	-11.0565
▁설립된	-11.0566
▁중재	-11.0568
▁섬유	-11.0568
조정	-11.057
▁파주시	-11.0572
▁수사권	-11.0574
▁사서	-11.0577
▁굴	-11.0578
▁성취	-11.0579
▁확인된	-11.0582
▁뒷받침	-11.0585
▁가볍	-11.0586
▁열리	-11.0589
▁질의	-11.059
▁구매자	-11.0593
▁농민	-11.0596
▁독자	-11.0599
청장	-11.0599
▁재직	-11.06
▁성형	-11.0619
되었을	-11.062
▁증정	-11.0621
▁자율	-11.0621
및	-11.0621
▁도착할	-11.0624
벽	-11.0625
▁사무관	-11.0626
사단	-11.0627
▁기아차	-11.0627
▁세포	-11.0629
틀	-11.0632
팔렘방	-11.0634
현지시각	-11.0635
▁옛날	-11.0637
하시는	-11.0638
▁1960	-11.0644
바람	-11.0644
▁자진	-11.0645
▁늘어	-11.0647
▁욕설	-11.0647
▁옥상	-11.0649
▁메신저	-11.0649
▁겨우	-11.0649
▁돌아올	-11.065
▁스트리밍	-11.0651
▁프로모션	-11.0651
▁운영해	-11.0651
▁품격	-11.0652
▁반해	-11.0652
▁네덜란드	-11.0652
▁접수한	-11.0652
▁본부	-11.0654
▁견적	-11.0655
▁앞장서	-11.0655
▁홍역	-11.0655
▁비닐	-11.0657
▁들어설	-11.066
▁기다려야	-11.0662
▁선진	-11.0663
▁맥락	-11.0663
▁영혼	-11.0664
▁높아지면서	-11.0664
▁외곽	-11.0666
▁인명피해	-11.0667
▁김영철	-11.0668
▁컨	-11.0668
▁쓰이는	-11.0668
▁넷플릭스	-11.0668
한화	-11.0669
▁아파	-11.0671
▁말이야	-11.0671
▁돌아온	-11.0673
▁이르기	-11.0674
▁소식통	-11.0674
▁게스트	-11.0675
▁있죠	-11.0675
▁다닐	-11.0675
▁모르겠다	-11.0676
▁내놨다	-11.0676
▁마쳤다	-11.0678
▁지지층	-11.0678
▁척추	-11.0681
▁어때	-11.0681
▁사용하면	-11.0683
▁사생활	-11.0684
였어요	-11.0684
▁엘리베이터	-11.0684
▁편의성	-11.0685
▁끌어	-11.0689
▁두되	-11.0689
SNS	-11.069
하라고	-11.069
▁고용부	-11.0691
▁공격수	-11.0693
▁혈액	-11.0695
인구	-11.0697
▁욕구	-11.0698
▁했기	-11.0698
▁JTBC	-11.07
▁거울	-11.07
▁돕고	-11.07
▁헌법재판소	-11.0701
▁제휴	-11.0702
▁닿	-11.0703
해진다	-11.0704
▁스태프	-11.0705
▁시원한	-11.0706
▁벌어졌다	-11.0708
▁칸	-11.0708
▁떨어지고	-11.071
구간	-11.0711
▁것인가	-11.0711
▁달린	-11.0715
▁확보하고	-11.0715
▁것이기	-11.0719
▁녹지	-11.0721
▁개선될	-11.0721
▁바이러스	-11.0722
▁쏟아지	-11.0724
▁창고	-11.0726
▁공표	-11.0728
▁명문	-11.0728
지점	-11.0731
▁전술	-11.0731
▁조립	-11.0731
▁경고했다	-11.0732
▁공기업	-11.0732
▁올라온	-11.074
▁이론	-11.074
▁고수	-11.0741
▁상인들	-11.0743
▁던지	-11.0743
▁바꾸고	-11.0743
▁들어간다	-11.0747
▁KTX	-11.0749
▁선전	-11.0753
▁골자	-11.0753
▁종전	-11.0753
▁의안	-11.0753
▁이례적	-11.0753
▁장부	-11.0755
▁헤	-11.076
시키기	-11.076
▁목격자	-11.0761
▁속초	-11.0762
눈	-11.0763
교실	-11.0764
홈런	-11.0765
▁관중	-11.0766
▁안타	-11.0766
▁생기면	-11.0767
▁먹지	-11.0768
▁촬영한	-11.077
▁있으신가	-11.077
▁캠퍼스	-11.0772
▁없었고	-11.0775
함량	-11.078
▁결렬	-11.078
을까요	-11.0781
주일	-11.0785
▁빗	-11.0786
▁달했다	-11.0793
▁터널	-11.0797
이닝	-11.08
▁숨겨	-11.08
부산	-11.0802
▁잃고	-11.0803
▁느껴지는	-11.0804
▁방치	-11.0804
▁모은다	-11.0807
▁뮤직	-11.0807
▁중국산	-11.0807
.”	-11.0808
밴드	-11.0809
▁봤는데	-11.0809
▁승진	-11.0812
알	-11.0813
▁다니	-11.0814
▁산책	-11.0815
▁문제들	-11.0817
▁협동조합	-11.0819
전통적인	-11.082
▁환수	-11.0824
여행	-11.0826
▁교통안전	-11.0827
▁진지	-11.0832
▁수질	-11.0837
▁믿는	-11.0838
하길	-11.0842
사용량	-11.0845
▁배운	-11.0846
▁제고	-11.0852
중심	-11.0854
▁지혜	-11.0856
▁고성	-11.0857
▁변경할	-11.086
장애인	-11.0863
▁좋았다	-11.0868
일정	-11.0869
▁대략	-11.087
시민	-11.0875
하셔야	-11.0875
▁지키는	-11.0877
▁소중	-11.0879
▁김태	-11.0884
▁괜찮아	-11.0885
▁발표할	-11.0885
▁침	-11.0887
▁떨	-11.0887
▁거주하고	-11.0892
▁약국	-11.0896
았을	-11.0899
▁여행객	-11.0903
▁물어	-11.0904
하우스	-11.0905
▁중도	-11.091
▁주축	-11.0914
▁선고받	-11.0917
▁켜	-11.0925
▁명성	-11.0926
운용	-11.0929
▁쿠	-11.0929
▁바꾸	-11.0931
▁이탈	-11.0933
▁쏟아져	-11.0936
▁이어가	-11.0937
▁결정된	-11.0942
▁동작구	-11.0951
▁키워	-11.0952
결	-11.0954
▁신도	-11.0956
속도	-11.0956
▁마련할	-11.0957
▁곁	-11.0957
▁공개된다	-11.0959
천원	-11.096
▁추천하는	-11.0961
지난해	-11.0962
▁가상	-11.0962
회관	-11.0963
▁유가족	-11.0963
▁기적	-11.0963
사무	-11.0967
회째	-11.0967
▁안정성	-11.0969
요청	-11.0971
▁디저트	-11.0972
▁괜찮은	-11.0972
▁흉	-11.0973
▁당내	-11.0973
▁하이	-11.0974
▁강풍	-11.0975
▁이루어질	-11.0975
▁자택	-11.0976
▁라인업	-11.0976
▁경기도농업기술원	-11.0976
▁시리아	-11.0979
▁알려주시면	-11.0979
▁1970	-11.0979
▁나옵니	-11.098
▁환경오염	-11.098
▁모르겠어요	-11.0981
▁와중	-11.0981
전형	-11.0983
▁체크	-11.0985
▁사진들	-11.0986
▁벤처	-11.0988
▁블라디	-11.0989
▁때로	-11.099
▁보내준	-11.099
▁중간선거	-11.0991
▁등장	-11.0991
되었던	-11.0995
▁신청하면	-11.0996
▁기점	-11.0997
▁세입	-11.0998
▁소셜미디어	-11.0999
▁면모	-11.1
▁추진한	-11.1001
▁음원	-11.1002
워	-11.1002
▁빅뱅	-11.1002
▁욕망	-11.1004
▁사용하기	-11.1005
▁도대체	-11.1007
▁국산	-11.1007
▁보행	-11.1008
▁도자기	-11.1011
▁깊게	-11.1013
▁타결	-11.1013
▁로마	-11.1014
▁가져오	-11.1015
▁행정처분	-11.1015
▁트럭	-11.1017
▁설문	-11.1019
▁편안한	-11.1021
▁남산	-11.1021
▁공개적	-11.1025
▁눈치	-11.1028
▁냉장고	-11.1031
▁도마	-11.1032
▁관리하고	-11.1033
▁팝	-11.1033
▁지원대상자	-11.1035
▁KIA	-11.1038
▁보여줬다	-11.1039
▁빌보드	-11.1039
▁결심	-11.104
▁주도한	-11.1041
사람들	-11.1043
▁서쪽	-11.1046
▁벼	-11.1049
박스	-11.1049
▁루	-11.1053
▁열흘	-11.1056
보면	-11.1058
▁때문이라고	-11.1059
▁정답	-11.1065
▁타당성	-11.1066
▁만나기	-11.1069
▁복용	-11.1071
됐다고	-11.1072
▁해변	-11.1072
▁뽑아	-11.1072
▁보편적	-11.1073
밭	-11.1074
▁완료된	-11.1074
▁떼	-11.1074
▁지원하겠다	-11.1077
▁퇴직	-11.1077
▁억제	-11.1082
▁유권자	-11.1084
▁회식	-11.1085
▁건설사	-11.1086
▁예정이	-11.1089
▁Y	-11.1089
▁다가오는	-11.1091
원인	-11.1093
▁가능하게	-11.1093
▁내각	-11.1094
▁W	-11.1095
▁넘겨	-11.1098
▁병행	-11.1099
팀장	-11.1099
▁사각지대	-11.1104
▁연구진	-11.1105
▁논의했다	-11.1106
▁동해	-11.1107
▁불과한	-11.111
▁넘지	-11.111
▁혁신성장	-11.1115
▁염려	-11.1115
▁자율적	-11.1116
터널	-11.112
▁이력	-11.112
▁국채	-11.1122
통합	-11.1124
▁운영비	-11.1124
▁라오스	-11.1127
▁봉	-11.1129
▁신고했다	-11.113
▁선정한	-11.1133
조합	-11.1134
▁털	-11.1135
▁느꼈	-11.1136
▁이뤄진다	-11.1136
신문	-11.114
세운	-11.114
▁특색	-11.1141
▁도박	-11.1142
▁경보	-11.1143
(4	-11.1145
▁참석하는	-11.1146
▁소위원회	-11.1148
▁1995	-11.115
▁실명	-11.1151
▁일본어	-11.1157
▁안전하고	-11.1157
되었고	-11.1161
▁셈	-11.1162
▁가려고	-11.1164
▁납세자	-11.1168
▁KB	-11.1168
▁적립	-11.117
충	-11.1175
▁임대주택	-11.1175
▁비싸	-11.1176
▁적용할	-11.1177
어져	-11.1177
▁감사원	-11.1177
▁바가	-11.1178
▁작곡	-11.1181
▁경쟁사	-11.1182
일수록	-11.1183
징	-11.1184
▁민주	-11.1191
▁조성하고	-11.1199
해졌다	-11.12
▁연루	-11.12
▁구조적	-11.1202
▁독	-11.1202
▁비하	-11.1208
학적	-11.1211
하려	-11.1217
염	-11.122
▁모르	-11.1222
▁제출할	-11.1223
▁체크인	-11.1226
▁의석	-11.1227
▁움직이	-11.1227
▁들어온	-11.123
▁포항시	-11.1232
▁전격	-11.1234
보니	-11.1235
▁거두	-11.1236
▁말씀해	-11.124
▁소원	-11.1241
▁47	-11.1242
▁청취	-11.1243
▁선교	-11.1245
▁주사	-11.1247
▁출제	-11.1251
▁채무	-11.1252
▁참석하	-11.1252
▁태어나	-11.1254
▁유연	-11.1255
▁최적화	-11.1255
대한민국	-11.1258
▁물리적	-11.1259
▁시민의	-11.1263
▁양념	-11.1263
▁안성	-11.1263
▁거주자	-11.1265
▁하락한	-11.1266
▁등장한	-11.1267
▁양보	-11.1269
마당	-11.1275
▁말라	-11.128
건강	-11.1282
▁도청	-11.1284
▁했을	-11.1284
▁신형	-11.1288
▁생긴다	-11.1288
▁만세	-11.1289
텔레콤	-11.129
실래요	-11.1291
▁중심지	-11.1296
▁가해	-11.1297
▁듣	-11.1303
▁강요	-11.1303
▁서둘러	-11.1305
▁남부	-11.1305
▁위안화	-11.1307
▁의사소통	-11.1308
▁영등포구	-11.1308
▁경남지사	-11.1309
▁있으시면	-11.1309
▁사회복지시설	-11.1309
▁자유로운	-11.131
단의	-11.1311
▁제외하면	-11.1311
▁걷기	-11.1312
▁감사드립니다	-11.1314
▁위탁기간	-11.1316
▁인사말	-11.1316
▁녹음	-11.1317
▁개성공단	-11.1322
▁장난감	-11.1323
▁악재	-11.1324
▁다루는	-11.1324
▁무조건	-11.1325
▁영감	-11.1326
▁태어	-11.1327
▁적용되	-11.1328
▁최강	-11.1328
▁심사위원	-11.1329
▁불거졌다	-11.1329
▁모이	-11.1332
▁썼	-11.1333
▁사흘	-11.1334
▁모듈	-11.1337
▁맞춤	-11.1337
▁추운	-11.1337
▁이슬람	-11.1338
▁용의자	-11.1339
▁킨텍스	-11.1339
▁보람	-11.134
▁한눈	-11.1341
▁삼성생명	-11.1342
▁한마디	-11.1343
▁놓인	-11.1345
▁우선순위	-11.1345
▁단기간	-11.1346
▁공공시설	-11.1346
▁장벽	-11.1347
▁높여	-11.1348
▁명백	-11.135
▁당선인	-11.1351
▁더했다	-11.1351
▁수거	-11.1351
▁제한적	-11.1354
▁도시농업	-11.1356
▁양극화	-11.1357
칭	-11.1357
▁반발하고	-11.136
▁소금	-11.136
▁선포	-11.1361
▁주민센터	-11.1362
▁부재	-11.1362
▁확정되면	-11.1364
▁천연	-11.1364
▁후원금	-11.1364
▁금연	-11.1366
▁거두고	-11.1366
▁극우	-11.1368
▁않았어	-11.1368
▁한국은행	-11.137
조선	-11.1371
▁컨셉	-11.1372
▁방송인	-11.1374
사와	-11.1374
▁없었어	-11.1375
페	-11.1375
사회적	-11.1376
▁않거나	-11.1377
▁감안해	-11.1379
▁판사들	-11.1384
▁텐	-11.1384
▁남겨	-11.1393
▁출력	-11.1396
▁기능성	-11.1398
▁대중들	-11.1403
▁신청했다	-11.1404
▁카풀	-11.1407
▁CNN	-11.1409
국내	-11.141
고루	-11.1412
▁제시하는	-11.1413
▁해임	-11.1413
▁계속될	-11.1413
▁인식하고	-11.1413
2003	-11.1416
▁타입	-11.1418
▁묶어	-11.1419
▁해방	-11.1421
▁살려	-11.1421
▁엄청나	-11.1422
▁내면	-11.1425
▁불과하다	-11.1428
▁아닌지	-11.1429
▁위안부	-11.1431
▁우대	-11.1434
보도	-11.1435
▁합산	-11.1437
▁근대	-11.144
리기	-11.1441
귀	-11.1442
▁목격	-11.1442
▁마련돼	-11.1442
▁요구된다	-11.1443
▁시작되	-11.1444
▁공직	-11.1446
▁재건축	-11.1446
▁신화	-11.1447
▁발의	-11.1447
▁전수	-11.1451
▁상응	-11.1452
▁재계	-11.1452
▁고백	-11.1453
▁되었어요	-11.1454
독	-11.1456
▁시작되기	-11.146
▁서양	-11.1462
▁의하면	-11.1463
▁호조	-11.1464
▁차별화	-11.1467
상가	-11.1471
▁가르쳐	-11.1472
▁맺고	-11.1474
▁양도	-11.1474
▁나섰	-11.1479
세력	-11.1481
▁갖추어	-11.1482
▁편안하	-11.1484
▁블록	-11.1486
▁봐요	-11.1487
▁결성	-11.1489
▁권위	-11.1491
▁메모리	-11.1491
일전	-11.1492
입	-11.1493
이면서	-11.1494
▁놓여	-11.1498
▁보좌관	-11.1501
▁끌	-11.1503
▁논의하는	-11.1504
관리하여야	-11.1508
▁미안해	-11.151
▁교육기관	-11.1516
▁응시	-11.1519
▁카라	-11.152
▁움직이는	-11.152
▁배분	-11.152
사무소	-11.152
오는	-11.1522
▁간다	-11.1531
▁공사장	-11.1532
▁딸기	-11.1533
뉴	-11.1534
▁성공할	-11.1535
▁카드사	-11.1535
▁나갔다	-11.1536
▁남양주	-11.1537
▁추진된다	-11.1542
▁대응할	-11.1547
▁남용	-11.1547
▁라이프	-11.1547
▁경관	-11.1547
▁있었을	-11.155
▁대장	-11.1552
캠퍼스	-11.1555
▁연구자	-11.1556
타임	-11.1556
▁단계적	-11.1557
▁제자	-11.1559
▁맞추어	-11.1561
▁해주	-11.1561
▁매물	-11.1566
실점	-11.1566
▁노트	-11.1569
근로자	-11.1575
2000	-11.1575
▁피할	-11.1579
▁좋겠습니	-11.1582
솔	-11.1585
▁동맹	-11.1587
모든	-11.1588
중소기업	-11.1588
▁보험금	-11.1591
투자증권	-11.1595
기획	-11.1596
▁머무	-11.1597
▁받았다고	-11.16
▁전설	-11.1603
▁제천	-11.1606
▁매진	-11.1611
되었으면	-11.1611
▁창구	-11.1612
▁방이	-11.1613
▁먼지	-11.1614
▁준비되어	-11.1624
▁재학	-11.1625
받는	-11.1627
▁고리	-11.1627
▁계속되	-11.1627
▁교원	-11.1633
▁그러하	-11.1634
광고	-11.1635
탄소	-11.1637
▁사료	-11.1637
정치	-11.1644
혜원	-11.1646
▁식약처	-11.1649
▁접대	-11.1649
▁막바지	-11.165
▁맑	-11.165
▁취향	-11.165
▁당첨	-11.1652
▁로이터통신	-11.1652
▁포도	-11.1652
▁프리미어리그	-11.1653
▁동남아시아	-11.1654
▁보내주신	-11.1654
▁구비	-11.1656
▁공통점	-11.1657
▁체납	-11.1658
▁존재감	-11.1658
▁건강관리	-11.1658
▁쉴	-11.1659
▁링크	-11.166
▁성관계	-11.166
▁보유자	-11.166
▁있겠지만	-11.166
▁면밀	-11.1664
▁햇빛	-11.1665
▁새끼	-11.1666
▁불가피	-11.1666
▁주먹	-11.1667
지상파	-11.1667
▁상향	-11.1667
▁쌍둥이	-11.1667
▁GS	-11.1669
조작	-11.1669
▁아쉬운	-11.1669
▁of	-11.1671
▁꼽	-11.1672
▁넘긴	-11.1673
▁재임	-11.1674
▁피드백	-11.1675
▁싶은데요	-11.1675
▁검색어	-11.1679
▁오피스	-11.168
▁필	-11.1683
▁마시는	-11.1683
▁누르	-11.1683
▁6·13	-11.1684
▁효력	-11.1685
▁적었다	-11.1685
▁성희롱	-11.1685
▁보아	-11.1685
▁콘크리트	-11.1687
▁경상북도	-11.1687
▁오피스텔	-11.1687
▁판로	-11.1688
▁시드니	-11.1688
▁스카이	-11.1688
▁발길	-11.1688
▁생활폐기물	-11.1691
가며	-11.1691
▁변형	-11.1699
▁모드	-11.1699
▁파란색	-11.1704
▁아마도	-11.1704
▁각오	-11.1704
▁스타벅스	-11.1705
▁돌아갈	-11.1709
▁모르고	-11.171
격	-11.1713
▁코트	-11.1714
▁띠	-11.1714
▁좋아서	-11.1714
▁위안	-11.1715
▁병력	-11.1715
수수료	-11.1715
▁민간기업	-11.1715
▁호수	-11.1717
▁쿠키	-11.1719
▁멘토	-11.172
▁아세안	-11.1722
▁돌리	-11.1723
▁저하	-11.1723
업종	-11.1723
▁아니었다	-11.1724
▁신약	-11.1724
▁교섭단체	-11.1725
▁가도	-11.1725
▁일종	-11.1726
▁착수했다	-11.1726
부담	-11.1726
▁방제	-11.1727
▁검토한	-11.173
▁상태였다	-11.174
▁핀테크	-11.174
▁동상	-11.174
▁아이콘	-11.1741
▁단일팀	-11.1742
▁편리한	-11.1744
▁원격	-11.1745
▁궁금한	-11.1747
▁LED	-11.1747
▁리콜	-11.1748
네트워크	-11.1749
▁존경	-11.175
▁투약	-11.175
▁그러면서	-11.1752
종목	-11.1755
▁발견되	-11.1756
▁읽을	-11.1758
핀	-11.176
▁김상	-11.1762
▁뜻깊	-11.1762
▁시일	-11.1762
▁원형	-11.1765
타워	-11.1768
▁드루킹	-11.1768
▁푹	-11.1768
▁주부	-11.1771
▁차지한	-11.1772
▁낙태	-11.1775
아카데미	-11.1775
▁교섭	-11.1777
▁꼽았	-11.1778
▁분담	-11.1781
▁추구하	-11.1783
▁거니	-11.1784
▁동행	-11.1786
높이	-11.1788
▁늘어났다	-11.179
대응	-11.179
▁일본군	-11.1792
▁끄는	-11.1796
▁그려진	-11.1798
▁되자	-11.1798
▁마스터	-11.1799
▁예배	-11.1804
▁행렬	-11.1804
사는	-11.1816
경쟁력	-11.1816
마켓	-11.1817
▁바르	-11.1822
▁옵션	-11.1823
▁양천구	-11.1826
▁부자	-11.1827
▁졸업생	-11.1828
동연	-11.1828
▁인문학	-11.1831
80	-11.1833
▁유산	-11.1833
도와	-11.1842
문화재단	-11.1843
▁결과적	-11.1844
밖	-11.1844
▁1,	-11.1845
▁티셔츠	-11.1846
▁관여	-11.1846
▁구제	-11.1853
▁걸로	-11.1855
▁감추	-11.1857
주민	-11.1857
체육관	-11.1858
▁업	-11.1858
람	-11.186
▁정수	-11.1862
▁그리스	-11.1862
▁재활	-11.1863
▁기뻐	-11.1863
▁기록해	-11.1872
콜	-11.1876
1987	-11.1876
▁되었고	-11.1876
▁제출된	-11.1882
▁했는지	-11.1883
▁팀들	-11.1884
펜스	-11.1885
▁고생	-11.1885
임금	-11.1887
는데도	-11.1887
▁확립	-11.1892
의견	-11.1894
▁칩	-11.1894
▁평가하고	-11.1897
범죄	-11.1901
▁못했다는	-11.1909
▁민원인	-11.1909
▁신장	-11.1913
▁최고위원	-11.1914
▁되어서	-11.1915
▁몫	-11.1916
치는	-11.1916
▁못했	-11.1917
모임	-11.1918
▁홍대	-11.1922
▁구리	-11.1924
▁반품	-11.1926
▁로고	-11.1929
▁집중하고	-11.193
▁취하	-11.193
▁떠오르	-11.1931
▁강조하	-11.1931
▁않았기	-11.1932
▁이해하는	-11.1934
희망	-11.1934
▁외식	-11.1935
▁중견	-11.1936
합의	-11.1938
▁잎	-11.1939
▁공익	-11.1939
▁작전	-11.194
▁들어가면	-11.1942
▁안정화	-11.1943
▁떠	-11.1946
▁조성된	-11.195
▁영동	-11.1957
▁느꼈다	-11.1959
▁재선	-11.1963
▁시티	-11.197
▁바위	-11.197
▁비슷	-11.1974
▁물리	-11.1974
▁수분	-11.1977
▁불가피하다	-11.1981
▁산림청	-11.1981
▁약정	-11.1982
▁보게	-11.1985
▁느낀다	-11.1986
종합	-11.1989
▁농림축산식품부	-11.199
뜻	-11.1991
▁좋았	-11.1991
살이	-11.1994
▁만들어지	-11.1994
▁엔터테인먼트	-11.1994
▁실망	-11.1996
▁보컬	-11.2006
▁대접	-11.2006
▁자존심	-11.2006
경험	-11.2006
신청서	-11.2007
▁카리스마	-11.2008
▁그렇군요	-11.2008
▁약속했다	-11.2008
▁한진그룹	-11.2008
▁일회용	-11.2008
되었으며	-11.2009
▁뉴욕타임스	-11.2009
▁프로듀서	-11.2009
▁사용하여	-11.2009
▁인천국제공항	-11.201
▁미안하지만	-11.201
▁납치	-11.2012
▁시행된	-11.2012
▁인사청문회	-11.2013
▁좁은	-11.2013
▁왕실	-11.2014
▁투명성	-11.2014
▁확연	-11.2016
인사	-11.2016
▁올라오	-11.2017
▁땐	-11.2017
▁경품	-11.2018
자로	-11.2019
▁국회의장	-11.202
▁경영권	-11.2021
▁슬픔	-11.2022
▁학교폭력	-11.2022
▁득표	-11.2024
▁탐방	-11.2024
▁남는	-11.2024
▁무거운	-11.2025
▁이렇다	-11.2025
▁아나운서	-11.2026
▁72	-11.2026
▁막혀	-11.2027
소재	-11.2027
▁챔피언스리그	-11.2028
▁도면	-11.2028
▁증세	-11.2028
▁조선시대	-11.2029
▁나타난다	-11.203
▁지나면	-11.203
▁항공권	-11.203
▁액수	-11.2031
▁차별화된	-11.2032
젠	-11.2033
▁오르면서	-11.2034
▁넘겼다	-11.2035
▁걱정하지	-11.2035
▁같은데요	-11.2035
▁떠올랐다	-11.2035
▁펜	-11.2036
틴	-11.2037
▁맡는다	-11.2039
▁산업부	-11.2039
▁사업계획	-11.204
▁산출	-11.2043
▁단일화	-11.2043
▁N	-11.2043
▁불어	-11.2043
▁과징금	-11.2044
▁당뇨병	-11.2044
▁원작	-11.2044
▁가정폭력	-11.2046
▁창의적인	-11.2046
▁만들어내	-11.2047
▁특례	-11.2047
상자	-11.2048
▁열매	-11.2049
▁비롯하여	-11.2049
▁공인중개사	-11.205
▁시위대	-11.2052
▁동해안	-11.2053
▁페이	-11.2054
▁저렴하	-11.2056
해져	-11.2056
▁금속	-11.2056
▁요청합니다	-11.2059
먼	-11.206
▁수료	-11.206
▁로드맵	-11.2062
▁통신망	-11.2063
▁셔츠	-11.2063
▁유예	-11.2066
▁내달	-11.2067
▁지역화폐	-11.207
▁청문회	-11.2071
▁조달	-11.2076
▁통산	-11.2076
▁내려진	-11.2081
▁물고기	-11.2082
▁곽	-11.2082
▁금강산	-11.2083
▁걸림돌	-11.2084
▁공직선거법	-11.2085
▁들어와	-11.2088
▁신나	-11.2089
사이	-11.2095
▁구축하는	-11.2098
2)	-11.2101
▁실습	-11.2102
▁보시면	-11.2102
▁정문	-11.2102
▁프레임	-11.2102
▁테마파크	-11.2103
▁로맨스	-11.2104
▁SW	-11.2104
▁도정	-11.2105
관세	-11.2105
▁세션	-11.2105
였고	-11.2106
여년	-11.211
연수	-11.2111
▁수비수	-11.2111
▁나타나고	-11.2116
▁병역	-11.2118
▁여가	-11.2118
▁주목할	-11.2119
발생	-11.2119
▁융자금	-11.212
페스티벌	-11.212
▁한옥	-11.212
▁일어났다	-11.212
▁취소된	-11.2121
▁해당한다	-11.2121
▁상봉	-11.2121
▁연도	-11.2122
▁즐기고	-11.2122
지방자치단체	-11.2122
▁미션	-11.2123
▁골라	-11.2126
뉴스	-11.2126
▁못했고	-11.2127
팬들	-11.2129
▁불고	-11.2131
▁마사지	-11.2132
▁수립하고	-11.2133
▁일가	-11.2134
▁상원	-11.2135
▁싫어	-11.2135
▁겪었다	-11.2137
▁들어왔다	-11.2138
▁깨지	-11.2138
▁컸	-11.2138
▁알코올	-11.2138
▁부패	-11.2139
▁만들었	-11.2142
▁마트	-11.2142
▁갑니	-11.2148
▁다가왔	-11.2148
▁겨냥	-11.2148
▁상고	-11.2151
▁뜨겁다	-11.2153
회가	-11.2153
▁업무상	-11.2153
였는데	-11.2155
▁취소할	-11.2155
▁후손	-11.2156
▁있으니까	-11.2156
▁시급하다	-11.2161
지침	-11.2161
▁바뀌었다	-11.2162
시겠어요	-11.2162
▁작용했다	-11.2165
하나은행	-11.2166
▁적혀	-11.2167
이었어	-11.2168
▁채우	-11.2168
▁먹방	-11.2168
학생들	-11.2168
거로	-11.2168
▁내놓고	-11.2169
세트	-11.2169
갔어요	-11.217
▁펼친다	-11.217
▁소독	-11.2171
▁우위	-11.2171
▁출고	-11.2174
▁간식	-11.2174
노선	-11.2174
▁발표하고	-11.2174
▁계곡	-11.2177
▁한국문화	-11.2177
▁것이어서	-11.2179
북미	-11.2184
▁취소하고	-11.2185
단장	-11.2185
▁동결	-11.2191
▁날개	-11.2195
▁다룬	-11.2196
근무	-11.2198
▁중학생	-11.2199
▁확인되면	-11.22
▁정상회의	-11.2203
▁계승	-11.2206
▁확보하	-11.2207
▁흘러	-11.2207
▁펼쳐지	-11.221
▁인하대	-11.2211
980	-11.2213
▁원리	-11.2213
부적절한	-11.2214
▁협정	-11.2215
▁성장하는	-11.2217
드루킹	-11.2221
▁무관	-11.2222
▁앤	-11.2222
펜	-11.2223
▁주자	-11.2224
V	-11.2225
▁고객사	-11.2225
▁매칭	-11.223
▁거지	-11.2239
▁관료	-11.224
▁지정하여	-11.2243
▁소셜	-11.2244
▁없는지	-11.2246
회의실	-11.2247
▁상실	-11.2248
▁무단	-11.2254
▁권장	-11.2254
▁생각했다	-11.2256
▁젖	-11.2257
지사	-11.2258
▁익	-11.226
▁짙	-11.227
▁시행한다	-11.2272
▁투자해	-11.2277
▁결집	-11.2279
▁언론사	-11.2281
▁공부할	-11.2284
▁선택해	-11.2285
오늘	-11.2285
▁주었다	-11.2286
▁캐	-11.2287
▁대비한	-11.2288
▁어려웠	-11.2289
▁행정적	-11.2297
▁고도	-11.2297
됐으나	-11.2299
▁트	-11.2302
▁뛰어	-11.2308
▁잇달	-11.2309
기온	-11.231
춘	-11.2314
▁커진	-11.2315
▁서점	-11.2315
▁마련해야	-11.2317
위인	-11.2319
▁개수	-11.232
▁일괄	-11.2323
▁설명해	-11.2327
▁중국어	-11.2327
▁코인	-11.2329
▁관리하여야	-11.233
▁상징하는	-11.2334
▁경기도청	-11.2335
a	-11.234
▁돌아보	-11.2344
안정	-11.2345
▁기록물	-11.2351
등록	-11.2351
블	-11.2352
▁예우	-11.2354
▁적도	-11.2354
사용	-11.2356
과학	-11.2359
▁건강증진	-11.236
종이	-11.2367
▁53	-11.2369
▁아닐까	-11.237
성접대	-11.237
▁말아야	-11.237
재판	-11.2373
▁기법	-11.2374
▁유학생	-11.2374
행동	-11.2375
▁YG	-11.2375
어도	-11.2375
▁이듬해	-11.2376
▁부통령	-11.2377
▁하와이	-11.2377
▁마드리드	-11.2378
▁안방극장	-11.2378
순식	-11.2378
▁선보여	-11.2379
▁드러낸	-11.2379
▁서울중앙지검	-11.238
▁연계해	-11.238
▁VR	-11.2381
▁신재생에너지	-11.2381
▁거둘	-11.2381
▁본래	-11.2382
▁그러니까	-11.2382
▁게시물	-11.2383
▁완료되면	-11.2384
▁경질	-11.2387
▁시작된다	-11.2388
▁상임위원회	-11.2388
박람회	-11.2388
▁좋아해	-11.239
▁않더라도	-11.2392
▁연결된	-11.2392
▁유료	-11.2392
위권	-11.2393
▁넥슨	-11.2393
▁발판	-11.2393
▁늘어나면서	-11.2395
▁올라와	-11.2396
▁미뤄	-11.2397
▁키워드	-11.2397
▁개최되었다	-11.2397
▁올라왔다	-11.2399
▁연락처	-11.2402
▁정신건강	-11.2402
심리	-11.2404
▁최종적	-11.2404
▁감염병	-11.2405
사장	-11.2407
▁교황	-11.2407
▁질서	-11.2408
▁공유재산	-11.2408
▁언론인	-11.241
▁출연진	-11.241
▁당대표	-11.2411
시책	-11.2413
▁북핵	-11.2414
▁욕심	-11.2414
▁여행지	-11.2415
▁진압	-11.2415
▁순차	-11.2415
▁선거제도	-11.2416
▁부산지역	-11.2417
▁강제징용	-11.2417
▁아동학대	-11.242
▁해결하는	-11.2421
▁한국노총	-11.2422
▁부구청장	-11.2423
▁선거제	-11.2423
요원	-11.2425
▁상승한	-11.2425
▁마실	-11.2428
▁성도들	-11.2428
가수	-11.243
▁증명서	-11.2432
▁담겨있다	-11.2433
▁쉼터	-11.2434
▁GTX	-11.2435
텍	-11.2435
▁컨퍼런스	-11.2436
▁지배구조	-11.2436
▁대형마트	-11.2438
▁해줄	-11.2438
▁욕	-11.2439
▁물결	-11.244
▁본청	-11.2441
▁보이지만	-11.2443
▁있겠습니다	-11.2444
▁달아	-11.2444
▁은혜	-11.2444
▁구조물	-11.2448
▁계속해	-11.2449
▁연방	-11.2449
▁강당	-11.2451
▁채취	-11.2452
협	-11.2452
▁힐링	-11.2453
▁모여서	-11.2456
만개	-11.2456
▁캄보디아	-11.2456
▁이끌어내	-11.2457
▁교역	-11.2457
▁정책실장	-11.2458
▁러시아월드컵	-11.246
▁축산	-11.2463
마트	-11.2464
▁조카	-11.2465
▁프로야구	-11.2467
소한	-11.2468
▁걸리는	-11.2469
1996	-11.2469
철도	-11.247
▁문항	-11.247
▁셰프	-11.2471
▁나가고	-11.2472
▁때문이었다	-11.2473
▁전신	-11.2473
▁찾아볼	-11.2475
년의	-11.2477
▁익명	-11.2479
▁알기	-11.2485
녀	-11.2489
▁빠졌다	-11.2489
▁지휘자	-11.2491
▁재해	-11.2492
▁달라진	-11.2493
▁필요하지	-11.2493
▁계열	-11.2494
▁버리	-11.2496
▁천재	-11.2498
▁전달하는	-11.2499
▁나와서	-11.25
춤	-11.2502
▁귀하	-11.2504
▁줄어들고	-11.2507
▁구성하고	-11.2507
▁하죠	-11.2508
▁유가	-11.251
▁낙동강	-11.2513
▁역사의	-11.2514
▁오세요	-11.2516
▁비영리	-11.2518
▁재차	-11.2518
▁농지	-11.2518
▁플러스	-11.2522
▁하네요	-11.2524
▁분기	-11.2525
▁보내기	-11.2529
▁버리고	-11.2532
°	-11.2532
▁없어도	-11.2534
▁공휴일	-11.2537
▁체중	-11.2539
▁국제적	-11.2541
▁억울	-11.2541
▁도모하	-11.2541
▁나지	-11.2541
기기	-11.2542
▁이루어	-11.2543
▁깔끔	-11.2544
▁지키기	-11.2546
▁김용	-11.2547
주식시장	-11.2549
▁봤어요	-11.2549
▁금융회사	-11.2551
▁완공	-11.2551
▁찍고	-11.2555
▁마시	-11.2555
아트센터	-11.2557
▁완	-11.2557
이용	-11.256
▁마주	-11.2565
▁임시회	-11.2566
▁지연되	-11.2568
k	-11.2569
▁관련자	-11.2574
▁발생한다	-11.2575
▁등장한다	-11.2576
▁기대했다	-11.2584
▁펼친	-11.2585
▁수여	-11.2586
▁연고	-11.2593
아직	-11.2593
▁또다	-11.2595
5,000	-11.2598
▁쌍	-11.2604
었는데	-11.2604
▁규정하는	-11.2604
▁생산하는	-11.2607
▁제출했다	-11.2607
국의	-11.2608
▁상정	-11.2611
▁놓은	-11.2613
▁도보	-11.2617
▁FC	-11.2618
▁비영리법인	-11.2618
▁제도적	-11.2621
▁지각	-11.2623
킥	-11.2628
▁부의장	-11.2632
▁O	-11.2634
▁결과물	-11.2636
▁예금	-11.2638
▁소개할	-11.2639
al	-11.2639
연패	-11.2642
▁반박	-11.2642
▁북구	-11.2644
▁정책적	-11.265
플러스	-11.2652
▁라이트	-11.2652
준다	-11.2653
▁펼치	-11.2656
▁항의	-11.2656
▁들면	-11.2658
▁세수	-11.2661
▁46	-11.2662
▁되어야	-11.2662
▁진상규명	-11.2664
보니까	-11.2665
▁가축	-11.2669
▁고조되	-11.2671
▁우수성	-11.2673
▁현행법	-11.2674
▁최장	-11.2675
개방	-11.268
▁제발	-11.2682
▁진동	-11.2682
▁춘천	-11.2685
▁약자	-11.2685
▁약점	-11.2686
▁도착하	-11.269
IC	-11.2692
▁사법농단	-11.2696
업소	-11.2697
장과	-11.2697
▁케이티	-11.2699
▁57	-11.2699
▁주어진	-11.2703
▁할까요	-11.2705
▁가계	-11.2705
▁유류	-11.2706
▁그랬	-11.2708
팝	-11.2709
▁문제의	-11.271
▁진정성	-11.2712
▁바쁘	-11.2716
▁자신만	-11.2718
▁알려졌	-11.2719
▁염색	-11.2721
▁환호	-11.2722
자본	-11.2724
▁새마을	-11.2724
▁만찬	-11.2726
▁낮다	-11.2726
제작	-11.2729
성분	-11.2732
끔	-11.2732
▁통영	-11.2733
강전	-11.2733
▁알려줘	-11.2734
▁구매하	-11.2742
부장	-11.2743
▁인물들	-11.2745
▁가까워	-11.2746
▁주도적	-11.2746
큽	-11.2747
▁해산	-11.2748
▁간접	-11.2753
▁상장사	-11.2754
조선일보	-11.2756
▁모르겠어	-11.2756
▁교착	-11.2759
▁실감	-11.276
▁제임스	-11.2761
▁나타날	-11.2762
▁혼잡	-11.2762
리아	-11.2763
▁농작물	-11.2763
▁구성하되	-11.2764
▁사임	-11.2765
▁자아냈다	-11.2765
▁전수조사	-11.2766
▁펼쳐질	-11.2766
▁2030	-11.2767
▁줍	-11.2768
▁제반	-11.2769
▁돼야	-11.2769
▁1997	-11.2771
▁적합	-11.2773
▁바보	-11.2774
▁움직일	-11.2775
축	-11.2776
악	-11.2777
▁바뀔	-11.2778
장소	-11.2778
러시아	-11.2779
다녀온	-11.2779
누	-11.2781
▁대강당	-11.2781
▁처우	-11.2782
▁돌입했다	-11.2782
▁임시정부	-11.2782
‘	-11.2783
▁받아서	-11.2783
▁일제강점기	-11.2783
▁높을	-11.2784
▁청소년의	-11.2784
▁실패한	-11.2784
▁케이스	-11.2785
보기	-11.2786
▁있네요	-11.2787
▁덩	-11.2789
▁시사했다	-11.2789
▁매번	-11.2791
▁참석한다	-11.2791
▁졸업식	-11.2792
▁천장	-11.2792
▁이력서	-11.2793
문서	-11.2794
정적인	-11.2796
▁대목이	-11.2797
▁불길	-11.2799
▁정전	-11.28
▁수용할	-11.28
나눔	-11.28
▁벽화	-11.2801
▁우즈벡	-11.2801
▁컨소시	-11.2802
▁업적	-11.2802
▁알레르기	-11.2803
▁계란	-11.2803
▁좋아하지	-11.2803
하였고	-11.2804
▁1500	-11.2804
▁못했어요	-11.2804
육	-11.2805
▁멍	-11.2805
▁규격	-11.2806
▁넘어섰다	-11.2807
▁열연	-11.2809
▁연락해	-11.2809
▁베테랑	-11.2809
▁국가정보원	-11.2811
▁크로스	-11.2811
▁여행사	-11.2811
▁주한미군	-11.2814
▁형성된	-11.2815
▁당뇨	-11.2818
▁바람직하다	-11.2819
▁우크라	-11.282
▁시민사회단체	-11.2821
▁케미	-11.2823
해주시면	-11.2823
▁부탁드	-11.2823
▁튀	-11.2824
보는	-11.2827
▁단말기	-11.2829
▁방문하여	-11.2829
▁도착해	-11.2831
년생	-11.2831
▁표기	-11.2832
총회	-11.2833
이었고	-11.2833
▁교수의	-11.2833
촬영	-11.2834
▁지원한	-11.2835
▁빼고	-11.2836
정된	-11.2837
▁모터	-11.2839
▁교량	-11.284
▁받으려	-11.284
▁실전	-11.2842
▁운영되고	-11.2847
▁경제성장	-11.2847
▁바꾼	-11.2848
▁MC	-11.2849
▁전선	-11.2849
▁가졌	-11.285
▁당선자	-11.285
▁경기력	-11.285
▁있기에	-11.2852
▁맺었다	-11.2854
▁낭비	-11.2854
▁출석한	-11.2855
명령	-11.2856
▁영구	-11.2856
▁아닌데	-11.2856
▁데리	-11.2857
▁선언했다	-11.2857
본부장	-11.2858
▁과자	-11.2858
▁시흥시	-11.2859
▁빨간	-11.286
▁걸리	-11.2862
▁조사해	-11.2863
▁공개할	-11.2864
▁적게	-11.2864
▁제로페이	-11.2864
해지고	-11.2865
▁성수기	-11.2865
▁우정	-11.2866
▁치안	-11.2869
▁전적	-11.2869
동물	-11.2871
▁선택하는	-11.2872
닝	-11.2872
▁이용해서	-11.2875
▁발전소	-11.2875
▁성산	-11.2877
유통	-11.2877
▁지목된	-11.2879
매출	-11.2879
강원도	-11.2879
▁새겨	-11.288
▁오빠	-11.288
▁청주시	-11.2882
▁대세	-11.2882
대금	-11.2885
행하는	-11.2888
▁송도	-11.2888
▁유공자	-11.289
▁필터	-11.2893
▁원화	-11.2894
▁제작된	-11.2895
▁196	-11.2896
▁멀티	-11.2897
곧	-11.2897
▁비결	-11.29
▁X	-11.2905
▁58	-11.2911
매치	-11.2911
▁진주	-11.2912
▁밝히고	-11.2913
▁검토하여	-11.2913
▁천안시	-11.2914
▁구축해	-11.2914
▁충족	-11.2917
▁낮아	-11.2919
▁리얼	-11.2919
▁88	-11.2924
▁고령자	-11.2925
나가는	-11.2926
▁싶었다	-11.2926
▁이끈	-11.2927
▁안개	-11.2927
▁악수	-11.2929
▁얇	-11.2931
▁타이	-11.2933
민원	-11.2933
▁이루어지	-11.2937
▁인가	-11.2943
▁발견했다	-11.2944
▁찍는	-11.2948
▁형성되	-11.2949
대전	-11.2952
▁몰리	-11.2953
▁베스트	-11.2953
▁상주	-11.2954
기획사	-11.2956
▁놀이터	-11.2958
▁고쳐	-11.296
▁섞	-11.2961
▁공천	-11.2962
▁맡았	-11.2963
▁친한	-11.2966
▁자리잡	-11.2969
▁레	-11.2971
▁해촉	-11.2973
부심	-11.2975
▁응용	-11.2975
영국	-11.2976
▁한창	-11.2977
성적	-11.2978
▁정교	-11.298
▁기울	-11.298
▁재생에너지	-11.2984
▁농사	-11.2985
▁멈춰	-11.2985
▁유래	-11.2986
▁범인	-11.2986
▁청산	-11.2988
▁사용된	-11.299
▁자정	-11.2991
▁광범위	-11.2992
▁낮춰	-11.2994
양호	-11.2995
▁시도해	-11.2995
▁학살	-11.2997
▁대우	-11.2998
▁산타	-11.2999
▁공개해	-11.2999
▁여겨	-11.3001
▁엘	-11.3003
▁회화	-11.3005
작품	-11.3007
가고	-11.3008
▁여주	-11.3009
▁소진	-11.3009
▁조국	-11.3012
▁설교	-11.3013
▁났	-11.3017
▁있길	-11.3022
▁전문인력	-11.3026
▁일어났	-11.3027
차관	-11.3029
▁출간	-11.3029
▁비교하면	-11.3032
▁ICT	-11.3033
▁사업추진	-11.3034
6000	-11.3035
▁약한	-11.3038
▁텃밭	-11.3039
▁청렴	-11.3039
▁하우스	-11.304
투쟁	-11.3043
투명한	-11.3045
인과	-11.3047
▁등재	-11.3047
▁위탁운영	-11.305
▁양주	-11.305
▁착한	-11.305
▁순천	-11.3051
엽	-11.3053
▁임의	-11.3055
▁취득한	-11.3055
▁송환	-11.3056
▁대치	-11.3057
▁늘어난다	-11.306
▁부탁드려	-11.3062
생명	-11.3063
▁고충	-11.3065
▁호남	-11.3068
▁줄줄	-11.3068
▁안경	-11.3069
▁증권	-11.3072
타점	-11.3073
▁아레나	-11.3074
▁내로	-11.308
▁문제다	-11.3081
▁140	-11.3082
▁검진	-11.3083
▁깔	-11.3084
▁화산	-11.3084
▁퍼	-11.3087
▁현대화	-11.3087
▁미안	-11.3089
▁없으니	-11.3094
성장	-11.3094
단계별	-11.31
▁증선위	-11.3101
▁소화기	-11.3101
▁장터	-11.3103
▁존재한다	-11.3104
▁살아가	-11.3108
▁51	-11.3113
▁합작	-11.3114
실태	-11.3115
▁새우	-11.3117
▁저렴	-11.312
크롱	-11.3121
▁한국형	-11.3124
▁토양	-11.3131
▁공공성	-11.3133
▁가능한지	-11.3137
해본다	-11.3139
▁사회복지	-11.314
번지	-11.314
▁자리매김	-11.3141
였지만	-11.3144
▁판매자	-11.3146
일으킬	-11.3146
다니	-11.3147
▁국가적	-11.3148
줘요	-11.3148
스쿨	-11.3149
하루	-11.3152
▁요원	-11.3153
▁역전	-11.3154
계엄령	-11.3155
피해자	-11.3156
▁돌아와	-11.3158
▁흰색	-11.3159
코스	-11.3161
▁김관영	-11.3161
공정	-11.3162
▁충청남도	-11.3162
▁국무회의	-11.3162
▁재능기부	-11.3162
▁순조롭게	-11.3163
었으면	-11.3163
▁음식물류	-11.3163
탕	-11.3163
▁메이저리그	-11.3163
▁무혐의	-11.3163
▁탄력근로제	-11.3164
▁월평균	-11.3164
▁마침내	-11.3165
▁국군	-11.3165
인치	-11.3165
▁체온	-11.3166
▁띈다	-11.3166
▁모르지만	-11.3166
▁있었으나	-11.3167
▁평등	-11.3167
▁취해	-11.3168
▁원정	-11.3169
▁영예	-11.3169
▁전망했	-11.317
▁초대형	-11.3171
▁케어	-11.3171
지부	-11.3172
▁함께한	-11.3173
▁담았다	-11.3176
▁거액	-11.3177
▁김성수	-11.3178
▁없었지만	-11.3178
▁확진	-11.3178
▁불꽃	-11.3181
▁팬클럽	-11.3182
▁코레일	-11.3182
▁온실가스	-11.3183
▁금연구역	-11.3183
▁할리우드	-11.3183
▁이산가족	-11.3184
▁펜션	-11.3184
▁항공편	-11.3184
▁코미디	-11.3184
▁공정거래법	-11.3187
▁하나씩	-11.3189
▁3·4	-11.3192
▁걸어서	-11.3193
▁장래	-11.3193
▁분량	-11.3194
▁프	-11.3194
▁믿어	-11.3194
콘	-11.3195
▁1,500	-11.3196
▁학교생활	-11.3196
▁느끼게	-11.3197
▁정하고	-11.3199
▁감리	-11.3199
▁하도급	-11.3199
채널	-11.32
▁캘리포니아	-11.32
▁경기도교육청	-11.32
▁기승	-11.3201
▁사원	-11.3202
▁해산물	-11.3203
됐을	-11.3205
▁생선	-11.3206
▁충주	-11.3207
29	-11.3208
▁보이면서	-11.3209
▁그래요	-11.321
▁특허청	-11.321
▁저변	-11.3212
▁상업	-11.3217
▁스피커	-11.3218
▁지급대상	-11.3218
▁사육	-11.3219
▁김밥	-11.322
▁도입해	-11.3221
▁친척	-11.3221
▁싼	-11.3221
▁야채	-11.3222
▁시카고	-11.3223
영상	-11.3223
▁저조	-11.3225
▁사리	-11.3225
▁필요해	-11.3225
▁익숙하지	-11.3227
▁각급	-11.3228
놓고	-11.3228
▁파란	-11.323
▁척	-11.323
▁페	-11.3232
▁민심	-11.3234
▁평생학습	-11.3235
▁제동	-11.3235
▁근접	-11.3236
▁저소득	-11.3237
물품	-11.3237
찰	-11.324
담당	-11.324
▁말하면	-11.3242
▁토끼	-11.3242
▁모레	-11.3244
▁모르겠네	-11.3245
▁여신	-11.3245
▁안양	-11.3245
▁지리적	-11.3246
수업	-11.3246
▁전달할	-11.3248
당신	-11.3248
▁모였다	-11.3249
받지	-11.325
▁경총	-11.3251
▁나왔습니다	-11.3251
▁강화된	-11.3253
▁강조하고	-11.3254
▁아카데미	-11.3254
▁CD	-11.3256
전이	-11.3257
▁들었는데	-11.3258
▁집주인	-11.3259
연합회	-11.326
▁반복적	-11.3261
▁환급	-11.3262
▁설탕	-11.3263
▁푸른	-11.3265
▁읽어	-11.3268
▁감소하고	-11.3271
▁살리	-11.3271
▁만들어졌다	-11.3272
▁나뉘어	-11.3274
▁재정지원	-11.3275
▁개편안	-11.3275
▁분명하다	-11.3276
▁출석해	-11.3278
▁블랙	-11.3279
▁매체들	-11.328
▁안된다	-11.328
▁ICO	-11.328
유럽	-11.3283
▁계속되고	-11.3283
빠질	-11.3285
▁도시디자인	-11.3286
▁엑소	-11.3286
▁졸	-11.329
▁기밀	-11.3292
▁음식물	-11.3293
▁미세	-11.3296
▁올랐	-11.3297
▁평가전	-11.33
▁110	-11.3301
▁통과한	-11.3301
▁샤	-11.3302
▁흙	-11.3304
▁판단한	-11.3308
▁매뉴얼	-11.3309
▁참석하고	-11.331
▁여력	-11.3311
지방법원	-11.3313
▁반성	-11.3314
▁2%	-11.3318
협상	-11.3321
한반도	-11.3322
▁빅	-11.3326
▁실비	-11.3326
▁챔피언십	-11.3333
일자	-11.3335
▁나서기	-11.3335
하나요	-11.334
▁말하지	-11.3341
▁사랑하고	-11.3343
▁후보지	-11.3344
▁남기	-11.3346
갖	-11.3349
▁추출	-11.335
▁비서관	-11.3351
재산	-11.3352
▁임명한	-11.3355
교수	-11.3355
▁대신해	-11.3355
▁신차	-11.3359
▁치료제	-11.336
홍보	-11.3361
▁일당	-11.3361
▁진료비	-11.3363
바꾸는	-11.3363
▁그려	-11.3364
▁맞춘	-11.3366
수행	-11.3367
▁폴란드	-11.3368
바이오	-11.3374
▁소방서	-11.3376
▁해지	-11.3378
▁구할	-11.3379
▁구형	-11.3381
▁시상	-11.3383
48	-11.3383
▁거세	-11.3384
▁비단	-11.3387
▁닫	-11.3388
▁본질	-11.3388
▁도달	-11.3388
▁도착했	-11.3395
▁끔찍	-11.3396
▁항만	-11.3398
▁수행한다	-11.3401
▁사업주	-11.3402
▁용량	-11.3404
▁주목받	-11.3405
안보	-11.3407
싸움	-11.3408
▁주거환경	-11.341
▁무늬	-11.3412
객	-11.3418
었다는	-11.3419
딘	-11.3419
▁자치	-11.3422
쉬	-11.3423
노동	-11.3423
▁장군	-11.3425
▁예술가	-11.3425
▁개발하고	-11.3426
▁고민하고	-11.3431
▁쉽고	-11.3431
▁반영하	-11.3433
▁어떠	-11.3433
▁교단	-11.3435
▁인접	-11.3436
▁갖기	-11.344
▁고창	-11.3441
▁이해해	-11.3442
▁배송비	-11.3445
▁작용한	-11.3446
1000	-11.345
▁가중	-11.3451
▁가자	-11.3454
▁산재	-11.3457
▁대입	-11.3457
버닝썬	-11.3458
바다	-11.3459
▁위헌	-11.346
▁기세	-11.3462
▁:	-11.3463
구매	-11.3463
뷰티	-11.3464
▁구로	-11.3466
허브	-11.3472
▁공중	-11.3477
8000	-11.3478
▁클린	-11.348
37	-11.3483
▁교과	-11.3483
▁방문한다	-11.3483
비행	-11.3491
볼게요	-11.3492
▁순환	-11.3492
푸드	-11.3492
▁축복	-11.3494
▁증액	-11.3495
아들	-11.3497
▁입대	-11.3499
▁교복	-11.3501
▁75	-11.3501
경보	-11.3503
▁되지만	-11.3506
대사	-11.351
▁활발하	-11.3513
▁구보	-11.3514
▁증가해	-11.3514
열차	-11.3516
▁존재하는	-11.3517
▁61	-11.3518
▁수준인	-11.352
작전	-11.3522
▁나왔	-11.3524
▁시조	-11.3525
▁김장	-11.3527
▁학자	-11.3529
▁변경된	-11.353
▁심도	-11.3531
▁해병대	-11.3532
▁각지	-11.3533
▁당사	-11.3536
▁기념관	-11.3537
▁성동구	-11.3538
▁기지	-11.3538
▁과학적	-11.354
▁많기	-11.3543
▁한전	-11.3543
▁드릴까요	-11.3543
▁사업체	-11.3549
원이	-11.355
육성	-11.3553
3000	-11.3554
▁벌이	-11.3555
지급	-11.3556
▁바지	-11.3556
인천	-11.3557
디션	-11.3558
년만	-11.3558
▁든든	-11.3558
▁확고	-11.3558
▁발견한	-11.356
문재인	-11.3563
▁출발한	-11.3564
▁없지	-11.3567
▁활성화하고	-11.3569
▁해설	-11.357
테크	-11.3573
▁전하고	-11.3573
▁까닭	-11.3575
▁근황	-11.3575
▁황의조	-11.3578
▁맞대결	-11.3578
▁전두환	-11.3578
▁즉석	-11.3578
▁에이스	-11.3579
▁주차요금	-11.3579
▁과기정통부	-11.3579
▁공개모집	-11.3579
▁비밀번호	-11.3579
▁입소문	-11.3579
▁호선	-11.3581
▁도입된	-11.3581
▁우수사례	-11.3581
▁밝혀졌다	-11.3582
▁쉽다	-11.3582
▁지하수	-11.3583
▁인명	-11.3583
▁양자	-11.3585
▁발굴해	-11.3585
▁달라질	-11.3587
▁지킬	-11.3587
▁양평	-11.3589
▁마두	-11.3589
▁필요하	-11.359
▁생애	-11.3591
▁대주주	-11.3592
▁한일	-11.3593
▁기념행사	-11.3593
▁목재	-11.3593
▁농기원	-11.3595
▁리듬	-11.3596
해준다	-11.3596
▁공청회	-11.3598
▁막걸리	-11.3598
▁고성능	-11.3599
▁왕복	-11.3599
▁머리카락	-11.36
▁던졌다	-11.36
▁만하다	-11.3601
▁피곤해	-11.3601
▁단독주택	-11.3601
▁납세자보호관	-11.3602
▁김대중	-11.3602
▁반납	-11.3603
털	-11.3603
깁	-11.3603
▁맞이하	-11.3604
▁자치회관	-11.3604
▁보궐	-11.3604
기요금	-11.3604
▁반영될	-11.3604
켓	-11.3605
▁브라운	-11.3605
▁야	-11.3606
▁걱정하는	-11.3607
▁알렸다	-11.3608
▁소홀	-11.3608
▁기념품	-11.3609
▁형상	-11.3609
▁완성도	-11.361
▁AP	-11.361
▁유저	-11.3611
▁가락	-11.3611
▁구성돼	-11.3612
▁순찰	-11.3612
▁112	-11.3614
▁공익신고	-11.3614
▁퇴원	-11.3615
70	-11.3616
▁극복하고	-11.3617
▁사망했다	-11.3617
▁뚜껑	-11.3617
▁톡톡	-11.3618
점수	-11.3618
과거	-11.3619
▁물놀이	-11.3619
▁의향	-11.3619
▁정자	-11.3621
기업들	-11.3621
▁주주총회	-11.3622
▁외무상	-11.3622
마크	-11.3623
▁홍보대사	-11.3623
▁동아시아	-11.3625
▁배포	-11.3625
▁비례	-11.3626
▁들었어	-11.363
지표	-11.3632
▁접수됐다	-11.3633
▁오더	-11.3634
▁적용될	-11.3634
▁개발했다	-11.3635
▁이뤘다	-11.3635
▁적발된	-11.3637
▁잔여	-11.3637
▁유명하다	-11.3637
▁산소	-11.3637
롱	-11.3639
▁견학	-11.3641
▁기여하고	-11.3642
▁맞을	-11.3643
▁나오면서	-11.3644
▁필자	-11.3645
▁대본	-11.3646
▁쏟	-11.3646
보전	-11.3646
▁제공되는	-11.3648
▁보일러	-11.3649
▁편의시설	-11.3649
▁본관	-11.365
▁왔어	-11.365
▁납입	-11.365
▁우호	-11.3653
▁제출해야	-11.3655
▁소속팀	-11.3655
▁타임	-11.3658
▁복지부	-11.3659
▁생산한	-11.3659
▁진출한	-11.366
▁있겠다	-11.3661
▁통지하여	-11.3661
▁청춘	-11.3662
▁친서	-11.3662
▁보건	-11.3663
치기	-11.3664
▁따르	-11.3664
▁우체국	-11.3665
▁이천	-11.3666
▁꼬리	-11.3666
▁경사노위	-11.3667
▁만들어야	-11.3668
▁히트	-11.3668
이긴	-11.3669
▁지정하고	-11.3671
명씩	-11.3672
▁가능하다면	-11.3673
▁거품	-11.3674
▁찾아야	-11.3675
▁한달	-11.3677
년도	-11.3679
▁경합	-11.368
▁플레이어	-11.3681
▁물어봐	-11.3682
▁인정하고	-11.3683
▁정신질환자	-11.3683
▁받으	-11.3684
▁못하면서	-11.3684
▁위험성	-11.3688
밍	-11.3689
▁빼앗	-11.3689
▁지형	-11.369
▁허위사실	-11.3691
영화제	-11.3691
▁3.1	-11.3691
▁이념	-11.3692
▁정도였다	-11.3693
▁터치	-11.3694
평화	-11.3695
통계	-11.3696
효	-11.3696
▁도시락	-11.3696
▁직종	-11.3699
킹	-11.3699
▁이끌었다	-11.37
▁남아있다	-11.3701
▁회원국	-11.3703
▁동북아	-11.3703
▁정통	-11.3706
▁강릉시	-11.371
▁안전점검	-11.3713
▁진열	-11.3713
▁창업기업	-11.3714
▁사격	-11.3715
▁아마추어	-11.3716
▁소통하고	-11.3718
▁인용	-11.3721
국회	-11.3723
다운	-11.3725
▁회피	-11.373
▁믿	-11.3731
▁SUV	-11.3732
▁급감	-11.3732
꿈	-11.3736
▁드시	-11.3738
▁리드	-11.3744
▁묶	-11.3744
따라	-11.3748
▁반기	-11.3749
▁온다	-11.3753
▁양해	-11.3754
혁	-11.3762
▁편입	-11.3763
▁불안정	-11.3764
천억	-11.3765
▁더블	-11.3766
▁진도	-11.3767
▁때면	-11.3769
▁자치단체	-11.3769
▁접견	-11.3771
▁구원	-11.3772
반도체	-11.3772
▁투자할	-11.3773
▁색이	-11.3775
DC	-11.3776
▁보내드리	-11.3778
법안	-11.3782
▁1·2	-11.3783
▁보내주	-11.3784
▁해역	-11.3785
▁없애	-11.3785
▁콘셉트	-11.3785
▁도출	-11.3786
▁민속	-11.3786
▁도발	-11.3789
삼성	-11.3789
▁가져	-11.3791
▁기류	-11.3792
▁걸렸	-11.3795
요소	-11.3797
▁그라운드	-11.3799
▁실체	-11.3801
▁정해져	-11.3801
▁유용	-11.3802
▁충분하다	-11.3802
▁과잉	-11.3807
▁원가	-11.3807
▁성장해	-11.3811
▁물었다	-11.3812
▁비준	-11.3813
▁믿는다	-11.3817
▁의무화	-11.3817
▁LNG	-11.3822
▁서술	-11.3822
이런	-11.3822
위반	-11.3822
▁연안	-11.3823
▁태우	-11.3823
LG	-11.3824
▁우려해	-11.3831
▁남양주시	-11.3831
▁재심	-11.3831
침	-11.3831
▁단식	-11.3831
▁마켓	-11.3831
예정	-11.3833
▁발표하는	-11.3835
▁무관하	-11.3836
▁보행자	-11.3838
▁결정적	-11.3844
▁슈팅	-11.3845
▁해외여행	-11.3848
▁따져	-11.385
▁드림	-11.385
▁나타났	-11.3861
▁싶을	-11.3861
▁정보기술	-11.3865
▁정씨	-11.3869
▁지었다	-11.3869
▁결산	-11.3872
▁셋째	-11.3873
▁호흡기	-11.3874
벨	-11.388
▁들러	-11.3881
▁구경	-11.3883
▁폭넓	-11.3889
▁공주	-11.3891
▁모아지	-11.3891
▁전화해	-11.3891
▁I	-11.3892
법령	-11.3894
▁평가하는	-11.3896
▁정관	-11.3899
특보	-11.3901
뷰	-11.3906
f	-11.3908
▁취직	-11.3914
▁오산	-11.3916
“	-11.3918
▁윤리	-11.3918
9000	-11.3919
▁동양	-11.392
▁제공했다	-11.3927
의결	-11.393
한류	-11.393
장벽	-11.393
▁개최하고	-11.3932
▁구성했다	-11.3935
물량	-11.3935
▁매도	-11.3939
▁마련하는	-11.394
▁싣	-11.394
▁법무	-11.3942
로그	-11.3946
▁연동	-11.3946
구민	-11.3948
▁연꽃	-11.395
▁이득	-11.3951
▁던져	-11.3953
▁임종	-11.3954
▁다운로드	-11.396
▁면세	-11.3962
실장	-11.3963
니아	-11.3963
▁발휘하	-11.3965
▁영원	-11.3966
죽	-11.3966
▁탁	-11.3968
▁적용된	-11.3968
▁군민	-11.3973
▁담당부서	-11.3974
됐고	-11.3976
구심	-11.3977
▁싸우	-11.3979
▁생중계	-11.398
▁창조	-11.3989
셨습니다	-11.3989
▁판매할	-11.399
었다고	-11.3991
▁빠르고	-11.3992
▁짓는	-11.3994
▁마땅	-11.3994
▁사회공헌	-11.3996
퉈	-11.3998
언더파	-11.3999
강남스타일	-11.4
미래	-11.4001
▁“‘	-11.4001
▁동대문	-11.4007
▁기념일	-11.4008
통장	-11.401
▁판례	-11.401
덩이	-11.4011
▁온몸	-11.4011
▁홍영표	-11.4011
▁어두운	-11.4012
▁은산분리	-11.4013
▁삼성물산	-11.4013
▁고충민원	-11.4013
▁초과하는	-11.4013
▁핵무기	-11.4013
▁골드만삭스	-11.4014
▁휘발유	-11.4014
▁이라크	-11.4014
▁미용실	-11.4015
▁지방보조금	-11.4015
▁감찰	-11.4015
▁처리한다	-11.4015
▁느껴진다	-11.4016
▁생각하기	-11.4016
▁MOU	-11.4017
▁가능할까요	-11.4017
부동산	-11.4017
▁살았	-11.4017
▁믿을	-11.4018
▁괜찮을까	-11.402
▁사용허가	-11.402
▁교내	-11.402
▁그런지	-11.4021
▁있느냐	-11.4021
▁출범한	-11.4022
운영위원회	-11.4023
▁보냈어요	-11.4024
▁미안해요	-11.4024
▁토로했다	-11.4024
▁나흘	-11.4025
▁스캔들	-11.4026
▁몰랐	-11.4027
꼬	-11.4027
▁사역	-11.4028
▁김해	-11.4028
▁요새	-11.403
▁스킨	-11.4031
▁예상치	-11.4032
▁크리스티	-11.4033
▁옥수수	-11.4034
부드럽게	-11.4034
▁다가올	-11.4034
▁고혈압	-11.4034
▁은평구	-11.4034
▁신입사원	-11.4035
▁패러다임	-11.4035
▁샤워	-11.4035
▁수탁기관	-11.4036
▁발라	-11.4036
▁저작권	-11.4036
▁오스트리아	-11.4036
%	-11.4037
▁남해안	-11.4037
▁원산지	-11.4039
▁설명한	-11.4041
▁무장	-11.4042
▁영웅	-11.4042
▁모으	-11.4042
▁경기도시공사	-11.4043
▁좋아해서	-11.4044
▁중시하는	-11.4045
▁일간지	-11.4045
▁부양	-11.4046
▁위성	-11.4046
▁못했지만	-11.4046
▁한중	-11.4046
▁지켜야	-11.4048
안타	-11.4048
▁원내	-11.4051
▁막는	-11.4051
▁구성하며	-11.4054
뱅크	-11.4055
▁감사의	-11.4056
▁글자	-11.4057
▁수료생	-11.4058
▁OLED	-11.4059
▁경상남도	-11.4059
▁십자가	-11.4059
▁시작되었다	-11.406
▁커서	-11.406
▁기침	-11.406
▁접경지역	-11.406
▁퀴즈	-11.406
▁가져야	-11.4061
촉진	-11.4062
▁궁극적	-11.4066
▁농어촌	-11.4067
▁스펙	-11.4067
▁붐	-11.4069
브랜드	-11.4069
금지	-11.4071
▁과열	-11.4071
▁시흥	-11.4072
▁반박했다	-11.4072
▁별개	-11.4074
▁구속됐다	-11.4074
▁복도	-11.4075
▁임차인	-11.4075
▁쇄신	-11.4077
▁원하시는	-11.4077
영역	-11.4079
▁성북구	-11.4079
▁현수막	-11.408
▁난이도	-11.4081
▁가짜뉴스	-11.4082
▁기본소득	-11.4082
▁바라며	-11.4083
▁막고	-11.4084
▁타면	-11.4084
요리	-11.4085
▁균형발전	-11.4085
▁눌러	-11.4085
▁의병	-11.4091
▁떡볶이	-11.4092
▁숨지고	-11.4094
경비	-11.4095
▁고인	-11.4096
▁비춰	-11.4096
▁협치	-11.4096
▁세우고	-11.4096
▁신조	-11.4097
▁상인	-11.4097
▁가담	-11.4099
▁남해	-11.41
▁시급한	-11.4101
▁시행하고	-11.4102
▁카타르	-11.4103
▁멘토링	-11.4103
화학	-11.4105
▁선정하여	-11.4106
▁김창	-11.4107
▁정보통신기술	-11.4108
▁고도화	-11.4109
▁다양하고	-11.4111
▁납부한	-11.4111
분과	-11.4111
이어야	-11.4112
쿠	-11.4113
(15	-11.4113
▁쇠	-11.4115
▁정계	-11.4115
산업단지	-11.4116
▁서산	-11.4117
▁협동	-11.4118
▁재킷	-11.4121
▁좌	-11.4121
▁식량	-11.4122
▁휘	-11.4123
▁선점	-11.4124
▁그다음	-11.4125
부대	-11.4126
▁청도	-11.4126
▁잃었다	-11.4127
겠네요	-11.413
▁경기지역	-11.4133
▁메달	-11.4134
지식	-11.4135
황	-11.4136
▁연중	-11.4138
▁발병	-11.4138
▁파열	-11.414
▁바른	-11.4141
▁대단한	-11.4144
▁기다릴	-11.4147
▁쓰여	-11.4148
▁통학	-11.4149
세포	-11.4149
▁기업인들	-11.4149
▁BTS	-11.415
▁뛰어나다	-11.4151
▁개발사업	-11.4151
▁국회의원들	-11.4152
일째	-11.4153
주민들	-11.4156
▁학력	-11.4159
▁받으면서	-11.4159
수가	-11.416
▁군데	-11.416
줘야	-11.4161
▁유지하기	-11.4162
▁상단	-11.4163
34	-11.4163
사이트	-11.4164
▁주소지	-11.4165
▁한양대	-11.4166
▁우수상	-11.4169
▁표적	-11.417
▁고려해야	-11.4171
▁확보했다	-11.4172
▁육	-11.4172
▁들어서면	-11.4173
▁미용	-11.4178
최저임금	-11.4179
▁유진	-11.4185
▁음식들	-11.4187
사인	-11.4188
▁여겨지	-11.4189
▁작성하고	-11.4191
▁진행되	-11.4197
▁책들	-11.4201
▁룸	-11.4201
▁상사	-11.4207
▁상징적	-11.421
▁기업체	-11.421
▁절대적	-11.421
▁63	-11.421
▁항소	-11.4211
▁폰	-11.4212
베	-11.4214
60	-11.4217
▁협력사	-11.4217
▁일치	-11.4217
▁표했다	-11.4217
▁데이	-11.4218
▁말했	-11.4219
▁우승자	-11.422
▁곡선	-11.4222
▁부장	-11.4225
▁신뢰성	-11.4226
▁확인해야	-11.4228
▁콜라	-11.423
▁예정돼	-11.423
▁막말	-11.423
이사장	-11.4232
▁싫	-11.4233
▁둘러	-11.424
▁엄중	-11.4241
▁기쁘다	-11.4242
▁유감	-11.4244
▁체육관	-11.4245
▁한정	-11.4246
▁무선	-11.4247
▁외화	-11.4249
▁행정기관	-11.425
▁넘어선	-11.425
▁상의	-11.425
▁재즈	-11.4252
▁적용된다	-11.4252
달라는	-11.4254
▁참가했다	-11.4255
막이	-11.4258
▁소극적	-11.4259
▁경선	-11.426
▁일련	-11.4265
▁아니라면	-11.4268
하였는데	-11.427
식당	-11.427
▁전달한	-11.4273
▁벌여	-11.4276
▁교육지원청	-11.4278
광주	-11.4287
대에	-11.4289
▁닦	-11.429
징수	-11.4292
부족	-11.4292
행하여야	-11.4293
▁운영되는	-11.4294
▁찾아내	-11.4297
▁역동적	-11.4298
▁보내지	-11.4299
▁김학의	-11.43
▁먹어야	-11.4302
▁걸맞	-11.4302
자전거	-11.4303
청구	-11.4307
▁대면	-11.4307
만들기	-11.4307
CC	-11.4307
▁브	-11.4307
▁분명한	-11.4309
▁주총	-11.431
▁광교	-11.4315
▁공헌	-11.4316
▁장마	-11.432
▁고르	-11.432
▁셀	-11.4324
▁가전	-11.4325
▁갱신	-11.4326
▁일기	-11.4328
▁190	-11.4328
월별	-11.433
▁표현할	-11.433
▁슬로	-11.4331
▁구인	-11.4334
▁나노	-11.4337
▁상식	-11.4338
▁묘사	-11.4338
▁수납	-11.4339
▁고립	-11.4339
▁오리	-11.4345
▁지불하	-11.4347
▁확대한다	-11.4347
▁충원	-11.4352
▁떨어진다	-11.4356
짓	-11.4357
식물	-11.4359
▁상속	-11.436
▁업그레이드	-11.4363
▁몰랐다	-11.4364
▁금융투자	-11.4365
▁실패했다	-11.4367
께	-11.4368
투수	-11.4368
희정	-11.4368
▁가르	-11.4369
▁대부	-11.4369
▁먹었	-11.4372
▁핀	-11.4373
▁셧다운	-11.4379
객들	-11.4382
오피스	-11.439
▁판단할	-11.439
중학교	-11.4391
하늘	-11.4391
매장	-11.4392
하이닉스	-11.4393
▁사드	-11.4394
▁흔	-11.4396
질환	-11.4398
▁쌓아	-11.4401
▁분열	-11.4401
총액	-11.4403
▁달간	-11.4404
▁달라는	-11.441
▁케	-11.4411
부처	-11.4413
기회	-11.4416
▁유효	-11.4417
에요	-11.4418
명분	-11.4421
▁준비할	-11.4424
공동체	-11.4429
집행	-11.4433
▁악성	-11.4435
▁책정	-11.4437
▁굵	-11.4439
▁적재	-11.4442
▁머	-11.4443
정할	-11.4445
▁미드필더	-11.4453
▁구가	-11.4453
▁최상	-11.4453
▁세율	-11.4454
▁안무	-11.4455
▁친근	-11.4456
▁감당	-11.4458
▁호황	-11.4458
▁종료된	-11.4459
▁패소	-11.446
버린	-11.4462
특별회계	-11.4463
▁짜증	-11.4465
시아	-11.4465
▁테헤란	-11.4465
▁아토피	-11.4466
▁이낙연	-11.4466
▁코엑스	-11.4466
▁양성평등	-11.4466
▁샌드위치	-11.4467
▁하드웨어	-11.4467
▁폴더블폰	-11.4467
▁샷	-11.4467
▁착	-11.4467
▁6·25	-11.4467
▁국방장관	-11.4468
▁무상급식	-11.4468
▁사단법인	-11.4469
▁떠날	-11.447
▁소고기	-11.4471
▁다가가	-11.4472
▁안타깝게	-11.4474
▁농식품부	-11.4474
▁신입생	-11.4474
▁불필요	-11.4475
▁민관	-11.4475
▁이태원	-11.4475
▁상무부	-11.4475
▁일으켰	-11.4476
순환	-11.4476
▁벨	-11.4477
▁학교급식	-11.4479
▁3∼4	-11.448
▁핫	-11.4481
▁밝혔지만	-11.4481
▁뽐내	-11.4482
▁좋아하	-11.4483
43	-11.4483
성의	-11.4484
▁짧게	-11.4486
▁친분	-11.4486
▁열렸	-11.4486
▁윤곽	-11.4488
▁신념	-11.4488
▁내놓았다	-11.4488
▁기득권	-11.4489
▁사령탑	-11.4489
▁테슬라	-11.4489
▁통신장비	-11.4489
▁블룸버그	-11.449
▁자치법규	-11.449
양심적	-11.4491
▁논평	-11.4491
▁필요하고	-11.4491
▁기초연금	-11.4491
▁비무장지대	-11.4492
▁포털사이트	-11.4492
▁연방준비제도	-11.4492
국제공항	-11.4492
▁김현미	-11.4493
▁이자율	-11.4493
▁개헌	-11.4494
▁있었으며	-11.4495
업체들	-11.4495
조절	-11.4495
▁다툼	-11.4496
▁착륙	-11.4496
함께	-11.4497
▁고마워요	-11.4497
▁시민사회	-11.4497
AR	-11.4499
그동안	-11.45
▁파스타	-11.45
▁이어갈	-11.4503
▁육아휴직	-11.4503
▁겁	-11.4503
▁뭐라고	-11.4504
▁때문이	-11.4504
▁먹어요	-11.4506
잖아요	-11.4507
▁과학자	-11.4509
▁주문했는데	-11.4509
▁또래	-11.451
▁부천시	-11.451
▁좋겠	-11.4511
▁농식품	-11.4511
▁‘2017	-11.4511
▁폐원	-11.4512
▁잔디	-11.4512
▁수립하여	-11.4512
▁가평	-11.4513
▁이별	-11.4514
▁개발하는	-11.4514
▁풀이	-11.4515
▁파악하기	-11.4516
▁재질	-11.4517
▁자연재해	-11.4517
▁연결되	-11.4518
▁없거나	-11.4518
▁소외계층	-11.4519
▁개개인	-11.4519
▁무효	-11.4521
▁노동시장	-11.4521
▁수요자	-11.4521
▁가속화	-11.4521
▁95	-11.4521
▁육상	-11.4522
▁담합	-11.4523
▁보류	-11.4523
아동	-11.4525
▁전문의	-11.4526
▁의도적	-11.4527
▁추진하겠다	-11.4529
띠	-11.4529
▁타협	-11.4529
▁스피드	-11.4531
허	-11.4531
▁영남	-11.4531
담당관	-11.4532
▁다스	-11.4535
▁케인	-11.4535
▁특활비	-11.4537
▁월세	-11.4538
▁감소할	-11.4538
▁공룡	-11.4539
▁주목하고	-11.454
▁국제유가	-11.454
▁시각장애인	-11.454
▁기대해	-11.454
▁현대모비스	-11.4541
▁에이	-11.4541
▁분과위원회	-11.4541
▁조성하기	-11.4543
▁도시계획	-11.4544
▁맞아요	-11.4546
▁다문화가족	-11.4547
▁녹화	-11.4547
▁확대되고	-11.4548
▁두바이	-11.4548
▁거론되	-11.4552
시간제	-11.4552
▁가계대출	-11.4552
이니까	-11.4553
▁실정	-11.4554
▁잃지	-11.4554
▁가능해요	-11.4554
▁우려된다	-11.4557
▁팬미팅	-11.456
▁커진다	-11.4561
▁리버풀	-11.4562
▁경제협력	-11.4563
▁포르투갈	-11.4564
▁결선	-11.4566
▁치과	-11.4567
머니	-11.4569
▁장례	-11.457
▁LPG	-11.4571
칼	-11.4572
▁제시하고	-11.4573
▁고른	-11.4574
▁대학원	-11.4574
▁부담해야	-11.4575
▁승객들	-11.4576
▁시험지	-11.4576
▁이야기하고	-11.4577
▁강북	-11.4578
▁우리은행	-11.4578
하자마자	-11.458
▁생기고	-11.4582
▁맛집	-11.4582
▁개선된	-11.4582
▁갖지	-11.4582
▁기억하고	-11.4583
▁시간표	-11.4584
▁생각했던	-11.4585
▁정신과	-11.4585
▁경로당	-11.459
▁운임	-11.459
▁깨고	-11.4591
소비	-11.4593
자격	-11.4593
▁노동부	-11.4593
▁넣었다	-11.4594
▁동물원	-11.4594
▁불황	-11.4595
▁유일하다	-11.4596
▁컴백	-11.4598
▁그쳤다	-11.46
▁고전	-11.46
▁기록할	-11.4603
▁하였	-11.4605
켈	-11.4606
▁삭감	-11.4608
▁겨냥해	-11.4608
▁법규	-11.461
▁번식	-11.4612
▁홍수	-11.4613
▁협의해	-11.4613
▁모니터	-11.4614
▁소매	-11.4614
▁무형문화재	-11.4614
▁숙	-11.4615
리스	-11.4615
▁발이	-11.4615
▁선제적	-11.4616
▁업체인	-11.4616
54	-11.462
▁만들겠다	-11.462
▁표명	-11.4622
▁선정한다	-11.4623
▁받았고	-11.4629
▁수사단	-11.4632
▁총기	-11.4633
▁아리랑	-11.4635
▁불균형	-11.4636
▁기둥	-11.4637
행복	-11.4638
▁여성가족부	-11.4639
▁전방	-11.4641
▁표현한	-11.4643
천여명	-11.4643
▁감옥	-11.4645
▁쌓이	-11.4645
▁들지	-11.4648
내년	-11.4648
▁이윤	-11.465
▁사람이에요	-11.465
텐	-11.4654
▁글씨	-11.4654
▁배웠	-11.4654
▁중부	-11.4655
▁비서	-11.4657
▁지하철역	-11.4657
▁발의한	-11.466
▁퍼레이드	-11.4662
▁들여다보	-11.4663
▁않았는데	-11.4664
▁안다	-11.4664
▁나가기	-11.4664
▁형평	-11.4665
▁악용	-11.4665
▁클러스터	-11.4665
▁개정된	-11.4666
▁꼬집었	-11.4666
▁시의회	-11.4667
▁다녀	-11.4668
▁폐업	-11.467
▁LH	-11.468
발전소	-11.468
▁던진	-11.4682
업자	-11.4683
플랫폼	-11.4683
▁타워	-11.4684
▁중이	-11.4691
▁1:	-11.4694
▁깔려	-11.4696
▁라운드	-11.4698
▁전임	-11.4699
▁무한	-11.4701
대사관	-11.4702
▁이어서	-11.4702
니스	-11.4702
▁평택시	-11.4705
▁오로	-11.4705
▁인정했다	-11.4706
였습니	-11.4707
▁일으키는	-11.4714
▁승점	-11.4716
▁엑스포	-11.4718
▁내어	-11.4722
▁어선	-11.4727
▁기후	-11.4729
▁상품권	-11.473
할수록	-11.4732
나가야	-11.4733
▁IP	-11.4734
▁엠	-11.4736
▁선배	-11.4738
▁다양하	-11.4743
▁쉬워	-11.4743
▁밝혀지	-11.4746
▁되었	-11.4749
▁도자	-11.4751
▁약속한	-11.4752
큰	-11.4759
▁공작	-11.476
셉	-11.476
▁전인	-11.4761
▁결정하고	-11.4763
▁사명	-11.4764
▁설사	-11.4765
▁식탁	-11.477
위험	-11.4774
▁환기	-11.4774
▁실무자	-11.4776
▁나누	-11.4776
▁갑작스러	-11.4776
▁적고	-11.4778
▁여정	-11.4778
▁이루어지는	-11.478
▁단골	-11.4781
▁행복하	-11.4781
이동	-11.4786
▁구하기	-11.4788
▁농협	-11.4789
▁확보해	-11.4789
변화	-11.4789
▁일관	-11.4792
자녀	-11.4796
▁유일하	-11.4797
▁고속	-11.4798
▁입주민	-11.48
▁확정했다	-11.48
▁실시된	-11.48
▁증설	-11.482
▁아니기	-11.4822
체육	-11.4822
▁우회	-11.4823
▁전동	-11.4824
고도	-11.4832
▁판결했다	-11.4834
▁받아들여	-11.4835
특히	-11.4836
디스플레이	-11.4838
▁당국자	-11.4839
▁알았다	-11.4842
▁국도	-11.4843
이지	-11.4843
▁촘촘	-11.4848
▁가마	-11.485
▁좌절	-11.485
▁나간	-11.4851
▁괜찮으	-11.4854
▁팔고	-11.4855
▁없었다는	-11.4855
밸리	-11.4855
▁타이어	-11.4858
▁스테이크	-11.4863
▁노력해	-11.4864
▁미국인	-11.4865
▁기관장	-11.4866
▁등판	-11.4868
▁생략	-11.487
▁반려견	-11.4871
▁변경하고	-11.4872
출산	-11.4874
▁만났	-11.4877
▁증	-11.488
▁수급자	-11.488
▁장외	-11.4881
▁빨라	-11.4881
▁투자한	-11.4883
▁해주고	-11.4885
▁추방	-11.4891
쳤다	-11.4891
홈쇼핑	-11.4893
빌딩	-11.4894
▁계엄	-11.4898
90	-11.4898
생들	-11.4904
▁낡	-11.4905
-1	-11.4907
▁짧	-11.4908
지원금	-11.4912
▁시달리	-11.4912
▁위장	-11.4912
▁주역	-11.4913
▁자랑하	-11.4914
▁유지하	-11.4915
립	-11.4917
▁꺼	-11.4918
▁처리하고	-11.492
▁입소	-11.4921
(6	-11.4922
▁알려줄	-11.4922
▁학문	-11.4924
▁이뤄지면	-11.4928
▁깊	-11.4928
손학규	-11.4931
티스	-11.4932
드릴까요	-11.4933
▁운영한	-11.4934
▁응급	-11.4936
▁민족의	-11.4938
▁구미시	-11.494
▁이뤄졌	-11.494
▁마이클	-11.4941
▁쓰러져	-11.4941
단속	-11.4942
▁식중독	-11.4942
▁정보통신	-11.4942
▁벗어난	-11.4943
▁가라앉	-11.4943
▁전라남도	-11.4943
▁오리지널	-11.4943
▁아시안컵	-11.4943
▁보육교사	-11.4943
▁실무협상	-11.4943
▁선별	-11.4944
▁의미하는	-11.4945
▁충남지사	-11.4945
▁올릴	-11.4945
▁20∼30	-11.4945
▁많았지만	-11.4945
▁모르겠지만	-11.4946
▁그러므로	-11.4946
▁테니까	-11.4947
▁바닷가	-11.4947
▁조상	-11.4948
▁기피	-11.4949
▁도착했다	-11.4949
정하지	-11.4949
경찰청	-11.4951
▁많았던	-11.4951
가시면	-11.4951
▁태아	-11.4952
▁소유권	-11.4952
▁연관성	-11.4953
용역	-11.4954
▁소개한다	-11.4954
▁담당관	-11.4954
▁캠핑	-11.4954
기도	-11.4955
▁성령	-11.4956
▁눈앞	-11.4956
▁인권위	-11.4956
▁거치면서	-11.4957
▁금천구	-11.4957
▁선사한다	-11.4957
▁뛰어나	-11.4959
▁김희	-11.496
▁증권가	-11.496
봐야	-11.496
▁풍성한	-11.4961
▁어딘가	-11.4962
▁가뭄	-11.4963
▁호소하	-11.4964
▁어휘	-11.4964
▁방콕	-11.4964
교통	-11.4965
▁포지션	-11.4966
▁비빔밥	-11.4966
▁햄버거	-11.4966
▁두려움	-11.4966
▁레알	-11.4966
▁말았다	-11.4966
▁판소리	-11.4967
▁전라북도	-11.4967
▁모스크바	-11.4968
▁안동	-11.4968
▁조현우	-11.4968
이네요	-11.4968
▁부대행사	-11.497
▁월스트리트저널	-11.497
▁실시하여	-11.4971
▁섞여	-11.4971
▁맺어	-11.4971
▁통화정책	-11.4971
앱	-11.4971
▁사실이지만	-11.4973
▁솜	-11.4974
▁달려가	-11.4974
▁김지사	-11.4974
지현	-11.4975
▁인정하지	-11.4976
▁됩니	-11.4978
▁발음	-11.498
▁타율	-11.4982
▁전해진다	-11.4982
▁필요하지만	-11.4982
▁예고했다	-11.4983
예방	-11.4983
▁정세	-11.4984
아트	-11.4985
▁차이점	-11.4985
▁해운대	-11.4986
▁그러니	-11.4986
▁것이냐	-11.4986
연합	-11.4988
▁방지하	-11.4988
▁백성	-11.4988
▁나눴다	-11.4989
▁민간전문가	-11.499
▁비주얼	-11.499
▁라돈	-11.499
▁해결해야	-11.4992
▁이틀간	-11.4993
▁연예계	-11.4993
▁분석됐다	-11.4993
▁신생아	-11.4994
▁사물인터넷	-11.4994
▁VIP	-11.4995
사령부	-11.4995
▁스마트시티	-11.4996
▁보건의료	-11.4996
▁워너원	-11.4997
▁보건소장	-11.4997
▁압축	-11.4998
빌	-11.4998
▁부친	-11.4998
▁실증	-11.4998
▁전통적	-11.5
▁예년	-11.5
▁벤처기업	-11.5
▁않은데	-11.5001
▁중소벤처기업부	-11.5002
▁거래량	-11.5002
▁육수	-11.5002
▁위쪽	-11.5002
구치소	-11.5004
▁가치관	-11.5005
▁비대위	-11.5005
VR	-11.5005
▁받거나	-11.5007
▁벌어	-11.5009
▁독자들	-11.5009
▁이럴	-11.5009
▁기부금	-11.5012
▁줄여	-11.5013
▁오래전	-11.5013
건축	-11.5014
▁군부대	-11.5014
▁레이저	-11.5017
▁계시는	-11.5018
▁와이파이	-11.5019
▁증거인멸	-11.5019
정비	-11.5019
▁원본	-11.502
▁승계	-11.502
▁조회수	-11.502
▁살리기	-11.5023
▁참석하여	-11.5025
▁기종	-11.5026
▁표지판	-11.5026
▁후회	-11.5027
▁이었다	-11.5029
▁선정하고	-11.503
▁주민자치회	-11.503
▁발달장애인	-11.5032
▁달콤한	-11.5033
▁은행권	-11.5034
▁김경	-11.5035
스타인	-11.5037
▁입안	-11.5037
백만	-11.504
▁신사업	-11.504
▁고마워	-11.5041
▁마라톤	-11.5041
▁시작했고	-11.5042
▁전투기	-11.5044
▁포천	-11.5044
신의	-11.5045
▁이르렀다	-11.5047
▁불법촬영	-11.5048
지기	-11.5048
▁확인해보	-11.505
▁진상	-11.505
연구회	-11.5051
▁타선	-11.5051
▁낮고	-11.5051
소상공인들	-11.5052
▁당황	-11.5053
▁얻기	-11.5055
치며	-11.5055
▁프랑스어	-11.5056
급여	-11.506
▁하락하고	-11.5063
▁참고인	-11.5063
▁경유	-11.5065
▁홍보하고	-11.5067
▁사면	-11.5067
▁후임	-11.5067
▁기자단	-11.5069
▁도래	-11.5071
▁전하는	-11.5071
사상	-11.5072
냐고	-11.5076
겨져	-11.5076
▁팔아	-11.5077
▁열대	-11.5079
▁여행자	-11.508
조사단	-11.5082
▁진행하기	-11.5084
▁뺀	-11.5084
노스	-11.5085
▁광복	-11.5085
n	-11.5086
▁돌파했다	-11.5086
▁격렬	-11.5086
▁찾아와	-11.5088
▁가져온	-11.5089
▁찾아보	-11.5091
▁맹	-11.5092
▁tvN	-11.5094
▁늘리고	-11.5094
▁도주	-11.5096
목표	-11.5103
▁고려하고	-11.5103
▁미추홀구	-11.5104
▁붓	-11.5105
▁어린아이	-11.5108
▁1993	-11.5108
나가	-11.511
인원	-11.5112
노동자	-11.5113
부지	-11.5114
▁회전	-11.5117
원에	-11.5118
▁한유총	-11.5119
전국	-11.512
▁선정하는	-11.5125
▁축산물	-11.5129
▁정해	-11.5129
▁분배	-11.5129
잖아	-11.513
▁추진계획	-11.5132
▁저지	-11.5132
▁한도	-11.5132
▁다녀오	-11.5133
▁경호	-11.5134
▁낙	-11.5134
▁두며	-11.5134
되는데	-11.5136
▁시험장	-11.5136
▁권고했다	-11.5137
의무	-11.5142
▁복장	-11.5144
▁요금제	-11.5145
▁세관	-11.5145
▁부임	-11.5146
▁들어왔	-11.515
십니까	-11.515
▁인체	-11.515
▁이동할	-11.5155
▁시력	-11.5156
▁뒀다	-11.5157
▁배워	-11.5157
▁촉발	-11.5158
▁어울리	-11.5158
▁보강	-11.5159
▁단기적	-11.516
▁파도	-11.5161
▁청중	-11.5163
▁세로	-11.5163
▁위력	-11.5163
아서	-11.5163
▁편안	-11.5163
▁안되는	-11.5166
▁신청사	-11.5167
▁불로	-11.5168
▁설치돼	-11.5169
▁봤어	-11.517
▁돌아가는	-11.517
지출	-11.5171
▁만족도	-11.5171
▁잡았	-11.5173
▁승차	-11.5175
▁수감	-11.5177
▁살펴보	-11.518
▁마련한다	-11.5181
▁900	-11.5181
▁실시하	-11.5185
▁가리	-11.5185
뜩	-11.5186
▁교육생	-11.5186
▁입건	-11.5187
▁게이트	-11.5191
▁날카로	-11.5192
▁피곤	-11.5192
하나님	-11.5192
▁비극	-11.5193
▁곤란	-11.5193
▁뜻한다	-11.5194
▁내려가	-11.5194
해달라	-11.5196
시가	-11.5196
신호	-11.5197
었고	-11.5204
처벌	-11.5206
▁장단	-11.5206
▁예상했	-11.5207
▁광명	-11.5208
쌍	-11.5209
Y	-11.5211
▁버섯	-11.5215
▁순회	-11.5215
▁섰다	-11.5216
중공업	-11.5216
▁회복세	-11.5218
▁검거	-11.5221
▁않으려	-11.5222
▁신원	-11.5222
▁관건	-11.5227
▁인성	-11.523
▁전통의	-11.5231
▁추격	-11.5232
▁빈번	-11.5234
▁어찌	-11.5234
▁85	-11.5236
▁대응하	-11.5241
▁징수한	-11.5241
▁대변	-11.5242
▁짚었	-11.5244
▁써야	-11.5244
▁대리인	-11.5244
보유세	-11.5247
▁이수	-11.525
▁서해안	-11.525
수한	-11.5252
▁주요국	-11.5253
GM	-11.5255
▁제작사	-11.5256
하느라	-11.5256
▁계류	-11.5258
▁차종	-11.5261
▁유세	-11.5261
▁준비해야	-11.5262
▁읽기	-11.5262
▁이승	-11.5263
▁성장한	-11.5263
봉투	-11.5266
책임자	-11.5266
정당	-11.5266
▁침투	-11.5267
▁실상	-11.5273
▁구축하고	-11.5275
검찰	-11.5276
▁노동조합	-11.5276
채로	-11.5278
▁양호	-11.5278
▁연초	-11.5279
▁괴	-11.5279
▁열광	-11.5285
▁남는다	-11.5286
▁서명한	-11.5287
르게	-11.5288
▁톤	-11.5289
▁남아있	-11.5292
▁외교관	-11.5296
▁남아있는	-11.5296
▁로	-11.5297
▁호가	-11.5298
▁독해	-11.5303
▁환상	-11.5304
▁의원실	-11.5305
▁제기돼	-11.5305
▁170	-11.5305
으므로	-11.5307
▁갚	-11.5307
▁바라보	-11.5312
당의	-11.5316
▁알았	-11.5318
▁공제	-11.5319
팩	-11.5321
의료	-11.5322
▁책임지	-11.5322
▁운영된다	-11.5325
▁설명하는	-11.5325
▁않자	-11.5327
▁빈곤	-11.5328
▁주시고	-11.533
▁앞다	-11.5331
▁드러	-11.5335
▁설치되어	-11.5336
▁산지	-11.5338
▁곤	-11.5341
계좌	-11.5341
▁고층	-11.5342
▁전달하고	-11.5346
욕	-11.5346
▁방화	-11.5348
▁영토	-11.5352
▁국민적	-11.5353
▁지내는	-11.5354
확보	-11.5354
하느냐	-11.5354
▁197	-11.5359
첩	-11.5361
지원사업	-11.5361
▁올라가는	-11.5366
▁이성	-11.5368
▁구독	-11.537
▁포기한	-11.5371
▁넓어	-11.5371
▁구석	-11.5373
▁지급하지	-11.5373
▁상습	-11.5374
인재	-11.5374
쩍	-11.5376
▁365	-11.5377
이제	-11.5378
플렉스	-11.5379
▁훔	-11.538
▁부각	-11.5381
▁SM	-11.5381
▁생성	-11.5381
밀	-11.5381
The	-11.5384
▁리뷰	-11.5387
톱	-11.5388
▁느	-11.5388
손실	-11.5389
극장	-11.5394
▁끝나지	-11.5395
▁부담금	-11.5397
▁일과	-11.54
▁대개	-11.5402
▁교감	-11.5402
격차	-11.5404
▁참고해	-11.5405
▁전시된	-11.5407
▁법인세	-11.5409
▁나타	-11.5409
▁말아	-11.5411
괴	-11.5419
▁행안부	-11.5421
▁김병	-11.5424
댄스	-11.5425
▁초안	-11.5425
낀	-11.5426
▁인종	-11.5427
긍	-11.5428
NYT	-11.5429
▁지루	-11.543
▁상부	-11.5431
샵	-11.5434
▁상설	-11.5436
킬	-11.5437
컨설팅	-11.5437
▁고구려	-11.5437
연준	-11.5438
r	-11.5438
▁건넨	-11.5439
▁설렘	-11.5439
▁첩보	-11.544
랭킹	-11.544
▁로이터	-11.5441
▁유튜버	-11.5441
▁유람선	-11.5441
▁멜로디	-11.5441
▁누리꾼	-11.5441
▁살펴볼	-11.5441
▁노란색	-11.5441
▁게시글	-11.5441
▁동메달	-11.5441
▁가상화폐	-11.5442
렬	-11.5442
▁체납액	-11.5442
▁오키나와	-11.5442
▁토너먼트	-11.5442
▁이순신	-11.5442
▁페널티킥	-11.5442
▁돼지고기	-11.5443
▁포트폴리오	-11.5443
▁종업원	-11.5443
▁슈퍼주니어	-11.5443
▁사우디아라비아	-11.5444
▁식품약품안전처	-11.5444
▁칠레	-11.5446
▁76	-11.5447
▁경신	-11.5447
슬	-11.5447
▁펼쳐졌다	-11.5448
▁상파울루	-11.5448
▁합의문	-11.5448
▁이승우	-11.5448
▁명예훼손	-11.5449
▁민간위원	-11.545
▁맨유	-11.5451
▁수소차	-11.5451
▁오르면	-11.5452
▁누구인지	-11.5452
▁노원구청장	-11.5454
▁자율주행차	-11.5454
▁검출된	-11.5456
▁연도별	-11.5457
▁7∼8	-11.5459
▁꼬	-11.5462
호기	-11.5462
▁내구성	-11.5462
▁떠올리	-11.5462
▁밝히면서	-11.5463
▁순방	-11.5465
▁떨어졌	-11.5465
▁한숨	-11.5466
▁삼겹살	-11.5467
▁어쨌든	-11.5467
▁백남준	-11.5467
▁종부세	-11.5467
지로	-11.5467
▁인삼	-11.5467
▁전해져	-11.5468
▁오토바이	-11.5468
▁재생	-11.5469
▁소속공무원	-11.5469
▁시중은행	-11.5469
▁퇴진	-11.547
▁음료수	-11.547
킵	-11.547
▁피난	-11.547
연기	-11.5471
▁고품질	-11.5471
▁사인	-11.5471
▁요트	-11.5473
▁점심시간	-11.5473
▁필수적인	-11.5475
▁활발	-11.5476
됐는지	-11.5476
▁범죄예방	-11.5477
▁인파	-11.5477
▁주문했다	-11.5478
전화	-11.5479
▁술집	-11.548
▁87	-11.548
▁참조	-11.5481
▁물론이고	-11.5481
▁이용료	-11.5484
▁절실	-11.5485
▁쌓인	-11.5485
▁탈세	-11.5485
▁소방차	-11.5485
▁2·4	-11.5485
▁운동장	-11.5486
▁생각하면	-11.5486
▁판결문	-11.5486
미사일	-11.5489
(10	-11.549
▁갯벌	-11.549
▁직면한	-11.5491
▁어쩌면	-11.5494
묘역	-11.5494
▁신경전	-11.5494
▁지역아동센터	-11.5495
▁유지해	-11.5496
▁드라이브	-11.5496
▁게다가	-11.5497
▁선출된	-11.5498
▁68	-11.5498
▁되었다고	-11.5498
▁마을공동체	-11.5498
▁분기별	-11.5499
▁사로잡고	-11.55
쓴	-11.55
▁일입니다	-11.55
▁친환경차	-11.55
55	-11.5503
▁발걸음	-11.5506
▁전문점	-11.5506
건강하고	-11.5507
▁장거리	-11.5508
▁마블	-11.5509
▁바람직	-11.5513
▁2025	-11.5514
▁택지	-11.5515
▁셔틀	-11.5517
▁이루어지고	-11.5518
▁정비사업	-11.5518
▁휴가철	-11.5518
▁15%	-11.5518
▁포착됐다	-11.5519
▁카탈	-11.552
▁소재지	-11.5521
▁마라	-11.5521
▁채용비리	-11.5523
▁걸린다	-11.5524
▁확	-11.5525
▁소품	-11.5528
▁느껴지	-11.553
▁혈관	-11.5531
▁작은도서관	-11.5533
▁거실	-11.5533
▁좋지만	-11.5534
▁레벨	-11.5535
▁사령관	-11.5535
▁크루즈	-11.5536
▁그랜드	-11.5536
▁지인들	-11.5537
혼	-11.5537
▁받았지만	-11.5537
▁적당한	-11.554
▁당당	-11.5542
▁맞습니다	-11.5543
▁판매된	-11.5543
▁도시개발	-11.5544
▁함정	-11.5545
▁떠오르고	-11.5545
▁남구	-11.5545
▁보이는데	-11.5546
▁부산항	-11.5547
▁렌터카	-11.5547
▁CGV	-11.5547
▁DNA	-11.5547
▁물품관리	-11.5549
▁국정농단	-11.5549
▁만점	-11.555
▁주셨	-11.555
▁산모	-11.555
▁발휘	-11.5551
▁전문기업	-11.5552
▁본다면	-11.5552
▁냉각	-11.5556
런트	-11.5558
▁공존	-11.5558
문학	-11.5559
▁높아져	-11.556
▁알림	-11.556
▁세균	-11.5562
▁소개한	-11.5562
▁동서	-11.5563
▁레저	-11.5566
▁분포	-11.5567
▁달해	-11.557
▁가까워지	-11.5572
▁개학	-11.5573
▁동계올림픽	-11.5573
타자	-11.5574
▁찬양	-11.5574
받고	-11.5575
▁회사들	-11.5576
▁신혼부부	-11.5576
▁고무	-11.5577
▁오시	-11.5579
▁상승률	-11.558
▁관리비	-11.5582
▁거론된	-11.5583
▁대학들	-11.5588
▁찍었다	-11.5591
▁장애물	-11.5592
▁국영	-11.5592
건수	-11.5595
▁고려대	-11.5596
▁수송	-11.5596
추진	-11.5596
위해	-11.5601
가능성	-11.5602
▁진행돼	-11.5603
▁휴게소	-11.5604
▁건의했다	-11.5606
▁돌아다니	-11.5608
▁공개하	-11.561
목이	-11.5611
▁이마트	-11.5611
본명	-11.5612
▁들어가기	-11.5614
x	-11.5615
▁빠졌	-11.5616
▁않으면서	-11.5616
▁가맹점주	-11.5618
▁포털	-11.5618
▁실려	-11.5619
▁독자적	-11.5621
▁자동화	-11.5622
▁주름	-11.5622
▁야구장	-11.5622
확인서	-11.5623
▁경제성	-11.5625
▁붙인	-11.5626
▁쌓여	-11.5629
▁현대인	-11.5631
▁도장	-11.5632
미세먼지	-11.5633
▁지적한	-11.5634
▁사물	-11.5635
▁요청하	-11.5635
농업	-11.5635
▁약화	-11.5635
▁지지하는	-11.5636
▁러시아의	-11.5637
면접	-11.5638
▁소외	-11.564
▁광주지역	-11.564
▁이적	-11.5643
▁문화유산	-11.5643
▁몰고	-11.5645
▁전라도	-11.5646
▁서울역	-11.5648
준비	-11.5648
▁자제	-11.5649
▁등장해	-11.5649
▁반복되	-11.565
▁혼인	-11.565
좋은	-11.5651
▁CBS	-11.5651
했어	-11.5652
▁시동	-11.5653
▁산업계	-11.5653
▁메모	-11.5658
▁렌즈	-11.5659
하시고	-11.5659
▁자선	-11.566
▁흑자	-11.5661
▁뜻이	-11.5661
하였습니	-11.5662
▁화폐	-11.5662
▁여배우	-11.5666
▁복지시설	-11.5668
▁주전	-11.5669
▁저수지	-11.567
▁것인데	-11.5671
▁샀	-11.5673
▁지원계획	-11.5673
▁민주화운동	-11.5675
▁요청하고	-11.5678
▁일감	-11.5679
흥	-11.5683
던데	-11.5684
▁간섭	-11.5685
▁대기오염	-11.5688
클	-11.5689
▁번씩	-11.569
갔다	-11.5693
공유	-11.5695
▁압수	-11.5697
▁깊다	-11.5698
리즘	-11.5699
로선	-11.5699
▁급수	-11.5699
▁과도	-11.57
▁빼돌	-11.5702
▁해결되	-11.5703
합	-11.5705
▁냉	-11.5705
▁들어갔	-11.5708
▁경험한	-11.5709
45	-11.5709
▁입는	-11.5712
▁떠나는	-11.5712
▁뜻하는	-11.5713
▁부른다	-11.5713
교사	-11.5714
비치	-11.5715
46	-11.5716
▁들어선다	-11.5718
▁평가해	-11.5719
▁미투	-11.572
▁동대문구	-11.572
▁비엔날레	-11.5721
▁촬영된	-11.5721
연설	-11.5722
뇌	-11.5723
▁다짐	-11.5724
▁협력하여	-11.5726
웨어	-11.5727
▁기쁘	-11.5729
▁응모	-11.573
▁아시	-11.5732
▁학점	-11.5733
▁강행	-11.5733
▁토큰	-11.5735
▁부상자	-11.5739
▁연예	-11.5741
였으며	-11.5742
저녁	-11.5745
▁도모하고	-11.5746
▁향수	-11.5749
해줍니	-11.5749
▁입상	-11.575
▁국민은행	-11.575
해드릴게요	-11.5751
▁등이다	-11.5751
▁시급	-11.5752
▁설날	-11.5754
▁알선	-11.5757
잡을	-11.576
▁광주광역시	-11.5763
▁점령	-11.5763
강화	-11.5764
▁두루	-11.5767
▁신기	-11.5768
또	-11.577
갈등	-11.5771
▁다치	-11.5771
▁차분	-11.5773
▁생각하	-11.5779
▁아쉽다	-11.5783
▁GM	-11.5784
▁장수	-11.5786
기관인	-11.5788
▁김천	-11.579
▁선고했다	-11.5793
▁설치하여	-11.5797
▁출품	-11.5799
▁나간다	-11.5799
▁부여하는	-11.5802
▁설명할	-11.5807
▁플랜	-11.5808
▁음악적	-11.5811
▁뛰어들	-11.5813
콘서트	-11.5814
해준	-11.5815
▁어려웠다	-11.5816
시오	-11.5817
부의	-11.582
▁슈	-11.5823
래요	-11.5825
향상	-11.5826
▁부당하다	-11.5826
납부	-11.5826
▁더운	-11.5827
벨트	-11.5828
▁신한	-11.5832
공학	-11.5832
계의	-11.5833
▁김진	-11.5835
▁전망치	-11.5837
▁찾으	-11.5843
▁챙기	-11.5844
▁굿	-11.5845
▁관문	-11.5847
▁출발하는	-11.5851
운영하는	-11.5851
▁규제개혁	-11.5852
▁탐	-11.5853
▁한여름	-11.5853
▁끝났	-11.5855
▁부른	-11.5855
▁사립	-11.5856
내는	-11.5856
▁주한	-11.5857
▁줬	-11.5857
수학	-11.5863
나이	-11.5864
▁의회의	-11.5866
선수	-11.5867
▁길어지	-11.5867
(11	-11.5868
▁보장하는	-11.5868
인상	-11.5871
▁심해지	-11.5875
경북	-11.5879
▁제출하면	-11.5879
수영	-11.5879
숨	-11.588
백화점	-11.5881
▁북상	-11.5882
▁발전이	-11.5882
▁분단	-11.5883
▁죽이	-11.5889
▁운반	-11.589
마케팅	-11.589
▁해결해	-11.5891
▁길어	-11.5891
▁팽팽	-11.5892
▁평이	-11.5893
▁거제	-11.5893
▁한파	-11.5894
▁안락사	-11.5894
같이	-11.5896
아시아	-11.59
현지	-11.5902
▁매개	-11.5902
구장	-11.5903
▁물러나	-11.5913
ing	-11.5914
▁건조한	-11.5919
▁TF	-11.5919
▁치러진	-11.5922
수지	-11.5924
농도	-11.5926
▁조심스럽	-11.5926
▁최소화하	-11.5927
▁참여하지	-11.5933
▁해명했	-11.5933
▁예약한	-11.5934
▁아이스	-11.5936
소위	-11.5939
▁밝혀진	-11.594
딜	-11.5941
뇨	-11.5945
▁염원	-11.5947
▁무난	-11.5949
h	-11.5954
홀딩스	-11.5955
▁교육장	-11.5958
설명회	-11.5959
▁관할구역	-11.5961
들어	-11.5961
유플러스	-11.5962
▁하트	-11.5963
▁대관	-11.5964
▁견딜	-11.5965
▁팬덤	-11.5965
▁효능	-11.5965
▁낙후	-11.5966
▁벤치	-11.5966
▁자존감	-11.5967
▁가져올	-11.5967
▁사냥	-11.5968
▁소련	-11.5968
▁김병준	-11.5968
▁특사경	-11.5968
기아차	-11.5969
▁감사드린다	-11.597
▁완성차	-11.5971
▁아름다워	-11.5971
▁토종	-11.5971
▁행정소송	-11.5971
▁재무장관	-11.5971
▁관리주체	-11.5971
▁대내외	-11.5972
▁어울려	-11.5972
▁서울산업진흥원	-11.5972
▁일관성	-11.5972
▁빌린	-11.5972
▁무사히	-11.5973
▁국가인권위원회	-11.5973
▁국군기무사령부	-11.5974
▁응급실	-11.5974
▁마찰	-11.5975
공부	-11.5975
▁용지	-11.5976
▁벨트	-11.5976
청와대	-11.5976
▁행정절차	-11.5977
정수	-11.5977
▁내부통제	-11.5977
▁엇갈리	-11.5979
▁출시한	-11.5979
▁고용률	-11.5979
▁다쳐	-11.5979
▁쳐	-11.5979
▁괜찮아요	-11.598
▁서울시교육청	-11.598
▁연계한	-11.5981
▁나누며	-11.5981
▁국왕	-11.5982
▁흑	-11.5984
호수	-11.5984
▁보험회사	-11.5984
▁첨예	-11.5985
렇듯	-11.5985
▁있듯이	-11.5986
▁묻자	-11.5987
▁미달	-11.5987
▁말씀하시는	-11.5988
▁사로잡았다	-11.5988
▁유소년	-11.5989
마루	-11.599
▁나서서	-11.5991
▁요구사항	-11.5991
▁언덕	-11.5991
▁모텔	-11.5992
케미칼	-11.5992
▁벽면	-11.5993
▁아낌없	-11.5994
▁수돗물	-11.5994
▁트이스	-11.5994
▁무슬림	-11.5994
▁쌍용차	-11.5994
▁목걸이	-11.5995
i	-11.5995
▁쇼케이스	-11.5996
▁기성용	-11.5996
▁우버	-11.5996
▁기울여	-11.5996
▁브로커	-11.5996
▁현대중공업	-11.5997
▁자궁	-11.5997
▁전자상거래	-11.5997
▁소녀시대	-11.5998
▁블라디보스토크	-11.5998
▁인터넷전문은행	-11.5998
▁독립성	-11.5999
▁한인들	-11.5999
▁참여연대	-11.5999
▁골목길	-11.6
▁마이	-11.6
▁문화행사	-11.6001
▁끝나자	-11.6001
▁바라본	-11.6001
▁설레	-11.6002
▁긴축	-11.6003
▁모험	-11.6004
▁중앙은행	-11.6004
▁다운	-11.6005
▁판매되	-11.6005
▁급증하	-11.6005
▁두번째	-11.6005
민주당	-11.6005
▁납	-11.6006
▁따지	-11.6006
▁배출량	-11.6006
권역	-11.6007
▁삼성전자서비스	-11.6009
▁마산	-11.6014
▁지주사	-11.6015
▁콘	-11.6016
▁조치할	-11.6016
▁사업계획서	-11.6018
▁주택시장	-11.602
▁원재료	-11.6022
▁대중음악	-11.6023
▁패션쇼	-11.6023
▁권역별	-11.6024
▁그린벨트	-11.6024
▁직급	-11.6025
▁국민건강보험	-11.6025
▁알고리즘	-11.6026
▁빈집	-11.6026
33	-11.6027
▁유익	-11.6027
▁추진되고	-11.6027
▁경제성장률	-11.6027
▁않으며	-11.6029
▁정오	-11.6031
▁미모	-11.6031
▁위반행위	-11.6031
▁부적합	-11.6032
▁배추	-11.6033
▁자막	-11.6035
▁부검	-11.6036
▁앞쪽	-11.6037
▁부르며	-11.6037
▁노리	-11.6037
▁일간	-11.6038
▁심신	-11.6038
▁입주기업	-11.6039
▁바라보고	-11.604
▁뒤쪽	-11.604
▁임진	-11.6041
▁평가한	-11.6043
동향	-11.6043
▁재능이	-11.6044
소통	-11.6046
▁삼바	-11.6047
▁담임	-11.6048
▁입장권	-11.6048
▁9·13	-11.6048
▁치는	-11.6049
램	-11.605
▁효	-11.605
▁이동이	-11.6051
▁흑인	-11.6051
▁갖췄다	-11.6051
렐	-11.6052
8,000	-11.6052
▁벤츠	-11.6052
▁전철	-11.6054
▁룰	-11.6054
▁유나이티드	-11.6054
▁승격	-11.6054
▁의심되	-11.6054
▁받았어	-11.6055
▁논산	-11.606
▁배수	-11.6061
유로	-11.6062
▁피하기	-11.6063
▁선장	-11.6063
▁만들어졌	-11.6063
▁출입구	-11.6066
▁한시적	-11.6069
▁시작될	-11.607
▁공유하	-11.6072
▁인정된다	-11.6073
▁보직	-11.6076
잉	-11.6076
▁홍준표	-11.6079
▁충분하지	-11.608
▁중남미	-11.608
▁앙	-11.608
▁기르는	-11.608
▁데일리	-11.6081
▁한두	-11.6081
견이	-11.6081
▁라벨	-11.6082
보트	-11.6083
▁잃어버	-11.6083
▁ABC	-11.6084
TF	-11.6086
▁어렵지	-11.6086
▁사라지고	-11.6089
사용자	-11.6089
▁강점기	-11.6091
▁행정관	-11.6094
▁고온	-11.6099
▁사로잡	-11.61
▁이해하지	-11.6102
페이	-11.6102
▁터라	-11.6102
▁검수	-11.6104
복구	-11.6105
인가	-11.6106
▁비석	-11.6108
▁간직	-11.611
▁포용	-11.611
▁받았는데	-11.611
▁반영할	-11.6111
봐서	-11.6112
▁4·27	-11.6112
▁세무	-11.6112
표시	-11.6114
▁실물	-11.6116
▁화이트	-11.6116
▁스승	-11.6116
▁장사	-11.6116
플	-11.6119
위주의	-11.612
▁영화들	-11.6122
양이	-11.6129
▁이웃들	-11.613
▁지원센터	-11.613
▁조식	-11.6131
위의	-11.6131
▁마다	-11.6131
▁김현	-11.6132
▁참모	-11.6133
개혁	-11.6133
▁나쁘지	-11.6134
▁소명	-11.6134
▁조형물	-11.6135
▁선순환	-11.6137
▁최후	-11.6137
배우	-11.6142
▁두려워	-11.6143
▁출판사	-11.6144
▁잔잔	-11.6144
▁페이스	-11.6146
▁오케스트라	-11.6151
▁왔던	-11.6151
▁신작	-11.6153
▁헬스케어	-11.6154
▁붙이	-11.6157
굴	-11.6158
▁금지하는	-11.6159
▁쉬고	-11.6159
지어	-11.6159
▁부하	-11.6159
가능한	-11.6159
개씩	-11.616
▁강구	-11.6167
▁바이	-11.6168
▁하실	-11.6169
▁담장	-11.617
▁84	-11.6171
롬	-11.6173
00	-11.6173
▁마일	-11.6175
▁고래	-11.6176
▁소모	-11.6176
▁엔지니어	-11.6176
▁하락했다	-11.6177
차선	-11.6178
오던	-11.6178
▁신상	-11.6179
데이터	-11.6179
▁공분	-11.6179
에어	-11.6179
▁육지	-11.6181
▁99	-11.6182
▁혈	-11.6183
IS	-11.6184
페이지	-11.6186
J	-11.6186
▁하남	-11.619
▁시작됐	-11.6191
▁활용하	-11.6192
비핵화	-11.6194
▁하니까	-11.6194
뿐	-11.6195
의약품	-11.6197
▁몰아	-11.6199
▁돕는다	-11.62
▁유기농	-11.6201
▁생리	-11.6201
스키	-11.6203
두리	-11.6207
▁얘기할	-11.6207
▁안심하	-11.6208
▁왕자	-11.6209
▁베이스	-11.6211
▁빌릴	-11.6212
시교육청	-11.6215
▁힘들었	-11.6215
▁누르면	-11.6219
▁궤도	-11.6223
▁좋은데	-11.6224
▁미지수	-11.6224
▁독재	-11.6226
▁발생했을	-11.6226
▁저축	-11.6226
▁미쳤다	-11.6228
▁잡힌	-11.6229
▁조직적	-11.6234
▁총괄부서	-11.6234
62	-11.6235
▁마비	-11.6235
▁송영	-11.6237
▁좋아할	-11.6239
▁퍼지	-11.6239
▁중단된	-11.624
새로운	-11.6247
▁찾아온	-11.6249
▁합성	-11.6249
▁건설업	-11.6252
▁변환	-11.6252
성폭력	-11.6253
▁근무하	-11.6256
▁높기	-11.6257
▁있었다면	-11.6258
▁듣지	-11.6258
질서	-11.6258
화하는	-11.6261
▁누구든	-11.6263
▁역세권	-11.6268
▁창설	-11.6268
▁성차별	-11.6271
▁어디든	-11.6276
길래	-11.6276
▁드리고	-11.6279
연금	-11.6279
압	-11.628
아래	-11.6282
▁거주지	-11.6285
▁좋아지	-11.6289
주고	-11.6289
쌀	-11.629
통제	-11.629
▁혼합	-11.6291
▁들어선	-11.6292
수리	-11.6294
▁부유	-11.6294
수출	-11.6298
출연기관	-11.6298
▁가만	-11.6299
완화	-11.6299
▁해준다	-11.63
단과	-11.6301
미가	-11.6302
▁수상작	-11.6308
▁판매하고	-11.6309
았으면	-11.6311
▁4000	-11.6311
▁준비했다	-11.6312
하라	-11.6312
해외	-11.6314
▁강동	-11.6317
잠	-11.6319
72	-11.632
세의	-11.6321
▁분할	-11.6322
▁희	-11.6325
신도시	-11.6328
▁방문하고	-11.633
▁입수	-11.633
김정은	-11.6331
▁박상	-11.6332
수단	-11.6333
▁폴리	-11.6335
▁경연대회	-11.6338
수탁자	-11.6344
▁나서	-11.6345
대책회의	-11.6345
▁중심부	-11.6349
어질	-11.6352
▁높지	-11.6353
▁직진	-11.6355
어린이	-11.6356
영장	-11.6358
용지	-11.6364
▁힘들고	-11.6364
이트	-11.6366
▁69	-11.6368
▁노력하는	-11.637
엄마	-11.6371
가공	-11.6375
경비원	-11.6377
▁집필	-11.6378
▁모아진	-11.6379
▁국수	-11.6383
▁그렇기	-11.6386
▁의정부시	-11.6387
▁해리	-11.6388
▁도망	-11.6389
▁하므로	-11.6395
싼	-11.64
▁세심	-11.6403
▁지니	-11.6414
했음	-11.6414
반경	-11.6419
경기장	-11.6425
스마트	-11.6431
▁공소	-11.6433
▁캐스팅	-11.6434
▁외면	-11.6435
▁그리스도	-11.6436
▁냉동	-11.644
▁경험할	-11.644
▁침묵	-11.6441
숲	-11.6445
▁보충	-11.6445
보조금	-11.6445
▁불거지	-11.6445
▁사야	-11.6446
묵	-11.6448
변하지	-11.6448
▁파격적	-11.6449
▁주문하	-11.645
500	-11.6451
어지면서	-11.6454
출납원	-11.6454
▁거부하	-11.6455
▁백자	-11.6458
차이	-11.6461
▁마련하	-11.6463
▁무서워	-11.6463
▁예쁘	-11.6469
▁종로	-11.6471
▁개입한	-11.6472
▁보호하	-11.6476
박근혜	-11.6476
중앙	-11.6477
▁해왔다	-11.6477
▁떠오른	-11.6477
▁경기도민	-11.6478
▁주파수	-11.6478
▁해소하	-11.6478
▁감지	-11.648
▁경감	-11.6481
▁생산자	-11.6481
닉	-11.6482
소식	-11.6482
▁49	-11.6484
시리즈	-11.6486
▁미스	-11.6488
▁활용하여	-11.6489
▁편한	-11.649
▁솔	-11.6492
폭력	-11.6494
▁마르	-11.6496
콤	-11.65
▁다투	-11.6502
개인	-11.6502
▁내세우	-11.6504
리면서	-11.6506
▁구성한	-11.6508
WSJ	-11.6511
▁제한된	-11.6511
맨체스터	-11.6512
개그맨	-11.6512
77	-11.6513
▁규탄	-11.6514
지방재정법	-11.6515
스코어	-11.6515
▁내주	-11.6517
▁주심	-11.6518
▁참신	-11.6519
▁북부청	-11.6519
▁막히	-11.6519
▁녹취	-11.652
▁깃발	-11.6521
▁듭	-11.6521
▁수집한	-11.6521
▁동창	-11.6521
▁브뤼셀	-11.6522
▁노회찬	-11.6522
▁토마토	-11.6522
▁덴마크	-11.6522
▁눈여겨	-11.6522
▁민정수석	-11.6522
▁타이틀	-11.6522
▁스티브	-11.6522
▁질응답	-11.6522
▁메이저	-11.6523
▁맵	-11.6523
▁사외이사	-11.6523
▁충청북도	-11.6523
▁카테고리	-11.6523
▁데이비드	-11.6523
▁권한대행	-11.6524
▁심폐소생술	-11.6524
▁롯데마트	-11.6524
▁어울릴	-11.6525
▁광화문광장	-11.6525
활성화	-11.6525
▁깊숙	-11.6525
▁펴낸	-11.6525
▁숙명여고	-11.6525
▁외벽	-11.6525
▁은	-11.6525
▁한복판	-11.6525
▁사후관리	-11.6526
▁국토교통위원회	-11.6526
▁아랍에미리트	-11.6526
▁특검팀	-11.6527
▁서울교통공사	-11.6527
▁주민참여	-11.6527
오프라인	-11.6528
▁내비쳤다	-11.6528
▁신촌	-11.6529
▁합친	-11.6529
▁가리키	-11.6529
▁출입문	-11.653
▁흥	-11.653
▁롯데그룹	-11.653
▁의욕	-11.6531
밑	-11.6532
▁아우르	-11.6532
▁휩싸인	-11.6532
면허	-11.6533
▁징역형	-11.6533
▁미생물	-11.6533
▁장려	-11.6534
▁두드러진	-11.6534
▁그렇습니다	-11.6534
▁개선방안	-11.6535
▁가로막	-11.6535
▁모처	-11.6535
▁미성년자	-11.6536
잠수함	-11.6536
스퀘어	-11.6537
제약	-11.6537
꾼	-11.6538
주식회사	-11.6538
▁손목	-11.6541
▁대화방	-11.6541
▁전달식	-11.6542
▁뺨	-11.6542
▁공동대표	-11.6542
▁싶다면	-11.6543
▁얼마인가요	-11.6543
▁원동력	-11.6545
▁생물	-11.6546
▁생활비	-11.6547
▁달걀	-11.6548
김종민	-11.6549
▁오바마	-11.655
▁태블릿	-11.655
FTA	-11.655
▁디테일	-11.6551
▁쓰나미	-11.6551
▁실업률	-11.6551
▁르노삼성	-11.6552
▁인허가	-11.6552
▁달라지	-11.6552
▁투자금	-11.6553
▁전형적	-11.6553
▁어렵지만	-11.6553
▁발생하면	-11.6553
▁연동형	-11.6554
▁게스트하우스	-11.6554
▁이민자	-11.6554
▁삼성화재	-11.6554
▁택시기사	-11.6555
▁창의성	-11.6556
▁공존하는	-11.6556
▁상륙	-11.6556
▁많아지고	-11.6556
▁결의안	-11.6556
▁정치자금	-11.6557
리조트	-11.6558
▁이재민	-11.6559
▁기사님	-11.6559
▁자율성	-11.656
▁유의해야	-11.656
▁화물차	-11.6561
▁자연환경	-11.6561
▁국물	-11.6562
▁천막	-11.6563
▁이승현	-11.6563
OECD	-11.6563
▁중증장애인	-11.6563
▁식감	-11.6564
▁트리	-11.6564
▁취득세	-11.6564
▁오르며	-11.6565
매우	-11.6568
▁합계	-11.6568
▁판매한	-11.6568
컴퍼니	-11.6569
▁사측	-11.6569
▁소설가	-11.657
그것	-11.6571
무리한	-11.6571
▁입장료	-11.6572
▁없애는	-11.6572
▁간단하게	-11.6573
▁예산편성	-11.6573
▁두는	-11.6575
▁증빙	-11.6576
▁헌재	-11.6577
▁가야금	-11.6577
▁밀착	-11.6577
▁포부	-11.6577
▁하얀	-11.6578
계절	-11.6578
▁다저스	-11.6579
사업의	-11.6579
▁텐데요	-11.6579
▁터미널	-11.6579
▁레시피	-11.658
▁관공서	-11.658
▁디렉터	-11.658
▁괴롭힘	-11.658
▁맞벌이	-11.658
▁연탄	-11.658
▁보여주었다	-11.6581
남기	-11.6581
▁직권남용	-11.6582
▁남한산성	-11.6582
▁뇌물수수	-11.6582
▁팀원들	-11.6582
▁파트너십	-11.6583
거야	-11.6583
▁전용면적	-11.6584
▁대우조선해양	-11.6584
▁상생협력	-11.6585
▁생활용품	-11.6586
회초	-11.6586
▁상여금	-11.6588
헨	-11.6588
▁교류협력	-11.659
▁사건들	-11.6591
▁김모	-11.6591
▁재계약	-11.6593
▁묻지	-11.6595
▁사무국장	-11.6595
댐	-11.6595
▁원서	-11.6596
▁곤란한	-11.6598
▁주최하	-11.6598
▁경협	-11.6598
똥	-11.6598
▁써서	-11.6598
▁청년층	-11.6599
자유	-11.6599
▁금년	-11.66
▁짝	-11.6602
이야기	-11.6603
▁신한은행	-11.6604
양식	-11.6604
▁고액	-11.6604
▁문명	-11.6605
▁시장조사	-11.6605
▁귀찮	-11.6605
▁망명	-11.6606
용할	-11.6607
▁시골	-11.6609
▁청구한	-11.661
▁방사선	-11.661
▁간행물	-11.6611
▁맞춰서	-11.6612
▁생체	-11.6612
▁가디언	-11.6614
▁플레이오프	-11.6614
▁검경	-11.6614
▁살펴보고	-11.6615
▁신용등급	-11.6615
▁다쳤다	-11.6615
▁외교적	-11.6616
▁시원	-11.6618
▁청문	-11.6618
999	-11.6618
▁솔직	-11.6619
▁않던	-11.662
▁자라	-11.6622
▁복제	-11.6625
▁초과하	-11.6627
▁비트	-11.6627
▁키즈	-11.663
▁수직	-11.6632
▁다니고	-11.6632
▁허브	-11.6632
▁세탁기	-11.6634
▁도저	-11.6635
▁황사	-11.6635
▁밀도	-11.6635
향이	-11.6635
▁교차	-11.6636
▁솔릭	-11.6637
▁탄압	-11.6637
▁수사팀	-11.6637
▁포함된다	-11.6638
▁발견하고	-11.6638
공업	-11.6639
창구	-11.6641
정권	-11.6643
▁도덕적	-11.6643
▁소방공무원	-11.6643
▁해외시장	-11.6644
▁세입자	-11.6644
▁도착하는	-11.6644
▁재건	-11.6644
정숙	-11.6645
▁개발된	-11.6649
▁근무제	-11.6649
원가	-11.6649
▁모를	-11.665
▁예상돼	-11.665
▁두통	-11.6651
▁방류	-11.6651
수익	-11.6655
▁극복하기	-11.6656
▁이용하면	-11.6657
▁해고	-11.6657
▁빨간색	-11.6658
▁일터	-11.666
▁끼치	-11.6661
▁발굴하고	-11.6663
▁전과	-11.6664
▁출발해	-11.6667
▁갈게	-11.6668
▁팔레	-11.667
▁서비스업	-11.667
제공	-11.667
▁의료인	-11.6673
▁군중	-11.6675
▁매너	-11.6676
시경	-11.6676
7,000	-11.6678
▁이길	-11.6683
▁엑스	-11.6683
전체	-11.6684
▁빠지고	-11.6685
▁구의원	-11.6686
▁걷고	-11.6689
▁통관	-11.6691
▁줄고	-11.6693
▁‘1	-11.6693
▁연출한	-11.6693
▁배부	-11.6696
▁사양	-11.6697
▁돌고	-11.6699
▁실종자	-11.67
거래처	-11.6701
▁정차	-11.6701
▁접근할	-11.6702
▁주니어	-11.6704
▁불합리	-11.6705
▁사용했다	-11.6705
통지서	-11.6709
▁구워	-11.6709
▁만났다	-11.671
▁장악하	-11.6711
▁정치가	-11.6712
▁불씨	-11.6712
▁조례안	-11.6715
▁버티	-11.6717
▁유리하다	-11.6718
▁이용하	-11.6718
▁검출됐다	-11.6719
융합	-11.672
▁시야	-11.6722
▁만들지	-11.6723
▁350	-11.6724
였	-11.6726
▁단절	-11.6727
▁보호구역	-11.6727
▁영업시간	-11.6729
▁좋아하고	-11.6729
▁생각해보	-11.673
▁뿐입니다	-11.6731
▁지지부진	-11.6735
주머니	-11.6737
65	-11.6738
▁명세	-11.674
▁한마당	-11.6743
▁탱크	-11.6744
▁있는데요	-11.6745
▁투입되는	-11.6749
비트	-11.675
이전	-11.6752
인터넷	-11.6752
▁발리	-11.6755
▁화분	-11.6755
▁했으며	-11.6756
▁발견해	-11.6757
▁실은	-11.6757
▁주문할	-11.6757
▁건설공사	-11.676
▁DB	-11.6762
▁차주	-11.6763
▁몰입	-11.6764
▁사운드	-11.6767
▁중기부	-11.6771
▁전망하고	-11.6772
▁인정받아	-11.6774
▁방미	-11.6775
▁이마	-11.6776
▁내장	-11.6776
49	-11.6779
가장	-11.6785
뜩이	-11.6786
어차	-11.6787
집단	-11.6788
▁학급	-11.6792
▁우세	-11.6793
▁옳다	-11.6794
▁갖춰	-11.6797
▁사표	-11.6799
전시회	-11.68
▁향하고	-11.6805
▁처리하는	-11.681
▁성장동력	-11.6813
▁잔치	-11.6813
▁주범	-11.6814
통일	-11.6814
▁실기	-11.6816
자유한국당	-11.6817
청소	-11.6818
▁주문하고	-11.6818
▁시사	-11.682
▁오염물질	-11.682
서는	-11.682
기념관	-11.6821
▁보호하는	-11.6821
▁근무한	-11.6826
▁체납자	-11.6826
MS	-11.6827
▁장씨	-11.6827
▁시작하고	-11.6829
▁중구청장	-11.6832
▁소정	-11.6833
▁정리해	-11.6834
방학	-11.6834
▁찾았	-11.6835
회원	-11.6838
▁김승	-11.684
▁부인했다	-11.6841
▁비정상적	-11.6841
▁돌발	-11.6841
▁번영	-11.6844
▁골든	-11.6848
▁충	-11.6848
주차장	-11.6852
▁필름	-11.6852
▁서초	-11.6854
▁아쉬워	-11.6856
▁곡이	-11.6859
▁곤충	-11.686
재산권	-11.686
통화	-11.6861
▁챙기는	-11.6861
▁좋으면	-11.6864
▁완료한	-11.6864
▁추천하고	-11.6864
▁주어	-11.6865
▁포진	-11.6867
프로젝트	-11.687
점유율	-11.6871
▁혁신적	-11.6876
▁투여	-11.6877
▁풀고	-11.6883
▁출석하	-11.6884
농	-11.6892
궁	-11.6895
▁사회주의	-11.6895
1989	-11.6897
44	-11.6897
▁수법	-11.6899
까봐	-11.6899
▁노후화	-11.6899
▁등산	-11.69
탁	-11.69
▁조성하는	-11.6902
▁둘러보	-11.6903
▁지역발전	-11.6904
▁현명	-11.6905
▁양대	-11.6906
▁부분이다	-11.6908
프랑스	-11.6909
▁꼽히	-11.6909
▁암기	-11.691
▁당직	-11.691
▁주의보	-11.6911
▁병사	-11.6911
▁의견서	-11.6913
년제	-11.6914
▁탔	-11.6915
▁67	-11.6916
▁세우는	-11.6918
▁심상	-11.692
수입	-11.692
▁클래스	-11.6925
▁벤치마킹	-11.6925
▁어려	-11.6927
제주	-11.6929
주식	-11.6929
▁갈래	-11.693
콩	-11.693
▁찾는다	-11.693
랩	-11.6933
반응	-11.6936
▁자영업	-11.6936
였어	-11.6941
▁높아진다	-11.6942
해주기	-11.6942
▁피우	-11.6943
빨리	-11.6943
▁연차	-11.6944
토론	-11.6945
▁만난다	-11.6945
▁투명	-11.6949
▁관계없	-11.6953
혔다	-11.6953
정지	-11.6953
▁내렸	-11.6953
끝	-11.6954
▁알려줄게	-11.6955
▁아랍	-11.6956
▁근로소득	-11.6962
on	-11.6963
▁방출	-11.6963
▁비슷하다	-11.6964
전력	-11.6966
보단	-11.6967
▁할까	-11.6968
▁생산된	-11.6969
▁판매한다	-11.6971
외의	-11.6973
▁함께할	-11.6973
▁확대된다	-11.6974
▁지지자	-11.6975
엠	-11.698
▁공문	-11.698
시켜야	-11.6983
▁적시	-11.6983
▁생활환경	-11.6988
해선	-11.6991
잎	-11.6994
▁있는가	-11.6996
▁수천	-11.6997
▁정신질환	-11.6998
권의	-11.7
▁기리	-11.7001
폐	-11.7007
▁IoT	-11.7007
▁시작돼	-11.7007
관리자	-11.7008
마음	-11.701
▁댐	-11.701
노인	-11.701
▁만족할	-11.7012
▁돌아오는	-11.7014
▁소각	-11.7014
▁춘천시	-11.7015
▁준비된	-11.7016
경남	-11.7026
▁주기적	-11.7027
▁치러	-11.7028
▁권역	-11.7028
300	-11.7029
시사회	-11.7033
카메라	-11.7033
려야	-11.7041
▁도의	-11.7042
▁활동가	-11.7042
▁있다가	-11.7043
▁OECD	-11.7044
잘	-11.7044
해지는	-11.7052
▁운영하	-11.7053
▁자란	-11.7054
▁불구속	-11.7054
인프라	-11.7055
하므로	-11.7056
하셔서	-11.7057
▁공교	-11.7058
▁사칭	-11.706
앨범	-11.7066
▁견인	-11.7068
설치	-11.7069
혐의	-11.707
▁다가온	-11.707
▁참여하	-11.707
▁영암	-11.7071
▁원조	-11.7074
▁전시관	-11.7074
▁출전한	-11.7074
봅	-11.7076
▁대담	-11.7076
▁이은	-11.7077
▁선거구	-11.7078
연의	-11.7079
주시면	-11.7082
▁조현	-11.7084
▁맞이해	-11.7085
▁저평가	-11.7085
▁중인데	-11.7086
▁갇	-11.7086
▁어떻	-11.7088
▁맞다	-11.7088
▁다르다는	-11.7088
쁩	-11.7099
신속처리안건	-11.7099
문화회관	-11.71
▁인디	-11.71
▁전통문화	-11.7101
에버랜드	-11.7101
▁섹	-11.7102
닷컴	-11.7103
▁불펜	-11.7103
▁책자	-11.7104
해주신	-11.7105
▁IS	-11.7105
▁관리하기	-11.7105
▁로컬	-11.7108
▁균열	-11.7108
▁종사하	-11.7109
▁토익	-11.7109
▁사은품	-11.711
▁독거노인	-11.7111
▁영리병원	-11.7111
▁재적위원	-11.7111
▁욕실	-11.7112
▁마이크로닷	-11.7112
▁수소전기차	-11.7112
▁맞은편	-11.7112
▁해주시	-11.7112
▁샌프란시스코	-11.7112
▁개발제한구역	-11.7113
▁워싱턴포스트	-11.7113
▁삼성바이오피스	-11.7113
▁업황	-11.7113
▁지나도	-11.7114
▁일찌	-11.7114
▁주변국	-11.7114
▁말하자면	-11.7114
▁장려상	-11.7114
▁새삼	-11.7115
▁알았는데	-11.7116
▁안전자산	-11.7116
▁위촉위원	-11.7116
년여	-11.7116
▁진행됐으며	-11.7116
▁정취	-11.7116
▁해본	-11.7117
▁고맙습니다	-11.7118
▁두께	-11.7118
▁회계처리	-11.7118
기본법	-11.7118
▁풍미	-11.7119
▁예정이어서	-11.7119
▁색감	-11.7119
▁중기센터	-11.7119
▁말씀해주세요	-11.712
▁모르겠습니다	-11.712
▁권고안	-11.7122
▁대한체육회	-11.7122
▁진행자	-11.7124
▁낙찰	-11.7124
▁유서	-11.7125
▁교부하여야	-11.7125
▁여인	-11.7125
▁싫어요	-11.7126
KT	-11.7126
▁뜨거웠다	-11.7126
왼쪽	-11.7126
▁키운	-11.7126
맞추기	-11.7129
▁이색	-11.7129
▁나왔지만	-11.7131
엉덩이	-11.7131
▁쏟아졌다	-11.7132
▁아파서	-11.7132
▁걸립니다	-11.7132
▁위기감	-11.7132
▁신생	-11.7133
▁도착하면	-11.7133
▁극중	-11.7134
▁생각하세요	-11.7134
▁중형	-11.7135
▁언급하며	-11.7135
▁따뜻	-11.7136
▁가능해진다	-11.7137
▁목욕	-11.7137
▁이루어진다	-11.7138
▁로켓	-11.7138
개입	-11.7138
(14	-11.7139
▁스페셜	-11.714
▁이산화	-11.714
부장판사	-11.714
▁음란물	-11.714
▁색채	-11.7141
▁대체복무	-11.7141
▁손톱	-11.7141
위안	-11.7141
▁자이언츠	-11.7141
▁새누리당	-11.7141
▁중저가	-11.7141
▁양해각서	-11.7141
▁랜드마크	-11.7141
▁1982	-11.7142
▁바리스타	-11.7142
▁출토	-11.7142
위탁	-11.7142
▁초계기	-11.7142
▁무소속	-11.7142
▁가능했다	-11.7142
▁블랙리스트	-11.7143
▁동주민센터	-11.7143
▁아메리카노	-11.7143
▁경기침체	-11.7143
▁활주로	-11.7143
▁로스앤젤레스	-11.7143
▁비대위원장	-11.7144
▁선택했다	-11.7144
▁가는데	-11.7144
▁56	-11.7146
면세점	-11.7146
▁개각	-11.7146
▁사물놀이	-11.7147
▁택시업계	-11.7147
규제완화	-11.7147
▁사극	-11.7148
▁수사기관	-11.7148
▁퇴사	-11.7149
▁협력업체	-11.7149
▁소나무	-11.7149
c	-11.7149
▁같았다	-11.715
▁거부감	-11.7151
▁밝히며	-11.7151
▁상임위원장	-11.7152
▁분양권	-11.7152
▁the	-11.7154
▁소개하며	-11.7155
▁팁	-11.7159
골문	-11.716
▁정당성	-11.716
▁입술	-11.7161
▁파이	-11.7162
▁부주의	-11.7163
▁한류스타	-11.7163
▁정정	-11.7163
▁마취	-11.7164
▁지주	-11.7165
▁종교인	-11.7165
▁개체	-11.7165
▁가능하면	-11.7165
▁도왔다	-11.7167
▁농민들	-11.7167
▁한마음	-11.7167
▁와해	-11.7168
▁오브	-11.7168
▁다짐했다	-11.7168
▁채운	-11.717
였다는	-11.717
▁전례	-11.7172
▁잔액	-11.7173
▁실업자	-11.7173
▁목표치	-11.7175
▁유지하면서	-11.7175
▁쭉	-11.7175
심위원회	-11.7175
▁생방송	-11.7176
▁압도	-11.7177
▁비치하고	-11.7177
▁사법행정	-11.7177
사법농단	-11.7177
▁비슷하	-11.7177
▁수입차	-11.7179
▁c	-11.7179
▁찬사	-11.7179
▁1,200	-11.7179
이죠	-11.718
▁신체적	-11.718
▁식민지	-11.7181
▁살피고	-11.7182
▁따뜻하고	-11.7182
방울	-11.7183
▁강타	-11.7184
▁취소한	-11.7186
▁작사	-11.7187
▁설비투자	-11.7187
▁노란	-11.7187
▁받았으며	-11.7188
느	-11.7189
슛	-11.7189
▁경제활동	-11.7189
▁벤	-11.719
▁4∼5	-11.719
▁원심	-11.7191
▁구하라	-11.7191
IoT	-11.7192
시는	-11.7192
잇	-11.7192
▁반발했다	-11.7193
되더라도	-11.7194
▁전한다	-11.7194
GDP	-11.7195
큐	-11.7195
▁실거래	-11.7197
▁사적	-11.7198
▁뱃	-11.7199
▁예고한	-11.7199
▁낚시	-11.7202
진흥원	-11.7203
▁푸드	-11.7203
쿼터	-11.7203
▁드러나지	-11.7203
▁연주자	-11.7204
▁중이라	-11.7204
▁임대사업자	-11.7204
▁호랑이	-11.7205
▁감수성	-11.7205
▁잃는	-11.7206
▁보내면	-11.7206
▁풀기	-11.7206
▁느껴졌다	-11.7206
분경	-11.7207
▁크리에이터	-11.7207
▁드러난다	-11.7208
▁되었는데	-11.7208
▁동탄	-11.7208
▁만드는데	-11.7209
▁청정	-11.7211
동맹	-11.7211
▁무상교육	-11.7211
▁지능	-11.7211
▁참여하며	-11.7212
▁공매	-11.7213
▁싶지만	-11.7213
▁전기자동차	-11.7214
▁침몰	-11.7214
억원대	-11.7215
▁능동적	-11.7215
▁개선하고	-11.7217
▁손꼽히	-11.7221
▁예상한다	-11.7221
굿	-11.7223
▁개인별	-11.7224
▁보시고	-11.7224
▁청구서	-11.7224
▁나타내고	-11.7226
▁출시된	-11.7226
IMF	-11.7229
지대	-11.7229
▁방한	-11.7229
▁이용률	-11.7231
▁학사	-11.7231
▁이신청	-11.7231
▁집착	-11.7232
솜씨	-11.7232
▁첼시	-11.7233
▁교육비	-11.7233
▁단풍	-11.7237
0%	-11.7238
▁레이스	-11.7238
▁127	-11.7239
투명하게	-11.724
▁국제교류	-11.7241
▁4·3	-11.7241
▁남기고	-11.7244
▁메리	-11.7247
▁사업시행자	-11.7248
▁깊어지	-11.7248
▁근본	-11.7249
▁성평등	-11.725
▁맞대	-11.7251
례	-11.7251
▁갓	-11.7251
▁접하고	-11.7252
택시	-11.7254
▁지급된다	-11.7255
▁차지할	-11.7255
▁접어들	-11.7257
▁보여서	-11.7257
▁위탁계약	-11.7258
▁나왔고	-11.7259
▁절단	-11.7261
▁않다면	-11.7261
▁교통수단	-11.7262
▁단거리	-11.7263
▁마무리됐다	-11.7265
▁묻어나	-11.7266
▁사과했다	-11.7268
▁레이더	-11.7269
강사	-11.7269
▁지우	-11.727
▁말해주	-11.7271
▁갖다	-11.7273
▁시켜	-11.7275
▁굵직	-11.7276
▁끼치는	-11.7277
▁십	-11.7278
▁수탁	-11.7279
▁전임자	-11.7281
▁까다로	-11.7286
▁62	-11.7287
▁야권	-11.7287
▁소유주	-11.7289
▁총격	-11.729
▁줄어	-11.729
▁반영됐다	-11.729
▁우수기업	-11.7291
▁예술인	-11.7296
▁아웃	-11.7296
합시다	-11.7298
▁위조	-11.73
▁히어로즈	-11.7302
▁제시할	-11.7302
▁주유소	-11.7303
▁청장	-11.7304
▁주거지	-11.7306
밋	-11.7308
▁그야	-11.7308
▁건국	-11.731
▁메시	-11.7311
했거나	-11.7312
71	-11.7312
▁들어가지	-11.7313
▁유기	-11.7315
▁관악	-11.7316
▁울고	-11.7316
봇	-11.732
▁관리해	-11.7324
부담금	-11.7327
▁구실	-11.7328
▁넘었다	-11.7328
▁시작하기	-11.7331
증진	-11.7331
▁절벽	-11.7332
대학원	-11.7333
▁IB	-11.7334
로움	-11.7337
▁평상	-11.7342
▁NC	-11.7343
▁윤종	-11.7344
웠던	-11.7345
▁산다	-11.7349
▁해당되는	-11.7351
▁민화	-11.7353
▁질적	-11.7353
▁증폭	-11.7354
▁원금	-11.7355
▁관여한	-11.7355
▁멀어	-11.7356
▁일으키	-11.736
장터	-11.7361
더라	-11.7361
▁유선	-11.7362
▁갈비	-11.7362
▁UAE	-11.7364
▁구체화	-11.7365
▁감당하	-11.7367
▁격리	-11.7371
▁설치하	-11.7373
▁러브	-11.7374
▁약관	-11.7374
▁진천	-11.7375
▁말하며	-11.7375
▁차단하	-11.7377
▁시의원	-11.7377
▁깃	-11.7377
▁산업화	-11.7379
얼	-11.7382
좌	-11.7383
▁해보고	-11.7384
▁심리적	-11.7385
▁로드	-11.7385
▁기호	-11.7387
▁우울	-11.7387
▁고통받	-11.7387
▁겹쳐	-11.7387
부스	-11.7391
▁농업용	-11.7393
▁몰카	-11.7393
▁면회	-11.7393
▁최고조	-11.7394
▁공립	-11.7394
▁출혈	-11.7395
▁정기회	-11.7395
▁한겨레	-11.7396
▁남북경협	-11.7397
했	-11.7399
▁탐사	-11.7399
았어요	-11.74
▁애들	-11.7401
오고	-11.7404
▁이례적인	-11.7404
▁노화	-11.7404
▁기대하는	-11.7405
▁감소하는	-11.7405
▁개표	-11.7407
▁대부분이다	-11.7414
▁문화관광	-11.7416
▁서예	-11.7418
동산	-11.742
▁고루	-11.7421
▁공개하고	-11.7424
대행	-11.7426
▁지급한	-11.7426
부품	-11.7426
▁오일	-11.7426
▁깨달았	-11.7427
▁두어	-11.7429
▁낮추는	-11.7434
진행	-11.7435
외국인	-11.7435
▁걸었다	-11.7436
▁세밀	-11.7437
보급	-11.7443
▁답답	-11.7447
▁공개되	-11.7447
▁측근	-11.7448
▁안방	-11.7449
▁컷	-11.7451
▁주도했다	-11.7452
▁출연한다	-11.7452
▁안정된	-11.7452
▁유기적	-11.7456
반장	-11.7456
▁공동조사	-11.7457
▁롤러	-11.7457
▁잘라	-11.7457
▁물건들	-11.7458
▁여수시	-11.746
▁열사	-11.746
▁행복해	-11.746
▁해결하고	-11.7461
내식	-11.7462
▁78	-11.7462
작은	-11.7462
이젠	-11.7464
▁유입되는	-11.7465
갑니	-11.7467
▁유통기	-11.7468
▁만나지	-11.7469
▁북한군	-11.7473
▁성사	-11.7476
졌어요	-11.7478
▁보트	-11.7483
▁보호하고	-11.7485
▁지나서	-11.7485
▁심층	-11.7487
▁등록한	-11.7489
미디어	-11.7491
▁중량	-11.7493
▁안착	-11.7497
▁동전	-11.7497
▁도입했다	-11.7497
없네요	-11.7497
어린이집	-11.7497
▁사업성	-11.7498
▁푼	-11.75
▁하단	-11.7501
▁강화해	-11.7501
7000	-11.7504
▁조성한	-11.7504
▁주어졌	-11.7509
▁호소했	-11.751
▁오르지	-11.7511
▁세척	-11.7513
▁개소	-11.7513
▁도시철도	-11.7514
▁기와	-11.7515
▁수행하고	-11.7515
힘	-11.7515
▁필요한데	-11.7517
▁적다	-11.7519
넬	-11.752
▁국립공원	-11.752
▁복잡	-11.7525
주된	-11.7525
▁만끽	-11.7528
▁창의적	-11.7529
▁장난	-11.7534
화재	-11.7536
▁시작했	-11.7537
▁빠	-11.7537
▁연구기관	-11.7541
▁주점	-11.7545
수익률	-11.7545
시마	-11.7547
▁오른다	-11.7549
▁딜	-11.7549
▁청자	-11.7549
▁만나면	-11.7552
▁세우	-11.7553
오후	-11.7554
몰리는	-11.7554
▁구성하는	-11.7555
▁중단한	-11.7556
이냐	-11.7556
▁중요하	-11.7559
▁박성	-11.756
풀이	-11.756
▁나타나지	-11.756
▁비추	-11.7562
▁시작하면	-11.7564
▁달라진다	-11.7565
▁기독교인	-11.7566
변호사	-11.7567
▁억지	-11.7568
▁불상	-11.7569
▁파악해	-11.757
저기	-11.7571
일부	-11.7572
학자	-11.7574
▁공부하	-11.7574
▁높인다	-11.7574
▁여객선	-11.7574
▁낭독	-11.7575
▁과다	-11.7575
▁결합한	-11.7575
▁발탁	-11.7577
인데도	-11.7578
평론가	-11.7578
▁로그인	-11.7579
▁시트	-11.7579
▁서귀포시	-11.758
▁발제	-11.7581
▁부족하다는	-11.7582
▁드리는	-11.7583
이었으나	-11.7584
▁관리한다	-11.7585
김정일	-11.7587
담당자	-11.7587
특별	-11.7591
▁치우	-11.7593
▁기장	-11.7595
▁경상	-11.7597
수량	-11.7599
부진	-11.76
▁분비	-11.76
▁드레스	-11.7605
심의회	-11.7605
▁치수	-11.7608
▁구본	-11.761
▁최정	-11.7611
▁꾸려	-11.7616
리스트	-11.7618
독일	-11.7621
월드컵	-11.7621
겼다	-11.7622
▁7000	-11.7624
▁이천시	-11.7626
▁차지한다	-11.7631
▁개별적	-11.7632
▁공통적	-11.7634
▁용품	-11.7634
▁반지	-11.7635
옷	-11.7636
▁보였	-11.7639
공주	-11.764
변동	-11.7647
▁상담회	-11.765
했더니	-11.7651
▁상황실	-11.7651
있긴	-11.7652
▁보고했다	-11.7652
▁음악회	-11.7653
침해	-11.7653
▁김지	-11.7656
▁본격화되	-11.7657
농협	-11.7659
▁같고	-11.7663
▁드러내는	-11.7664
▁누설	-11.7668
▁급한	-11.7668
▁목회	-11.767
▁무작	-11.7671
▁괜찮을	-11.7672
▁들어올	-11.7673
▁터져	-11.7673
▁쓰인	-11.7675
총장	-11.7679
▁재래	-11.7681
▁1%	-11.7681
▁8,000	-11.7683
▁사자	-11.7683
손길	-11.7684
▁봉투	-11.7685
노트	-11.7686
▁유상	-11.7686
▁엄마들	-11.7689
b	-11.7689
▁무력	-11.769
(17	-11.7694
▁내부적	-11.7695
현대	-11.7695
▁정국	-11.7696
▁퇴출	-11.77
▁불거지자	-11.77
▁시행한	-11.77
▁중대	-11.7701
▁불쾌	-11.7703
운드	-11.7703
▁일식	-11.7704
틱	-11.7706
▁전달해	-11.7711
▁파악한	-11.7713
▁응답했다	-11.7713
렌	-11.7715
겨	-11.7716
진출	-11.7717
▁내놓을	-11.7718
세상	-11.7721
인실	-11.7723
샌드박스	-11.7724
μ	-11.7724
미네랄	-11.7724
거꾸로	-11.7724
▁in	-11.7724
▁미친다	-11.7725
계획서	-11.7725
LCD	-11.7727
식이	-11.7727
▁흔들릴	-11.7729
▁웨딩	-11.7731
동인구	-11.7731
▁한명	-11.7731
▁딴	-11.7732
▁글쎄	-11.7732
▁우뚝	-11.7733
▁낙폭	-11.7733
▁열렬	-11.7734
▁이튿날	-11.7734
▁레전드	-11.7734
▁직격탄	-11.7734
▁캐버노	-11.7734
검토	-11.7734
▁도요타	-11.7734
▁맞물려	-11.7734
▁중화권	-11.7734
▁백두산	-11.7735
▁오름세	-11.7735
▁쓰러진	-11.7735
▁최첨단	-11.7735
▁커리큘럼	-11.7735
▁프리랜서	-11.7735
▁블랙핑크	-11.7735
▁횡단보도	-11.7735
▁그렇죠	-11.7736
▁저마다	-11.7736
▁국빈방문	-11.7736
▁팀워크	-11.7736
▁산부인과	-11.7736
▁매트리스	-11.7736
▁유료방송	-11.7736
▁크로아티아	-11.7736
▁물러난	-11.7736
▁빈자리	-11.7737
▁속옷	-11.7737
▁롯데백화점	-11.7737
▁금리인상	-11.7737
▁승려	-11.7737
▁국가안보보좌관	-11.7738
▁데이터베이스	-11.7738
▁강정호	-11.7738
▁녹색성장	-11.7738
▁공공부문	-11.7738
▁사회관계망서비스	-11.7738
▁기획조정실장	-11.7738
▁누리집	-11.7738
▁무너진	-11.7738
▁바빠서	-11.7739
사업장	-11.774
▁걸리나요	-11.774
▁유휴	-11.774
▁기다려주세요	-11.774
▁갈아타	-11.7741
▁세부사항	-11.7741
득점	-11.7741
▁국제기구	-11.7741
▁스키	-11.7742
(30)	-11.7742
▁원룸	-11.7743
▁않았으나	-11.7743
er	-11.7744
▁굳건	-11.7745
56	-11.7745
▁세계대전	-11.7745
▁결말	-11.7746
▁연구용역	-11.7746
▁인정받는	-11.7746
▁넘겨졌다	-11.7746
▁호스트	-11.7747
▁해양수산부	-11.7747
▁지불해야	-11.7747
▁하나둘	-11.7747
▁출범식	-11.7748
▁기금운용	-11.7748
▁상승폭	-11.7749
▁표결	-11.7749
▁돌연	-11.7749
▁온난화	-11.775
▁노사정	-11.775
▁동맹국	-11.775
▁외국계	-11.775
▁자랑한다	-11.7751
▁참여했으며	-11.7753
▁취업지원	-11.7753
▁분뇨	-11.7754
▁알려지자	-11.7754
▁나서면서	-11.7756
필요한	-11.7756
▁사랑받는	-11.7756
▁여태	-11.7756
▁김모씨	-11.7756
▁밤새	-11.7757
▁퇴직금	-11.7757
▁원자력	-11.7757
▁소방대원	-11.7757
만족	-11.7757
▁왠	-11.7758
▁선보이며	-11.7759
▁열망	-11.7759
▁뒷면	-11.7759
안내	-11.7759
▁나왔어요	-11.7759
▁대용량	-11.7761
9%	-11.7762
▁베어스	-11.7764
▁수업료	-11.7765
▁문희상	-11.7767
▁물밑	-11.7767
▁콜롬비아	-11.7767
▁걸려요	-11.7767
▁콘퍼런스	-11.7767
▁안전보장	-11.7767
▁폭언	-11.7768
▁남녀노소	-11.7768
▁카슈끄지	-11.7768
▁산사태	-11.7768
▁유네스코	-11.7768
▁가계부채	-11.7768
▁임종석	-11.7768
몽	-11.7768
▁중재자	-11.7768
▁그려져	-11.7768
▁인권침해	-11.7769
▁온천	-11.7769
▁정책실명제	-11.7769
▁주고받	-11.777
▁화석	-11.777
▁포획	-11.777
▁한국토지주택공사	-11.7771
▁단연	-11.7772
▁공동성명	-11.7772
▁걸리지	-11.7773
자연	-11.7774
▁정례회	-11.7775
▁환경미화원	-11.7775
▁상영관	-11.7775
기본계획	-11.7775
▁운동화	-11.7776
▁나올지	-11.7777
전통시장	-11.7777
▁제주지역	-11.7778
▁버디	-11.7778
▁네팔	-11.778
중단	-11.7781
턱	-11.7783
▁이강인	-11.7784
워져	-11.7784
▁기여하기	-11.7784
▁계약금	-11.7785
단독	-11.7785
▁공모사업	-11.7787
레이	-11.7787
▁태어났	-11.7788
핑	-11.7788
▁지방의회	-11.7789
▁후반기	-11.7789
▁폴	-11.779
▁이루어지지	-11.779
▁학생부	-11.7791
▁교육훈련	-11.7792
▁모르겠는데	-11.7792
▁그렇지만	-11.7792
PC	-11.7793
51	-11.7793
▁한창이	-11.7796
사이드	-11.7796
▁희귀	-11.7796
▁램프	-11.7796
▁팩스	-11.7796
▁생겨서	-11.7797
▁재취업	-11.7797
문턱	-11.7799
▁감사담당관	-11.78
▁호감	-11.78
▁황희찬	-11.78
▁송장	-11.7801
▁성형외과	-11.7802
▁줄다리기	-11.7802
▁박정희	-11.7802
▁시행되	-11.7804
▁넘어야	-11.7805
▁식단	-11.7806
▁대리점	-11.7806
몬	-11.7807
▁꼽혔다	-11.7807
▁이민자들	-11.7808
▁대도시	-11.7808
식사	-11.7809
▁우즈	-11.7809
▁지어	-11.7809
노동위원회	-11.781
▁설정하고	-11.7811
어지는	-11.7813
▁전환한	-11.7814
▁NH	-11.7815
▁유인	-11.7815
▁북경	-11.7817
▁책임지고	-11.7817
입찰	-11.7817
▁맡겨	-11.782
려서	-11.7822
▁결원	-11.7823
▁맹활약	-11.7825
타이어	-11.7825
▁받아들여지	-11.7826
▁사막	-11.7826
▁남아공	-11.7826
▁믿지	-11.7826
▁메세	-11.7827
▁기대되고	-11.7829
▁되니	-11.783
▁작지만	-11.783
만평	-11.7831
플레이	-11.7831
있어요	-11.7831
▁월등	-11.7831
홈	-11.7832
라이브	-11.7833
▁중단하고	-11.7833
▁요양병원	-11.7836
▁지능형	-11.7836
▁몸체	-11.7837
슈퍼	-11.7837
▁모습이었다	-11.7838
▁더이상	-11.7838
▁생각된다	-11.7839
▁김명수	-11.7839
▁친숙	-11.784
▁쏟아지고	-11.784
학식	-11.784
▁교통카드	-11.7842
▁복지서비스	-11.7843
▁앓는	-11.7844
▁설립자	-11.7847
시위	-11.7847
▁축하하고	-11.7848
▁칠곡	-11.7848
▁등장하고	-11.7848
▁절실하다	-11.7848
▁시점이다	-11.7849
▁무드	-11.785
▁적정성	-11.785
▁취임식	-11.7851
연락사무소	-11.7853
▁기반시설	-11.7854
▁잡혔다	-11.7856
▁핑크	-11.7857
▁방위	-11.7858
▁언	-11.7859
▁절정	-11.786
▁부여된	-11.786
▁스파이	-11.7861
클린	-11.7862
>(	-11.7863
▁오렌지	-11.7863
▁직장인들	-11.7864
폼	-11.7864
▁날려	-11.7865
▁아프지	-11.7866
▁성질	-11.7866
▁검사장	-11.7867
▁언급하	-11.7867
▁가르치고	-11.7868
▁쿠데타	-11.7868
▁장학생	-11.7868
중견기업	-11.7869
▁영정	-11.7869
▁배후	-11.7871
▁주중	-11.7871
감식	-11.7871
▁일상적	-11.7873
▁커뮤니케이션	-11.7873
▁갈음	-11.7873
일보	-11.7874
▁종결	-11.7875
▁뛰는	-11.7876
▁테니스	-11.7876
핏	-11.7876
▁무엇일까	-11.7878
▁신당	-11.7878
▁확대됐다	-11.788
▁불확실	-11.7882
겔	-11.7882
▁강화될	-11.7882
▁정거장	-11.7884
▁건강검진	-11.7884
▁분양가	-11.7884
▁모형	-11.7885
빅	-11.7885
주체	-11.7886
▁키움	-11.7886
▁넓고	-11.7887
▁사업가	-11.7887
▁바꿨다	-11.7888
▁숨져	-11.7889
▁모으는	-11.7893
▁제작하는	-11.7895
▁당사자들	-11.7896
▁온전	-11.7898
▁껍질	-11.7898
솔루션	-11.7899
▁연평	-11.7899
만원씩	-11.79
▁철새	-11.79
▁문화교류	-11.79
WP	-11.7902
▁계급	-11.7902
▁실버	-11.7902
▁달랐다	-11.7904
▁체결하고	-11.7904
있던	-11.7905
▁치러지	-11.7905
▁조건부	-11.7908
▁털어놓	-11.7912
▁베일	-11.7912
▁생각하며	-11.7913
▁통신사	-11.7914
▁지역문화	-11.7914
▁수익금	-11.7916
▁벗어나지	-11.7917
질병	-11.7918
▁흠	-11.7918
▁끊기	-11.7919
아야	-11.792
▁드러내고	-11.7923
군사훈련	-11.7923
▁풀려	-11.7923
▁아담	-11.7923
▁담당공무원	-11.7928
▁파견된	-11.7929
▁중증	-11.7929
수원	-11.793
▁거듭나	-11.793
▁주택가	-11.7931
치지	-11.7931
▁명함	-11.7935
▁전매	-11.7935
▁달라졌다	-11.7937
▁고발했다	-11.7937
부여	-11.7938
▁출시했다	-11.7938
▁장자연	-11.794
▁대란	-11.7941
▁가평군	-11.7942
▁석유화학	-11.7944
슈	-11.7944
▁불렀다	-11.7945
카이도	-11.7946
▁투자하고	-11.7947
▁PO	-11.7948
▁독려	-11.7949
▁덜어	-11.795
▁교차로	-11.795
소상공인	-11.7952
▁밴	-11.7953
▁뱀	-11.7954
지원책	-11.7956
▁책무	-11.7956
검증	-11.7957
힌다	-11.7957
▁전용기	-11.7962
비스	-11.7963
▁감사하다	-11.7964
▁분장	-11.7965
▁확정되	-11.7966
옵니	-11.7967
분위	-11.7967
▁웃는	-11.7971
▁몽	-11.7972
▁용서	-11.7972
▁보내주시	-11.7973
▁주인공인	-11.7975
▁조경	-11.7977
▁86	-11.7979
베트남	-11.798
▁기록되어	-11.798
▁단호	-11.7983
▁잡혀	-11.7985
선수권대회	-11.7987
▁토크	-11.7987
▁곳이	-11.7988
▁자연적	-11.7988
▁시도하는	-11.7989
전선	-11.7994
▁저질렀다	-11.7995
▁유지관리	-11.7995
▁그만두	-11.7996
여당	-11.7996
▁당연하다	-11.7997
▁클릭	-11.8003
▁외관	-11.8003
▁강진	-11.8003
▁방향성	-11.8006
▁특산물	-11.8006
불빛	-11.8009
▁유라	-11.8014
▁잊고	-11.8016
▁조류	-11.8018
▁나쁘	-11.8019
라리	-11.8021
제거	-11.8022
교류	-11.8024
▁신청해	-11.8024
▁년간	-11.8025
▁불복	-11.8028
▁할인된	-11.8031
▁어업	-11.8032
▁종료되	-11.8038
▁동문	-11.8041
▁명시하여	-11.8042
▁제시하	-11.8047
▁셋	-11.8047
▁무시하	-11.8049
▁각계	-11.805
했다가	-11.8053
▁폭로한	-11.8053
▁얘기해	-11.8055
▁장악	-11.8057
▁이식	-11.8057
▁일체	-11.8058
요령	-11.8059
▁83	-11.8063
조약	-11.8068
▁벌인다	-11.8068
▁착각	-11.8069
니깐	-11.8069
▁노골적	-11.8069
줄기	-11.8071
▁국회의	-11.8072
▁아일랜드	-11.8073
상품들	-11.8077
▁박정	-11.8082
연주회	-11.8084
보관	-11.809
▁74	-11.8091
럽게	-11.8091
▁말들	-11.8092
▁배치해	-11.8093
▁유동	-11.8094
부모	-11.8095
▁넓혀	-11.8096
▁구와	-11.8098
벌레	-11.8098
민주	-11.8101
▁황제	-11.8106
영어	-11.811
▁김부	-11.811
선언	-11.811
▁야근	-11.8114
▁부리	-11.8114
▁입어	-11.8114
▁담당할	-11.8115
▁호출	-11.8119
있게	-11.812
Q	-11.812
▁성수	-11.8121
▁흘러가	-11.8121
▁반영하고	-11.8122
▁돕	-11.8124
▁신년	-11.8127
다시피	-11.8128
▁킹	-11.8129
▁주스	-11.813
▁구매하고	-11.8131
▁탐구	-11.8131
▁수입금	-11.8134
▁돌려받	-11.8134
계정	-11.8136
운동장	-11.8137
▁4,000	-11.8137
▁대미	-11.8137
▁함양	-11.8137
▁열정적	-11.8138
▁한국학	-11.8146
▁중개	-11.8148
아버지	-11.815
시한	-11.8151
▁확인해보니	-11.8152
▁오토	-11.8153
▁노출되	-11.8154
해진	-11.8156
▁막강	-11.8156
건축물	-11.8156
오리	-11.8157
▁배기	-11.8157
▁민사	-11.8158
▁결정된다	-11.8159
메일	-11.8162
▁다행	-11.8163
▁낫	-11.8164
▁있는데도	-11.8167
돔	-11.8168
무역	-11.8169
▁필요했다	-11.817
▁행사할	-11.817
어졌다	-11.8173
▁과수	-11.8175
▁마디	-11.8177
▁장성	-11.818
랄	-11.8181
▁스토어	-11.8183
▁작고	-11.8186
▁생산되는	-11.8189
▁잃을	-11.8191
▁깎	-11.8192
템	-11.8193
하에	-11.8197
▁작업장	-11.8198
▁들려주	-11.8199
▁대청	-11.82
▁다하고	-11.8201
▁개선해	-11.8203
▁미처	-11.8203
▁치솟	-11.8203
▁요청해	-11.8205
▁구의회	-11.8206
▁건물주	-11.8206
필드	-11.8211
▁학년	-11.8211
사적	-11.8211
지회	-11.8212
▁당원	-11.8213
▁고발한	-11.8213
▁납부하	-11.8216
핵	-11.8216
▁발행한	-11.8218
▁씨앗	-11.8219
처음	-11.8219
▁영화감독	-11.8222
▁넉넉	-11.8223
▁경북도	-11.8225
▁재편	-11.8226
▁96	-11.8227
개인전	-11.8227
▁가문	-11.8228
메인	-11.8229
▁출원	-11.8236
▁예시	-11.8237
연료	-11.8245
인간	-11.8247
빙	-11.8249
▁사용한다	-11.8249
▁달성했다	-11.8251
▁다음주	-11.8252
줘	-11.8253
트랩	-11.8258
▁일탈	-11.8259
99	-11.8261
▁이르렀	-11.8261
▁유니	-11.8267
▁나서지	-11.827
▁공범	-11.8271
▁진술했다	-11.8271
▁서울시의	-11.8277
▁개인투자자	-11.828
음에	-11.8282
▁대중화	-11.8282
재원	-11.8282
▁우아	-11.8283
▁기재한	-11.8285
▁드러났	-11.8286
또는	-11.8287
회복	-11.8289
▁김주	-11.8291
증서	-11.8291
셨어요	-11.8295
▁윤석	-11.8296
▁대두	-11.8297
점포	-11.8298
2(	-11.8301
▁발전하는	-11.8301
▁찌	-11.8301
대화	-11.8303
채권	-11.8306
▁종자	-11.8309
가서	-11.8309
▁말자	-11.8311
▁표준화	-11.8312
▁포기할	-11.8313
▁응시자	-11.8314
년엔	-11.8314
▁커지면	-11.8316
▁질타	-11.8316
▁시행되면	-11.8316
▁창의	-11.8316
▁선거운동	-11.8318
▁유쾌	-11.8318
68	-11.8319
▁이룬다	-11.832
▁낮추	-11.8326
▁111	-11.8327
▁아랫	-11.8327
▁교육환경	-11.8328
▁중이라는	-11.8333
▁공공디자인	-11.8336
장님	-11.8337
▁학교장	-11.8341
▁구축한	-11.8341
복합	-11.8343
지인	-11.8344
▁채용한	-11.8345
▁제사	-11.8345
▁출석하여	-11.8346
퇴직	-11.8346
▁정동	-11.8346
었으나	-11.8347
줬다	-11.8351
▁자본시장	-11.8358
▁사당	-11.8358
어난	-11.8359
▁기본법	-11.836
▁동등	-11.8361
▁높인	-11.8361
59	-11.8362
한국당	-11.8364
▁쫓	-11.8365
▁관련법	-11.8372
수도권	-11.8378
▁임차	-11.8379
▁줄어든다	-11.8382
▁되었을	-11.8382
아낸다	-11.8386
가루	-11.839
순간	-11.839
모바일	-11.839
▁들게	-11.8391
경각심	-11.8392
▁준우승	-11.8392
SOC	-11.8392
서포터즈	-11.8394
특별법	-11.8395
▁왼	-11.8396
▁부엌	-11.8398
▁닷새	-11.8398
▁퍼즐	-11.8398
▁옮긴	-11.8398
▁볼륨	-11.8399
▁에릭	-11.8399
▁찔러	-11.8399
▁퓨전	-11.8399
▁팝업	-11.84
▁마닐라	-11.84
▁경복궁	-11.84
▁예컨대	-11.84
▁선착순	-11.84
▁독립운동가	-11.84
▁스릴러	-11.8401
▁농담	-11.8401
▁바닷물	-11.8401
▁경주시	-11.8401
▁에피소드	-11.8401
▁타슈켄트	-11.8401
▁간접흡연	-11.8401
▁푸드트럭	-11.8401
▁세종학당	-11.8402
▁영장전담	-11.8402
▁집중호우	-11.8402
▁타이틀곡	-11.8402
▁홈플러스	-11.8402
▁가전제품	-11.8402
시켰	-11.8402
▁현장실습	-11.8403
▁정기국회	-11.8403
▁일으켜	-11.8403
▁무역갈등	-11.8403
▁뮬러	-11.8403
▁남대문시장	-11.8403
▁선임연구위원	-11.8403
▁지방자치	-11.8403
▁상원의원	-11.8403
▁예비사회적기업	-11.8404
▁올라갈	-11.8404
▁다국적	-11.8404
▁산업재해	-11.8405
▁팀장님	-11.8405
▁건너편	-11.8406
▁풍물	-11.8406
▁출석위원	-11.8406
▁고강도	-11.8406
▁점용료	-11.8406
▁천주교	-11.8407
▁김일성	-11.8407
▁뭔지	-11.8408
▁나아질	-11.8408
▁청량	-11.8408
▁모두발언	-11.8408
▁빨대	-11.8409
▁부드럽고	-11.8409
▁여왕	-11.841
▁야경	-11.8411
▁핵시설	-11.8411
▁수장	-11.8411
▁하부	-11.8411
수립	-11.8412
▁보내주시면	-11.8413
▁지폐	-11.8414
▁올시즌	-11.8414
▁국제대회	-11.8414
▁싶네요	-11.8416
▁1,2	-11.8416
▁심각하다	-11.8416
▁실무위원회	-11.8417
▁협력체계	-11.8417
▁사로잡을	-11.8417
▁펼치며	-11.8418
▁조종사	-11.8418
▁대지	-11.8419
▁성원	-11.8419
수목원	-11.8419
▁다목적	-11.8422
▁원한다면	-11.8423
▁만나볼	-11.8423
▁그러고	-11.8425
▁알았습니다	-11.8425
▁믿습니다	-11.8425
▁파울	-11.8425
▁씹	-11.8426
▁누비	-11.8427
출연	-11.8427
▁이상이면	-11.8427
▁뵙	-11.8428
▁머릿	-11.8428
▁여객기	-11.8431
▁퀄컴	-11.8431
▁달아났다	-11.8431
▁앞당겨	-11.8432
▁셀카	-11.8432
▁비례대표	-11.8432
▁사무처장	-11.8432
▁웬만	-11.8432
▁존엄	-11.8433
▁갈리	-11.8433
▁명인	-11.8433
▁호날두	-11.8434
▁가급적	-11.8434
▁샤오미	-11.8434
▁유승민	-11.8435
▁선례	-11.8435
▁배치되어	-11.8436
▁오디오	-11.8436
▁가상현실	-11.8436
▁띄었다	-11.8436
▁스프링	-11.8436
▁선물세트	-11.8436
▁소포	-11.8436
▁교통약자	-11.8436
▁이겨내	-11.8437
▁올리면서	-11.8437
▁국내총생산	-11.8437
▁배출가스	-11.8437
▁해양레저	-11.8437
▁특수활동비	-11.8437
▁몸싸움	-11.8438
▁익히	-11.8438
▁경기둔화	-11.8438
▁대체복무제	-11.8438
▁대기오염물질	-11.8439
▁공공임대주택	-11.8439
▁괜찮습니다	-11.8439
▁중앙아시아	-11.8439
▁아동수당	-11.8439
▁공산당	-11.8439
▁숙박시설	-11.844
▁b	-11.844
▁검찰총장	-11.8441
▁부흥	-11.8442
▁주택담보대출	-11.8443
▁항암제	-11.8443
▁생리대	-11.8443
47	-11.8443
▁현대차그룹	-11.8444
▁재치	-11.8445
▁서브	-11.8446
▁직권	-11.845
▁감경	-11.8451
▁고작	-11.8451
▁영종	-11.8452
▁뭉쳐	-11.8452
▁감사결과	-11.8453
▁담판	-11.8453
▁타깃	-11.8453
▁사립학교	-11.8454
▁의료서비스	-11.8455
▁진상조사단	-11.8455
▁연천군	-11.8456
▁일곱	-11.8456
▁진출하는	-11.8456
▁대국민	-11.8457
뭇	-11.8457
▁가장자리	-11.8457
▁작용하고	-11.8458
▁안보리	-11.8458
▁래퍼	-11.8458
▁단단한	-11.8458
▁조사하는	-11.846
▁퍼트	-11.846
·4	-11.846
로봇	-11.8461
▁상황이지만	-11.8461
▁살피	-11.8462
▁탁구	-11.8463
▁음향	-11.8463
▁싱크	-11.8464
관계부처	-11.8465
▁아이유	-11.8467
▁QR	-11.8467
▁바꾸기	-11.8468
▁일어난다	-11.8469
▁회색	-11.8469
▁센트럴	-11.847
▁자아내	-11.8471
▁탈원전	-11.8471
▁드문	-11.8472
▁공소시효	-11.8472
▁나오자	-11.8472
▁한우	-11.8473
▁재난안전	-11.8474
▁평가된다	-11.8474
▁판문점선언	-11.8474
▁트윈	-11.8475
▁뮤지션	-11.8475
대표이사	-11.8477
▁동별	-11.8477
분리	-11.8477
유형	-11.8477
▁산하기관	-11.8478
▁동호회	-11.8479
▁압류	-11.8481
제비	-11.8481
▁대부분이었다	-11.8481
▁조달청	-11.8482
▁고추장	-11.8482
▁권유	-11.8483
▁타석	-11.8486
▁처리해야	-11.8486
▁직속	-11.8486
▁가옥	-11.8486
▁연례	-11.8487
▁유로	-11.8488
▁참관	-11.8488
▁다량	-11.8489
연습	-11.849
르트	-11.849
▁휴지	-11.8493
▁황당	-11.8493
게임즈	-11.8493
▁노동력	-11.8494
▁이루어졌다	-11.8495
여곡	-11.8496
▁저탄소	-11.8497
No	-11.8497
재난	-11.85
젤	-11.8501
차산업	-11.8503
▁다르기	-11.8504
▁입장문	-11.8505
▁연구단체	-11.8505
취	-11.8505
▁스탬프	-11.8505
백여	-11.8506
▁유동성	-11.8507
▁모시	-11.8509
어진	-11.8509
▁날이에요	-11.851
▁살인사건	-11.8511
▁누설하	-11.8513
▁경제협력개발기구	-11.8513
▁최소화하고	-11.8514
파리	-11.8514
▁디젤	-11.8515
▁강성	-11.8516
원하는	-11.8518
▁고기압	-11.8518
▁습지	-11.8519
소된	-11.852
▁부대시설	-11.852
▁하동	-11.852
▁보름	-11.8521
▁특권	-11.8522
▁분해	-11.8523
▁재발급	-11.8525
▁누나	-11.8525
폴리스	-11.8525
▁재사용	-11.8526
▁66	-11.8526
▁분향	-11.8526
대구	-11.8527
▁여럿	-11.8527
영업	-11.8527
쇼핑몰	-11.8527
▁서열	-11.8529
가능	-11.853
지지	-11.8531
▁호우	-11.8532
▁원안	-11.8534
▁셀프	-11.8535
거리는	-11.8538
▁닛산	-11.854
▁징후	-11.8542
DMZ	-11.8542
▁제주도의	-11.8543
▁아름답고	-11.8544
Fed	-11.8545
칩니다	-11.8545
▁자르	-11.8548
▁로즈	-11.8549
FIFA	-11.8549
▁처음이라	-11.855
▁수년간	-11.8553
▁금융사	-11.8553
▁둥지	-11.8555
▁선조	-11.8555
▁귀신	-11.8555
음식	-11.8556
▁특보	-11.8559
▁총무	-11.856
▁Q	-11.8561
앙	-11.8561
▁찾아서	-11.8562
▁세계관	-11.8562
▁백신	-11.8563
취소	-11.8564
공시	-11.8565
▁남미	-11.8567
예선	-11.8567
마이	-11.8569
▁좁	-11.857
▁남원	-11.857
매물	-11.8572
▁스틸	-11.8573
▁보이게	-11.8575
▁노숙인	-11.8576
▁골드	-11.8576
▁교류의	-11.8576
치킨	-11.8576
▁하강	-11.8576
▁뚝	-11.8578
▁철원	-11.8578
▁선비	-11.8578
▁제한된다	-11.8579
자재	-11.8579
플랜	-11.8579
▁활용하고	-11.8579
▁이겨	-11.858
▁호르몬	-11.858
▁잡히지	-11.8582
AP	-11.8582
셔도	-11.8583
▁예타	-11.8584
▁저쪽	-11.8586
▁제안서	-11.859
▁농성	-11.859
▁거절	-11.8592
▁각광받	-11.8592
PM	-11.8592
잡이	-11.8593
걸이	-11.8594
주차	-11.8595
▁메이커	-11.8596
▁여전	-11.8596
▁겹	-11.8596
▁조폭	-11.8597
찾아가	-11.8597
▁적당	-11.8599
▁국무위원	-11.8599
▁하는데요	-11.86
▁빗물	-11.86
▁뛰어넘는	-11.8601
▁살펴	-11.8601
▁체험하고	-11.8602
▁비판적	-11.8604
▁실린	-11.8606
▁김기	-11.8606
▁우물	-11.8608
▁양수	-11.8609
차림	-11.861
▁경의선	-11.8611
▁기각했다	-11.8613
▁이해관계인	-11.8614
▁원칙적	-11.8614
▁상습적	-11.8615
▁탈모	-11.8618
”(	-11.8618
▁받습니다	-11.862
연구센터	-11.8621
터리	-11.8622
▁연습생	-11.8622
▁알아볼	-11.8623
났을	-11.8626
▁고려했다	-11.8627
연승	-11.8629
▁안녕	-11.863
▁외형	-11.8633
▁얼어붙	-11.8633
▁그리기	-11.8633
▁감명	-11.8635
▁강씨	-11.8635
수역	-11.8636
▁평가받는	-11.8639
▁중장기	-11.8643
▁수혜자	-11.8646
▁습득	-11.8647
가운데	-11.8648
▁다루	-11.8649
▁왕국	-11.8651
▁빈도	-11.8651
▁유입되	-11.8652
해줘	-11.8654
으려고	-11.8654
63	-11.8656
▁경진대회	-11.8658
▁농악	-11.866
▁전개되	-11.8661
▁론칭	-11.8661
개월여	-11.8661
▁행복하고	-11.8662
한국의	-11.8662
▁여객	-11.8662
▁형편	-11.8663
▁강남권	-11.8664
▁만들어낸	-11.8665
났어요	-11.8668
▁시행된다	-11.867
▁연정	-11.8671
생태계	-11.8671
▁선고됐	-11.8671
▁민중	-11.8672
기지	-11.8672
▁최고인	-11.8673
▁중의	-11.8675
▁가출	-11.8676
▁고용보험	-11.8677
▁알려주시	-11.8678
2,000	-11.8679
▁있는데다	-11.8679
프닝	-11.868
보육	-11.8681
▁구매해	-11.8683
▁좌파	-11.8683
▁이야기들	-11.8684
센터장	-11.8685
▁숨어	-11.8685
▁낫다	-11.8686
2,	-11.869
▁포천시	-11.869
만건	-11.8691
▁가보	-11.8691
헌법	-11.8691
차트	-11.8692
▁양형	-11.8695
▁전주시	-11.8695
▁확보하는	-11.8695
▁공급하고	-11.8696
▁구입해	-11.8696
단추	-11.8697
▁픽업	-11.8698
▁봉합	-11.8699
▁해온	-11.87
▁육박	-11.8701
▁인민	-11.8701
▁어려워지	-11.8702
주변	-11.8703
▁예방하	-11.8704
득	-11.8704
▁동반자	-11.8706
▁대책본부	-11.8708
▁별장	-11.8708
▁파트	-11.871
▁조언했	-11.8716
▁내준	-11.8716
▁므	-11.8718
지원단	-11.8718
▁정년	-11.8718
▁소개하	-11.8718
▁참가한다	-11.8719
▁연합회	-11.872
▁촉촉	-11.8723
▁정선	-11.8725
전용	-11.8726
벤	-11.8726
▁팜	-11.8728
후보	-11.8729
▁인격	-11.873
▁몰린	-11.8736
▁토기	-11.8739
▁자문단	-11.8744
▁둔화되	-11.8747
▁최고위원회	-11.8748
▁졸업한	-11.8751
▁전대	-11.8752
▁당면	-11.8758
▁놓았다	-11.8758
▁흐른	-11.8758
▁아산	-11.876
나비	-11.8768
▁밭	-11.877
▁한국산	-11.8771
▁적합하	-11.8775
▁참전	-11.8776
으시면	-11.8776
▁흥분	-11.8776
▁차차	-11.8776
▁숨기	-11.8781
▁친일	-11.8782
▁지원된다	-11.8785
▁모인다	-11.8786
였으나	-11.8789
▁공보	-11.8791
▁뒤진	-11.8794
(18	-11.8795
▁탑승한	-11.8796
▁리모델	-11.8797
레이션	-11.8798
해지면서	-11.8798
▁귀속	-11.88
도권	-11.8801
책임	-11.8803
▁비로	-11.8805
▁모욕	-11.8806
▁서적	-11.8806
▁분주	-11.8807
▁끝났다	-11.8808
▁낯설	-11.8808
▁예술적	-11.8809
널	-11.881
▁달여	-11.8812
▁가계소득	-11.8812
려졌다	-11.8813
▁저축은행	-11.8813
▁불가능해	-11.8814
▁반려	-11.8815
▁워터	-11.882
▁곱	-11.8821
▁사무소	-11.8821
언론	-11.8826
▁무사	-11.8827
으로	-11.8828
윈	-11.883
보건소	-11.883
▁진해	-11.883
릿	-11.8831
▁휩쓸	-11.8832
▁조업	-11.8836
접시	-11.8838
기자	-11.8839
▁조성해	-11.8844
레일	-11.8844
시군	-11.8848
▁평가받	-11.8848
▁이불	-11.8848
▁불행	-11.885
69	-11.8851
▁지방공무원	-11.8852
월드	-11.8853
▁판단하는	-11.8857
▁팔리	-11.8859
▁360	-11.8859
▁올바르	-11.8861
▁차근	-11.8861
▁휴양	-11.8863
41	-11.8864
▁고소한	-11.8864
가게	-11.8869
과세	-11.8872
▁지향	-11.8874
▁제시해	-11.8875
개편	-11.8875
▁GP	-11.8876
▁71	-11.8878
▁인증서	-11.8879
▁경사	-11.8887
▁일대일	-11.8888
▁주제의	-11.8891
▁요령	-11.8893
▁알려드리	-11.8894
▁중이고	-11.8895
▁선발한	-11.8896
비서관	-11.8897
▁현판	-11.8899
질문	-11.8899
봉사	-11.8903
매매	-11.8904
측정	-11.8906
▁덜어주	-11.8907
▁그루	-11.8907
▁210	-11.8909
▁제작비	-11.8912
▁발급받	-11.8916
▁심사위원회	-11.8916
▁세웠	-11.8917
▁수사하고	-11.8918
방문	-11.892
▁송부	-11.8921
시의	-11.8922
▁유지되는	-11.8923
▁되찾	-11.8923
▁한국식	-11.8924
▁날리	-11.8924
▁요가	-11.8928
클래스	-11.8932
▁적성	-11.8935
▁사려	-11.8936
▁줄이	-11.8936
▁완성된	-11.8937
▁알린	-11.8937
의사	-11.8939
▁체인	-11.894
신다면	-11.8943
▁집중하는	-11.8944
▁키스	-11.8945
▁쓰면	-11.8948
▁조롱	-11.8949
▁묘지	-11.8951
보고회	-11.8951
▁턱	-11.8953
▁77	-11.8955
▁들어있는	-11.8955
▁선원	-11.8963
▁경쟁자	-11.8967
▁주둔	-11.897
▁파행	-11.897
▁의무적	-11.8972
▁보았다	-11.8973
▁승리한	-11.8973
중구	-11.8977
▁필수적	-11.8977
구성	-11.8978
▁불과했	-11.8979
하듯	-11.898
▁적용했다	-11.8981
%)	-11.8982
가전	-11.8982
들리지	-11.8983
▁실시하기	-11.8984
▁여쭤	-11.8989
▁구성하여	-11.8997
▁상황이라	-11.8998
▁완벽하	-11.9005
▁넣을	-11.901
▁갔어	-11.9011
운행	-11.9011
발표	-11.9012
▁버려	-11.9013
▁드려	-11.9014
▁서구의	-11.9017
종교	-11.9019
▁이용하기	-11.902
▁예멘	-11.902
▁&	-11.9021
▁젊은이	-11.9024
▁총경	-11.9026
▁가지게	-11.9027
중이다	-11.9027
▁갈색	-11.9028
▁사업자들	-11.9028
▁가세	-11.9029
▁빚어	-11.903
▁포괄적	-11.9033
▁다녔	-11.9033
▁나와야	-11.9035
▁구직	-11.9036
▁발화	-11.9038
▁급등한	-11.904
양의	-11.9041
그림	-11.9041
▁케이	-11.9043
▁사직	-11.9043
▁노무	-11.9046
▁후원자	-11.9047
계층	-11.9049
▁섞어	-11.9051
협의체	-11.9051
▁무분별	-11.9052
▁상태라	-11.9052
단순	-11.9057
▁내전	-11.9059
▁가파	-11.9059
▁가늠	-11.9063
▁레몬	-11.9069
났다	-11.9069
▁전장	-11.9072
▁나갔	-11.9074
▁겪어	-11.9075
불편	-11.9077
▁신태용	-11.9078
▁친절하	-11.9079
▁진행하	-11.9082
▁설정해	-11.9084
▁얽	-11.9084
▁경희대	-11.9084
푸	-11.9089
우스	-11.9092
▁여긴	-11.9094
▁맞추는	-11.9095
백만원	-11.9095
▁혜	-11.9096
▁채웠	-11.91
▁내려앉	-11.9102
▁들었	-11.9104
▁홋	-11.9105
여덟	-11.9105
프로듀스	-11.9105
세븐일레븐	-11.9105
SCMP	-11.9105
중등교육법	-11.9105
워마드	-11.9105
▁삽입	-11.9106
그러나	-11.9107
▁머물러	-11.9108
42	-11.9108
▁뿌옇	-11.9112
▁잉크	-11.9112
▁견줘	-11.9112
▁납득	-11.9112
▁옮길	-11.9112
▁훈훈	-11.9113
둥이	-11.9113
▁뒤덮	-11.9113
▁굽	-11.9113
▁식용	-11.9113
▁핀란드	-11.9114
▁왕세자	-11.9114
▁인슐린	-11.9114
▁추신수	-11.9114
▁텀블러	-11.9114
▁성탄절	-11.9114
▁초록색	-11.9114
▁닮은	-11.9114
▁차은우	-11.9114
▁효린	-11.9115
▁탈의실	-11.9115
▁포토존	-11.9115
▁엘리트	-11.9115
국제축구연맹	-11.9115
▁자치분권	-11.9115
▁스탠퍼드	-11.9115
▁특허출원	-11.9115
▁국립중앙	-11.9115
▁인수합병	-11.9115
▁죄송해요	-11.9115
▁바레인	-11.9115
▁가성비	-11.9115
▁첨부파일	-11.9116
▁유모차	-11.9116
▁명예교수	-11.9116
▁결격	-11.9116
▁칠곡군	-11.9116
▁남동생	-11.9116
▁평생학습관	-11.9117
▁가능케	-11.9117
▁내비게이션	-11.9117
▁가져갈	-11.9117
▁시정명령	-11.9117
▁유기견	-11.9118
▁연못	-11.9118
▁만족스러운	-11.9118
▁릴레이	-11.9119
되길	-11.9119
▁액체	-11.9119
▁전자파	-11.9119
▁해외연수	-11.912
▁공공시설물	-11.912
▁규제혁신	-11.9122
▁편안함	-11.9123
▁공무	-11.9123
▁관서	-11.9123
▁가요계	-11.9124
▁신산업	-11.9124
▁한국관광공사	-11.9124
▁괴리	-11.9124
▁호선하며	-11.9125
▁최저치	-11.9125
▁아님	-11.9125
▁1975	-11.9125
▁캘리포니아주	-11.9125
▁인접해	-11.9126
▁교황청	-11.9126
▁있으세요	-11.9126
▁금융위원장	-11.9126
▁나아갈	-11.9127
▁서양호	-11.9127
▁상태여서	-11.9128
건가요	-11.9128
▁이승만	-11.9129
▁애호가	-11.9129
전환	-11.9129
▁없어진	-11.9131
▁자취	-11.9132
▁손색	-11.9132
▁과반	-11.9132
(27)	-11.9133
▁신년사	-11.9133
▁입담	-11.9133
▁수입품	-11.9134
▁번호판	-11.9135
▁치료법	-11.9135
▁안내문	-11.9136
▁젠더	-11.9136
▁풀어야	-11.9136
▁텍사스	-11.9137
▁추가해	-11.9138
▁반대편	-11.9139
▁남북교류협력	-11.9139
▁양파	-11.914
▁총체적	-11.9141
▁부조리	-11.9141
▁부분적	-11.9141
▁훈	-11.9141
▁객석	-11.9141
▁주관과장	-11.9141
▁쪽방	-11.9142
(26)	-11.9142
▁결론적	-11.9143
▁아르바이트생	-11.9143
▁마련되었다	-11.9143
▁기업가치	-11.9144
주문	-11.9144
▁위탁받	-11.9145
▁단행	-11.9145
▁북한이탈주민	-11.9146
▁바뀌면서	-11.9146
▁스타일링	-11.9147
▁낮아지고	-11.9147
▁페널티	-11.9149
▁필두	-11.9149
▁화살	-11.9149
SK	-11.9149
▁화랑	-11.9149
▁김부선	-11.915
▁시작하였다	-11.915
▁의정활동	-11.915
▁트로피	-11.915
▁밸런스	-11.915
▁엘리엇	-11.915
▁한진칼	-11.915
▁회관	-11.915
▁DVD	-11.915
▁알려주면	-11.915
▁밀가루	-11.915
▁2018’	-11.9151
▁원스톱	-11.9151
▁대수	-11.9152
▁노르웨이	-11.9152
▁김진태	-11.9152
▁문체부	-11.9152
▁야생동물	-11.9152
▁자매결연	-11.9152
▁네트워킹	-11.9152
▁타이거즈	-11.9152
▁관세부과	-11.9152
▁안드로이드	-11.9153
▁피아니스트	-11.9153
▁유해물질	-11.9153
▁공공조형물	-11.9154
▁비상저감조치	-11.9154
▁유효기간	-11.9154
복지증진	-11.9154
▁주휴	-11.9155
▁지켜볼	-11.9155
▁영상정보처리기기	-11.9155
▁을지로	-11.9155
▁챌린지	-11.9155
▁내려온	-11.9156
▁차지했고	-11.9156
▁지났는데	-11.9156
▁삼거리	-11.9156
보이는	-11.9157
▁쇼크	-11.9157
▁도시가스	-11.9157
▁선정되었다	-11.9157
▁대비하여	-11.9158
▁행적	-11.9158
▁없으나	-11.9159
친환경	-11.916
▁하려는	-11.9161
▁받아왔다	-11.9161
▁알아요	-11.9162
▁않습니까	-11.9162
▁청도군	-11.9163
▁부시	-11.9164
▁정품	-11.9166
▁건강상태	-11.9166
▁부족함	-11.9166
▁내리면	-11.9167
▁농약	-11.9167
▁고려시대	-11.9167
▁표심	-11.9168
▁사죄	-11.9168
▁됐어	-11.9168
▁대검	-11.917
낸다	-11.917
▁쓰레기통	-11.917
▁풍력	-11.917
▁길고	-11.917
▁판매가격	-11.917
▁갑작스럽	-11.9171
스로	-11.9171
▁권익	-11.9171
보조	-11.9172
희룡	-11.9173
그린	-11.9173
라운지	-11.9174
화하고	-11.9174
▁남학생	-11.9176
▁수중	-11.9176
▁성과급	-11.9177
▁물어보고	-11.9178
▁파격	-11.9178
▁그래픽	-11.9179
▁짠	-11.9179
▁폐암	-11.918
▁논의하고	-11.918
▁유도하고	-11.9181
▁노점	-11.9181
▁무례	-11.9181
▁빨래	-11.9182
▁인명구조	-11.9182
▁한국대사관	-11.9183
칩	-11.9183
▁끝낸	-11.9183
▁잘할	-11.9183
▁김재	-11.9184
▁이루었다	-11.9184
▁발전시켜	-11.9185
▁안타깝다	-11.9186
▁위촉장	-11.9187
▁묻혀	-11.9187
▁토목	-11.9188
▁크라우드	-11.9188
▁판타지	-11.9189
▁생명체	-11.9189
▁죽어	-11.919
▁디즈니	-11.919
▁막내	-11.9191
▁1800	-11.9191
▁구직활동	-11.9192
▁기아자동차	-11.9192
▁대검찰청	-11.9194
▁집중해	-11.9194
웠다	-11.9194
▁안철수	-11.9195
▁수여식	-11.9195
비리	-11.9197
▁미흡하다	-11.9197
▁공통된	-11.9198
별표	-11.9199
호가	-11.9199
▁높지만	-11.9204
▁마술	-11.9204
▁삼성동	-11.9205
▁치료비	-11.9205
▁낮추고	-11.9206
▁상속세	-11.9208
됐	-11.921
▁계약기간	-11.921
▁유적지	-11.9212
▁한국전력	-11.9213
▁연쇄	-11.9215
▁승선	-11.9215
▁증감	-11.9216
▁자문위원	-11.9217
▁관례	-11.9218
▁기획하고	-11.9219
▁진척	-11.9225
▁야생	-11.9225
▁실리콘	-11.9226
▁올려놓	-11.9226
▁주어서	-11.9226
▁잃어버렸	-11.9228
▁지어진	-11.9228
▁붙었다	-11.9228
▁광저우	-11.9228
▁조선중앙	-11.9229
▁선풍기	-11.9229
▁73	-11.923
▁관련기관	-11.923
▁동남권	-11.923
▁인계	-11.9231
찍어서	-11.9231
▁바른정당	-11.9231
▁지식재산권	-11.9231
▁집무실	-11.9232
▁공영주차장	-11.9232
벤처	-11.9233
지방선거	-11.9233
패션	-11.9233
미술	-11.9235
▁신용대출	-11.9236
▁해수부	-11.9237
국익	-11.9237
가야	-11.9238
▁퍼졌	-11.9238
어린	-11.9238
▁기금운용관	-11.9239
▁시그널	-11.9239
▁공안	-11.924
▁유형별	-11.924
▁한국사회	-11.9242
머	-11.9243
▁것이	-11.9243
▁빼놓	-11.9244
▁권영	-11.9245
▁시작해서	-11.9246
▁대행업체	-11.9247
▁학위	-11.9247
▁담기	-11.9247
▁몰랐어	-11.9249
▁보드	-11.9249
연극	-11.9249
▁소량	-11.9249
크림	-11.9251
▁센	-11.9252
▁축적된	-11.9252
▁금상	-11.9253
▁국민당	-11.9253
▁항해	-11.9253
▁194	-11.9255
▁내려졌다	-11.9256
▁주주권	-11.9259
기존	-11.9259
▁애국	-11.926
▁망치	-11.9261
▁장로	-11.9262
▁과시	-11.9263
▁김연	-11.9264
▁예술단	-11.9264
▁장교	-11.9264
▁이따	-11.9265
노동조합	-11.9265
▁달성하기	-11.9266
애플	-11.9266
▁분담금	-11.9267
일반	-11.9268
▁EXO	-11.9268
▁리포트	-11.9268
연출	-11.9268
▁낙태죄	-11.9269
오픈	-11.9269
▁벌어지고	-11.9269
▁에코	-11.927
▁끓	-11.9271
▁연소	-11.9271
▁바르셀로나	-11.9272
▁발견되었다	-11.9272
태평양	-11.9273
▁전교조	-11.9273
▁구급차	-11.9273
▁구독자	-11.9273
▁고추	-11.9273
▁유도하기	-11.9274
▁찼다	-11.9276
6%)	-11.9277
▁말고도	-11.9277
테크노밸리	-11.9282
▁시도한	-11.9282
세율	-11.9282
▁스윙	-11.9283
▁소방시설	-11.9283
▁배차	-11.9283
딸	-11.9283
▁논의될	-11.9284
야드	-11.9284
▁화질	-11.9285
▁되었으며	-11.9287
▁필로	-11.9287
▁물체	-11.9288
▁성립	-11.9289
르는	-11.929
▁거동	-11.9291
▁조선업	-11.9293
▁재무부	-11.9294
▁불고기	-11.9294
▁과거사위	-11.9295
▁참가하고	-11.9296
▁주도할	-11.9297
▁배우기	-11.9299
고법	-11.93
여자	-11.93
▁부가	-11.9303
▁선서	-11.9304
▁필수적이	-11.9304
▁인상적이	-11.9305
▁적용하	-11.9305
▁마틴	-11.9306
라이프	-11.9307
▁헌장	-11.9308
연령	-11.9308
▁돌리고	-11.931
▁데스크	-11.931
▁멋지	-11.9312
▁오페라	-11.9312
▁첨부한	-11.9312
히는	-11.9313
민주화운동	-11.9313
▁개폐	-11.9314
▁괴한	-11.9314
▁청구할	-11.9315
▁읍	-11.9315
▁찾아오	-11.9316
▁행정지원	-11.9316
▁주민참여예산	-11.9316
했으니	-11.9317
▁발급할	-11.9317
하십니까	-11.9317
▁자리한	-11.9319
▁노원	-11.932
▁토지보상	-11.9322
▁195	-11.9324
발표회	-11.9325
▁2.5	-11.9326
보존	-11.9326
▁문양	-11.9326
시네마	-11.9327
혜경궁	-11.9328
대식	-11.9328
▁논술	-11.9329
▁포드	-11.933
▁타야	-11.933
▁챙긴	-11.9331
▁말해요	-11.9332
▁부지사	-11.9333
▁폭풍	-11.9333
출액	-11.9334
▁손질	-11.9335
▁부두	-11.9335
스토어	-11.9336
▁조성됐다	-11.9336
파워	-11.9336
▁105	-11.9337
▁마무리되	-11.9338
▁해준	-11.9338
▁되겠다	-11.9338
축구협회	-11.9339
▁장내	-11.9339
▁대중적	-11.9339
추진단	-11.9339
▁포수	-11.934
우편	-11.934
▁공수처	-11.9342
도르	-11.9343
▁강등	-11.9344
드림	-11.9344
▁많아졌다	-11.9345
▁갑작스	-11.9347
▁일하	-11.9347
▁알면서	-11.9348
둬야	-11.9348
나쁨	-11.9348
해당	-11.9348
▁교도	-11.9349
▁배관	-11.935
▁영화계	-11.9351
민주주의	-11.9352
▁쾌	-11.9353
▁희망한다	-11.9353
화해	-11.9355
el	-11.9357
▁생전	-11.9359
▁필기	-11.9359
단가	-11.9361
▁지면	-11.9368
경연대회	-11.9368
▁명시	-11.9371
▁대의원	-11.9371
▁뜨	-11.9373
텍스	-11.9373
▁드라이	-11.9373
사태	-11.9373
▁사이클	-11.9374
꽁	-11.9375
OT	-11.9378
▁수수	-11.938
▁교양	-11.9381
사님	-11.9381
▁들어오면	-11.9381
니스트	-11.9383
▁종목들	-11.9383
아무	-11.9384
▁엄정	-11.9384
▁송치	-11.9385
▁준비돼	-11.9388
구단	-11.9389
▁연천	-11.939
▁운영하며	-11.9391
서울시	-11.9392
교차	-11.9394
렸어요	-11.9395
국제영화제	-11.9396
▁접종	-11.9396
엔진	-11.94
증후군	-11.94
▁농부	-11.9401
구석	-11.9402
때문	-11.9404
▁충분	-11.9404
()	-11.9407
가들	-11.9407
▁벌였	-11.9408
▁합창단	-11.9408
▁연장선	-11.9409
닥	-11.941
▁결정됐다	-11.9411
해발	-11.9411
(20	-11.9415
▁조세	-11.9417
▁산악	-11.9418
때로	-11.9418
▁특수성	-11.9418
▁무마	-11.9428
▁회담장	-11.943
▁준하	-11.9434
택한	-11.9434
개동	-11.9435
▁베이	-11.9435
▁차익	-11.9436
▁초등	-11.9438
▁꼴	-11.944
▁자생	-11.9442
▁씻	-11.9442
회장님	-11.9443
▁육박하는	-11.9444
▁미스터	-11.9446
▁잔류	-11.9447
교육과정	-11.9447
▁재정적	-11.9448
기한	-11.9449
▁루이	-11.9449
▁수행한	-11.9449
여대	-11.945
▁갈아	-11.9451
봤	-11.9451
▁한방	-11.9451
▁구하는	-11.9452
▁사설	-11.9456
▁보물	-11.9457
▁가죽	-11.9459
평했다	-11.9464
키스	-11.9467
상공회의소	-11.9467
애틀	-11.947
러운	-11.9471
▁유전	-11.9472
▁표현했다	-11.9474
▁비염	-11.9476
▁답하고	-11.9476
▁은폐	-11.9477
픽	-11.9477
▁고종	-11.9481
▁잠재	-11.9484
▁생사	-11.9485
(25	-11.9485
▁목동	-11.9487
고객	-11.9488
현민	-11.9489
▁좋았을	-11.9489
▁발족	-11.9491
여할	-11.9493
▁꿀	-11.9493
▁지냈	-11.9495
▁행사인	-11.9497
경주	-11.9497
▁촉진하	-11.9499
▁수목	-11.95
▁단지들	-11.9502
▁고맙다	-11.9502
▁전복	-11.9506
▁넘는다	-11.9507
▁타지	-11.9512
▁샘	-11.9512
인드	-11.9513
▁불화	-11.9516
뒤	-11.9517
▁원만	-11.9517
▁세리	-11.9519
▁중구의	-11.952
▁방증	-11.9522
▁흥미로	-11.9522
시고	-11.9522
▁먹는다	-11.9524
▁무형	-11.9524
내기	-11.9525
▁독보적	-11.9526
시죠	-11.9526
86	-11.9526
▁넣으	-11.953
▁메가	-11.9531
을까	-11.9533
▁노력한	-11.9539
▁접한	-11.9539
▁김수	-11.9545
기엔	-11.9545
보가	-11.9549
▁관제	-11.9551
신경	-11.9553
▁지급하	-11.9553
사정	-11.9553
▁시안	-11.9553
▁참으	-11.9554
용성	-11.9555
▁삼는	-11.9556
▁작성하	-11.9557
▁튼튼	-11.956
대강	-11.9573
▁성도	-11.9573
▁공론	-11.9574
자책	-11.9574
▁상반	-11.9574
▁생각한	-11.9575
완전	-11.9575
▁감소해	-11.9579
▁속해	-11.958
▁101	-11.9581
▁따라야	-11.9581
▁보답	-11.9583
▁들어서고	-11.9583
▁시행하기	-11.9583
▁신병	-11.9586
▁거칠	-11.9587
▁전념	-11.959
▁제품인	-11.9599
▁반송	-11.9599
▁왔고	-11.9599
▁풍속	-11.9599
라이트	-11.96
▁도예	-11.9602
76	-11.9602
원입니다	-11.9602
▁발생하	-11.9603
보험료	-11.9603
▁김제	-11.9604
▁일방	-11.9605
철우	-11.9605
▁주어지	-11.9608
동쪽	-11.961
▁박해	-11.961
▁추징	-11.961
도민	-11.9611
▁부탁했다	-11.9611
▁수계약	-11.9614
▁김선	-11.9617
▁인수한	-11.9618
▁경부	-11.9618
▁330	-11.962
▁부수	-11.9621
자릿수	-11.9621
동욱	-11.9622
▁세부적	-11.9624
▁개선하는	-11.9627
▁집어	-11.9627
조성	-11.9627
조제호	-11.9629
공작	-11.9631
감소	-11.9633
▁틀리	-11.9634
▁겸손	-11.9634
▁공감할	-11.9634
▁대화할	-11.9635
▁휴	-11.9639
▁인도적	-11.9641
감시	-11.9642
개정	-11.9644
▁방면	-11.965
▁됐는데	-11.9652
압박	-11.9652
▁인문	-11.9654
▁등지	-11.9654
▁두꺼	-11.9657
▁사업들	-11.9657
▁광산	-11.9658
▁킴	-11.966
▁미주	-11.966
▁마련되	-11.9662
▁늘어났	-11.9663
공동	-11.9666
▁상공	-11.9667
트트랙	-11.9671
▁모색하는	-11.9671
▁관여하	-11.9672
▁봉쇄	-11.9672
▁특별위원회	-11.9673
▁행사들	-11.9675
MC	-11.9675
▁실질	-11.9679
▁인종차별	-11.9679
▁운영될	-11.968
▁차림	-11.9682
간다	-11.9683
▁죽고	-11.9683
전기	-11.9683
▁간접적	-11.9686
▁완료할	-11.9686
▁퇴장	-11.9688
▁마련하여	-11.9688
▁다름	-11.9689
▁줄지	-11.969
▁조지	-11.9697
무용	-11.9697
▁쏟아냈	-11.9698
▁살아있	-11.9701
스톤	-11.9702
▁반감	-11.9704
▁현관	-11.9704
▁이동해	-11.9708
▁조성한다	-11.9711
너스	-11.9714
▁꿰	-11.9715
▁신고서	-11.9715
▁소신	-11.9715
▁나아지	-11.9718
1,000	-11.9718
▁계시	-11.9722
▁뻗	-11.9725
▁없을까	-11.9726
서점	-11.9726
▁그룹들	-11.9726
아침	-11.9729
▁역임	-11.9729
▁전문업체	-11.9731
▁못했을	-11.9732
▁하차	-11.9737
▁가져왔	-11.974
▁요지	-11.9743
보안	-11.9746
▁게재한	-11.9747
모습	-11.9747
▁방수	-11.9749
▁예약해	-11.9749
▁업로드	-11.9752
여점	-11.9754
보임	-11.9754
문자	-11.9756
대책본부	-11.9757
▁그리워	-11.9763
▁양당	-11.9764
92	-11.9768
▁보내줄	-11.9768
이스트	-11.9769
▁돌려주	-11.9771
▁소나	-11.9771
▁긍정	-11.9772
▁김광	-11.9772
무리	-11.9777
▁지원받	-11.978
했다면	-11.9782
하였	-11.9784
▁공산	-11.9787
작가	-11.9793
타수	-11.9802
▁비어	-11.9802
▁발상	-11.9802
▁양주시	-11.9805
요구서	-11.9805
▁녹아	-11.9806
▁당기	-11.9809
해주고	-11.9811
▁금지한	-11.9811
최저임금법	-11.9812
▁변상	-11.9815
오스	-11.9817
홈페이지	-11.9819
▁배석	-11.982
▁앞당	-11.9822
▁“1	-11.9824
▁끼친	-11.9825
제조	-11.9828
행할	-11.9828
▁김학범	-11.9828
주실	-11.9828
▁출마한	-11.9828
경력	-11.9829
▁몰려들	-11.9832
▁인내	-11.9833
▁넘쳐나	-11.9834
▁우려되	-11.9835
▁강습	-11.9836
▁공간정보	-11.9837
이드	-11.9838
▁석사	-11.9839
▁조개	-11.9839
▁강해	-11.9839
▁추가적	-11.9841
▁수련	-11.9846
경우	-11.9846
▁반영하여	-11.9847
▁a	-11.9847
▁동성	-11.9849
▁펼쳐진	-11.985
▁간소화	-11.985
들어요	-11.9851
▁고취	-11.9852
빵	-11.9852
▁청동	-11.9858
▁공교육	-11.9859
▁완료되	-11.986
▁바라고	-11.9861
서울청	-11.9862
▁퇴임	-11.9863
▁동래	-11.9866
부르크	-11.9866
▁정수기	-11.9867
▁가톨릭	-11.9871
▁도입하고	-11.9871
▁미루	-11.9872
▁강하다	-11.9873
▁뗀	-11.9874
▁싶었어	-11.9874
▁인사청문	-11.9875
▁습격	-11.9875
▁실례	-11.9876
머스크	-11.9877
옥탑방	-11.9877
콩레이	-11.9877
▁기금운용계획	-11.9877
▁통과하는	-11.9878
▁온종	-11.9879
(61)	-11.9879
▁햇볕	-11.988
▁굴뚝	-11.9881
▁폐렴	-11.9881
▁잭슨	-11.9881
▁멸치	-11.9881
▁DJ	-11.9881
▁압승	-11.9881
▁숟가락	-11.9882
▁헐리웃	-11.9882
▁퀄리티	-11.9882
▁텐센트	-11.9882
▁끼칠	-11.9883
▁내비친	-11.9883
▁최연소	-11.9883
▁상호작용	-11.9883
▁글쓰기	-11.9884
▁명실상부	-11.9884
▁알루미늄	-11.9884
▁에이전시	-11.9884
▁판로개척	-11.9884
▁사모펀드	-11.9884
▁유혹	-11.9884
▁워런	-11.9884
▁사내이사	-11.9884
▁중간고사	-11.9884
▁고부가치	-11.9884
▁하드디스크	-11.9884
▁뉴욕증시	-11.9884
▁종량제봉투	-11.9884
▁무역대표부	-11.9885
▁라이선	-11.9885
▁문자메시지	-11.9885
▁박성현	-11.9885
▁어플리케이션	-11.9885
▁기획예산과장	-11.9885
▁임시국회	-11.9885
▁희망자	-11.9885
▁치닫	-11.9885
▁트윗	-11.9885
▁증권선물위원회	-11.9885
▁출산지원금	-11.9885
▁크리스천	-11.9886
▁도봉구청장	-11.9886
▁물론이죠	-11.9886
▁아시아축구연맹	-11.9886
▁일반회계	-11.9886
▁액정	-11.9886
▁올여름	-11.9886
▁두드러졌다	-11.9886
▁후폭풍	-11.9886
▁박지성	-11.9886
정상회담	-11.9886
소방헬기	-11.9886
▁롯데호텔	-11.9887
▁사교육비	-11.9887
▁고창군	-11.9887
▁현대적	-11.9887
▁국토해양부	-11.9887
폭염주의보	-11.9887
▁절대평가	-11.9888
▁귀걸이	-11.9888
▁김태우	-11.9888
▁합병증	-11.9888
▁임진강	-11.9888
▁범죄피해자	-11.9888
▁동독	-11.9888
개팀	-11.9889
▁올라가면	-11.9889
▁거듭날	-11.9889
▁채팅	-11.9889
▁주력산업	-11.9889
▁이끌어냈다	-11.989
▁성사됐다	-11.989
블리	-11.989
▁찾아올	-11.989
▁국공립	-11.989
▁합당한	-11.9891
▁문제해결	-11.9891
공공기관	-11.9891
▁아이돌그룹	-11.9892
▁늘었지만	-11.9892
이온	-11.9892
▁되죠	-11.9892
▁유방암	-11.9892
▁돋보인다	-11.9892
[...]
