<unk>	0
<s>	0
</s>	0
▁the	-2.84218
,	-3.19855
.	-3.39065
▁of	-3.57148
▁and	-3.79004
▁to	-3.82138
▁a	-4.08977
▁in	-4.16981
-	-4.35976
▁is	-4.48734
s	-4.5728
▁that	-4.72749
'	-4.75021
▁	-4.80908
▁for	-4.81915
▁I	-5.02637
▁The	-5.03177
▁on	-5.0497
▁as	-5.17431
▁be	-5.17671
▁it	-5.20174
▁with	-5.23371
▁was	-5.28804
▁by	-5.31661
ing	-5.33104
▁are	-5.42236
▁will	-5.45094
▁"	-5.5222
▁at	-5.63155
▁from	-5.70928
▁you	-5.71274
▁have	-5.73958
▁has	-5.81699
▁which	-5.83316
▁who	-5.89449
▁not	-5.89615
▁an	-5.93755
▁this	-6.04054
▁Korea	-6.06338
▁but	-6.11787
▁can	-6.15245
▁or	-6.18916
▁In	-6.20607
th	-6.22778
▁said	-6.24005
▁(	-6.24966
?	-6.29055
▁shall	-6.29257
▁It	-6.29975
▁been	-6.32197
▁year	-6.34149
▁time	-6.36039
▁were	-6.39504
▁he	-6.39967
▁there	-6.42873
t	-6.42989
ed	-6.44992
▁Korean	-6.47727
"	-6.48292
▁his	-6.49232
▁Kim	-6.49803
."	-6.51087
▁such	-6.51906
▁people	-6.52454
▁also	-6.53665
▁so	-6.53984
▁when	-6.55187
▁after	-6.56045
▁their	-6.56981
▁they	-6.60873
▁A	-6.61703
▁more	-6.61759
▁first	-6.63977
▁about	-6.64912
▁if	-6.65651
▁than	-6.68234
)	-6.69575
▁head	-6.7354
▁we	-6.77661
▁out	-6.78834
▁because	-6.7978
▁Gyeonggi	-6.81774
▁Seoul	-6.82955
▁one	-6.84278
m	-6.85891
d	-6.86949
▁its	-6.88034
▁my	-6.89238
▁government	-6.90134
▁through	-6.9248
▁had	-6.93046
▁where	-6.94377
▁may	-6.94578
▁public	-6.96491
▁all	-6.96566
▁up	-6.99138
▁won	-7.02081
▁last	-7.02312
▁other	-7.02468
▁including	-7.0421
▁This	-7.05608
▁only	-7.05729
e	-7.06719
▁two	-7.06852
▁me	-7.07007
▁under	-7.07554
▁due	-7.08467
▁North	-7.10946
▁your	-7.12049
▁like	-7.12777
▁new	-7.13024
▁Gu	-7.13057
▁day	-7.1326
,"	-7.13456
▁do	-7.16246
▁high	-7.17116
▁held	-7.17146
▁Lee	-7.17378
do	-7.18003
/	-7.19513
▁Province	-7.20291
▁National	-7.20572
gu	-7.2121
▁U	-7.21272
▁companies	-7.21632
S	-7.23639
▁over	-7.25436
▁should	-7.26209
▁would	-7.2645
▁As	-7.28569
▁support	-7.28701
▁them	-7.28936
▁years	-7.29347
▁into	-7.29625
▁no	-7.29674
▁number	-7.30434
▁made	-7.30663
▁business	-7.31171
▁many	-7.32118
▁market	-7.32402
▁local	-7.34133
▁company	-7.34176
▁work	-7.3506
ly	-7.35491
▁get	-7.3578
▁school	-7.36554
▁between	-7.37892
▁make	-7.3827
▁There	-7.388
▁system	-7.38988
▁even	-7.39846
▁take	-7.40373
▁while	-7.4182
▁since	-7.42312
▁use	-7.4317
▁We	-7.4338
▁each	-7.44717
▁members	-7.45052
▁Park	-7.45373
▁President	-7.455
▁well	-7.45728
▁2	-7.49392
▁1	-7.505
▁team	-7.51172
al	-7.52712
▁management	-7.53873
▁go	-7.53933
If	-7.5399
▁order	-7.54119
▁good	-7.54553
▁her	-7.54804
▁Article	-7.55051
▁next	-7.5557
▁three	-7.56081
▁being	-7.56651
▁want	-7.5673
▁When	-7.57043
▁expected	-7.575
▁etc	-7.5833
▁City	-7.58484
▁think	-7.59856
▁10	-7.60054
▁place	-7.60253
▁our	-7.60303
▁various	-7.60989
▁students	-7.61589
▁meeting	-7.62348
▁necessary	-7.6245
▁Party	-7.63241
▁Ministry	-7.63453
▁before	-7.63826
▁project	-7.64596
▁could	-7.64622
▁million	-7.65544
▁person	-7.65624
▁official	-7.65817
▁some	-7.65916
▁most	-7.66102
▁3	-7.66255
▁dur	-7.66586
▁need	-7.66931
▁China	-7.67159
▁any	-7.67426
▁He	-7.67989
),	-7.6853
▁case	-7.68701
▁what	-7.69101
▁police	-7.69686
▁area	-7.69821
y	-7.70278
▁residents	-7.70584
▁office	-7.70602
▁Act	-7.70726
▁Committee	-7.71571
▁plan	-7.71616
▁know	-7.71816
▁service	-7.72474
▁Metropolitan	-7.7287
▁days	-7.73017
▁second	-7.73597
▁month	-7.74322
▁same	-7.74549
▁world	-7.74743
▁education	-7.75051
▁life	-7.75055
▁Government	-7.75127
▁now	-7.7583
▁former	-7.76375
▁how	-7.76396
▁used	-7.76872
▁South	-7.7714
▁information	-7.781
▁right	-7.78136
▁products	-7.78488
▁long	-7.78748
▁city	-7.78781
▁Do	-7.78927
▁related	-7.79239
▁special	-7.79262
▁around	-7.79681
▁Center	-7.79756
▁center	-7.81031
:	-7.81096
▁industry	-7.81809
▁You	-7.82759
The	-7.83271
n	-7.83349
▁development	-7.8397
▁saying	-7.84483
▁event	-7.84746
▁lot	-7.84775
▁just	-7.85593
▁According	-7.85608
without	-7.85747
▁following	-7.85912
▁small	-7.85947
▁don	-7.86507
▁billion	-7.86536
▁investigation	-7.86906
▁facilities	-7.87396
▁children	-7.87951
▁5	-7.89289
she	-7.8936
▁much	-7.89409
▁within	-7.89808
▁see	-7.90822
▁performance	-7.90939
▁Moon	-7.91265
▁end	-7.91883
▁On	-7.92042
▁am	-7.92264
▁University	-7.92358
▁against	-7.92428
▁large	-7.92722
▁increase	-7.92873
▁country	-7.94297
▁period	-7.94322
▁process	-7.94446
▁did	-7.94763
▁price	-7.95056
in	-7.95356
very	-7.95381
▁total	-7.95501
▁among	-7.95687
▁4	-7.95827
▁referred	-7.96376
▁20	-7.96671
▁rate	-7.96671
▁announced	-7.96699
▁food	-7.97447
▁operation	-7.97783
▁him	-7.99227
▁group	-7.99655
▁home	-7.99866
▁family	-7.99897
▁national	-8.00917
▁social	-8.01508
st	-8.01522
▁report	-8.01544
▁fact	-8.02033
▁party	-8.02257
▁attention	-8.02757
▁financial	-8.04407
▁budget	-8.04797
▁help	-8.05237
▁way	-8.05286
▁difficult	-8.05295
▁particular	-8.05305
▁future	-8.05512
▁pay	-8.05525
▁those	-8.05603
▁water	-8.06841
▁Jae	-8.06932
▁situation	-8.07252
▁come	-8.07406
▁going	-8.07435
▁Jung	-8.07517
▁economic	-8.07579
▁officials	-8.07605
▁change	-8.077
ll	-8.07893
▁cases	-8.08002
▁working	-8.08122
▁found	-8.09772
f	-8.10678
▁construction	-8.10893
▁become	-8.10975
▁At	-8.11156
▁product	-8.11309
▁measures	-8.11311
ve	-8.11347
▁charge	-8.11514
▁together	-8.1157
▁Office	-8.11731
▁back	-8.11959
▁committee	-8.12043
▁president	-8.12676
▁every	-8.12857
▁Governor	-8.12914
▁member	-8.13327
▁again	-8.13421
▁problem	-8.13834
▁power	-8.13852
▁Minister	-8.13871
▁Assembly	-8.14144
ant	-8.14162
▁matters	-8.14214
▁policy	-8.1439
▁amount	-8.14627
▁30	-8.14662
▁part	-8.1479
hereinafter	-8.14851
I	-8.14952
▁reported	-8.1512
▁means	-8.15396
▁activities	-8.16451
▁major	-8.1665
dong	-8.17459
▁received	-8.1803
▁visit	-8.1819
▁fire	-8.18801
▁technology	-8.18938
▁provide	-8.19456
▁culture	-8.19483
▁interest	-8.19497
▁today	-8.19728
▁Education	-8.19957
▁say	-8.20175
▁result	-8.20442
▁possible	-8.20576
▁down	-8.20589
▁she	-8.20632
▁until	-8.21074
▁hard	-8.21215
▁private	-8.21389
her	-8.21391
▁term	-8.2154
▁Please	-8.21541
on	-8.21623
▁countries	-8.21712
▁pursu	-8.21861
▁half	-8.21866
▁Busan	-8.21867
▁different	-8.21975
▁Japan	-8.22147
▁E	-8.22729
▁growth	-8.23235
▁best	-8.23264
▁That	-8.23445
▁women	-8.2382
▁department	-8.23848
▁percent	-8.23934
▁using	-8.2459
▁Ordinance	-8.24598
▁look	-8.24854
▁(1)	-8.24919
▁Samsung	-8.24925
We	-8.25404
▁hope	-8.25425
▁Japanese	-8.25512
▁set	-8.25514
▁safety	-8.2555
▁job	-8.25707
▁still	-8.26176
▁room	-8.26182
▁sales	-8.26321
▁able	-8.26386
▁money	-8.2688
▁areas	-8.26926
▁give	-8.26947
▁foreign	-8.26991
▁experience	-8.27076
▁four	-8.2739
▁Council	-8.27456
▁tax	-8.27954
▁general	-8.2796
▁real	-8.28324
▁6	-8.28796
▁making	-8.29003
▁decided	-8.29092
▁level	-8.29474
▁data	-8.29498
▁based	-8.29499
the	-8.29514
▁military	-8.29779
▁director	-8.29832
▁KRW	-8.29838
▁here	-8.29873
▁main	-8.30178
▁reason	-8.30217
▁five	-8.30784
▁US	-8.3084
▁game	-8.30908
▁increased	-8.30921
▁Chinese	-8.31616
▁low	-8.3171
re	-8.32185
▁important	-8.32452
▁building	-8.32557
▁show	-8.32712
▁province	-8.33037
▁came	-8.33104
▁results	-8.33314
▁these	-8.33332
▁media	-8.33392
▁car	-8.33452
▁early	-8.33629
▁took	-8.33686
▁Trump	-8.34059
▁workers	-8.34233
ary	-8.34391
▁After	-8.34404
▁find	-8.34452
▁investment	-8.34474
▁health	-8.34504
▁past	-8.34525
▁why	-8.34531
▁p	-8.34597
▁Incheon	-8.34978
▁put	-8.351
▁released	-8.35257
▁8	-8.35327
▁own	-8.3536
▁house	-8.35438
▁left	-8.35445
▁projects	-8.35567
▁affairs	-8.35682
▁New	-8.35836
▁Dong	-8.3589
▁issue	-8.3601
")	-8.361
a	-8.36237
▁domestic	-8.36276
▁check	-8.36291
▁us	-8.36514
▁However	-8.36578
▁paragraph	-8.36858
▁too	-8.3712
▁agreement	-8.37355
▁name	-8.3769
▁receive	-8.37725
▁Chairman	-8.37935
▁K	-8.37976
▁cultural	-8.38243
▁off	-8.38457
▁'	-8.39303
▁site	-8.39528
▁times	-8.39568
▁must	-8.3959
▁7	-8.39655
▁great	-8.39833
▁care	-8.40017
nd	-8.40198
▁addition	-8.40298
▁What	-8.40469
▁front	-8.40678
▁does	-8.40817
▁music	-8.40876
▁week	-8.41153
▁called	-8.41322
▁plans	-8.41719
▁young	-8.41741
▁current	-8.4206
▁already	-8.42225
relevant	-8.4228
▁C	-8.42738
▁economy	-8.43019
▁paid	-8.43563
▁15	-8.43811
▁attached	-8.43865
▁full	-8.43931
▁11	-8.44273
▁global	-8.44772
▁law	-8.4509
▁Court	-8.45367
.”	-8.45468
▁labor	-8.45852
▁body	-8.46111
ther	-8.46325
▁hours	-8.46449
▁chairman	-8.47045
▁demand	-8.47181
▁start	-8.47201
▁provincial	-8.4742
▁according	-8.47552
▁purpose	-8.47632
o	-8.47742
▁citizens	-8.48044
▁No	-8.48129
▁medical	-8.48277
▁expenses	-8.48372
▁once	-8.48546
▁explained	-8.4862
▁For	-8.49087
▁12	-8.49938
▁prosecution	-8.49952
▁Choi	-8.49968
▁S	-8.50038
▁play	-8.50052
ho	-8.50055
▁Jong	-8.5015
▁services	-8.50199
▁court	-8.50753
▁conducted	-8.50885
▁feel	-8.50964
▁ceremony	-8.50978
▁research	-8.51113
▁employees	-8.51272
▁Institute	-8.51424
▁whe	-8.51427
▁They	-8.51461
▁administration	-8.51771
▁cooperation	-8.52035
▁request	-8.5205
▁morning	-8.52124
▁live	-8.52167
▁My	-8.52439
▁application	-8.52549
▁state	-8.52623
▁seems	-8.528
▁open	-8.53169
).	-8.53344
▁Hong	-8.53624
▁top	-8.53644
▁production	-8.5396
▁went	-8.54024
▁apply	-8.54171
▁participate	-8.54218
▁please	-8.54357
▁away	-8.54425
▁established	-8.54465
▁9	-8.54609
se	-8.54835
▁training	-8.54935
▁free	-8.54995
▁point	-8.55276
▁Young	-8.55311
▁Since	-8.55579
▁Democratic	-8.55618
▁selected	-8.55812
▁payment	-8.56015
▁strong	-8.56061
▁An	-8.56126
▁program	-8.5627
soo	-8.56304
▁English	-8.56304
▁date	-8.56697
▁big	-8.56884
▁trade	-8.57055
▁income	-8.57244
▁meet	-8.57371
▁floor	-8.57427
▁self	-8.57476
▁environment	-8.57598
▁May	-8.57682
▁prices	-8.58155
▁summit	-8.58273
▁started	-8.58288
▁living	-8.58339
▁B	-8.58369
▁side	-8.58524
▁Service	-8.58526
▁organization	-8.58546
▁continue	-8.58588
ial	-8.58713
▁field	-8.58746
▁organizations	-8.58866
▁District	-8.58929
▁D	-8.59079
▁recently	-8.59274
▁Association	-8.59299
▁create	-8.59779
▁along	-8.59816
▁United	-8.59863
▁near	-8.59868
▁history	-8.60026
▁competition	-8.60062
rd	-8.60364
▁non	-8.6059
▁got	-8.60614
▁taking	-8.60629
▁send	-8.60649
cannot	-8.60757
▁Where	-8.60785
▁old	-8.60851
▁tell	-8.60939
▁regard	-8.61017
▁establish	-8.61234
▁opening	-8.6141
▁love	-8.61453
▁per	-8.62077
▁led	-8.62269
▁another	-8.62282
▁both	-8.6239
▁re	-8.6249
▁popular	-8.6256
▁hold	-8.63304
▁agency	-8.63499
▁middle	-8.63691
▁months	-8.63705
▁Gwangju	-8.63708
▁cost	-8.63875
▁Mayor	-8.63886
▁Cho	-8.63951
▁season	-8.64098
▁prevent	-8.64158
▁leader	-8.64164
▁Kang	-8.64692
▁book	-8.6473
▁man	-8.64787
▁better	-8.64856
▁line	-8.65015
▁Commission	-8.65606
▁design	-8.65922
▁human	-8.66037
▁100	-8.66107
▁promote	-8.6643
▁persons	-8.66535
▁rights	-8.666
▁Group	-8.6664
",	-8.66943
▁video	-8.66986
▁test	-8.67059
▁un	-8.67167
▁international	-8.67209
▁18	-8.67326
▁damage	-8.67443
▁So	-8.67463
▁administrative	-8.67536
though	-8.67581
▁late	-8.67631
▁March	-8.67695
▁P	-8.67896
▁inspection	-8.68026
▁stage	-8.68168
▁election	-8.68232
▁things	-8.68268
▁visited	-8.68282
▁welfare	-8.6847
▁less	-8.68533
▁contract	-8.6885
▁confirmed	-8.68964
▁Even	-8.69104
▁class	-8.69185
▁Jeju	-8.69266
▁security	-8.69314
▁likely	-8.69501
▁attended	-8.69583
▁representative	-8.69702
▁provided	-8.69704
▁accident	-8.7014
▁asked	-8.70326
▁improve	-8.70345
▁soon	-8.70416
▁third	-8.70493
▁treatment	-8.70569
▁child	-8.70819
▁How	-8.70825
▁far	-8.70949
▁include	-8.70987
▁employment	-8.71049
▁13	-8.7114
▁subject	-8.71241
▁minutes	-8.71275
▁policies	-8.71387
▁School	-8.71482
▁began	-8.71823
▁showed	-8.72221
▁concern	-8.72235
ting	-8.724
young	-8.7261
▁fine	-8.72624
▁then	-8.73028
▁lead	-8.73074
▁Police	-8.7333
▁movie	-8.7349
able	-8.73516
▁located	-8.73542
▁supply	-8.73548
▁participated	-8.7368
▁exist	-8.73773
▁position	-8.73784
▁problems	-8.74101
▁enjoy	-8.74288
▁didn	-8.74494
▁promotion	-8.74579
▁institutions	-8.74737
▁caused	-8.74752
▁quality	-8.74782
▁Han	-8.74823
▁prepare	-8.74957
▁community	-8.75064
▁space	-8.75379
▁role	-8.75507
▁known	-8.75596
▁parents	-8.75621
▁society	-8.75711
Korean	-8.75824
▁trillion	-8.75933
▁World	-8.76009
▁believe	-8.76025
▁air	-8.76284
▁April	-8.76416
▁really	-8.76457
▁land	-8.76478
▁directly	-8.76637
▁customers	-8.76814
▁call	-8.76881
▁given	-8.77007
▁overseas	-8.77055
▁d	-8.7709
▁facility	-8.77271
l	-8.77346
▁schools	-8.77364
▁fans	-8.77536
year	-8.77546
▁region	-8.77659
▁insurance	-8.77683
▁return	-8.77717
▁But	-8.77871
▁International	-8.78011
▁ruling	-8.78077
▁little	-8.78182
▁let	-8.78268
out	-8.78358
▁M	-8.78409
▁With	-8.78898
It	-8.78925
▁focus	-8.7895
▁applied	-8.7911
▁Shin	-8.79189
▁House	-8.79564
▁response	-8.7959
▁players	-8.79805
▁trial	-8.80133
came	-8.80262
▁district	-8.80273
▁added	-8.804
▁14	-8.80689
▁completed	-8.80784
▁largest	-8.80929
▁road	-8.81003
▁short	-8.81076
▁political	-8.81159
▁study	-8.81317
▁changed	-8.81433
▁Can	-8.81575
▁store	-8.81598
▁card	-8.81652
▁six	-8.81675
▁sector	-8.81687
▁pointed	-8.81827
▁States	-8.81841
▁increasing	-8.82268
▁face	-8.82303
▁joint	-8.82314
▁decision	-8.82394
▁age	-8.82401
▁stock	-8.82413
▁16	-8.82518
▁previous	-8.82527
▁later	-8.82874
▁actively	-8.82958
▁civil	-8.83077
▁cause	-8.8342
▁higher	-8.83434
▁share	-8.83482
▁housing	-8.83544
▁final	-8.8367
up	-8.83684
▁July	-8.83821
▁experts	-8.84004
▁traditional	-8.84009
▁operate	-8.84071
▁Public	-8.84277
▁value	-8.84483
▁keep	-8.84602
won	-8.84811
▁17	-8.84813
▁sent	-8.84845
▁businesses	-8.84944
▁June	-8.85111
▁war	-8.85285
▁opposition	-8.85463
▁jobs	-8.85645
▁control	-8.85653
▁thought	-8.85654
▁Liberty	-8.85726
▁student	-8.85754
▁funds	-8.86081
▁Ji	-8.8617
▁additional	-8.86226
▁works	-8.86295
▁revealed	-8.86482
▁Bank	-8.8662
▁move	-8.86657
▁events	-8.86746
▁run	-8.86843
jin	-8.86856
es	-8.8696
▁raised	-8.87512
i	-8.87617
▁effect	-8.87707
▁looking	-8.87903
▁exchange	-8.87903
▁survey	-8.88173
▁taken	-8.8818
▁festival	-8.88274
▁Station	-8.88427
▁Yoon	-8.88607
▁Dae	-8.88783
▁never	-8.8882
▁understand	-8.88829
▁conditions	-8.8894
▁though	-8.88946
er	-8.89147
▁bus	-8.89301
▁Suprem	-8.89682
▁introduced	-8.8979
▁25	-8.90149
▁art	-8.90175
▁19	-8.902
▁wage	-8.90224
▁news	-8.90271
▁basic	-8.9045
▁possibility	-8.90452
r	-8.90878
▁accordance	-8.90963
▁seen	-8.91052
▁energy	-8.91254
min	-8.91359
▁often	-8.91446
▁key	-8.91525
an	-8.91822
▁Sung	-8.91829
▁fees	-8.9192
▁buy	-8.92088
▁documents	-8.92291
▁groups	-8.92458
▁hospital	-8.92503
▁Affairs	-8.92532
▁night	-8.92557
▁50	-8.92725
▁rather	-8.92794
▁phone	-8.92981
▁regular	-8.9316
▁CEO	-8.93239
less	-8.93262
▁eat	-8.93444
▁always	-8.93606
▁Form	-8.93623
ri	-8.93721
▁leave	-8.93753
▁strengthen	-8.93969
▁account	-8.94028
▁purchase	-8.94035
▁talk	-8.94059
▁Hyun	-8.94123
hyun	-8.94147
▁officer	-8.94183
▁outside	-8.9435
▁Financial	-8.94403
▁growing	-8.94409
▁Hyundai	-8.94686
▁created	-8.94867
▁yet	-8.94939
▁T	-8.95055
▁materials	-8.95127
▁Provided	-8.95179
▁establishment	-8.95247
▁medium	-8.95326
▁exhibition	-8.9535
▁40	-8.95472
▁few	-8.95488
▁recent	-8.95662
▁enough	-8.95703
▁friends	-8.95714
▁something	-8.95726
▁Min	-8.95752
▁chief	-8.95788
▁conduct	-8.96155
▁lack	-8.96279
▁industrial	-8.96361
▁families	-8.96517
▁film	-8.96534
▁emergency	-8.96559
▁September	-8.96568
▁issues	-8.96575
▁operating	-8.96589
▁sports	-8.96782
▁parties	-8.96801
▁status	-8.96823
▁lower	-8.969
▁others	-8.96945
▁evaluation	-8.97086
▁Management	-8.97103
▁average	-8.97145
▁active	-8.97153
▁hand	-8.97205
▁developed	-8.97211
▁online	-8.97237
▁R	-8.97319
▁easy	-8.97343
▁controversy	-8.97356
▁efforts	-8.97403
▁manager	-8.97462
ugh	-8.97498
▁Gangwon	-8.97561
▁Then	-8.97571
▁audit	-8.97712
▁Gangnam	-8.97743
▁death	-8.97867
▁Festival	-8.97898
▁method	-8.9809
▁story	-8.98184
▁match	-8.98504
▁reduce	-8.98563
▁opened	-8.98681
▁points	-8.98739
▁regulations	-8.98749
▁users	-8.98806
▁form	-8.98853
▁inter	-8.9889
▁27	-8.99158
▁travel	-8.9917
▁expand	-8.99318
▁senior	-8.99539
▁review	-8.99564
▁allow	-8.99938
▁Yes	-8.99966
▁photo	-9.00081
▁hit	-9.0016
▁schedule	-9.00218
▁size	-9.00347
▁least	-9.00412
▁Trade	-9.00485
▁opinion	-9.00626
▁present	-9.00633
▁station	-9.00665
▁tomorrow	-9.0069
▁opinions	-9.00747
▁24	-9.00762
▁Yang	-9.0078
▁Kyung	-9.00886
▁daily	-9.0099
▁happy	-9.00993
”	-9.0104
▁Seung	-9.01044
▁designated	-9.01095
▁costs	-9.01104
▁ago	-9.01191
▁Jin	-9.01313
▁dust	-9.01402
▁leading	-9.01482
▁Some	-9.0152
time	-9.0155
▁close	-9.01593
term	-9.0173
▁considered	-9.019
▁press	-9.01907
▁items	-9.02037
▁vice	-9.02387
▁Asian	-9.02409
▁makes	-9.02667
▁conference	-9.0273
▁23	-9.02767
▁advance	-9.02824
▁submit	-9.02956
▁sold	-9.03053
▁Agency	-9.03273
▁record	-9.0334
▁complex	-9.03523
▁planning	-9.03606
▁starting	-9.03619
▁written	-9.03625
▁appointed	-9.03655
▁passed	-9.03668
▁words	-9.03727
▁Sang	-9.03798
▁course	-9.03841
▁rise	-9.03866
▁First	-9.03909
▁ask	-9.03954
▁expect	-9.04002
▁sorry	-9.04161
▁lost	-9.04172
▁Land	-9.04342
▁needed	-9.04376
▁Al	-9.04445
▁Department	-9.04461
▁female	-9.04814
▁estate	-9.04847
▁illegal	-9.05026
▁cities	-9.05037
▁authorities	-9.05071
▁content	-9.05075
▁Vietnam	-9.05086
▁trip	-9.05225
sized	-9.05323
▁vehicle	-9.05337
▁contents	-9.05344
▁personnel	-9.0552
▁afternoon	-9.0563
▁Health	-9.05684
▁equipment	-9.05883
▁friend	-9.05921
▁Administration	-9.05945
▁shows	-9.06078
▁Seo	-9.06111
▁needs	-9.0624
▁further	-9.06523
▁programs	-9.06525
▁22	-9.06682
▁continued	-9.06734
▁legal	-9.0688
▁details	-9.07082
▁try	-9.07441
▁vehicles	-9.07455
▁men	-9.07622
▁told	-9.07668
woo	-9.07699
▁Jeong	-9.07722
▁similar	-9.07735
having	-9.07786
▁met	-9.08211
▁Mr	-9.08385
▁January	-9.08416
▁model	-9.08434
▁currently	-9.08509
▁Jang	-9.08526
▁Corporation	-9.08665
▁October	-9.0871
▁transportation	-9.08795
▁21	-9.08811
▁prepared	-9.09166
uring	-9.09219
▁To	-9.09258
▁personal	-9.09275
▁Prime	-9.09295
▁scene	-9.09326
▁expressed	-9.09366
▁Song	-9.09437
▁rice	-9.09438
▁Tae	-9.09513
▁council	-9.09528
▁reform	-9.09617
▁improvement	-9.09668
▁standards	-9.09688
▁language	-9.09737
▁Justice	-9.09756
▁contact	-9.09841
▁certain	-9.09883
▁gave	-9.09903
▁built	-9.09954
▁develop	-9.10011
▁State	-9.10229
▁Hwang	-9.10583
si	-9.10631
▁games	-9.1064
(	-9.10671
▁fall	-9.10843
▁Yoo	-9.10844
▁Vice	-9.10869
▁woman	-9.10971
▁natural	-9.11141
▁minimum	-9.11155
▁candidate	-9.11176
▁lives	-9.11197
▁Altho	-9.11204
▁staff	-9.11246
▁showing	-9.11286
denuclearization	-9.11298
▁Whil	-9.11442
▁August	-9.11511
▁F	-9.11552
▁heard	-9.11553
▁governments	-9.11583
▁oil	-9.11763
▁goal	-9.11775
▁capital	-9.11838
▁light	-9.11975
▁enter	-9.11983
▁Research	-9.12068
▁summer	-9.12108
▁Electronics	-9.12176
▁clear	-9.12238
▁round	-9.12434
▁professional	-9.12454
▁urban	-9.12481
▁governor	-9.12538
▁”	-9.12635
▁sexual	-9.12713
▁secretary	-9.12758
▁receiving	-9.12775
▁changes	-9.12785
▁included	-9.12934
▁charges	-9.12992
▁mobile	-9.13061
▁Development	-9.13064
▁executive	-9.13179
▁single	-9.13206
▁several	-9.13384
▁issued	-9.1368
▁Daegu	-9.13835
▁deem	-9.13894
▁December	-9.14037
▁She	-9.14157
▁Island	-9.14188
▁submitted	-9.14356
▁university	-9.15008
▁traffic	-9.15022
▁ahead	-9.15139
▁trying	-9.15321
▁duties	-9.15658
▁village	-9.15688
▁Internet	-9.15693
▁TV	-9.15987
▁immediately	-9.15989
▁attract	-9.16031
▁action	-9.16047
▁alone	-9.16073
A	-9.16134
▁Hall	-9.16258
▁regional	-9.16364
▁professor	-9.16449
▁God	-9.16663
▁disaster	-9.16774
▁apartment	-9.16777
▁consumers	-9.16829
▁win	-9.16838
▁operated	-9.16838
▁Welfare	-9.16991
related	-9.17105
▁implement	-9.17115
▁28	-9.1724
▁approval	-9.17315
▁Among	-9.17349
▁college	-9.17457
▁26	-9.17458
▁November	-9.17689
▁Sun	-9.17697
▁February	-9.17703
▁relationship	-9.17781
▁cars	-9.17963
▁terms	-9.17997
▁excellent	-9.18014
▁youth	-9.18113
2	-9.18235
Local	-9.1824
▁One	-9.18283
▁inside	-9.18309
to	-9.18316
▁interested	-9.18334
▁mother	-9.18404
▁Because	-9.18477
▁High	-9.18665
▁highest	-9.18788
▁drama	-9.18899
▁list	-9.18959
▁parking	-9.18974
▁central	-9.18977
▁negotiations	-9.19038
▁true	-9.19045
▁Co	-9.19144
▁interview	-9.19304
▁Chang	-9.19365
▁union	-9.19527
▁books	-9.19894
▁driving	-9.19941
▁credit	-9.19958
▁implementation	-9.20073
▁played	-9.20165
▁felt	-9.20446
▁burden	-9.20463
▁session	-9.20535
▁patients	-9.20543
▁goods	-9.20561
▁division	-9.20601
▁father	-9.20621
▁easily	-9.20726
▁seven	-9.2094
▁places	-9.21033
▁poor	-9.21036
▁crisis	-9.21066
▁mind	-9.21112
▁talks	-9.21227
▁spread	-9.21238
▁communication	-9.21263
▁analysis	-9.21442
▁deliberation	-9.21689
▁reality	-9.21776
▁Support	-9.21856
▁Culture	-9.21969
▁actual	-9.2202
▁wanted	-9.22108
▁questions	-9.22128
▁available	-9.2213
▁bill	-9.2225
▁protection	-9.22348
▁worth	-9.22641
▁famous	-9.22864
▁nuclear	-9.22907
▁opportunity	-9.23177
▁Security	-9.23183
▁participation	-9.23201
▁parts	-9.2321
▁picture	-9.23225
▁individual	-9.23316
▁crime	-9.23742
▁hot	-9.23822
▁concerns	-9.23826
▁protect	-9.23844
▁reduced	-9.24119
un	-9.24153
▁takes	-9.24173
▁stop	-9.24237
▁doesn	-9.24251
▁hall	-9.24253
▁fee	-9.24267
▁Nam	-9.2434
▁loan	-9.24699
▁reflect	-9.24701
▁prescribed	-9.24705
▁structure	-9.24717
▁institution	-9.24725
▁cold	-9.24726
ng	-9.24756
▁fund	-9.24773
▁series	-9.25001
▁Chung	-9.25067
▁determined	-9.25085
▁performances	-9.25154
▁brand	-9.25159
▁compare	-9.25173
▁Director	-9.25285
▁sanctions	-9.25399
▁movement	-9.25528
▁bank	-9.25596
▁original	-9.25679
gun	-9.25711
▁drawing	-9.25726
▁distribution	-9.25732
▁concert	-9.26013
hee	-9.26225
▁bad	-9.26518
▁heart	-9.26534
▁matter	-9.26624
▁doing	-9.26779
▁board	-9.26822
▁holding	-9.26921
▁restaurant	-9.26997
▁transfer	-9.27
▁club	-9.27005
▁considering	-9.27027
▁direction	-9.27092
▁Fund	-9.27113
▁manage	-9.27133
▁entrance	-9.27145
▁industries	-9.27162
▁property	-9.27163
▁filed	-9.27262
▁relations	-9.27453
▁attend	-9.27589
▁nation	-9.27593
level	-9.27655
▁kind	-9.27666
▁generation	-9.27711
▁victims	-9.27717
▁trend	-9.27735
▁Yong	-9.27753
▁eyes	-9.27803
▁coming	-9.27885
▁G	-9.28093
▁beautiful	-9.28622
▁Foundation	-9.28652
▁chairperson	-9.28743
▁heat	-9.28784
ic	-9.28792
▁Wa	-9.28845
▁Is	-9.28875
▁risk	-9.28957
▁minister	-9.29003
▁t	-9.29026
▁learning	-9.2906
▁done	-9.29171
▁instead	-9.2941
▁Russia	-9.29411
▁Cheong	-9.29464
▁(2)	-9.29562
▁2018	-9.29663
▁organized	-9.29943
▁agencies	-9.30165
▁Special	-9.3021
▁examination	-9.30239
▁deal	-9.30284
▁leaders	-9.30398
▁message	-9.30422
▁markets	-9.30441
▁pressure	-9.30549
▁post	-9.30557
▁teams	-9.30558
▁quickly	-9.30564
▁agricultural	-9.30599
▁bring	-9.30664
▁evidence	-9.30677
▁loans	-9.3072
▁forward	-9.30745
▁might	-9.30929
▁installed	-9.31069
▁produced	-9.31125
▁statement	-9.31198
▁Labor	-9.31339
▁raising	-9.314
▁Transport	-9.31695
▁benefits	-9.31751
▁People	-9.31795
▁positive	-9.32051
▁church	-9.32063
▁fell	-9.32091
▁annual	-9.32125
▁difficulties	-9.32493
▁standard	-9.32527
▁followed	-9.32582
▁base	-9.32611
▁network	-9.32805
▁anniversary	-9.33278
▁itself	-9.33321
▁incident	-9.33336
▁Let	-9.33577
▁song	-9.33671
▁shopping	-9.33686
▁disease	-9.33936
▁Secretary	-9.34057
▁corporate	-9.34115
▁Defense	-9.34166
▁direct	-9.34174
▁sense	-9.34188
▁grow	-9.34285
▁common	-9.34424
▁appeared	-9.3455
▁stay	-9.34693
▁saw	-9.34708
▁stores	-9.34786
▁launched	-9.34953
▁thing	-9.34985
local	-9.34997
scale	-9.3501
cross	-9.35089
▁impact	-9.35223
▁Blue	-9.35312
▁centers	-9.35361
yeon	-9.35493
▁whole	-9.35501
▁Day	-9.35803
▁rest	-9.35965
▁quarter	-9.35974
▁Science	-9.36012
▁behind	-9.36071
▁temperature	-9.361
▁Cup	-9.36111
▁died	-9.36152
▁anything	-9.36463
▁peace	-9.36493
▁taste	-9.36503
▁delivery	-9.36522
▁push	-9.36527
▁reasons	-9.36628
▁type	-9.36712
▁entered	-9.36719
▁degrees	-9.36831
▁population	-9.36837
▁eight	-9.36841
▁caught	-9.36858
▁beginning	-9.36868
▁depend	-9.36914
▁hands	-9.3693
▁participants	-9.36946
▁waste	-9.3696
▁target	-9.37142
▁households	-9.37173
▁elderly	-9.37281
▁comes	-9.37379
▁sea	-9.37466
▁perform	-9.37577
▁learn	-9.37602
▁enterprises	-9.37627
▁express	-9.37766
▁required	-9.37769
▁disabled	-9.37797
▁And	-9.37858
▁educational	-9.38106
▁build	-9.38118
▁coach	-9.38122
▁Kong	-9.38194
▁contribute	-9.38244
▁image	-9.38442
▁wrong	-9.38461
▁wife	-9.38541
▁speed	-9.38541
▁violence	-9.38553
▁highly	-9.38899
▁below	-9.39081
▁proposed	-9.39376
".	-9.39458
il	-9.39525
▁watch	-9.39569
▁Won	-9.39583
▁introduce	-9.39616
▁character	-9.39632
▁cut	-9.397
▁occurred	-9.39756
en	-9.39842
▁plant	-9.39895
▁scheduled	-9.40012
▁ordered	-9.4018
▁visitors	-9.40221
▁raise	-9.40383
▁audience	-9.40541
▁step	-9.40556
▁co	-9.40568
▁teacher	-9.40582
▁writing	-9.40638
▁rates	-9.40887
▁sites	-9.40951
▁chance	-9.40968
▁Technology	-9.41018
▁Industry	-9.41025
▁reduction	-9.41058
▁falling	-9.4106
▁al	-9.41065
▁metropolitan	-9.41079
▁prevention	-9.41086
▁atmosphere	-9.41462
▁houses	-9.41529
▁hair	-9.41637
▁pain	-9.41902
▁Industrial	-9.41909
▁release	-9.42035
long	-9.42039
▁limited	-9.42073
▁hearing	-9.42155
▁entire	-9.42254
▁holiday	-9.42284
▁variety	-9.42307
▁especially	-9.42309
▁investigating	-9.42374
▁resources	-9.42485
▁skills	-9.42495
▁Many	-9.42504
▁reports	-9.4265
▁29	-9.42902
▁fourth	-9.42944
▁Asia	-9.43138
▁yesterday	-9.43163
▁safe	-9.43195
▁dance	-9.43281
▁accounting	-9.43326
▁player	-9.43638
▁failed	-9.43651
▁implemented	-9.43788
▁skin	-9.43791
▁document	-9.43959
▁earlier	-9.44034
▁solve	-9.44133
▁defense	-9.44182
▁Ha	-9.44182
▁announcement	-9.44202
▁hotel	-9.44484
▁tried	-9.44497
▁Central	-9.44527
▁stressed	-9.44531
▁user	-9.44555
▁Chief	-9.44658
▁success	-9.44772
▁specific	-9.44792
▁Promotion	-9.44953
▁Economic	-9.4496
U	-9.44963
sung	-9.45004
▁rain	-9.45074
▁reached	-9.45081
▁60	-9.45088
▁Son	-9.45107
espite	-9.45124
▁heavy	-9.45128
▁Oh	-9.45155
▁turn	-9.45321
▁universities	-9.45366
▁Safety	-9.45383
▁reading	-9.45484
▁requested	-9.45688
▁ground	-9.4584
D	-9.45889
▁era	-9.46037
▁King	-9.46137
▁couldn	-9.46155
▁pass	-9.46217
▁Business	-9.46241
▁popularity	-9.46257
▁elementary	-9.46261
▁environmental	-9.46368
▁Decree	-9.46413
▁view	-9.46465
▁force	-9.46646
▁candidates	-9.46647
▁green	-9.46676
▁hour	-9.46708
▁basis	-9.46731
Donald	-9.46781
▁progress	-9.46791
▁involved	-9.468
▁owner	-9.46803
▁condition	-9.46828
▁31	-9.46832
friendly	-9.46883
▁ability	-9.46949
▁unique	-9.47149
▁Lotte	-9.47158
▁website	-9.47162
▁Finance	-9.4717
G	-9.47251
▁accidents	-9.47331
▁internal	-9.47453
▁separate	-9.47456
▁question	-9.47519
▁example	-9.47603
▁prize	-9.4764
▁Germany	-9.47642
hoon	-9.47667
▁act	-9.47682
▁simple	-9.47693
▁reach	-9.47698
▁export	-9.4793
▁Infrastructure	-9.48055
▁Food	-9.48159
▁sound	-9.48426
▁fun	-9.48524
▁weather	-9.48532
▁secure	-9.48557
▁York	-9.48574
▁moved	-9.48752
▁Provinc	-9.48853
▁visiting	-9.48877
▁arrest	-9.48884
▁corporation	-9.48995
▁teachers	-9.49043
▁pre	-9.49113
▁rental	-9.49136
▁read	-9.49137
▁ways	-9.4919
▁mid	-9.49196
▁worked	-9.49197
▁American	-9.49237
▁authority	-9.49434
▁criticized	-9.49472
nforcement	-9.49633
▁signed	-9.49662
In	-9.49893
▁giving	-9.49925
▁join	-9.50051
▁discuss	-9.50087
▁toward	-9.50099
old	-9.50236
▁says	-9.50478
C	-9.50653
▁sure	-9.50716
▁tourism	-9.50843
▁owners	-9.50884
▁Ahn	-9.50899
▁buildings	-9.50968
▁Air	-9.51179
,”	-9.51191
▁train	-9.51236
▁branch	-9.51271
▁2015	-9.51287
▁customer	-9.51322
▁Professor	-9.51352
▁agreed	-9.51376
▁delivered	-9.51396
▁classes	-9.51401
▁By	-9.51448
▁color	-9.51506
▁bit	-9.51536
▁Eun	-9.51673
▁gain	-9.51837
▁overall	-9.51847
▁loss	-9.51894
▁Year	-9.51894
▁profit	-9.52069
▁adding	-9.52077
▁address	-9.52086
▁accept	-9.52145
▁Un	-9.52188
▁intend	-9.52204
▁Church	-9.52207
▁commercial	-9.52224
▁newly	-9.52234
▁clothes	-9.52258
▁abroad	-9.52275
▁moment	-9.52313
▁vacation	-9.52315
▁LG	-9.52322
▁winter	-9.52372
▁launch	-9.52434
▁ball	-9.52539
▁Ki	-9.52577
▁responsibility	-9.52729
▁participating	-9.5279
▁recognized	-9.52819
▁foundation	-9.5283
▁sell	-9.5292
▁returned	-9.53015
▁expectations	-9.53043
▁200	-9.53049
▁Si	-9.5317
▁providing	-9.53227
ural	-9.5328
▁Daejeon	-9.53358
▁entrusted	-9.53358
▁tourists	-9.53395
▁expansion	-9.53432
turned	-9.53458
▁multi	-9.5347
▁preparing	-9.53721
▁Suwon	-9.53732
▁headquarters	-9.53773
▁consideration	-9.53801
▁section	-9.53812
▁All	-9.53877
▁registration	-9.53885
▁ratio	-9.5402
▁exceed	-9.54047
▁serious	-9.54126
▁County	-9.54178
▁Women	-9.54197
▁predicted	-9.54243
▁wh	-9.54258
▁street	-9.54275
▁dream	-9.54297
▁East	-9.54316
▁General	-9.5437
▁Lim	-9.54449
▁significant	-9.54627
▁complete	-9.54661
▁function	-9.54696
▁mentioned	-9.54729
▁daughter	-9.54738
▁forest	-9.54745
▁posted	-9.54806
▁anti	-9.54844
▁Sports	-9.54891
ether	-9.55049
▁serve	-9.55065
▁responsible	-9.55143
▁Deputy	-9.5515
▁difference	-9.55217
▁commissioned	-9.55309
▁paper	-9.55752
▁resolution	-9.55752
▁unit	-9.55837
▁award	-9.5587
▁ensure	-9.56013
▁prescribe	-9.56038
▁successful	-9.56094
▁determine	-9.56158
▁maintain	-9.56159
seok	-9.56186
ory	-9.56191
▁farmers	-9.56202
▁characteristics	-9.56308
▁material	-9.56428
▁Foreign	-9.5658
There	-9.56603
▁nature	-9.56634
▁suspected	-9.56679
▁driver	-9.5674
▁creat	-9.56806
▁moving	-9.5681
▁select	-9.5712
▁everyone	-9.57156
▁actually	-9.57181
▁park	-9.57291
▁Why	-9.57295
▁notify	-9.57357
▁son	-9.57419
▁introduction	-9.57431
▁effects	-9.57464
▁viewers	-9.57473
▁idea	-9.57485
▁conflict	-9.57532
▁wait	-9.57558
▁huge	-9.57586
▁comprehensive	-9.57617
▁follow	-9.57636
▁eligible	-9.57657
▁records	-9.57673
▁electric	-9.57688
▁revision	-9.57723
▁letter	-9.57742
▁older	-9.57746
▁taxi	-9.57864
▁compensation	-9.57867
▁pm	-9.57954
▁waiting	-9.57954
▁fully	-9.57959
▁sale	-9.58012
▁biggest	-9.58131
▁duty	-9.58182
▁lecture	-9.5833
▁box	-9.58398
▁Hee	-9.58595
▁red	-9.58679
▁career	-9.58849
▁shown	-9.59035
▁except	-9.59128
▁deputy	-9.5913
▁nearby	-9.59138
▁gold	-9.59159
▁proposal	-9.59272
▁produce	-9.59378
▁artists	-9.59566
▁2014	-9.59629
▁Peninsula	-9.59631
▁manufacturing	-9.59675
▁file	-9.59747
▁platform	-9.59772
▁convenience	-9.59787
▁carry	-9.59831
▁closed	-9.60178
▁agenda	-9.60316
▁winning	-9.60387
▁served	-9.60449
▁negative	-9.60626
▁influence	-9.60696
▁usually	-9.60741
▁search	-9.60812
▁Na	-9.60825
▁innovation	-9.60878
▁seek	-9.60891
▁selection	-9.61029
yong	-9.61121
▁gas	-9.61146
▁criticism	-9.61344
▁Koreans	-9.61359
▁dollars	-9.61481
▁confirm	-9.61563
jung	-9.61566
▁household	-9.61569
▁actor	-9.6158
▁focused	-9.61581
▁physical	-9.61666
▁analyzed	-9.61762
▁creation	-9.61822
▁seats	-9.61851
▁expanding	-9.61856
▁arrested	-9.61863
▁joined	-9.61868
▁installation	-9.6193
▁allowed	-9.61952
▁Airport	-9.61952
▁relatively	-9.62229
▁answer	-9.62459
▁claimed	-9.62474
▁published	-9.62797
▁gathered	-9.62833
▁lawmaker	-9.62901
▁types	-9.62911
▁airport	-9.62929
▁discussion	-9.62939
▁collection	-9.62939
ever	-9.62957
▁Chairperson	-9.63063
cal	-9.63065
▁c	-9.6309
▁goes	-9.63156
based	-9.63265
▁revised	-9.63322
▁selling	-9.63358
▁access	-9.6336
▁fair	-9.63402
▁investors	-9.63464
▁wind	-9.63494
▁grade	-9.63497
▁banks	-9.63545
▁Market	-9.63558
▁meaning	-9.63689
▁Federation	-9.63823
▁Regard	-9.63857
▁fast	-9.63882
▁someone	-9.63897
▁promoting	-9.63899
hwan	-9.63935
▁collected	-9.63935
pop	-9.6398
▁connection	-9.64043
▁contest	-9.64044
▁refer	-9.6416
▁hear	-9.64183
h	-9.64202
▁lawmakers	-9.64202
▁sharing	-9.64243
myeon	-9.6432
▁brought	-9.64343
▁sign	-9.64366
▁intention	-9.64636
▁looks	-9.64698
▁jurisdiction	-9.6476
▁compar	-9.6494
▁voice	-9.64952
▁running	-9.64964
▁practice	-9.64977
▁broadcast	-9.65043
▁employee	-9.6506
▁Life	-9.65359
▁himself	-9.65427
▁everything	-9.65431
▁bought	-9.65436
▁circumstances	-9.6551
▁Kwon	-9.65529
▁O	-9.65583
▁appearance	-9.65627
▁reportedly	-9.6563
▁Project	-9.65632
ion	-9.65858
▁cancer	-9.6591
▁above	-9.65984
▁knowledge	-9.66009
▁b	-9.66049
▁Ulsan	-9.6607
▁songs	-9.66085
▁broke	-9.66113
▁black	-9.66157
▁River	-9.66231
▁broadcasting	-9.66319
▁Gyeongsang	-9.66331
▁range	-9.66409
▁respond	-9.66436
▁properly	-9.66547
▁recommend	-9.6662
▁planned	-9.66625
▁recommended	-9.66656
▁theme	-9.66685
▁consultation	-9.66741
▁resident	-9.66827
▁clean	-9.6685
it	-9.66961
▁becomes	-9.66967
▁decide	-9.67007
▁European	-9.67136
▁measure	-9.6714
▁singer	-9.67295
▁expanded	-9.67315
▁strategy	-9.67636
▁blockchain	-9.67637
▁Byung	-9.67644
▁Complex	-9.67648
▁elections	-9.67873
▁appointment	-9.67893
▁ship	-9.67978
▁warm	-9.67981
one	-9.68006
▁units	-9.68053
▁weeks	-9.68115
▁assets	-9.68115
▁avoid	-9.6812
▁technologies	-9.6817
▁killed	-9.68208
▁Most	-9.68248
sik	-9.68256
me	-9.68283
▁healthy	-9.68445
▁gender	-9.68542
▁consist	-9.68666
China	-9.68723
▁opportunities	-9.68729
▁Myung	-9.68783
▁severe	-9.68786
▁beauty	-9.68808
▁blood	-9.68814
▁supporting	-9.69192
▁item	-9.6921
▁consecutive	-9.69258
▁respectively	-9.69296
▁collect	-9.69357
▁vote	-9.69373
▁Rules	-9.69397
▁warrant	-9.69473
▁limit	-9.69566
▁cooperate	-9.69754
▁external	-9.69845
▁N	-9.69878
▁separately	-9.6991
▁activity	-9.69928
and	-9.69941
▁detailed	-9.69948
▁delay	-9.69989
▁provides	-9.70011
▁preparation	-9.70113
▁presented	-9.70117
man	-9.70132
▁Se	-9.70149
▁word	-9.70158
▁fields	-9.70371
▁preliminary	-9.70436
▁subsidies	-9.70447
▁formed	-9.70568
ers	-9.70641
▁Representative	-9.70694
▁superintendent	-9.70756
▁entertainment	-9.70764
▁advanced	-9.70784
▁disabilities	-9.70995
▁alleged	-9.71028
▁representatives	-9.71202
▁Are	-9.71244
▁improved	-9.71336
▁coffee	-9.71594
▁carrie	-9.71625
▁Sejong	-9.71644
▁score	-9.71661
▁Hye	-9.71738
▁Environment	-9.71778
▁weekend	-9.71838
▁recorded	-9.71839
▁zone	-9.71875
or	-9.71878
▁League	-9.71952
▁provisions	-9.71959
▁factors	-9.72103
▁dead	-9.72134
▁campaign	-9.72145
▁factory	-9.72242
▁500	-9.72265
▁registered	-9.72355
▁Table	-9.72386
▁increases	-9.72423
▁eye	-9.72548
▁hosted	-9.72605
▁door	-9.72638
▁elected	-9.72677
▁mainly	-9.72902
▁sleep	-9.72938
▁write	-9.72944
▁assault	-9.72985
▁infrastructure	-9.73047
▁science	-9.73051
▁Cultur	-9.73058
▁watching	-9.73214
▁Singapore	-9.73271
▁flight	-9.73336
▁regions	-9.73347
▁investigate	-9.73413
▁exercise	-9.73474
▁meters	-9.73553
us	-9.73595
▁consumer	-9.73612
▁scope	-9.73695
▁wish	-9.73703
▁criminal	-9.73752
▁designed	-9.73771
▁exam	-9.73862
▁worried	-9.7391
▁Village	-9.73925
▁walk	-9.73927
▁improving	-9.73947
▁Art	-9.73964
▁counseling	-9.73974
▁delayed	-9.74058
▁longer	-9.74072
▁notice	-9.74166
▁certificate	-9.7421
▁SK	-9.74216
▁2013	-9.74241
▁extreme	-9.74345
▁obtain	-9.74362
▁Hospital	-9.74374
▁parliament	-9.74375
▁independence	-9.74538
▁smart	-9.74544
▁county	-9.74584
▁greatly	-9.74659
▁Games	-9.74703
▁performed	-9.74709
▁studying	-9.74785
▁spend	-9.74787
▁gift	-9.74827
▁location	-9.74864
▁War	-9.74888
▁supported	-9.74914
▁Movement	-9.74979
▁continues	-9.75035
▁pension	-9.75044
▁Europe	-9.75062
▁lawsuit	-9.75089
▁leaving	-9.75099
▁cash	-9.7511
▁suffered	-9.7517
▁tour	-9.7518
▁Union	-9.7542
▁husband	-9.75498
▁drink	-9.75571
▁thinking	-9.75653
▁Woo	-9.75661
▁Taiwan	-9.75711
▁surgery	-9.75711
▁300	-9.75721
▁deliver	-9.75735
▁Currently	-9.7574
▁emphasized	-9.75747
▁completely	-9.75764
▁playing	-9.75804
▁ever	-9.75839
▁table	-9.75839
▁eco	-9.75852
▁films	-9.75881
▁modern	-9.75905
▁marketing	-9.75942
▁heads	-9.75988
▁eating	-9.75999
▁stocks	-9.76184
▁library	-9.76289
▁competitiveness	-9.76293
▁Tourism	-9.76303
▁screen	-9.76311
▁effective	-9.76337
tae	-9.76341
▁rising	-9.76365
▁consider	-9.76386
▁Of	-9.76525
▁remaining	-9.76559
▁s	-9.7664
▁birth	-9.76689
▁claim	-9.76698
▁gap	-9.76892
▁soccer	-9.76894
▁asking	-9.76938
▁white	-9.76987
▁caus	-9.76998
▁Social	-9.77011
▁decrease	-9.77069
▁suffering	-9.7712
▁meetings	-9.77136
▁article	-9.77242
▁concerned	-9.77251
▁medicine	-9.77252
▁computer	-9.77285
▁Motor	-9.77334
▁meal	-9.77372
▁Bo	-9.77407
▁Fair	-9.77452
▁profits	-9.77468
▁prior	-9.77501
▁expensive	-9.77508
▁Also	-9.77536
▁screening	-9.77578
▁changing	-9.77598
at	-9.78018
▁impossible	-9.78119
▁themselves	-9.78126
▁attending	-9.78137
▁consumption	-9.78171
▁Our	-9.78248
▁choose	-9.78259
▁filled	-9.78288
▁devices	-9.78323
▁taxes	-9.78333
▁trust	-9.78461
▁victim	-9.78465
▁Thank	-9.78507
▁limits	-9.78529
▁H	-9.78591
▁busy	-9.78633
▁break	-9.78642
▁meaningful	-9.787
▁divided	-9.78808
▁Small	-9.78839
▁Last	-9.78864
▁girl	-9.79033
▁pictures	-9.79087
▁spring	-9.79134
▁apartments	-9.79196
▁More	-9.7921
▁e	-9.79232
▁male	-9.79246
▁ordinary	-9.79381
▁intelligence	-9.79422
▁Wave	-9.79424
▁arrived	-9.79438
he	-9.79459
▁KT	-9.79471
▁remains	-9.79471
▁talking	-9.79568
▁mayor	-9.79603
hye	-9.79663
▁abuse	-9.79667
▁arts	-9.79852
▁recruitment	-9.79985
▁Policy	-9.80009
▁efficient	-9.80062
▁allegations	-9.80141
▁specialized	-9.8023
▁born	-9.80297
mi	-9.80342
▁choice	-9.80347
▁petition	-9.80415
▁exports	-9.80581
▁twice	-9.80609
sun	-9.80614
▁contains	-9.80646
▁false	-9.80689
▁Joseon	-9.80765
▁wave	-9.81027
▁star	-9.81148
▁track	-9.81301
▁nothing	-9.81327
▁currency	-9.81331
▁seat	-9.81453
▁discount	-9.81478
▁acting	-9.8149
▁autonomous	-9.81502
▁photos	-9.81552
▁patient	-9.81584
▁monthly	-9.81639
head	-9.81761
▁install	-9.8188
▁northern	-9.81881
▁permission	-9.819
▁movies	-9.81987
▁forces	-9.82026
▁debate	-9.82051
▁seem	-9.82061
▁remarks	-9.82097
▁70	-9.8223
▁principle	-9.82266
▁revenue	-9.82268
▁tourist	-9.82273
▁promoted	-9.82289
▁kept	-9.82523
▁maintenance	-9.82549
▁Division	-9.8255
▁appropriate	-9.82642
▁developing	-9.82656
▁Don	-9.82733
▁forced	-9.82831
▁smartphone	-9.82913
▁accused	-9.83176
▁wide	-9.8326
▁weight	-9.83294
site	-9.83544
▁Not	-9.8355
▁advantage	-9.8356
▁spirit	-9.83562
▁plastic	-9.83578
▁email	-9.83585
▁academic	-9.83674
▁Under	-9.83693
▁spent	-9.83822
▁save	-9.83858
▁Sea	-9.83869
▁stable	-9.83877
▁estimated	-9.83945
▁methods	-9.84
▁judge	-9.84087
▁crimes	-9.84157
▁receipt	-9.84221
▁Human	-9.84328
▁de	-9.84371
▁Fro	-9.84473
▁cover	-9.84492
▁features	-9.84545
▁plants	-9.84646
▁Mi	-9.84777
▁dramas	-9.84925
▁prison	-9.85102
▁Insurance	-9.85132
▁leadership	-9.85138
▁Yu	-9.85145
▁procedures	-9.85155
▁Employment	-9.85183
▁brother	-9.85196
▁baby	-9.85322
▁diseases	-9.85326
▁display	-9.8543
▁understanding	-9.85443
ous	-9.85572
▁contain	-9.85661
▁style	-9.85744
▁Joon	-9.85753
▁speech	-9.85757
▁Could	-9.85793
▁myself	-9.85808
residential	-9.85956
▁Jeon	-9.85958
k	-9.8614
▁processing	-9.86185
▁Yi	-9.862
▁Line	-9.86318
▁Services	-9.86353
▁beyond	-9.86456
▁counties	-9.86471
▁entering	-9.86551
▁fan	-9.86646
▁accepted	-9.86647
▁America	-9.86755
▁respect	-9.86809
ranked	-9.86888
▁standing	-9.86964
▁sending	-9.86971
▁V	-9.87015
▁correct	-9.87101
▁Soo	-9.87106
▁Recently	-9.87141
▁Facebook	-9.87183
▁Pyongyang	-9.87183
▁ticket	-9.87199
▁suggested	-9.87201
▁shot	-9.87227
▁missing	-9.87336
▁wearing	-9.87422
▁drop	-9.87456
▁calling	-9.8754
▁Mountain	-9.87604
▁proper	-9.87777
▁nationwide	-9.87819
▁animals	-9.87897
▁background	-9.88265
▁2016	-9.8827
▁reveal	-9.88407
income	-9.88411
▁proceed	-9.88459
▁secret	-9.88471
▁significantly	-9.88559
▁soldiers	-9.88622
▁discussed	-9.88707
▁thereof	-9.88823
▁r	-9.88829
▁occur	-9.88916
▁prosecutor	-9.88944
▁device	-9.88956
▁applicants	-9.89051
▁explain	-9.89099
▁coast	-9.89112
▁Ko	-9.89115
▁Construction	-9.89241
▁artificial	-9.89283
▁finally	-9.89306
▁guarantee	-9.8952
ese	-9.8959
▁exchanges	-9.89615
▁accounts	-9.90146
▁officers	-9.90167
▁Hae	-9.90316
▁briefing	-9.90458
▁checked	-9.90479
▁settlement	-9.90556
▁rapidly	-9.9058
▁achieve	-9.90586
▁Goyang	-9.9061
▁nine	-9.90636
▁rose	-9.90672
u	-9.90713
▁listen	-9.90796
▁fashion	-9.90892
▁difficulty	-9.90971
type	-9.90995
▁Ho	-9.91108
▁signs	-9.9112
▁stopped	-9.91262
▁committed	-9.91278
▁rules	-9.91312
bout	-9.91324
▁anyone	-9.91349
▁happened	-9.91355
▁sentenced	-9.91376
▁speak	-9.91385
▁finished	-9.91428
▁learned	-9.91475
▁sex	-9.91636
▁theater	-9.91678
c	-9.91683
▁association	-9.91796
▁assessment	-9.91807
▁punishment	-9.9184
▁album	-9.91845
▁figure	-9.91894
▁appear	-9.91938
▁approved	-9.92038
▁Information	-9.92129
▁Nowon	-9.92134
▁deposit	-9.9231
▁source	-9.92484
▁ended	-9.9256
▁nice	-9.92561
▁core	-9.92569
▁actors	-9.92636
▁follows	-9.9264
▁Economy	-9.92664
▁wrote	-9.92692
▁interests	-9.92782
▁affected	-9.92809
▁Seong	-9.92845
▁Russian	-9.92849
▁deliberate	-9.92901
like	-9.92982
▁offer	-9.93003
▁deep	-9.9305
▁Seok	-9.93072
▁host	-9.93084
▁mean	-9.9315
▁feeling	-9.93172
▁fish	-9.93197
▁Organization	-9.93242
▁minute	-9.93243
▁executives	-9.93256
▁commission	-9.93328
▁Therefore	-9.93406
▁declaration	-9.93441
▁fixed	-9.93479
myung	-9.93539
ive	-9.93603
▁reflected	-9.93641
▁farming	-9.93658
▁managed	-9.93714
km	-9.93715
▁fishing	-9.9374
▁damaged	-9.93844
▁subway	-9.93933
▁admission	-9.93955
▁reduc	-9.93999
▁Agricultural	-9.941
est	-9.9423
▁reporters	-9.94236
▁enhance	-9.94294
▁mental	-9.94294
▁wear	-9.94339
▁whet	-9.94355
▁Geun	-9.94521
ro	-9.9456
▁weak	-9.94593
▁His	-9.94612
▁Heung	-9.94686
▁dinner	-9.94701
▁Republic	-9.94741
▁named	-9.94761
▁salary	-9.9484
▁majority	-9.94849
▁extra	-9.949
▁2019	-9.94912
▁musical	-9.95095
ar	-9.9516
▁pro	-9.9522
▁operator	-9.95394
▁camera	-9.95444
▁endeavor	-9.95453
▁resolve	-9.95457
▁practical	-9.95523
▁electronic	-9.95537
▁realize	-9.95543
▁invest	-9.9555
▁task	-9.95568
san	-9.95572
▁stories	-9.95573
▁2017	-9.95616
▁tired	-9.95631
▁conducting	-9.95788
led	-9.95802
▁kinds	-9.95889
▁net	-9.9594
▁honor	-9.96062
▁shares	-9.96161
▁researcher	-9.96237
▁Peace	-9.96241
▁victory	-9.96289
▁complaints	-9.96325
▁calls	-9.96336
▁trustee	-9.96365
▁foreigners	-9.96501
▁stand	-9.96544
▁restaurants	-9.96633
▁Fire	-9.96665
▁walking	-9.96767
▁double	-9.96771
▁effort	-9.96847
▁presentation	-9.96907
▁volume	-9.9693
▁Hotel	-9.96946
▁affect	-9.97028
▁amid	-9.97174
▁decreased	-9.9718
▁residential	-9.97275
As	-9.97293
▁judges	-9.97348
▁Youth	-9.97362
ity	-9.97433
▁Just	-9.97547
▁couple	-9.97629
Pop	-9.97664
▁cancel	-9.97676
▁India	-9.97719
▁Cha	-9.97845
▁creative	-9.97866
▁wants	-9.97866
▁shop	-9.9798
K	-9.98207
▁shared	-9.98231
▁title	-9.98237
▁add	-9.98391
▁text	-9.98433
▁lunch	-9.98481
▁unfair	-9.9851
▁okay	-9.9853
called	-9.98597
▁stone	-9.98727
▁secured	-9.98784
▁temporary	-9.99113
▁subparagraph	-9.99129
▁Re	-9.99141
▁predict	-9.99156
▁square	-9.99245
▁guidance	-9.99268
▁Securities	-9.99285
▁vulnerable	-9.99363
▁younger	-9.99422
▁requires	-9.99431
▁capacity	-9.99475
▁ran	-9.9954
1	-9.9967
▁guide	-9.99789
▁begin	-9.99876
▁lawyer	-9.99979
▁solution	-10.0002
▁independent	-10.0006
▁Dur	-10.0006
▁experienced	-10.0008
▁strongly	-10.0023
free	-10.004
▁camp	-10.0047
▁register	-10.0054
North	-10.0063
▁Prosecutors	-10.0068
▁failure	-10.0068
▁establishing	-10.0069
▁suspicion	-10.0069
▁shape	-10.0072
▁reservation	-10.0076
▁announce	-10.0081
▁1,000	-10.0083
ness	-10.0086
▁via	-10.0088
▁Now	-10.0095
chan	-10.0103
▁seemed	-10.0104
▁directors	-10.0107
▁digital	-10.0118
▁homes	-10.0121
▁L	-10.0127
▁runs	-10.0131
▁decline	-10.0131
▁manner	-10.0148
▁Joo	-10.0151
▁trees	-10.0151
▁Canada	-10.0161
care	-10.0164
▁courses	-10.0166
▁Iran	-10.0178
ha	-10.0179
▁(3)	-10.0195
▁purchased	-10.0205
▁sentence	-10.021
ki	-10.0213
▁Baek	-10.0215
▁handle	-10.0218
▁Indonesia	-10.0224
▁districts	-10.0229
▁incurred	-10.0239
▁Mexico	-10.024
▁outstanding	-10.0243
▁Team	-10.0245
5	-10.0249
▁becom	-10.0249
▁remain	-10.0253
▁systems	-10.0264
su	-10.0271
▁town	-10.0283
▁dispute	-10.029
▁refund	-10.0291
▁German	-10.0299
jae	-10.03
▁lived	-10.0306
▁ex	-10.0306
▁functions	-10.0307
▁encourage	-10.0307
▁master	-10.0307
▁painting	-10.0315
▁conservative	-10.0317
rovincial	-10.0319
▁innovative	-10.0324
▁France	-10.0327
▁helped	-10.0331
▁jointly	-10.0332
▁broken	-10.0333
▁license	-10.0337
▁Rights	-10.0344
▁bag	-10.0347
▁rooms	-10.0373
cheon	-10.0379
▁menu	-10.0388
▁livestock	-10.039
▁marriage	-10.0393
▁recovery	-10.0403
▁band	-10.0414
▁Roh	-10.0414
▁remember	-10.0439
▁require	-10.0456
▁falls	-10.0465
▁animal	-10.0466
▁venue	-10.0469
▁potential	-10.0469
British	-10.0474
▁favorite	-10.0474
▁surrounding	-10.0475
▁else	-10.0476
▁truth	-10.0476
▁Ryu	-10.0476
▁awareness	-10.0478
▁roads	-10.0487
is	-10.0488
▁volunteer	-10.0499
▁rich	-10.0535
▁strength	-10.054
▁ideas	-10.0541
▁draw	-10.0549
▁blue	-10.0551
▁injured	-10.0556
wook	-10.0558
▁Civil	-10.0559
▁combined	-10.0567
▁extend	-10.0568
▁gather	-10.0569
▁characters	-10.0571
▁cosmetics	-10.0574
▁Today	-10.0574
▁tasks	-10.0575
▁Through	-10.0575
day	-10.0579
▁Jun	-10.0584
▁communicate	-10.0587
▁snow	-10.06
chul	-10.0615
▁Due	-10.0616
ation	-10.062
▁benefit	-10.0624
▁debt	-10.0627
▁sister	-10.063
▁Bareunmirae	-10.0637
▁judgment	-10.0638
▁Supervisory	-10.0638
▁completion	-10.0642
▁Headquarters	-10.0644
▁Would	-10.0645
▁symptoms	-10.0647
▁clearly	-10.0648
▁reporter	-10.0651
▁judicial	-10.0657
▁cell	-10.0658
▁reporting	-10.067
ju	-10.0685
▁talent	-10.07
▁normal	-10.0701
▁lectures	-10.0702
▁grades	-10.0702
▁believes	-10.0707
▁goals	-10.071
aimed	-10.0711
▁attitude	-10.0711
▁excessive	-10.0722
▁suspended	-10.0726
▁pick	-10.0735
▁Former	-10.0736
▁ingredients	-10.0736
▁Go	-10.0742
▁Did	-10.0744
▁tickets	-10.0749
▁challenge	-10.0755
kyung	-10.0761
▁foods	-10.0768
▁Arts	-10.0778
▁placed	-10.0795
▁execution	-10.0799
▁electricity	-10.0803
▁essential	-10.0804
▁retirement	-10.0804
▁birthday	-10.0805
▁notified	-10.0805
▁trading	-10.0805
▁dishes	-10.0806
▁warning	-10.0807
joon	-10.0811
▁interpreted	-10.0813
▁Port	-10.0815
▁wages	-10.0841
▁sides	-10.0845
▁comments	-10.0852
▁listed	-10.0857
▁feature	-10.0873
▁entrust	-10.0875
▁Monday	-10.088
▁exact	-10.0881
▁finance	-10.0881
▁Rule	-10.0883
▁technical	-10.0885
▁baseball	-10.0885
▁certification	-10.0885
▁advice	-10.0886
▁cooperative	-10.0887
▁Investment	-10.0891
▁spot	-10.0895
▁rescue	-10.0896
▁Energy	-10.0896
▁Family	-10.0899
▁latest	-10.0901
▁offered	-10.0904
▁Road	-10.091
▁cool	-10.0931
▁laws	-10.0931
▁mountain	-10.094
▁discussions	-10.0946
▁loved	-10.0947
▁formulate	-10.0952
▁Your	-10.096
▁fresh	-10.0964
▁farms	-10.0967
▁composed	-10.0972
▁Middle	-10.0973
▁grant	-10.0978
▁confidence	-10.0983
▁integrated	-10.0984
▁shooting	-10.0985
▁occurs	-10.0998
▁worker	-10.1009
▁lots	-10.1021
▁rule	-10.1028
▁stated	-10.1036
▁concept	-10.1044
▁machine	-10.1048
▁outdoor	-10.1051
▁YouTube	-10.1053
▁alternative	-10.1053
▁criteria	-10.1054
▁enforcement	-10.1057
▁suddenly	-10.1057
▁applications	-10.1068
▁scale	-10.1071
▁rent	-10.1073
▁pushed	-10.1078
▁orders	-10.109
▁meat	-10.1103
▁drive	-10.1105
▁experiences	-10.1106
▁causes	-10.1119
▁thanks	-10.1124
▁actions	-10.1128
▁semiconductor	-10.1134
▁historical	-10.1136
▁Award	-10.1137
▁urgent	-10.1139
▁transferred	-10.1143
▁excluded	-10.1148
▁regulation	-10.1149
▁lose	-10.116
▁app	-10.1168
▁officially	-10.1192
▁Yeon	-10.1201
▁Australia	-10.1219
▁newspaper	-10.1223
▁conversation	-10.1223
▁applying	-10.1225
▁Chungcheong	-10.1225
▁negotiation	-10.1226
▁hurt	-10.1227
▁Christian	-10.1229
▁married	-10.1233
▁extent	-10.1234
▁designation	-10.1235
▁invited	-10.1237
▁subparagraphs	-10.1244
▁drug	-10.1251
▁wall	-10.1257
▁finish	-10.1261
▁repair	-10.1264
▁West	-10.1307
▁Seongnam	-10.1313
▁Pohang	-10.1318
▁canceled	-10.1328
▁achieved	-10.1333
▁scored	-10.1333
▁firm	-10.1337
▁appeal	-10.1353
▁2016,	-10.1366
▁ice	-10.1368
g	-10.1368
▁subsidize	-10.139
▁route	-10.1399
▁procedure	-10.14
▁gradually	-10.1401
▁kindergartens	-10.1401
▁slow	-10.1401
▁favor	-10.1402
▁Stadium	-10.1402
▁evening	-10.1403
▁suspension	-10.1403
▁violation	-10.1403
▁grounds	-10.1405
▁donation	-10.1407
▁ruled	-10.1414
▁flow	-10.1417
▁drawn	-10.1417
▁Hak	-10.1417
▁imposed	-10.1419
▁memory	-10.1421
▁happen	-10.1435
▁2011	-10.1438
▁Film	-10.1455
▁drinking	-10.1459
▁offices	-10.1463
▁invested	-10.1468
▁transactions	-10.1485
▁Sohn	-10.1489
▁bottom	-10.1491
▁almo	-10.1491
▁Dynasty	-10.1491
▁complaint	-10.1493
▁upper	-10.1493
▁drugs	-10.1493
▁venture	-10.1494
▁argued	-10.1496
▁obtained	-10.1508
▁statutes	-10.1512
eun	-10.1514
▁debut	-10.1527
▁IT	-10.1533
▁reply	-10.1543
▁passengers	-10.155
▁AI	-10.1556
▁departments	-10.1557
▁passing	-10.1566
▁importance	-10.1578
▁Jeolla	-10.158
▁suit	-10.1583
▁Google	-10.1584
▁equipped	-10.1588
▁emerged	-10.1589
▁distributed	-10.159
▁priority	-10.1594
▁Power	-10.1599
▁distance	-10.1614
of	-10.1614
▁author	-10.1641
▁gives	-10.1641
▁supplement	-10.1652
▁colors	-10.1661
▁recommendation	-10.1669
▁dropped	-10.167
▁inevitable	-10.1671
▁doctor	-10.1674
▁BTS	-10.1676
▁concentration	-10.1677
▁competitive	-10.1677
▁catch	-10.1678
▁publicly	-10.1685
quite	-10.1709
▁Olympics	-10.1723
▁Jo	-10.1724
▁Ja	-10.1727
N	-10.1736
▁values	-10.1736
▁desire	-10.1746
▁earnest	-10.1755
▁Museum	-10.1759
▁phenomenon	-10.1761
▁southern	-10.1761
▁kindergarten	-10.1762
▁civic	-10.1763
▁French	-10.1763
▁pollution	-10.1765
▁inform	-10.1765
▁Gangneung	-10.1767
hwa	-10.1769
▁holidays	-10.177
▁Friday	-10.177
▁News	-10.177
▁lowest	-10.1771
▁resolved	-10.1775
▁consulting	-10.1787
▁dog	-10.1805
joo	-10.1807
▁Shim	-10.1816
Gu	-10.1831
▁Actor	-10.1836
▁mark	-10.1844
▁Marine	-10.185
▁Hanwha	-10.1851
▁identified	-10.1852
▁slightly	-10.1852
▁exemption	-10.1852
▁Pyeongtaek	-10.1853
▁Kakao	-10.1858
▁Housing	-10.1865
▁upon	-10.1874
▁watched	-10.188
▁affiliate	-10.1889
▁island	-10.1924
▁10,000	-10.1939
▁drunk	-10.1943
▁extension	-10.1945
▁semester	-10.1946
▁Cheonan	-10.1946
▁hydrogen	-10.1947
▁behavior	-10.1947
▁sentiment	-10.195
▁White	-10.195
▁battle	-10.1958
▁extended	-10.1961
▁hav	-10.1964
▁subjects	-10.1967
▁covered	-10.1969
ra	-10.197
▁awarded	-10.1971
handed	-10.1972
▁attracted	-10.1974
coming	-10.1997
▁garden	-10.201
▁Kwang	-10.2013
▁mouth	-10.2024
▁ease	-10.2034
▁index	-10.2034
▁knew	-10.2037
▁Academy	-10.2039
▁childcare	-10.2039
▁Jesus	-10.2039
▁deadline	-10.2039
▁expert	-10.204
3	-10.2042
▁premium	-10.2045
▁path	-10.2047
▁Bridge	-10.2049
▁sometimes	-10.2053
▁buses	-10.2058
▁checking	-10.2068
▁disclosure	-10.2068
▁aware	-10.2073
▁attack	-10.2083
▁throw	-10.209
▁seeing	-10.2093
▁carrying	-10.2106
▁firms	-10.2129
▁Yeouido	-10.2131
▁either	-10.2132
▁competent	-10.2132
▁o	-10.2133
▁Thailand	-10.2133
▁comfortable	-10.2134
▁Brazil	-10.2135
▁storage	-10.2135
▁efficiency	-10.2141
▁alcohol	-10.2149
▁corruption	-10.2157
▁begun	-10.2157
▁SNS	-10.2162
▁prosecutors	-10.2163
▁tree	-10.2168
▁ICT	-10.2175
▁enjoyed	-10.2188
▁stars	-10.2199
run	-10.2202
▁port	-10.2215
CEO	-10.2229
▁Chuseok	-10.2229
▁disposal	-10.2229
▁continuously	-10.2231
▁expenditure	-10.2231
▁typhoon	-10.2234
▁justice	-10.2235
▁entry	-10.2235
▁stations	-10.2236
▁Ansan	-10.2237
▁replace	-10.2237
▁treated	-10.2238
▁naturally	-10.224
▁regime	-10.224
▁guidelines	-10.2243
▁shops	-10.2251
▁monitoring	-10.2251
▁topic	-10.2256
p	-10.2258
▁1,	-10.2259
soon	-10.2266
▁levels	-10.2267
▁suffer	-10.2278
▁collecting	-10.23
▁Man	-10.2309
▁Soon	-10.2311
ce	-10.2313
▁delicious	-10.2318
▁institute	-10.2318
▁performing	-10.232
▁Pompeo	-10.2323
▁eventually	-10.2323
▁injury	-10.2326
▁cryptocurrency	-10.2327
▁Workers	-10.2328
▁transaction	-10.2328
▁concentrated	-10.2331
▁entrustment	-10.2333
▁inconvenience	-10.2334
▁Urban	-10.2334
▁losing	-10.2334
▁Sunday	-10.2336
sang	-10.2337
▁Self	-10.2338
▁Motors	-10.2351
▁hospitals	-10.2367
▁articles	-10.2372
▁gets	-10.2375
▁prime	-10.2412
▁convenient	-10.2418
▁easier	-10.242
▁spreading	-10.242
▁penalty	-10.2422
▁continuing	-10.2425
▁Regional	-10.2425
▁urged	-10.2425
▁Other	-10.2426
way	-10.2426
▁politics	-10.2427
▁disappeared	-10.2427
▁channel	-10.243
▁Speaker	-10.243
▁designate	-10.2432
▁Hallyu	-10.2434
▁unification	-10.2438
ring	-10.2465
▁System	-10.2476
4	-10.2476
ong	-10.2478
▁Grand	-10.2498
▁farm	-10.2498
▁conflicts	-10.25
▁Consider	-10.2511
▁careful	-10.2515
▁Bureau	-10.2518
▁capabilities	-10.2518
▁comprised	-10.2519
▁initial	-10.2522
▁wonder	-10.2524
▁comply	-10.2526
▁contribution	-10.2529
▁overcome	-10.2531
am	-10.2537
▁exceeded	-10.2543
▁80	-10.2551
▁setting	-10.2556
▁mass	-10.2561
▁damages	-10.2563
▁link	-10.2567
▁adjust	-10.257
▁2017,	-10.2586
▁flowers	-10.2587
▁Law	-10.2587
▁fight	-10.2589
▁sectors	-10.26
▁organize	-10.2609
▁perfect	-10.2614
gil	-10.2615
▁advertising	-10.2617
▁Deliberati	-10.2618
▁Paju	-10.2619
▁frequently	-10.262
▁Bae	-10.2621
▁Changwon	-10.2623
▁earthquake	-10.2625
▁scandal	-10.2626
▁teenagers	-10.2628
▁engaged	-10.2629
▁originally	-10.2629
▁haven	-10.2632
▁serving	-10.2637
▁realized	-10.2639
▁Ju	-10.2644
▁feelings	-10.2648
▁Green	-10.2651
▁grown	-10.2651
▁sad	-10.2651
▁Rep	-10.2657
ization	-10.2663
▁Meteorologi	-10.267
class	-10.2701
line	-10.2702
▁signing	-10.2703
▁Plan	-10.2708
▁recognize	-10.2715
▁Tax	-10.2719
▁maximum	-10.2723
▁Gyeongnam	-10.2723
▁concluded	-10.2724
▁Su	-10.2725
▁ecosystem	-10.2726
7	-10.2726
▁sample	-10.2728
▁century	-10.2731
▁judged	-10.2736
▁Wednesday	-10.274
▁degree	-10.275
▁connected	-10.2753
▁videos	-10.2758
▁weapons	-10.276
▁meals	-10.2762
▁connect	-10.2783
um	-10.2783
▁sharp	-10.2784
▁worry	-10.2786
▁interesting	-10.2786
▁drivers	-10.28
ment	-10.2801
▁smooth	-10.2813
▁corporations	-10.2815
▁ministry	-10.2818
▁football	-10.2818
ry	-10.282
▁simply	-10.282
▁mixed	-10.2829
▁expression	-10.283
▁blocked	-10.283
▁complexes	-10.2834
▁Saturday	-10.2836
▁boy	-10.2851
▁ready	-10.2851
most	-10.2852
▁contracts	-10.2853
cheol	-10.2872
▁ten	-10.2884
▁fuel	-10.2886
style	-10.2889
▁mail	-10.2896
▁Seocho	-10.2904
▁leisure	-10.2918
▁studies	-10.292
▁analyze	-10.2921
▁Western	-10.2921
▁Washington	-10.2922
▁internet	-10.2922
▁Cheongju	-10.2923
▁declared	-10.2925
▁College	-10.2926
▁closely	-10.2935
▁league	-10.2935
▁version	-10.2941
▁Operation	-10.2943
▁Children	-10.2948
▁Yongin	-10.2949
▁tests	-10.295
▁factor	-10.2955
▁90	-10.2957
▁operations	-10.2971
▁foster	-10.2975
▁talked	-10.2975
tech	-10.2981
▁stance	-10.2998
▁border	-10.3008
▁forecast	-10.3019
▁boost	-10.302
▁continuous	-10.3021
▁golf	-10.3022
▁Medium	-10.3023
▁downtown	-10.3023
▁replacement	-10.3024
▁emerging	-10.3024
▁confirmation	-10.3028
▁however	-10.303
▁losses	-10.3033
▁fifth	-10.3034
▁exclusive	-10.3034
▁thank	-10.3039
end	-10.304
▁museum	-10.3041
▁shoes	-10.3044
elecommunication	-10.3047
▁asset	-10.305
▁drew	-10.3052
▁trends	-10.3065
▁individuals	-10.3083
ized	-10.3085
▁celebrate	-10.3108
▁turning	-10.311
▁arrive	-10.3124
▁sluggish	-10.3127
▁mutual	-10.3129
▁meantime	-10.3129
▁recognition	-10.3129
▁Community	-10.3129
▁Company	-10.3129
▁diplomatic	-10.3134
▁efficiently	-10.3134
▁suicide	-10.3134
▁mood	-10.3138
▁Yun	-10.3139
▁explanation	-10.314
▁wake	-10.3142
▁demonstration	-10.3143
▁responded	-10.315
T	-10.315
hour	-10.3163
▁hike	-10.3173
▁Koo	-10.3174
▁Matter	-10.3177
ally	-10.3191
▁peak	-10.3203
▁strike	-10.3232
▁sharply	-10.3237
▁trouble	-10.3239
▁suitable	-10.3245
▁aid	-10.3246
ups	-10.3249
▁interior	-10.3255
▁maintained	-10.326
pyo	-10.3265
▁clinic	-10.3272
▁Free	-10.3276
▁flag	-10.3283
▁rating	-10.329
▁W	-10.3292
").	-10.3306
▁pilot	-10.3318
▁bio	-10.3319
▁feet	-10.3324
▁straight	-10.333
▁Gyeongsangnam	-10.3333
gi	-10.3333
▁Show	-10.3334
▁collapse	-10.3335
▁rapid	-10.3337
▁governed	-10.3342
▁supervision	-10.3343
▁handling	-10.3345
Korea	-10.3345
▁purchasing	-10.3345
▁aircraft	-10.3345
▁Apple	-10.3348
▁Yongsan	-10.3348
▁subordinate	-10.3351
▁balance	-10.3351
▁attempt	-10.3354
▁evaluated	-10.3354
▁voting	-10.3355
▁religious	-10.3356
▁suggest	-10.336
▁previously	-10.3361
▁figures	-10.3368
▁disciplin	-10.3371
▁Constitution	-10.3394
▁proportion	-10.3395
▁stress	-10.3396
▁uses	-10.3412
▁lines	-10.3417
▁offering	-10.3417
▁m	-10.3422
▁Chun	-10.3439
▁map	-10.3439
▁pretty	-10.3446
▁agriculture	-10.3447
▁consensus	-10.3448
▁Christmas	-10.3448
▁Hwaseong	-10.3449
▁murder	-10.3449
▁studied	-10.3451
▁statistics	-10.3452
▁detected	-10.3452
▁Have	-10.3453
▁rally	-10.3462
▁chicken	-10.3463
▁railway	-10.3463
▁forum	-10.3464
na	-10.3464
▁suspicions	-10.3466
▁principal	-10.3475
▁cross	-10.3475
▁linked	-10.348
P	-10.3481
▁tea	-10.3482
▁cooking	-10.3483
▁appears	-10.3485
▁plays	-10.3503
▁suspect	-10.352
▁page	-10.3522
▁cleaning	-10.3527
▁foot	-10.354
▁models	-10.3544
▁customiz	-10.3552
▁names	-10.3554
▁factories	-10.3555
▁stability	-10.3559
▁remove	-10.3559
▁Army	-10.356
▁fallen	-10.3561
▁investments	-10.3562
▁Beijing	-10.3564
▁discovered	-10.3567
▁enterprise	-10.3575
▁SMEs	-10.3579
▁researchers	-10.3587
▁narrow	-10.3615
▁bonds	-10.3621
▁gathering	-10.3631
▁bills	-10.3631
▁fundamental	-10.3639
as	-10.3659
▁sudden	-10.366
▁memorial	-10.3666
▁Huawei	-10.3667
▁detail	-10.3668
▁shipping	-10.3668
▁smoothly	-10.3669
▁satisfaction	-10.367
▁promised	-10.3676
▁views	-10.3678
▁residence	-10.3679
▁imported	-10.368
▁feels	-10.3685
▁noise	-10.3691
▁operators	-10.3691
▁investigated	-10.3693
▁Global	-10.3701
▁agree	-10.3707
US	-10.3709
▁restrictions	-10.3712
han	-10.3718
▁approach	-10.3724
▁aged	-10.3724
▁claims	-10.3726
▁finding	-10.3728
▁dark	-10.3732
ah	-10.3742
▁Be	-10.3743
▁disasters	-10.3746
▁villages	-10.3751
When	-10.3754
▁cards	-10.3757
▁Pension	-10.3776
▁Intelligence	-10.3776
▁Cooperation	-10.3776
▁admitted	-10.3777
▁helps	-10.3777
▁hiring	-10.3778
▁identity	-10.378
▁exposed	-10.3781
▁Planning	-10.3781
▁Declaration	-10.3783
▁happiness	-10.3783
▁surface	-10.3784
▁deeply	-10.3785
▁troops	-10.3786
▁Innovation	-10.3788
▁medal	-10.3798
▁legislation	-10.3798
▁window	-10.3799
▁raw	-10.3799
▁mom	-10.3799
▁applicant	-10.3801
generation	-10.3803
▁winner	-10.3804
efore	-10.3809
▁soft	-10.3833
jeong	-10.3847
▁spending	-10.3847
▁block	-10.3848
▁singers	-10.3849
▁Ma	-10.3852
Gun	-10.3852
▁voices	-10.3854
▁shareholders	-10.3854
▁achievements	-10.3855
te	-10.3865
tion	-10.3871
▁recruit	-10.3876
▁advisor	-10.3887
▁Engineering	-10.3891
▁automatically	-10.3892
▁Amid	-10.3892
▁Especially	-10.3893
▁managing	-10.3897
▁diagnosis	-10.3901
▁Citizens	-10.3902
▁Gyeongbuk	-10.3902
▁requests	-10.3905
▁audiences	-10.3908
employed	-10.3908
▁ordinance	-10.3911
▁wedding	-10.3911
▁certified	-10.3912
▁facing	-10.3917
ies	-10.393
▁leads	-10.3933
▁Hyo	-10.394
nam	-10.3954
▁gate	-10.3954
▁fill	-10.3955
▁bar	-10.3955
▁recover	-10.3955
▁adjustment	-10.3961
▁revitalize	-10.3989
sook	-10.399
▁represent	-10.3993
▁ride	-10.3999
▁angry	-10.4002
▁Gangseo	-10.4004
▁martial	-10.4004
▁Board	-10.4005
▁dispatched	-10.4011
▁successfully	-10.4012
▁height	-10.4015
▁brain	-10.4016
▁Il	-10.4017
▁funeral	-10.4029
▁unusual	-10.4033
▁gone	-10.4047
▁100,000	-10.4054
▁Music	-10.4057
▁33	-10.4059
▁tariffs	-10.4065
ji	-10.4068
▁underground	-10.4078
▁familiar	-10.4078
▁introduc	-10.4101
O	-10.4102
▁dogs	-10.4112
9	-10.4114
▁dialogue	-10.4117
▁usual	-10.4117
▁communities	-10.4117
▁category	-10.4117
▁J	-10.412
▁Agriculture	-10.412
▁respondents	-10.412
▁municipal	-10.4121
▁subsidy	-10.4122
▁hidden	-10.4124
▁donated	-10.4126
▁impose	-10.4127
▁Two	-10.4129
ntil	-10.4138
▁engine	-10.4142
▁patent	-10.4149
▁smartphones	-10.4165
▁Times	-10.4167
▁150	-10.4172
▁strengthened	-10.4173
▁bright	-10.4175
▁scores	-10.4184
▁enable	-10.4187
Committee	-10.422
▁mall	-10.4225
▁bed	-10.4227
▁diverse	-10.4231
▁Valley	-10.4233
▁danger	-10.4233
▁spokesman	-10.4233
▁verification	-10.4235
▁yourself	-10.4236
▁personality	-10.4238
▁memories	-10.4238
▁attendance	-10.4239
▁adopted	-10.424
▁Street	-10.4243
▁Philippines	-10.4247
▁matches	-10.426
▁bridge	-10.4262
▁blind	-10.4277
▁buying	-10.4278
▁river	-10.4279
▁grand	-10.4285
▁Town	-10.4291
▁Love	-10.43
▁votes	-10.4305
▁friendly	-10.4307
R	-10.4319
tic	-10.4335
▁faith	-10.4339
▁sweet	-10.4348
▁Buddhist	-10.4351
▁Bucheon	-10.4351
family	-10.4353
▁Square	-10.4353
quality	-10.4354
▁sick	-10.4355
ja	-10.4356
jo	-10.436
▁Fisheries	-10.4363
▁reasonable	-10.4368
▁discrimination	-10.4368
▁inspect	-10.4369
▁annually	-10.4371
▁relation	-10.4385
▁fires	-10.4387
▁idol	-10.4391
▁beer	-10.44
▁filming	-10.4408
nalysts	-10.4411
▁import	-10.4427
▁regarded	-10.4429
▁400	-10.4434
▁differences	-10.4455
▁dreams	-10.4455
▁appreciate	-10.4459
▁milk	-10.4466
▁unlike	-10.4468
▁mistake	-10.4469
▁Society	-10.447
▁classified	-10.447
▁Transportation	-10.4472
▁actress	-10.4473
by	-10.4479
▁ones	-10.448
▁touch	-10.4484
▁th	-10.4486
▁multiple	-10.4488
▁package	-10.449
▁marine	-10.4493
▁images	-10.4493
▁bicycle	-10.4498
▁destination	-10.45
▁servants	-10.4502
▁Girls	-10.4504
geun	-10.4518
▁examine	-10.4523
ttention	-10.4523
▁Abe	-10.4527
▁Southeast	-10.4531
▁carri	-10.4534
▁Thanks	-10.4539
▁prove	-10.4563
ful	-10.4578
▁chose	-10.4581
▁strategic	-10.4582
▁Follow	-10.4582
▁strange	-10.4583
▁mutandis	-10.459
▁1.5	-10.4591
▁Ilbo	-10.4591
▁grew	-10.4593
▁Jongno	-10.4593
▁auto	-10.4593
▁Strategy	-10.4593
▁army	-10.4594
▁Independence	-10.4596
▁Tokyo	-10.4598
▁succeeded	-10.4598
▁aging	-10.4603
▁Every	-10.4606
▁promise	-10.4609
▁sky	-10.461
▁episode	-10.462
▁usage	-10.4621
▁teaching	-10.4627
jun	-10.4635
eup	-10.4637
▁piece	-10.464
▁facts	-10.4641
B	-10.4642
▁writer	-10.4645
▁artist	-10.4661
▁utilize	-10.4663
▁mutati	-10.4668
▁2009	-10.4679
▁i	-10.4686
cial	-10.4703
▁Temple	-10.4712
▁autumn	-10.4714
▁Singer	-10.4715
▁Naver	-10.4715
▁opposed	-10.4719
▁empty	-10.4719
▁Kia	-10.4723
▁carefully	-10.4723
▁smell	-10.4725
▁10%	-10.4748
▁north	-10.4768
▁thus	-10.4781
▁Care	-10.4781
ok	-10.4782
kyu	-10.4796
▁thoughts	-10.4798
including	-10.4799
▁ships	-10.4803
▁Moo	-10.4807
▁2012	-10.4809
▁Th	-10.4812
▁formation	-10.4816
▁streets	-10.482
▁employed	-10.482
profit	-10.4825
▁payments	-10.4829
▁channels	-10.483
▁yellow	-10.4835
▁resignation	-10.4836
▁afraid	-10.4836
▁voluntarily	-10.4838
▁luxury	-10.4838
▁Exchange	-10.4838
▁dangerous	-10.4839
▁Summit	-10.4843
▁forget	-10.4843
▁regulatory	-10.4844
▁pop	-10.4846
▁behalf	-10.4849
▁Ltd	-10.4851
▁engineering	-10.4853
My	-10.4853
▁balanced	-10.4855
▁disclosed	-10.4856
▁graduate	-10.4858
▁greater	-10.4858
▁race	-10.4868
▁shipment	-10.4869
▁Residents	-10.487
▁visits	-10.4876
▁boat	-10.4892
▁keeping	-10.4905
▁Ye	-10.4909
▁professors	-10.493
▁protest	-10.4931
This	-10.4932
oriented	-10.4959
▁controversial	-10.4961
▁accompanied	-10.4963
▁Jeonnam	-10.4963
▁harmony	-10.4964
▁guess	-10.4965
▁Amazon	-10.4966
▁favorable	-10.4966
▁Unification	-10.4969
▁Songpa	-10.4969
▁implementing	-10.497
▁tears	-10.4982
▁remained	-10.4982
▁treat	-10.4986
▁reviewing	-10.499
▁merchants	-10.4991
▁mission	-10.4992
▁acquisition	-10.4994
▁tournament	-10.4994
▁joy	-10.4996
▁Gold	-10.4996
▁Senior	-10.5009
▁Chae	-10.5026
▁Tom	-10.5043
centered	-10.5067
▁fierce	-10.5068
▁frequent	-10.5072
▁reward	-10.5074
▁walls	-10.5083
▁45	-10.5083
▁Earlier	-10.5087
▁keen	-10.5088
?"	-10.5092
▁Mapo	-10.5094
▁surprised	-10.5095
▁semiconductors	-10.5096
▁acts	-10.5098
▁chosen	-10.5099
▁generated	-10.51
▁permanent	-10.5101
▁calculated	-10.5104
seong	-10.5116
▁conclusion	-10.5122
▁combination	-10.5122
▁perspective	-10.5123
▁35	-10.5124
▁allowance	-10.5126
▁composition	-10.5128
gaining	-10.5138
▁clubs	-10.5144
▁phase	-10.5153
jong	-10.5157
▁festivals	-10.5161
▁Base	-10.5168
▁Sa	-10.5175
▁cook	-10.5176
▁adults	-10.5179
▁allowances	-10.5179
suk	-10.5183
▁32	-10.519
▁situations	-10.5193
▁dry	-10.5199
▁consent	-10.5201
▁awards	-10.5205
ious	-10.5209
▁plane	-10.5211
▁wins	-10.5215
▁Twitter	-10.5215
▁climate	-10.5216
▁Elementary	-10.5216
▁constantly	-10.5218
▁Entertainment	-10.5218
▁relief	-10.5218
▁Hanoi	-10.522
▁satisfied	-10.5221
▁ultra	-10.5221
▁restoration	-10.5224
▁settled	-10.5235
▁charged	-10.5238
▁steps	-10.524
▁specified	-10.5242
▁subcommittee	-10.5253
▁amendment	-10.5255
▁smoke	-10.5257
▁civilian	-10.5259
▁wine	-10.5262
▁cafe	-10.5265
▁solid	-10.5271
▁Gyeong	-10.5271
▁refugees	-10.5273
▁lowered	-10.5274
▁cake	-10.5276
▁producing	-10.5281
▁signal	-10.5289
▁practices	-10.5304
▁aims	-10.5306
win	-10.531
▁Me	-10.5319
E	-10.532
▁fighting	-10.5324
▁ranking	-10.5331
▁Corp	-10.534
ical	-10.5341
▁Bang	-10.5343
▁powerful	-10.5345
▁fraud	-10.5349
▁anxiety	-10.5349
▁stood	-10.535
▁supplied	-10.535
▁Kookmin	-10.535
▁Gyeongsangbuk	-10.5351
▁Experts	-10.5351
▁massive	-10.5351
▁spaces	-10.5352
▁cream	-10.5352
▁voluntary	-10.5352
ach	-10.5353
▁subscribers	-10.5356
▁Awards	-10.5357
▁Resources	-10.5363
▁singing	-10.5367
▁2000	-10.5372
▁athletes	-10.5373
▁freely	-10.5376
age	-10.538
▁shareholder	-10.5385
▁adult	-10.5387
▁outcome	-10.5391
▁workplace	-10.5391
Park	-10.5391
▁achievement	-10.5392
▁citizen	-10.5393
▁starts	-10.5428
▁miss	-10.5431
▁owned	-10.5442
bin	-10.5454
▁shoulder	-10.5455
making	-10.546
▁Command	-10.5465
▁pleasant	-10.5473
▁Look	-10.5474
▁kimchi	-10.5477
▁somewhat	-10.5478
▁battery	-10.5479
▁Control	-10.5479
▁Panmunjom	-10.5479
▁quantity	-10.5479
▁bigger	-10.5479
▁Which	-10.548
▁absence	-10.548
▁royal	-10.5482
▁rejected	-10.5484
▁Military	-10.5485
▁manipulation	-10.5485
▁charm	-10.5487
▁positions	-10.5489
▁east	-10.5496
▁removed	-10.5496
▁solo	-10.5499
▁Water	-10.5501
▁replaced	-10.5501
▁fruit	-10.5501
▁founded	-10.5502
▁smile	-10.5504
▁begins	-10.5505
▁Election	-10.5514
▁purposes	-10.5518
▁fear	-10.5519
▁error	-10.552
▁south	-10.5527
▁Force	-10.5528
General	-10.553
▁listening	-10.5544
▁circles	-10.5544
▁Any	-10.5546
▁consult	-10.555
▁bureau	-10.5557
▁ban	-10.5562
8	-10.5563
▁rush	-10.5568
▁tons	-10.5575
▁transport	-10.5596
Northern	-10.5599
▁plenary	-10.561
▁Sewol	-10.561
▁presence	-10.561
▁disposition	-10.561
▁impressive	-10.561
▁sitting	-10.5612
▁repeatedly	-10.5614
▁Club	-10.5615
le	-10.5616
▁faster	-10.5616
▁engage	-10.5616
▁subsidiary	-10.5618
▁glass	-10.5621
tends	-10.5628
▁volunteers	-10.5629
▁diet	-10.563
▁Gwanak	-10.5631
▁limitations	-10.5635
.,	-10.5641
▁restricted	-10.5642
M	-10.5646
▁countermeasures	-10.5648
▁waves	-10.5653
▁Store	-10.5656
▁pastor	-10.5658
▁marks	-10.5658
▁workshop	-10.566
▁Bong	-10.5662
▁coal	-10.5667
Kim	-10.5678
hyeon	-10.568
▁returning	-10.5681
▁investigations	-10.5681
▁dish	-10.5695
▁lease	-10.57
ism	-10.5708
▁staying	-10.5726
▁Malaysia	-10.5739
▁graduation	-10.5745
▁probably	-10.5745
▁manpower	-10.5746
▁abandoned	-10.5747
▁bodies	-10.5748
▁harmful	-10.5748
▁flexible	-10.5748
▁Forum	-10.5748
▁consultati	-10.5752
▁accumulated	-10.5753
▁widely	-10.5753
▁Joint	-10.5755
▁Spain	-10.5755
▁Forest	-10.5755
▁demands	-10.5757
ultural	-10.576
▁convert	-10.5761
▁bags	-10.5764
▁requirements	-10.5766
▁paintings	-10.5767
▁John	-10.5774
▁managers	-10.5774
▁flower	-10.5776
▁Bu	-10.5777
▁traveling	-10.5778
▁30%	-10.5783
side	-10.5785
▁championship	-10.5789
▁perception	-10.5789
▁Prosecutor	-10.579
▁portion	-10.5794
▁Big	-10.5795
▁missile	-10.5795
▁tension	-10.5798
▁explains	-10.58
ship	-10.5804
▁brands	-10.5806
▁phones	-10.581
▁aim	-10.5819
▁Only	-10.5828
▁interviews	-10.5835
▁teach	-10.5851
▁copy	-10.5852
▁Da	-10.5868
▁Goryeo	-10.5877
▁draft	-10.5878
▁w	-10.5882
▁Plaza	-10.5882
▁Property	-10.5882
▁Industries	-10.5882
▁disclose	-10.5883
▁repeated	-10.5883
▁Hana	-10.5883
▁critical	-10.5884
▁violations	-10.5887
▁ferry	-10.5888
▁Saudi	-10.5888
▁thoroughly	-10.5889
▁provision	-10.5904
▁hundreds	-10.5906
▁command	-10.5914
▁temperatures	-10.5917
▁pledge	-10.5918
▁fit	-10.592
▁incentives	-10.5925
▁stayed	-10.5926
▁EU	-10.5928
▁hometown	-10.5929
▁uniform	-10.5929
▁partner	-10.593
▁passenger	-10.5931
▁corner	-10.5933
▁buyers	-10.5934
▁risks	-10.5936
▁agent	-10.5958
▁secur	-10.5965
▁Good	-10.5972
▁revolution	-10.5974
▁fi	-10.5976
▁indoor	-10.5978
▁graduates	-10.5987
▁attach	-10.5989
▁west	-10.6009
▁quick	-10.6012
▁struggle	-10.6014
ose	-10.6018
▁correspond	-10.602
▁Spanish	-10.6021
▁Okay	-10.6021
▁incumbent	-10.6023
▁spicy	-10.6024
▁unveiled	-10.6025
▁Branch	-10.6027
▁cells	-10.603
▁rare	-10.603
▁turns	-10.6033
▁clothing	-10.6034
▁Head	-10.6044
▁escape	-10.6054
▁supporters	-10.6055
▁isn	-10.6061
▁smaller	-10.6063
▁fake	-10.6064
▁separated	-10.6064
made	-10.6065
▁landscape	-10.6068
▁Asiana	-10.607
▁inspections	-10.6071
▁stake	-10.6072
▁Inter	-10.6077
▁roof	-10.6085
how	-10.6085
▁advertisements	-10.6092
▁vision	-10.6095
▁exit	-10.6097
▁recording	-10.61
▁neighbor	-10.6103
▁Bio	-10.6108
▁De	-10.6108
▁Myeong	-10.611
▁consultations	-10.6115
▁whom	-10.6117
▁speaking	-10.6143
▁worse	-10.6153
▁code	-10.6154
hyuk	-10.6161
▁assistance	-10.6162
▁smoking	-10.6163
▁strategies	-10.6165
▁Commerce	-10.6165
▁confident	-10.6167
▁dismissed	-10.6168
▁exactly	-10.6172
▁Shinhan	-10.6173
▁towards	-10.6175
▁provinces	-10.6177
▁Tuesday	-10.6179
▁illegally	-10.6183
▁bond	-10.6184
▁Major	-10.6184
▁Guro	-10.6186
▁assigned	-10.6186
▁timing	-10.6192
▁earned	-10.6193
▁easing	-10.6205
▁Disaster	-10.6211
▁heritage	-10.6211
▁crackdown	-10.6212
Japan	-10.6214
▁Design	-10.6215
▁withdrawal	-10.6219
▁guest	-10.6223
▁CCTV	-10.6224
ae	-10.6224
▁36	-10.6231
▁2016.	-10.6239
shaped	-10.624
▁larger	-10.6246
▁appoint	-10.6257
ranking	-10.6257
▁preventing	-10.6268
mail	-10.6278
▁2020	-10.6283
▁Home	-10.6286
fledged	-10.6303
▁London	-10.6305
▁garbage	-10.6305
▁expertise	-10.6305
▁inauguration	-10.6305
▁Mike	-10.6307
▁pregnant	-10.6308
▁Uijeongbu	-10.6311
▁Protection	-10.6311
▁Red	-10.6312
▁Hyung	-10.6314
▁Chungnam	-10.6315
▁Training	-10.6315
▁safely	-10.6319
▁institutional	-10.6326
▁Starting	-10.6334
▁mine	-10.6346
▁Prize	-10.6354
▁pace	-10.6355
▁leaves	-10.6357
▁Dr	-10.6358
▁bread	-10.636
▁expectation	-10.6361
▁qualification	-10.6361
▁sources	-10.6364
▁Officials	-10.6373
▁Unions	-10.6378
▁shift	-10.638
▁Does	-10.6393
▁34	-10.6394
over	-10.6402
▁selecting	-10.6409
▁maintaining	-10.6412
▁identify	-10.6415
▁imports	-10.6431
▁proud	-10.6445
▁steadily	-10.645
▁Authority	-10.645
▁minimize	-10.645
▁Jeollanam	-10.6453
▁succession	-10.6453
▁supplies	-10.6454
▁Yeosu	-10.6456
▁Gyeongju	-10.6456
▁closing	-10.6459
▁cited	-10.6459
▁Yeong	-10.6465
▁Next	-10.6465
▁breaking	-10.6466
▁UK	-10.6468
▁sit	-10.6469
▁Real	-10.6478
▁closer	-10.6478
▁20%	-10.6478
▁tradition	-10.6481
▁litigation	-10.65
▁robot	-10.6504
▁expense	-10.6506
▁assistant	-10.6509
▁Doo	-10.6509
▁seminar	-10.6512
▁invoice	-10.6513
▁attraction	-10.652
▁intellectual	-10.6529
▁zones	-10.6533
6	-10.6541
▁guests	-10.6543
▁cup	-10.6555
▁hate	-10.6557
▁suppose	-10.6559
▁joining	-10.6567
government	-10.6571
▁winners	-10.6572
▁sixth	-10.6578
▁institutes	-10.6587
▁Africa	-10.6587
▁suspend	-10.6588
▁soup	-10.6589
▁Expressway	-10.6597
▁tuition	-10.6597
▁otherwise	-10.6597
▁pork	-10.6597
▁Competition	-10.66
▁breakfast	-10.66
▁securities	-10.66
▁swimming	-10.6601
▁donations	-10.6603
▁Doosan	-10.6603
▁emotional	-10.6604
▁notification	-10.6606
▁Turkey	-10.6612
▁vegetables	-10.6622
▁65	-10.6625
▁assaulted	-10.6628
▁states	-10.6642
▁violat	-10.6642
▁Medica	-10.6643
x	-10.6647
▁statements	-10.6648
▁withdraw	-10.6649
▁democracy	-10.6649
▁evaluate	-10.6655
▁generations	-10.6656
▁120	-10.6661
▁guard	-10.6671
▁Thursday	-10.6674
about	-10.6688
▁designs	-10.6696
▁king	-10.6698
▁Provin	-10.67
▁folk	-10.6701
mm	-10.6703
be	-10.6704
bo	-10.6704
▁parent	-10.6718
▁Job	-10.6725
▁multicultural	-10.6735
▁combine	-10.6738
▁accurate	-10.6743
▁Jakarta	-10.6746
▁Democracy	-10.6746
▁slowdown	-10.6746
▁Framework	-10.6749
▁cancellation	-10.6749
▁routes	-10.675
▁Gwangjin	-10.675
▁worst	-10.6751
Given	-10.6753
▁earth	-10.6757
▁acquired	-10.6758
bak	-10.6761
▁collapsed	-10.6763
▁Private	-10.6768
▁Kyo	-10.677
▁killing	-10.6771
▁contained	-10.6772
pending	-10.6774
yeol	-10.6785
▁messages	-10.68
▁neighborhood	-10.6804
▁Olympic	-10.6805
▁temple	-10.6806
▁beat	-10.6816
▁manufacturers	-10.6818
▁sleeping	-10.6848
▁leak	-10.6849
▁edge	-10.6852
▁answers	-10.6857
▁pieces	-10.6862
▁convention	-10.6871
▁Sam	-10.6871
▁option	-10.6874
▁witness	-10.688
▁defeat	-10.6887
President	-10.6891
▁peninsula	-10.6897
▁expiration	-10.6897
▁systematic	-10.6898
▁struggling	-10.6899
▁partially	-10.69
▁uncomfortable	-10.6901
▁freedom	-10.6901
▁beca	-10.6904
▁wooden	-10.6905
▁Uzbekistan	-10.6907
▁insisted	-10.6907
▁everyday	-10.6908
▁Rather	-10.6908
▁Hello	-10.6914
▁intensive	-10.6916
▁granted	-10.6919
▁girlfriend	-10.692
▁compete	-10.6922
▁supports	-10.693
▁Electric	-10.6936
▁fostering	-10.6951
▁San	-10.6954
▁scenes	-10.6957
▁subscription	-10.6958
▁intended	-10.696
▁contribut	-10.6972
▁belonging	-10.6987
▁neighbors	-10.6991
aged	-10.6995
▁cap	-10.6996
▁Car	-10.6998
▁Thre	-10.701
▁fat	-10.7012
▁prefer	-10.7024
▁holds	-10.7026
▁aired	-10.7026
▁steel	-10.7033
▁heating	-10.7051
▁software	-10.7051
▁curious	-10.7051
▁extraordinary	-10.7051
▁mandatory	-10.7051
▁Contest	-10.7052
▁unexpected	-10.7052
▁glad	-10.7054
▁logistics	-10.7054
▁Myanmar	-10.7054
▁dementia	-10.7054
▁feasibility	-10.7054
▁happens	-10.7059
▁upcoming	-10.706
▁comment	-10.706
▁CJ	-10.7071
▁stronger	-10.7073
▁KBS	-10.7078
▁violate	-10.7079
▁shortly	-10.7081
▁pharmaceutical	-10.7083
▁solved	-10.7102
▁fines	-10.7106
▁inning	-10.7109
▁correspondent	-10.7113
▁magazine	-10.7115
▁novel	-10.7116
not	-10.7116
▁panel	-10.7117
▁membership	-10.7118
▁dispatch	-10.7121
▁Future	-10.7121
▁studio	-10.7125
▁Building	-10.7127
▁seal	-10.713
▁startups	-10.7133
▁wasn	-10.7134
▁Luna	-10.7143
▁boyfriend	-10.7147
▁formal	-10.7153
▁chat	-10.718
law	-10.7184
▁convey	-10.7204
▁curiosity	-10.7207
▁renewable	-10.7208
▁pride	-10.7208
▁decreasing	-10.7209
▁FSS	-10.721
▁colonial	-10.7211
▁discover	-10.7211
▁separation	-10.7211
▁considerable	-10.7211
▁Eui	-10.7212
▁promising	-10.7212
▁cast	-10.7213
▁Gimpo	-10.7214
▁literature	-10.7214
▁homepage	-10.7214
▁Tower	-10.7215
▁Daily	-10.722
▁Paris	-10.7221
▁violated	-10.7228
▁Great	-10.7232
▁cutting	-10.7235
artistic	-10.7235
▁lawyers	-10.7241
▁FC	-10.7242
▁earnings	-10.7245
▁argue	-10.7258
▁processed	-10.7262
▁answered	-10.7272
▁argument	-10.7273
▁Post	-10.7278
▁sauce	-10.7279
Chairman	-10.7291
▁dollar	-10.7293
scal	-10.7294
ted	-10.7296
person	-10.7296
off	-10.7309
▁Second	-10.7317
▁Star	-10.7327
guk	-10.7337
▁demanding	-10.7358
▁virtual	-10.7361
▁origin	-10.7366
▁Heritage	-10.7366
▁Memorial	-10.7366
▁Exhibition	-10.7366
▁Bible	-10.7366
▁basketball	-10.7367
▁apology	-10.7367
▁Gangdong	-10.7368
▁equity	-10.7369
▁Coast	-10.7377
▁sufficient	-10.7378
▁effectively	-10.7378
▁legislative	-10.738
chang	-10.7382
▁hired	-10.7382
▁missed	-10.7385
▁Gumi	-10.7387
▁bid	-10.7387
▁Galaxy	-10.7389
▁attempted	-10.7392
▁sensitive	-10.7399
shin	-10.7412
▁resume	-10.7416
▁marked	-10.7417
▁reserve	-10.7426
▁stadium	-10.7434
▁passport	-10.7434
▁opponent	-10.7435
▁Leader	-10.7438
▁reaction	-10.7439
▁minor	-10.7439
▁Students	-10.7439
▁offers	-10.7442
▁rumors	-10.7443
▁typical	-10.746
▁Reform	-10.7468
ma	-10.7475
▁settle	-10.7479
▁comfort	-10.7481
▁Chi	-10.7493
▁regret	-10.7504
▁super	-10.7511
▁Mongolia	-10.7515
▁welcome	-10.7523
▁amazing	-10.7526
▁temporarily	-10.7527
▁recession	-10.7527
▁Brexit	-10.753
▁tower	-10.7531
▁entity	-10.7531
▁Establishment	-10.7538
▁Airlines	-10.7541
▁existence	-10.7552
cm	-10.7554
▁finals	-10.7558
▁counter	-10.7563
▁secondary	-10.7567
▁ambassador	-10.7598
▁scholarship	-10.7599
▁3,000	-10.7599
▁gifts	-10.7608
no	-10.7615
▁cycle	-10.7621
▁g	-10.7629
▁doubt	-10.7633
▁numbers	-10.7638
▁decisions	-10.7654
▁lights	-10.7669
▁destroy	-10.7675
▁Here	-10.7675
▁exclud	-10.7677
use	-10.768
ir	-10.7685
▁thorough	-10.7687
▁cute	-10.7688
▁precious	-10.7689
▁ministries	-10.7691
▁showcase	-10.7694
▁England	-10.7698
▁speculation	-10.7699
▁fail	-10.7701
▁objective	-10.7702
▁Persons	-10.7705
▁kilometers	-10.7705
▁assembly	-10.7709
▁arranged	-10.7715
▁absolute	-10.7716
▁couples	-10.7727
▁Congress	-10.7737
▁informed	-10.7748
management	-10.7748
▁length	-10.7749
▁quit	-10.775
▁stages	-10.775
▁commemorati	-10.7756
▁ID	-10.7757
▁posts	-10.7761
▁instructors	-10.7763
▁Techno	-10.7768
▁calculation	-10.7769
▁sun	-10.7779
mo	-10.7782
▁tariff	-10.7782
▁Pastor	-10.7786
L	-10.7795
▁2017.	-10.7814
▁iron	-10.7816
▁moves	-10.7824
▁2010	-10.7826
▁Dream	-10.783
)"	-10.7834
▁radio	-10.7838
▁Card	-10.7839
▁PC	-10.7847
▁preferential	-10.7857
▁complicated	-10.7858
▁species	-10.7858
▁Chungcheongnam	-10.7859
▁relocation	-10.7859
▁sustainable	-10.7859
▁Dobong	-10.786
▁removal	-10.786
ist	-10.7861
▁survival	-10.7861
▁rehabilitation	-10.7862
▁Lord	-10.7862
▁anymore	-10.7863
▁Everyone	-10.7866
▁Such	-10.7868
▁insufficient	-10.7875
▁stipulate	-10.7875
▁Investigation	-10.788
▁disputes	-10.7885
▁restore	-10.7886
▁guaranteed	-10.7888
▁displayed	-10.7891
▁Daewoo	-10.7915
▁cloud	-10.7917
▁tall	-10.7918
yeong	-10.7923
go	-10.7927
▁hearts	-10.793
finding	-10.7931
▁neck	-10.7931
▁livelihood	-10.7934
▁girls	-10.7937
▁collaboration	-10.7937
▁blow	-10.7939
▁accounted	-10.7941
▁booth	-10.7942
▁heated	-10.7953
▁cable	-10.7965
▁booked	-10.7974
▁founder	-10.7977
▁surpass	-10.7979
▁pray	-10.7986
▁rock	-10.7988
▁chair	-10.7991
ble	-10.8007
▁UN	-10.8015
▁hits	-10.8016
▁revise	-10.802
▁hoped	-10.8025
po	-10.8027
▁stomach	-10.8027
▁steady	-10.8027
▁furniture	-10.8028
▁nursing	-10.8028
▁inappropriate	-10.8029
▁momentum	-10.8029
▁Revolution	-10.8031
▁Library	-10.8031
▁preservation	-10.8032
▁cheap	-10.8033
▁percentage	-10.8034
▁Chosun	-10.8035
▁willingness	-10.8035
bong	-10.804
▁lyrics	-10.8043
▁liked	-10.8043
▁charging	-10.8045
▁pursue	-10.8051
▁sexually	-10.8054
▁solutions	-10.8059
▁2012,	-10.807
▁complet	-10.807
▁undergo	-10.8077
▁stands	-10.8077
▁sponsored	-10.8083
▁correction	-10.8087
▁posting	-10.809
▁ministers	-10.8101
▁curriculum	-10.8103
▁alliance	-10.8105
▁native	-10.8108
▁customs	-10.8115
▁container	-10.8116
▁cat	-10.813
regular	-10.8134
▁Super	-10.8149
▁2018,	-10.8155
▁Heavy	-10.8162
▁Child	-10.8179
▁apologize	-10.819
▁conclude	-10.8194
▁concrete	-10.8195
▁premiums	-10.8195
▁confusion	-10.82
▁utilization	-10.8201
▁intense	-10.8208
▁Hanjin	-10.8209
▁officio	-10.8209
▁Except	-10.8209
▁Winter	-10.8211
▁Instead	-10.8211
▁semi	-10.8212
▁Theater	-10.8216
▁targets	-10.8222
▁delegate	-10.8227
▁saved	-10.8231
▁seniors	-10.8232
H	-10.8232
▁Concert	-10.8235
▁indicators	-10.8237
▁utiliz	-10.8238
▁Heo	-10.8239
▁enters	-10.8247
▁anger	-10.8253
▁permit	-10.8257
men	-10.8257
▁greet	-10.8258
▁38	-10.8259
▁weekly	-10.8266
▁estimate	-10.827
▁flat	-10.8272
▁kick	-10.8275
▁Gwang	-10.8276
▁delegation	-10.828
▁attorney	-10.8284
▁Consumer	-10.8285
▁pitcher	-10.8285
▁valuable	-10.8286
▁threat	-10.8287
▁savings	-10.8288
▁winds	-10.8297
▁soil	-10.8298
▁dress	-10.8298
▁50,000	-10.8314
▁claiming	-10.8315
▁slump	-10.8317
▁39	-10.8331
▁driven	-10.8339
▁ordinances	-10.834
▁hole	-10.8341
▁franchise	-10.8347
▁crew	-10.8353
▁responses	-10.8354
rom	-10.8364
▁2.	-10.8365
▁Chamber	-10.8375
▁celebrities	-10.8375
▁Instagram	-10.8375
▁motor	-10.8376
▁banned	-10.8376
▁revitalization	-10.8376
▁maritime	-10.8376
▁Interior	-10.8378
▁structural	-10.8382
▁Sweden	-10.8382
▁Shanghai	-10.8382
▁Italy	-10.8383
▁Jeonju	-10.8383
▁guilty	-10.8384
▁St	-10.8391
▁seriously	-10.8391
▁churches	-10.84
▁noodles	-10.8401
▁picked	-10.8401
▁row	-10.8402
▁talented	-10.8404
▁Indonesian	-10.8409
▁flock	-10.8429
▁elements	-10.843
▁monitor	-10.843
▁Regulations	-10.843
▁makeup	-10.8432
▁scholars	-10.8436
▁emotions	-10.8436
▁beach	-10.8438
Lee	-10.8438
▁risen	-10.8446
10	-10.8446
▁chocolate	-10.8462
▁passage	-10.8468
▁circle	-10.847
▁Judge	-10.8472
▁wouldn	-10.8473
sa	-10.8475
minute	-10.8475
red	-10.8477
▁5,000	-10.8481
▁interpretation	-10.8481
house	-10.8482
w	-10.8485
▁fails	-10.8492
▁Environmental	-10.8496
▁Camp	-10.8501
▁launching	-10.8506
▁tonight	-10.8514
▁Audit	-10.8518
▁Officer	-10.8532
▁rains	-10.8545
▁Buddha	-10.8554
▁harassment	-10.8554
▁opposite	-10.8557
▁POSCO	-10.8557
beom	-10.8557
▁helpful	-10.8557
▁Namyangju	-10.8557
▁Kumho	-10.8558
▁restructuring	-10.8558
▁excavation	-10.8558
▁Lake	-10.8558
▁fever	-10.8559
▁Up	-10.856
▁judiciary	-10.8561
▁constructed	-10.8561
▁colorful	-10.8563
▁attacks	-10.8564
▁crowded	-10.8565
▁lifted	-10.8567
▁Sin	-10.8568
hyung	-10.8572
▁Coach	-10.8576
▁offline	-10.8577
▁metal	-10.8577
nother	-10.858
dministrative	-10.8582
▁passes	-10.8582
▁flavor	-10.8587
▁deaths	-10.8592
▁Lawmaker	-10.8595
▁recruiting	-10.8611
▁exhibitions	-10.8612
▁Yeo	-10.8626
▁humans	-10.863
▁pattern	-10.8632
▁grandmother	-10.8642
▁clerk	-10.8642
▁advertisement	-10.8643
governing	-10.8648
▁certificates	-10.8649
▁1.	-10.865
▁Communication	-10.8651
▁observation	-10.8651
bok	-10.8658
dae	-10.8666
▁frame	-10.8668
▁progressive	-10.867
▁Will	-10.8676
▁Who	-10.8678
▁Chul	-10.8694
Director	-10.8699
▁ratings	-10.8699
▁carbon	-10.8702
0	-10.8709
▁faces	-10.8711
▁Seon	-10.8717
▁cultures	-10.8721
▁Drug	-10.8735
▁casualties	-10.8736
▁Gwanghwamun	-10.8736
▁denied	-10.8736
▁disposable	-10.8736
▁Gender	-10.8739
▁Review	-10.8739
▁supervise	-10.8739
▁Gunsan	-10.874
▁equality	-10.8742
tangible	-10.8742
▁visible	-10.8743
public	-10.8743
kyun	-10.8745
▁hitting	-10.875
▁MBC	-10.875
▁1990	-10.8751
▁branches	-10.8755
▁30,000	-10.8757
▁SBS	-10.8759
▁experiment	-10.876
▁adjusted	-10.877
▁politicians	-10.8771
▁disappear	-10.8771
▁600	-10.8772
▁shock	-10.8776
▁Koreas	-10.8791
▁generally	-10.8794
▁leg	-10.88
▁thousands	-10.8811
▁Network	-10.8813
▁seizure	-10.8822
▁movements	-10.8823
▁kitchen	-10.8825
▁arms	-10.8827
▁preference	-10.8828
▁reviewed	-10.8834
Southern	-10.8835
▁statue	-10.8838
▁rumor	-10.8839
▁seventh	-10.8844
▁root	-10.8845
▁attractions	-10.8852
▁Wang	-10.8864
im	-10.8866
▁discussing	-10.8876
▁pool	-10.8876
ul	-10.8877
clock	-10.8883
depth	-10.8885
▁quiet	-10.8917
▁substitute	-10.8918
▁injuries	-10.8921
▁inevitably	-10.8921
▁conservation	-10.8921
▁Silla	-10.8921
▁funding	-10.8921
▁contrary	-10.8921
▁Sorry	-10.8921
▁Jinping	-10.8922
▁confrontation	-10.8923
▁sewage	-10.8925
▁switch	-10.8929
▁analyzing	-10.8929
▁seekers	-10.8931
▁normally	-10.8931
▁Siheung	-10.8932
▁dismissal	-10.8939
back	-10.894
▁amounts	-10.8945
tial	-10.8953
▁washing	-10.896
▁controlled	-10.8962
▁bear	-10.8963
▁reviews	-10.8963
▁determination	-10.8964
chairperson	-10.8968
▁kids	-10.8969
Chairperson	-10.8977
▁constitutional	-10.898
point	-10.8985
▁succeed	-10.9001
▁Her	-10.9005
▁deficit	-10.9017
F	-10.9025
pil	-10.903
▁recall	-10.9032
▁startup	-10.9037
▁swing	-10.904
▁Woori	-10.9053
▁Li	-10.9053
general	-10.9056
▁publication	-10.906
▁analysts	-10.9065
teering	-10.9081
▁dealing	-10.9083
▁300,000	-10.9093
▁42	-10.9094
▁creates	-10.9095
▁Kyu	-10.9099
▁surprise	-10.9102
▁believ	-10.9103
▁manual	-10.9104
▁banking	-10.9105
▁violent	-10.9105
▁immediate	-10.9109
▁Catholic	-10.9109
▁Embassy	-10.9109
▁Treasury	-10.9109
▁Orchestra	-10.9109
▁Ambassador	-10.9109
▁Dongdaemun	-10.9109
▁Conference	-10.9109
▁unfamiliar	-10.9109
rs	-10.911
▁shipbuilding	-10.911
▁Later	-10.911
▁Inspection	-10.9111
▁doctors	-10.9111
▁wild	-10.9112
▁luggage	-10.9113
▁Pangyo	-10.9113
▁diagnosed	-10.9114
▁passion	-10.9114
▁psychological	-10.9114
▁regeneration	-10.9115
▁saving	-10.9115
▁ordering	-10.9117
▁collective	-10.9119
▁jumped	-10.912
▁Israel	-10.9121
▁western	-10.9125
▁resign	-10.9125
round	-10.9127
Do	-10.9129
He	-10.9129
TE	-10.9132
▁beef	-10.9135
▁theory	-10.9137
▁titled	-10.9142
▁effectiveness	-10.9143
▁Smart	-10.9149
hak	-10.9159
▁knowing	-10.9164
▁Black	-10.9166
▁connecting	-10.9179
▁2,	-10.9184
b	-10.9185
▁birds	-10.9188
▁objects	-10.9193
▁Hwa	-10.9195
▁2015.	-10.9198
▁bathroom	-10.9203
▁Budget	-10.9204
▁junior	-10.9209
▁helicopter	-10.9213
▁manufacturer	-10.9214
▁truck	-10.9215
▁chemical	-10.9217
investigative	-10.9219
▁chart	-10.9223
bu	-10.9223
▁Meeting	-10.923
▁2008	-10.923
▁producer	-10.9234
meter	-10.9239
▁retail	-10.9262
▁Media	-10.9269
▁Area	-10.9271
▁fare	-10.9278
▁reference	-10.9279
▁parks	-10.9279
▁fulfill	-10.9288
▁calm	-10.9288
▁paragraphs	-10.9293
water	-10.9298
▁Sokcho	-10.9302
▁negligence	-10.9302
▁abundant	-10.9302
▁50%	-10.9302
▁bulletin	-10.9303
▁depart	-10.9304
▁destruction	-10.9306
▁experiencing	-10.9308
▁Open	-10.9309
▁merger	-10.9309
▁praised	-10.931
▁advised	-10.9313
▁ownership	-10.9314
▁dozens	-10.9314
ated	-10.9315
▁convergence	-10.9315
▁protested	-10.9322
▁issuance	-10.9338
▁plate	-10.9346
▁presents	-10.9347
▁featured	-10.9348
▁punish	-10.9351
▁forms	-10.9368
▁nights	-10.938
▁h	-10.9384
▁producers	-10.9394
▁commitment	-10.9398
▁legs	-10.9407
▁Official	-10.9407
▁juvenile	-10.9409
▁client	-10.9409
▁superior	-10.9411
▁2,000	-10.9413
▁tenant	-10.9413
▁closure	-10.9417
▁belief	-10.9417
▁communications	-10.9437
ch	-10.9437
20	-10.9447
▁ends	-10.9457
▁specializ	-10.9463
ei	-10.9466
▁nor	-10.9471
▁2022	-10.9474
ang	-10.9475
▁surge	-10.9478
▁samples	-10.9478
▁Turkis	-10.9482
▁Capital	-10.9498
▁Italian	-10.9498
▁explosive	-10.9498
▁unemployment	-10.9499
▁affection	-10.95
▁practicing	-10.9501
▁Celsius	-10.9502
▁silver	-10.9502
▁conversion	-10.9502
▁bidding	-10.9502
▁therapy	-10.9505
▁indicted	-10.9506
▁Seodaemun	-10.9506
▁captured	-10.9507
▁cargo	-10.9507
▁yuan	-10.9508
▁boss	-10.9508
▁sugar	-10.9509
▁observed	-10.951
▁discharged	-10.951
▁burned	-10.9511
▁refused	-10.9511
llowing	-10.9511
▁FTC	-10.9514
▁Test	-10.9516
▁governance	-10.9518
▁ending	-10.9519
ne	-10.9521
▁recovered	-10.9521
▁firefighters	-10.9527
▁healing	-10.9527
▁Mun	-10.9529
▁handled	-10.9533
▁riding	-10.9536
▁Pay	-10.9543
▁remind	-10.9547
▁techniques	-10.9553
▁vessels	-10.9558
▁Members	-10.9562
▁principles	-10.9581
▁putt	-10.9586
▁gun	-10.9588
seon	-10.9589
▁exchanged	-10.9599
▁repayment	-10.9599
volving	-10.96
▁37	-10.9601
▁partnership	-10.9604
▁headed	-10.9606
▁friendship	-10.9607
▁shortage	-10.9608
Above	-10.9613
▁terminal	-10.9615
▁Indian	-10.9623
cient	-10.9626
▁button	-10.9627
chun	-10.963
▁faced	-10.9631
▁math	-10.9632
rim	-10.9653
▁trials	-10.9662
Govern	-10.9662
Since	-10.9667
known	-10.9669
▁checks	-10.9679
▁directed	-10.9682
▁discharge	-10.9683
gyu	-10.9683
hun	-10.9689
▁Yeongdeungpo	-10.9698
▁lonely	-10.9698
▁seafood	-10.9698
▁pursued	-10.9699
▁Press	-10.97
▁Bundang	-10.9702
▁Baseball	-10.9702
▁Credit	-10.9702
▁Gapyeong	-10.9702
▁Actress	-10.9703
▁crashed	-10.9707
▁slowly	-10.9707
▁Plant	-10.9708
▁leaked	-10.9708
▁wishes	-10.9713
▁hire	-10.9714
▁architecture	-10.9717
▁underway	-10.9718
▁talents	-10.9721
▁cheering	-10.9722
▁entrepreneurs	-10.9724
▁reign	-10.9725
▁solving	-10.9733
▁Standards	-10.9737
▁emissions	-10.9746
▁Wall	-10.9746
▁waters	-10.9748
▁stepp	-10.975
▁snacks	-10.975
▁relatives	-10.9752
yang	-10.9758
arious	-10.9773
ootball	-10.9777
nlike	-10.9778
▁finishing	-10.9779
▁petitions	-10.9788
▁hub	-10.9799
▁mask	-10.9803
▁translation	-10.9804
▁objection	-10.9808
▁shelter	-10.9812
▁spoke	-10.9818
▁Los	-10.9818
▁2.5	-10.982
▁download	-10.9824
▁DM	-10.9828
▁competitions	-10.9833
▁occupation	-10.9833
▁server	-10.9834
▁Tour	-10.9844
▁assist	-10.9858
▁locals	-10.9861
▁rank	-10.9861
▁belt	-10.987
▁enthusiastic	-10.9879
▁Advisor	-10.988
▁shut	-10.9883
▁concentrate	-10.9892
▁43	-10.9893
▁painful	-10.9901
▁Palace	-10.9902
▁Chungbuk	-10.9902
▁exciting	-10.9902
▁contrast	-10.9902
▁Gov	-10.9903
▁realistic	-10.9903
▁Putin	-10.9904
▁scientific	-10.9905
▁resistance	-10.9906
▁scenery	-10.9907
▁impressed	-10.9908
citing	-10.9908
smoking	-10.9908
▁judging	-10.9909
▁emphasize	-10.9909
▁exempted	-10.9911
▁urgently	-10.9912
▁bribery	-10.9914
▁confidential	-10.9916
▁Night	-10.9918
▁destroyed	-10.9918
ronze	-10.992
▁CSAT	-10.9923
▁tight	-10.9923
Act	-10.9923
▁chances	-10.9926
▁involv	-10.9928
▁Jeonbuk	-10.9932
▁subsidized	-10.9936
▁encouraged	-10.9938
▁inland	-10.9938
▁USA	-10.9939
▁119	-10.9941
for	-10.995
▁influenced	-10.9955
▁tend	-10.9955
▁exclude	-10.9959
▁theaters	-10.9963
▁GM	-10.9965
▁wastes	-10.9966
▁blocking	-10.9981
▁tries	-10.9986
▁Yangju	-11.0007
ui	-11.0015
▁defendant	-11.0016
▁playground	-11.0017
▁genre	-11.002
▁commander	-11.002
▁web	-11.002
▁desk	-11.0021
▁automobile	-11.0022
▁accommodation	-11.0022
▁invitation	-11.0033
▁52-	-11.0035
▁pack	-11.0039
▁makers	-11.0046
▁Hope	-11.0047
▁Icheon	-11.0047
▁decorate	-11.0072
▁grace	-11.0074
▁stimulate	-11.0077
eastern	-11.0097
▁compensate	-11.0103
▁illness	-11.0106
▁Chan	-11.0106
▁fly	-11.0107
▁Staff	-11.011
▁academy	-11.011
▁Studies	-11.011
▁Kazakhstan	-11.011
▁irregularities	-11.011
▁autonomy	-11.011
▁Autonomy	-11.0111
▁prolonged	-11.0111
▁affiliates	-11.0111
priced	-11.0112
▁Yo	-11.0112
▁Statistics	-11.0113
▁cheaper	-11.0113
▁Shinsegae	-11.0114
▁depression	-11.0114
▁somewhere	-11.0115
▁fairness	-11.0115
▁profitability	-11.0115
▁virtually	-11.0116
▁outlook	-11.0116
▁threatened	-11.0117
▁integration	-11.0117
▁unlikely	-11.0118
▁100%	-11.0119
▁Chuncheon	-11.0119
▁preferred	-11.0121
▁250	-11.0122
▁immigration	-11.0123
▁machines	-11.0125
▁taxation	-11.0126
▁spots	-11.0127
▁businessmen	-11.0128
▁Mokpo	-11.0132
▁lighting	-11.0132
▁History	-11.0132
▁therefore	-11.0138
▁skill	-11.0142
lar	-11.0145
▁700	-11.0147
▁harder	-11.0152
▁financing	-11.0153
▁20,000	-11.0162
▁Byeong	-11.0169
▁2006	-11.017
▁Miss	-11.0178
▁Le	-11.018
▁flood	-11.0181
▁Burning	-11.0187
▁veterans	-11.0192
gang	-11.02
▁genres	-11.0202
▁helicopters	-11.0212
▁processes	-11.0213
▁fold	-11.0215
▁quarters	-11.0216
▁Communications	-11.0218
▁nomination	-11.0221
▁stick	-11.0223
▁con	-11.0224
▁weapon	-11.023
▁instructor	-11.0231
▁investing	-11.0232
▁taxpayer	-11.0234
▁sessions	-11.0234
▁portal	-11.0236
election	-11.0236
month	-11.0243
▁highway	-11.0249
▁dedicate	-11.0249
▁note	-11.025
▁distribute	-11.026
▁sub	-11.0263
▁greeting	-11.0266
▁youths	-11.0273
ak	-11.0277
▁suggests	-11.0277
▁Acts	-11.028
▁files	-11.0288
▁honorar	-11.0298
Even	-11.0308
▁rang	-11.0313
▁requesting	-11.0313
▁Premier	-11.032
▁depict	-11.0322
▁Period	-11.0323
▁buried	-11.0323
▁stuck	-11.0323
▁drastically	-11.0323
▁childbirth	-11.0323
▁harsh	-11.0323
▁intervention	-11.0323
▁involvement	-11.0323
▁philosophy	-11.0324
▁systematically	-11.0324
▁dramatic	-11.0324
ealand	-11.0325
▁unknown	-11.0325
▁Anseong	-11.0326
▁Reuters	-11.0326
▁diversity	-11.0327
▁equivalent	-11.0327
▁deceased	-11.0327
▁Gochang	-11.0328
▁Beach	-11.0328
▁Manager	-11.0328
▁ecological	-11.033
▁Anyang	-11.0332
▁impeachment	-11.0332
▁Equality	-11.0332
▁Jinju	-11.0334
▁abolition	-11.0336
▁Seungri	-11.0337
▁democratic	-11.0338
▁defined	-11.0338
▁maximize	-11.0343
▁mountains	-11.0343
▁recruited	-11.0349
▁Bar	-11.035
▁FTA	-11.035
▁boxes	-11.0352
▁salt	-11.0357
▁preserve	-11.0358
▁components	-11.0358
▁colleagues	-11.0362
▁provisional	-11.0364
▁instructions	-11.0364
▁fix	-11.037
▁conglomerates	-11.0376
▁La	-11.0377
▁infants	-11.0381
▁ha	-11.041
▁pull	-11.0411
son	-11.0412
▁survive	-11.0415
ta	-11.0417
▁52	-11.0419
▁Je	-11.0426
▁marking	-11.0428
▁thick	-11.0428
▁surveys	-11.044
▁Well	-11.0442
▁downward	-11.0443
▁essay	-11.0446
▁weekends	-11.0448
▁ledger	-11.0449
▁41	-11.0449
▁heatwave	-11.045
▁apart	-11.0451
▁auction	-11.0453
▁clause	-11.0454
▁agents	-11.0459
▁unions	-11.0459
▁errors	-11.0471
▁proportional	-11.0472
▁refugee	-11.0476
▁Australian	-11.0479
▁Yons	-11.0492
▁invite	-11.0507
▁Gang	-11.051
ton	-11.0517
attached	-11.0525
▁sounds	-11.0529
▁lesson	-11.0537
▁Four	-11.0538
▁uncertain	-11.054
▁heavily	-11.054
▁occurrence	-11.054
▁replied	-11.054
▁departure	-11.054
▁reorganization	-11.0541
▁inquiry	-11.0541
▁diabetes	-11.0542
▁simultaneously	-11.0543
▁missionary	-11.0543
mprovement	-11.0544
▁submission	-11.0545
▁Jeollabuk	-11.0545
▁teeth	-11.0545
▁warned	-11.0545
▁reconstruction	-11.0546
▁Huh	-11.0546
▁scoring	-11.0546
▁ethics	-11.0547
▁inheritance	-11.0549
▁Agreement	-11.055
▁unified	-11.055
▁finalized	-11.0552
▁object	-11.0552
allows	-11.0554
▁stating	-11.0565
▁Tottenham	-11.0567
:00	-11.057
▁printing	-11.0572
▁massage	-11.0581
▁aspects	-11.0581
▁personally	-11.0588
wan	-11.0589
▁daytime	-11.0609
▁outlets	-11.0623
▁Baekje	-11.0625
▁useful	-11.0628
▁jump	-11.0629
if	-11.0632
▁contacted	-11.0633
▁restrict	-11.0633
de	-11.0635
▁count	-11.0637
▁purchases	-11.0638
▁noted	-11.0638
rmed	-11.0639
▁Ui	-11.0644
▁attractive	-11.0646
▁Ok	-11.065
▁pure	-11.0652
wha	-11.0658
▁poll	-11.0664
▁fault	-11.0665
▁herself	-11.0666
▁Championship	-11.0669
▁200,000	-11.0669
▁Noh	-11.067
▁resort	-11.067
▁stored	-11.0671
▁Candidate	-11.0672
▁split	-11.0674
▁guards	-11.0674
▁Guard	-11.0679
▁beside	-11.0683
▁abortion	-11.0684
▁exempl	-11.0686
▁partners	-11.0686
▁Fed	-11.0696
▁lecturer	-11.0704
▁aside	-11.071
▁proposals	-11.0712
▁letters	-11.0718
W	-11.0719
ero	-11.072
▁attempts	-11.0724
▁800	-11.0726
▁earn	-11.0734
Japanese	-11.0737
we	-11.074
No	-11.0744
▁examples	-11.076
▁roles	-11.0761
▁wealth	-11.0762
▁exposure	-11.0762
▁categories	-11.0762
▁synergy	-11.0763
▁goalkeeper	-11.0763
▁Jecheon	-11.0763
▁imposition	-11.0763
▁arrival	-11.0764
▁Angeles	-11.0764
▁shaking	-11.0765
▁piano	-11.0766
▁productivity	-11.0767
▁shipped	-11.0768
▁coverage	-11.0769
▁complained	-11.077
▁manufacture	-11.0771
▁BMW	-11.0771
▁liberal	-11.0772
▁assessed	-11.0773
▁accurately	-11.0773
▁Yangcheon	-11.0774
▁mediation	-11.078
▁bottle	-11.0784
▁netizens	-11.0789
▁publishing	-11.0791
▁strict	-11.0801
▁tied	-11.0802
▁musicians	-11.0802
▁2001	-11.0803
▁manages	-11.0804
▁Ga	-11.0807
so	-11.0808
▁draws	-11.0811
ryong	-11.0812
▁Guarantee	-11.0814
▁instruments	-11.0821
▁propose	-11.0821
▁relieve	-11.0834
▁Like	-11.0838
▁ties	-11.0842
▁Y	-11.0845
▁substances	-11.0848
▁horse	-11.0853
▁protected	-11.0859
With	-11.0863
▁Bas	-11.0863
▁persuade	-11.0863
story	-11.0864
▁largely	-11.087
land	-11.0872
▁structures	-11.0874
ga	-11.0877
▁merit	-11.0881
seo	-11.089
▁ocean	-11.0892
▁Iranian	-11.0896
▁resource	-11.0896
▁thousand	-11.0901
▁audition	-11.0904
▁lies	-11.0908
ia	-11.091
▁wood	-11.0911
▁Isn	-11.0917
▁Forces	-11.0918
▁workplaces	-11.0922
▁Talk	-11.0929
▁protests	-11.0931
▁choos	-11.0938
▁induce	-11.0939
▁Basic	-11.0958
▁km	-11.096
▁lie	-11.0962
▁chain	-11.0962
▁Medic	-11.0963
Governor	-11.0964
▁lift	-11.0968
▁hip	-11.0973
▁Gun	-11.0981
▁constant	-11.0986
▁returns	-11.0987
▁Berlin	-11.0989
▁Cabinet	-11.099
▁testimony	-11.099
▁unavoidable	-11.099
▁Facilities	-11.099
▁pottery	-11.099
▁Kwak	-11.099
▁Dongjak	-11.099
▁struck	-11.099
▁Yeah	-11.099
▁transparent	-11.099
▁1980	-11.099
▁poured	-11.0994
▁capability	-11.0994
▁Bento	-11.0994
▁disability	-11.0994
▁applies	-11.0995
▁Nexen	-11.0999
▁Should	-11.0999
high	-11.0999
▁alert	-11.0999
▁described	-11.1001
▁Plus	-11.1004
▁taught	-11.1004
▁documentary	-11.1005
▁commemorate	-11.1012
▁lending	-11.1013
▁graduated	-11.1013
▁appliances	-11.1017
▁manufactured	-11.1022
▁inspected	-11.1023
▁rescued	-11.1024
▁conservatives	-11.1025
▁Bus	-11.1031
▁Class	-11.1035
▁beating	-11.1035
▁eggs	-11.1038
▁raises	-11.1046
▁Pro	-11.105
seop	-11.105
ent	-11.1071
▁directions	-11.1087
▁automobiles	-11.1092
▁Geum	-11.1099
▁tank	-11.1099
▁ill	-11.1107
▁2010,	-11.1109
▁oppose	-11.111
▁abnormal	-11.1116
rae	-11.1123
▁newsletter	-11.1127
▁Asset	-11.1132
▁toilet	-11.1132
▁emerge	-11.1133
yoon	-11.1134
▁hurry	-11.1135
king	-11.1145
▁fruits	-11.115
▁cafes	-11.1153
▁Corps	-11.1159
▁numer	-11.1165
▁bicycles	-11.1167
▁platforms	-11.1167
▁mistakes	-11.1174
▁shoot	-11.1176
▁medals	-11.1178
▁mini	-11.1185
▁prestig	-11.1195
▁Gi	-11.1201
▁arm	-11.1212
▁defect	-11.1216
▁technological	-11.1218
eanwhile	-11.122
▁Egypt	-11.1222
▁Taekwondo	-11.1222
▁Creative	-11.1222
▁disappointed	-11.1223
▁desirable	-11.1224
▁worldwide	-11.1224
▁encouraging	-11.1226
▁grammar	-11.1227
▁Gwacheon	-11.1227
▁Experience	-11.1227
▁width	-11.1228
▁renewal	-11.1228
▁listing	-11.1231
▁primary	-11.1232
▁greatest	-11.1232
▁Living	-11.1233
▁identification	-11.1237
▁punished	-11.1238
▁voters	-11.1243
▁tastes	-11.1244
▁dense	-11.1248
▁Chungju	-11.1249
▁laid	-11.125
▁defeated	-11.1252
▁burning	-11.1253
▁scent	-11.1254
▁declined	-11.126
▁Tak	-11.1263
▁ongoing	-11.1264
▁Wonju	-11.1274
▁2008,	-11.1275
▁Convention	-11.1286
▁belong	-11.1293
▁climb	-11.1302
▁hang	-11.1308
▁laugh	-11.1313
▁alive	-11.1333
kg	-11.1333
▁exists	-11.1334
▁fis	-11.134
▁Mari	-11.1341
▁locations	-11.1342
▁booths	-11.1346
▁lobby	-11.1346
▁supervisor	-11.1349
▁habit	-11.1352
▁44	-11.136
▁visual	-11.1361
▁Representatives	-11.1362
▁explosion	-11.1363
▁explore	-11.1365
▁phrase	-11.1367
▁characteristic	-11.1367
▁obligation	-11.1367
chi	-11.1374
▁hasn	-11.1374
▁restriction	-11.1374
▁summon	-11.1391
▁Though	-11.1394
▁(1	-11.1412
▁engines	-11.1414
▁Alt	-11.1414
▁targeting	-11.1414
▁4,	-11.142
▁genetic	-11.142
▁verify	-11.1434
▁expressions	-11.1436
▁determin	-11.1449
▁excess	-11.1453
▁moon	-11.1457
▁absent	-11.146
▁dignity	-11.146
▁congestion	-11.146
▁fisheries	-11.146
▁grateful	-11.146
▁feedback	-11.146
▁Chungcheongbuk	-11.1461
▁texture	-11.1461
▁declining	-11.1461
▁reborn	-11.1462
▁machinery	-11.1462
▁spotlight	-11.1463
▁firefighting	-11.1463
▁dynamic	-11.1464
▁cheese	-11.1465
▁pregnancy	-11.1465
▁kill	-11.1465
▁Ba	-11.1467
▁Seongdong	-11.1468
▁adoption	-11.1469
▁Jamsil	-11.147
▁imprisonment	-11.147
▁classic	-11.147
▁frozen	-11.147
▁transition	-11.1471
▁aftermath	-11.1471
▁80%	-11.1472
▁stabilize	-11.1472
▁500,000	-11.1474
▁indictment	-11.1475
▁Kwan	-11.1475
▁Yeom	-11.1478
▁Sure	-11.1482
▁restored	-11.1483
▁executed	-11.1484
speed	-11.1486
▁Ilsan	-11.149
▁Spring	-11.1492
▁Arabia	-11.15
▁2005	-11.1501
right	-11.1503
▁Hyeon	-11.1504
▁KBO	-11.151
▁congratulat	-11.1513
▁abused	-11.1517
▁failing	-11.152
▁seconds	-11.1523
▁presenting	-11.1525
▁die	-11.1527
▁deposits	-11.1527
▁examined	-11.1533
kwon	-11.1534
▁acquaintances	-11.1534
▁Sook	-11.1538
third	-11.1547
▁pets	-11.1548
▁advantages	-11.1563
ability	-11.1566
▁trucks	-11.1575
▁54	-11.1578
▁Thai	-11.1587
▁parade	-11.1599
▁reputation	-11.1604
▁Mexican	-11.1606
▁prayer	-11.1609
▁substance	-11.1611
▁keeps	-11.1613
▁stamp	-11.1615
▁visa	-11.1619
▁testing	-11.1622
▁Use	-11.1622
▁exams	-11.1623
▁cruise	-11.1625
▁speaker	-11.1629
mouth	-11.1632
▁attends	-11.1636
member	-11.164
▁writers	-11.1645
▁rewards	-11.1646
▁replac	-11.1649
▁Time	-11.1664
▁tomb	-11.1676
▁differentiate	-11.1677
▁papers	-11.168
▁outer	-11.1686
▁Nak	-11.1694
private	-11.1695
▁logic	-11.1695
▁trips	-11.1696
owned	-11.1701
▁dawn	-11.1703
▁worship	-11.1704
▁cautious	-11.1704
▁Stream	-11.1704
▁quarantine	-11.1704
▁commencement	-11.1704
▁Kaesong	-11.1705
▁surveillance	-11.1705
▁detention	-11.1705
▁tuberculosis	-11.1705
▁peaceful	-11.1705
▁coordination	-11.1705
▁Critics	-11.1706
▁sought	-11.1706
moon	-11.1708
▁Osaka	-11.1709
▁relics	-11.1709
▁dancing	-11.1712
▁Pocheon	-11.1714
▁residing	-11.1714
▁Prevention	-11.1715
▁literary	-11.1715
▁Yeoju	-11.1715
Mayor	-11.1716
▁newspapers	-11.1718
▁Gimhae	-11.1719
▁organic	-11.1719
▁Goseong	-11.172
▁eighth	-11.1721
▁Sept	-11.1722
▁frequency	-11.1724
▁acceptance	-11.1725
▁taxis	-11.1727
▁Superintendent	-11.173
▁bribes	-11.1731
▁partial	-11.1736
▁f	-11.1737
▁till	-11.1737
▁rainy	-11.174
▁eaten	-11.1743
▁powers	-11.1743
▁desired	-11.1744
▁regularly	-11.1745
▁guys	-11.1752
▁acquire	-11.1767
▁Ra	-11.1771
▁Program	-11.1774
bility	-11.1776
▁networks	-11.1778
▁muscles	-11.1779
▁print	-11.1792
▁(4)	-11.1794
▁journalists	-11.1795
▁pet	-11.1802
▁unity	-11.1804
▁breath	-11.1807
▁Ri	-11.182
▁sight	-11.1828
▁patterns	-11.183
▁opens	-11.1831
▁explaining	-11.1835
▁rebound	-11.1847
la	-11.1848
▁shutdown	-11.1849
▁footage	-11.1849
▁pizza	-11.1853
▁mothers	-11.1859
▁Cooperative	-11.186
▁journalist	-11.1862
▁patrol	-11.1864
▁searching	-11.1864
▁disorder	-11.1866
▁impression	-11.1866
▁Im	-11.1868
ntegrated	-11.1868
▁adviser	-11.1875
ance	-11.1879
▁Republican	-11.1886
▁Site	-11.1886
▁achiev	-11.1887
▁approve	-11.1888
▁eased	-11.1891
▁liver	-11.1896
ty	-11.1897
▁dad	-11.1897
▁designer	-11.1901
▁lying	-11.1906
▁Live	-11.1912
nt	-11.1914
▁weigh	-11.1921
▁sweat	-11.1925
▁fabric	-11.1927
▁sections	-11.1928
aritime	-11.1932
▁tough	-11.194
▁nations	-11.1941
▁topics	-11.1943
▁Buk	-11.1943
z	-11.1947
▁tens	-11.1948
all	-11.1949
ni	-11.1951
▁nervous	-11.1954
▁Toronto	-11.1954
▁Municipal	-11.1954
▁umbrella	-11.1954
▁bilateral	-11.1954
▁excited	-11.1954
▁childhood	-11.1954
▁sincerity	-11.1955
▁framework	-11.1955
▁understood	-11.1955
▁definitely	-11.1956
▁supreme	-11.1957
▁promptly	-11.1958
▁California	-11.1959
▁floating	-11.1961
▁consciousness	-11.1963
▁70%	-11.1963
taek	-11.1963
▁Britain	-11.1964
▁ancestors	-11.1965
▁transformed	-11.1967
▁Suncheon	-11.1967
▁Steel	-11.1969
▁flooded	-11.197
▁Learning	-11.197
▁Sharing	-11.197
▁bloom	-11.1971
▁qualified	-11.1971
▁soaring	-11.1971
▁2004	-11.1973
▁Bay	-11.1976
▁trains	-11.1977
▁basement	-11.1978
▁soared	-11.1979
▁Tell	-11.1983
▁successor	-11.1985
war	-11.1985
▁Cheol	-11.1993
▁Prior	-11.1995
▁mainstream	-11.1998
▁threatening	-11.2001
▁stream	-11.2002
istic	-11.2006
ter	-11.2007
hough	-11.2009
com	-11.2012
▁incidents	-11.2024
▁Enterprises	-11.2027
▁touching	-11.2028
▁knee	-11.2033
▁mention	-11.2034
hong	-11.2037
▁guarantees	-11.2038
▁tools	-11.2039
▁Wi	-11.2043
▁sincere	-11.2044
▁rises	-11.2045
▁habits	-11.2053
▁slowing	-11.2055
▁concerts	-11.2057
▁drinks	-11.209
▁telephone	-11.2104
▁auditorium	-11.2109
▁inner	-11.211
▁grows	-11.2112
▁grandfather	-11.2115
▁obvious	-11.2115
▁context	-11.2115
▁celebration	-11.2115
▁ultimate	-11.2116
▁classroom	-11.2117
▁signature	-11.2117
▁Telecom	-11.2117
▁refrain	-11.212
▁infection	-11.2124
▁runner	-11.2132
wing	-11.2151
▁seller	-11.2152
sam	-11.2159
▁constitution	-11.2161
▁professionals	-11.2163
▁format	-11.2176
▁networking	-11.218
retired	-11.2183
▁3,	-11.2191
▁prompt	-11.2207
▁observe	-11.2207
▁transform	-11.2209
▁embassy	-11.221
▁Expenses	-11.221
▁prominent	-11.221
▁libraries	-11.221
▁innocent	-11.2211
▁requir	-11.2211
▁confused	-11.2212
▁encouragement	-11.2212
▁tennis	-11.2213
▁prospective	-11.2213
▁Sky	-11.2213
▁Hi	-11.2213
▁opposing	-11.2213
▁Saemaul	-11.2215
▁Hollywood	-11.2215
▁anywhere	-11.2216
▁Tongyeong	-11.2216
▁Dokdo	-11.2216
▁cultivation	-11.2217
▁competing	-11.2217
▁sincerely	-11.2217
▁faithfully	-11.2218
▁consistently	-11.2218
▁sand	-11.2219
▁maker	-11.222
▁Stock	-11.2221
▁fought	-11.2221
▁leakage	-11.2221
After	-11.2221
▁upward	-11.2222
▁Anti	-11.2222
▁Dance	-11.2222
▁conversations	-11.2224
chairman	-11.2224
▁Earth	-11.2224
▁Criminal	-11.2225
▁landing	-11.2226
▁dental	-11.2226
▁Hanyang	-11.2228
▁feared	-11.2232
▁"2018	-11.2235
▁advancement	-11.2236
▁2014.	-11.2236
face	-11.2236
aved	-11.224
▁recreation	-11.2241
▁crack	-11.2242
▁25%	-11.2244
▁publicity	-11.2248
▁universal	-11.225
▁soju	-11.2253
▁doubled	-11.2254
▁hop	-11.2256
▁shots	-11.2259
▁shocking	-11.2259
▁reservations	-11.2261
bi	-11.2261
hose	-11.2267
▁noticed	-11.2267
▁symbol	-11.2267
▁2021	-11.2269
om	-11.227
▁lacking	-11.2272
▁schedules	-11.2274
▁log	-11.2274
▁proof	-11.2288
deok	-11.2295
▁Islam	-11.2304
▁Tong	-11.2304
▁thereby	-11.2306
▁equal	-11.2312
▁Old	-11.2318
▁hopes	-11.2318
19	-11.2319
▁discounts	-11.2321
▁computers	-11.2334
▁decreases	-11.2347
▁hide	-11.2361
▁packaging	-11.2368
▁48	-11.2369
▁liquor	-11.2371
▁robots	-11.238
▁decade	-11.2381
▁relationships	-11.2382
▁Suk	-11.2382
▁scholar	-11.2382
▁announc	-11.2384
▁guardian	-11.2386
▁Student	-11.2386
▁outlet	-11.2388
▁tunnel	-11.2389
▁2018.	-11.2389
▁veteran	-11.2391
▁shouldn	-11.2394
jang	-11.2395
▁Kindergarten	-11.2397
▁commendation	-11.2405
▁surround	-11.2443
▁affiliat	-11.2449
▁Northeast	-11.2452
▁sets	-11.2455
POP	-11.246
▁130	-11.2462
▁FA	-11.2463
▁suits	-11.2468
▁measur	-11.2469
▁evasion	-11.2474
▁enthusiasm	-11.2474
▁necessity	-11.2474
▁embarrassed	-11.2474
▁Eunpyeong	-11.2474
▁Room	-11.2474
▁Campus	-11.2474
▁nose	-11.2474
▁Yangpyeong	-11.2474
▁unclear	-11.2474
▁inflation	-11.2474
▁laughter	-11.2475
▁specifically	-11.2477
▁releasing	-11.2478
▁occupancy	-11.2478
▁vacancy	-11.2479
▁laundry	-11.2479
▁drove	-11.2479
▁knife	-11.2479
▁Broadcasting	-11.2479
▁Yeongdong	-11.2479
▁sophisticated	-11.248
▁islands	-11.2481
▁cuts	-11.2481
▁Osan	-11.2481
▁mobilized	-11.2481
▁batting	-11.2482
▁deployed	-11.2482
▁shake	-11.2484
▁Floor	-11.2484
▁activated	-11.2485
▁chronic	-11.249
responsibilities	-11.249
▁worsening	-11.2492
▁borrowed	-11.2492
▁conveyed	-11.2493
▁poet	-11.2495
▁intentionally	-11.2497
woong	-11.25
Emergency	-11.2503
▁exempt	-11.2505
▁grave	-11.2506
▁photographs	-11.2514
▁remembered	-11.2515
▁(5)	-11.2516
▁lifting	-11.2518
el	-11.2519
▁rear	-11.2523
sharing	-11.2527
▁recipients	-11.2528
▁activists	-11.2538
▁Nations	-11.2543
▁cameras	-11.2543
▁admissions	-11.2544
▁campus	-11.2545
▁Best	-11.2545
▁overtime	-11.2545
▁introduces	-11.256
▁meets	-11.256
▁indicate	-11.2561
▁criticiz	-11.2569
▁displays	-11.257
withstand	-11.258
da	-11.2584
▁revenues	-11.2585
▁breaks	-11.2609
eemed	-11.2611
▁2007	-11.2612
At	-11.2623
▁cups	-11.2628
▁criticize	-11.2633
▁crowd	-11.2634
▁television	-11.2637
▁emotion	-11.2646
▁captain	-11.2646
▁reside	-11.2647
▁legend	-11.2648
▁Joong	-11.2651
▁Pacific	-11.2653
▁Venture	-11.2655
▁remark	-11.2657
▁drone	-11.2663
seung	-11.2663
▁Malaysian	-11.2669
▁Paulo	-11.267
▁liquid	-11.267
▁buyer	-11.2676
▁dis	-11.2682
▁tru	-11.2682
▁mix	-11.2683
▁Give	-11.2684
▁borrow	-11.2691
▁abolish	-11.2697
▁Gas	-11.27
▁Mo	-11.27
▁languages	-11.2707
▁Ro	-11.2709
▁demonstrate	-11.2726
▁functional	-11.2729
▁sport	-11.2731
▁crash	-11.2732
▁GS	-11.2733
▁divorce	-11.2738
▁Disabled	-11.2743
▁Senator	-11.2743
▁poverty	-11.2743
▁Fortress	-11.2743
▁Senate	-11.2743
▁hygiene	-11.2743
▁gambling	-11.2744
▁omitted	-11.2744
▁farmland	-11.2744
▁coalition	-11.2744
▁deterioration	-11.2744
▁noteworthy	-11.2744
▁volatility	-11.2744
▁passionate	-11.2744
▁1960	-11.2744
dimensional	-11.2745
▁inventory	-11.2746
▁accessible	-11.2746
▁welcoming	-11.2746
▁backdrop	-11.2747
▁negotiating	-11.2747
ological	-11.2748
▁renewed	-11.2748
▁representation	-11.2749
▁KEPCO	-11.2749
▁fishery	-11.275
▁cyber	-11.275
▁allocated	-11.275
▁allocation	-11.2751
▁weakened	-11.2751
▁specialty	-11.2751
▁Jincheon	-11.2752
ate	-11.2753
▁Confucian	-11.2755
▁acknowledged	-11.2755
▁Reserve	-11.2755
party	-11.2756
▁neglected	-11.2758
▁Generation	-11.2761
▁initially	-11.2761
school	-11.2764
▁Mira	-11.2768
What	-11.2772
▁challenges	-11.2778
▁dismiss	-11.2779
▁Products	-11.278
▁1970	-11.2781
▁40%	-11.2783
)."	-11.2785
▁breathing	-11.2788
▁refunded	-11.279
▁Unit	-11.279
ts	-11.2801
▁Druking	-11.2801
▁immigrants	-11.2802
▁historic	-11.2805
▁Right	-11.2807
▁55	-11.281
▁mode	-11.2815
▁72	-11.2818
▁flying	-11.2819
▁pen	-11.2823
▁calculat	-11.2829
▁additionally	-11.283
▁approaching	-11.2831
▁questioned	-11.2836
▁1,500	-11.2838
▁wondering	-11.2839
▁(5	-11.2841
▁cooling	-11.2843
gon	-11.2853
▁happening	-11.2854
▁Chu	-11.2862
▁roll	-11.2864
▁stir	-11.2883
▁cats	-11.2884
reave	-11.2888
▁enhanc	-11.2894
▁flights	-11.2894
▁generate	-11.2896
▁encounter	-11.2912
▁capture	-11.2912
▁ceiling	-11.2914
▁publish	-11.2921
▁occasion	-11.2921
etary	-11.2922
▁predecessor	-11.2922
▁knows	-11.2922
▁monument	-11.2927
▁wallet	-11.2927
▁offense	-11.2939
▁civilians	-11.2939
▁investor	-11.2941
▁airline	-11.2947
▁luck	-11.2949
▁bomb	-11.2953
▁indicat	-11.2966
▁layer	-11.2969
hop	-11.2974
▁sensor	-11.2983
▁Gate	-11.299
▁pig	-11.3001
ily	-11.3001
▁combin	-11.3014
▁revive	-11.3014
▁spray	-11.3016
▁wonderful	-11.3016
▁substantial	-11.3017
▁surprising	-11.3018
uality	-11.3019
▁Book	-11.302
▁wholesale	-11.302
▁Renault	-11.3021
▁territory	-11.3021
▁KOSPI	-11.3021
▁solidarity	-11.3021
▁creativity	-11.3021
▁excellence	-11.3021
▁Furthermore	-11.3021
▁comparison	-11.3021
▁NIS	-11.3021
▁Medicine	-11.3021
▁commodity	-11.3021
▁transparency	-11.3022
▁Vision	-11.3022
▁decisive	-11.3022
▁margin	-11.3023
je	-11.3025
▁worries	-11.3025
▁everywhere	-11.3025
▁strictly	-11.3025
▁Argentina	-11.3027
▁unnecessary	-11.3028
▁Royal	-11.3028
▁Christianity	-11.3028
▁vary	-11.3029
▁anticipated	-11.303
▁corrective	-11.303
life	-11.303
▁confessed	-11.3032
▁hotels	-11.3032
▁exclusively	-11.3033
▁Gwanggyo	-11.3033
▁parcel	-11.3033
▁Shopping	-11.3033
▁USD	-11.3034
▁terrible	-11.3037
▁geographical	-11.3038
▁Morning	-11.3039
▁sanitary	-11.3044
▁dried	-11.3049
▁filing	-11.3049
▁KB	-11.3054
▁Teachers	-11.3054
▁zero	-11.3057
▁believers	-11.3062
▁bound	-11.3067
▁dating	-11.3068
▁shower	-11.3071
▁grill	-11.3071
▁homeless	-11.3072
▁deliberated	-11.3075
▁proceeded	-11.3075
▁Songdo	-11.3081
driving	-11.3082
▁arise	-11.3085
▁critics	-11.3085
South	-11.3085
▁sing	-11.3096
▁prospects	-11.3102
▁Space	-11.3113
▁Du	-11.3113
▁featur	-11.3114
▁sort	-11.3117
▁Happ	-11.3118
▁Hill	-11.3135
▁CEOs	-11.3137
▁belongs	-11.3137
▁rough	-11.3147
▁seasons	-11.3148
▁sole	-11.3156
Accounting	-11.3157
▁heading	-11.316
▁fired	-11.317
▁absorb	-11.3172
▁doors	-11.3174
▁rail	-11.3179
▁bowl	-11.3181
▁stuff	-11.3192
,000	-11.3194
▁salad	-11.3206
▁invention	-11.3209
▁edition	-11.3209
▁ca	-11.3212
▁attachment	-11.3212
▁invasion	-11.3212
▁Ocean	-11.3214
▁evil	-11.3222
▁du	-11.3222
▁valley	-11.3223
▁remov	-11.3235
ex	-11.3243
▁yield	-11.3246
▁counsel	-11.3262
New	-11.3263
▁forests	-11.3276
▁boom	-11.3279
You	-11.3279
▁attribut	-11.3283
American	-11.3286
▁Arab	-11.3299
▁desperate	-11.3303
AI	-11.3303
▁Netflix	-11.3307
▁Personnel	-11.3307
▁Spokesman	-11.3307
▁tendency	-11.3307
▁Chilgok	-11.3307
▁Spirit	-11.3307
▁spectacular	-11.3307
▁treasury	-11.3307
▁consignment	-11.3307
▁surplus	-11.3307
▁Bolton	-11.3307
▁grasp	-11.3307
▁Extension	-11.3307
performance	-11.3307
▁1998	-11.3308
▁greenhouse	-11.3308
▁exercising	-11.3309
▁fastest	-11.331
▁hospitalized	-11.3311
▁comeback	-11.3312
▁waist	-11.3313
▁Mount	-11.3313
▁Bloomberg	-11.3313
▁Bupyeong	-11.3313
▁Seongbuk	-11.3313
▁Sometimes	-11.3313
▁Psy	-11.3314
▁donate	-11.3315
▁mobility	-11.3316
▁leap	-11.3317
▁strongest	-11.3317
▁Garden	-11.3318
▁ASEAN	-11.3318
▁ages	-11.3319
▁Happiness	-11.3319
▁uploaded	-11.3321
▁artifacts	-11.3322
▁hiding	-11.3322
▁Christians	-11.3324
▁backlash	-11.3325
▁submitting	-11.3325
▁resigned	-11.3326
▁powder	-11.3326
▁nominated	-11.3327
▁breeding	-11.3328
▁prohibited	-11.3329
▁Creation	-11.3331
▁reverse	-11.3331
work	-11.3332
▁pouring	-11.3332
▁pants	-11.3333
▁crying	-11.3336
▁lotus	-11.3337
▁approached	-11.3341
▁immune	-11.3344
▁KIN	-11.3344
▁relevan	-11.3344
▁crops	-11.3346
DA	-11.3359
▁worn	-11.3362
▁traces	-11.3364
▁voted	-11.3377
▁searched	-11.338
▁mock	-11.339
range	-11.3391
▁sum	-11.3395
▁Change	-11.3406
▁fried	-11.3407
▁upload	-11.3407
▁intervene	-11.3409
▁brothers	-11.3414
▁Gil	-11.3429
ling	-11.3447
▁filmed	-11.3448
▁spa	-11.3451
▁Choe	-11.3457
night	-11.3458
▁Easter	-11.3468
cy	-11.3469
▁compromise	-11.3483
sports	-11.3484
▁Game	-11.3484
▁malls	-11.3485
▁valid	-11.3485
moo	-11.3493
▁agreements	-11.3498
▁staged	-11.3499
▁Brazilian	-11.3499
▁Language	-11.3501
▁iPhone	-11.3503
▁initiative	-11.3504
▁floors	-11.3508
▁likes	-11.3509
▁cakes	-11.3509
▁Animal	-11.351
▁dividend	-11.3511
▁suggestion	-11.3513
uri	-11.3514
rew	-11.3516
▁ideal	-11.3517
elected	-11.3518
▁incentive	-11.352
▁chest	-11.352
▁harm	-11.3521
▁Federa	-11.3521
ueen	-11.3527
▁catching	-11.3528
▁Lu	-11.3531
▁measurement	-11.3534
▁alley	-11.3545
▁speeding	-11.3547
▁wrap	-11.3558
▁suspects	-11.356
▁daughters	-11.3562
▁holder	-11.3566
national	-11.3567
▁cheer	-11.3567
TV	-11.3576
▁Deok	-11.3585
▁prizes	-11.3587
▁contributions	-11.3591
ine	-11.3592
▁bonus	-11.3596
▁delicate	-11.3596
▁remote	-11.3598
▁devoted	-11.3599
▁referee	-11.3599
▁David	-11.36
▁afford	-11.3601
▁chemistry	-11.3601
▁recurrence	-11.3601
▁slight	-11.3601
▁diesel	-11.3601
▁vacant	-11.3601
▁Traffic	-11.3601
▁scattered	-11.3601
▁batteries	-11.3601
▁Over	-11.3601
▁properties	-11.3601
▁dramatically	-11.3601
▁collusion	-11.3601
▁Particularly	-11.3602
▁aviation	-11.3602
▁ramen	-11.3603
▁copies	-11.3603
▁significance	-11.3606
▁messenger	-11.3606
▁romantic	-11.3607
▁halls	-11.3607
▁noticeable	-11.3608
▁Namsan	-11.361
▁overdue	-11.3613
▁abolished	-11.3615
▁courage	-11.3617
▁dominated	-11.3617
▁attendees	-11.3617
▁Seosan	-11.3617
▁realization	-11.3619
▁CNN	-11.3619
▁Manchester	-11.3619
▁59	-11.363
▁Ham	-11.3637
▁gentle	-11.3639
▁organizing	-11.364
▁subscribe	-11.364
ahn	-11.364
▁indirectly	-11.3642
▁appealed	-11.3645
▁menus	-11.3648
▁stepping	-11.365
▁chips	-11.3657
▁travelers	-11.3657
▁adverse	-11.3661
0,000	-11.3665
▁cooked	-11.3668
▁distinguish	-11.3669
▁walked	-11.3674
▁strengths	-11.3674
▁liberation	-11.3679
▁Take	-11.3683
Mart	-11.3683
▁variables	-11.3683
▁matching	-11.3686
▁stones	-11.3688
▁developers	-11.3697
▁input	-11.37
▁63	-11.3705
▁motion	-11.3711
▁secrets	-11.3714
▁examin	-11.3715
One	-11.3719
50	-11.3723
etting	-11.3724
▁taxpayers	-11.3731
oh	-11.3737
▁Inha	-11.3737
▁tenants	-11.3741
15	-11.3742
misunderstanding	-11.3752
▁script	-11.3775
▁delivering	-11.3777
▁celebrat	-11.3791
heon	-11.3792
▁fellow	-11.3795
▁offensive	-11.3796
▁uniforms	-11.3799
▁prejudice	-11.3802
▁mortgage	-11.3804
▁lay	-11.3805
▁breast	-11.3809
▁palace	-11.3813
▁Apartment	-11.3813
▁acquaintance	-11.3813
▁Expo	-11.3814
▁rival	-11.3815
▁poem	-11.3816
▁muscle	-11.3817
▁prospect	-11.3817
▁Or	-11.3818
▁Pr	-11.3822
mir	-11.3824
▁vessel	-11.3829
▁warming	-11.383
▁broadcaster	-11.3838
▁developer	-11.3842
▁Kingdom	-11.3848
▁stroke	-11.385
▁viewing	-11.3852
▁shoulders	-11.387
▁represents	-11.387
▁Paul	-11.387
▁Seol	-11.388
▁charter	-11.3887
▁inconveniences	-11.3887
▁1.2	-11.3893
▁accelerate	-11.39
▁Sydney	-11.3904
▁enormous	-11.3904
▁fatigue	-11.3904
▁journey	-11.3904
▁vitality	-11.3904
▁mysterious	-11.3904
▁unreasonable	-11.3904
▁cabinet	-11.3904
▁Gangbuk	-11.3904
▁Alliance	-11.3904
▁Belgium	-11.3904
▁unprecedented	-11.3904
▁uncertainty	-11.3904
▁breakthrough	-11.3904
▁consistent	-11.3904
▁trash	-11.3905
▁normalization	-11.3905
▁silk	-11.3905
▁possession	-11.3906
▁Mark	-11.3906
▁revitalizing	-11.3906
▁Sector	-11.3906
▁advantageous	-11.3908
▁Liberal	-11.3908
duk	-11.3909
▁fishermen	-11.391
▁embezzlement	-11.391
▁informatization	-11.391
▁Assessment	-11.391
▁rooftop	-11.391
▁Yeoncheon	-11.3911
▁freeze	-11.3911
▁Hanbok	-11.3912
▁rarely	-11.3912
▁pink	-11.3914
▁Dan	-11.3914
▁instability	-11.3915
▁Arena	-11.3915
▁modified	-11.3916
▁postponed	-11.3916
▁enactment	-11.3916
▁eliminated	-11.3917
▁Champions	-11.3917
▁occupied	-11.3917
▁perfectly	-11.3917
▁treaty	-11.3917
▁reversed	-11.3917
▁Lawyer	-11.3918
▁amended	-11.3918
▁Parents	-11.3918
▁reject	-11.392
▁Tree	-11.392
▁lucky	-11.3922
▁romance	-11.3923
▁Five	-11.3928
▁weekdays	-11.393
verge	-11.393
▁mathematics	-11.3935
▁commonly	-11.3937
▁positively	-11.3939
▁lineup	-11.3945
▁reflection	-11.3947
▁slowed	-11.3949
ung	-11.395
▁competitors	-11.3953
▁flooding	-11.3954
▁providers	-11.3961
▁describe	-11.3962
mun	-11.3977
▁tool	-11.3978
purpose	-11.398
▁commit	-11.3984
▁resumed	-11.3985
▁5,	-11.3986
▁Gong	-11.3987
standing	-11.3988
▁issu	-11.3989
▁pine	-11.3994
League	-11.3996
▁optim	-11.3996
▁VR	-11.3999
▁suggestions	-11.4001
▁emphasiz	-11.4004
Pacific	-11.4006
▁Con	-11.4009
▁pursuing	-11.4024
▁involve	-11.4025
▁lessons	-11.4039
▁%	-11.4052
▁stops	-11.4056
▁cumulat	-11.4065
▁surveyed	-11.4066
▁pot	-11.4079
▁se	-11.4082
▁estimates	-11.4082
▁minu	-11.4084
▁praise	-11.4097
▁Bok	-11.4099
orized	-11.41
▁update	-11.4111
▁element	-11.4118
▁satellite	-11.412
▁railroad	-11.4122
▁pedestrian	-11.4122
▁outbreak	-11.4123
prescribing	-11.4125
▁poster	-11.4126
▁47	-11.4127
▁Content	-11.4128
▁broadcasts	-11.4133
▁investigator	-11.4136
▁millions	-11.4137
▁traded	-11.4138
pyeong	-11.4139
▁quota	-11.4141
low	-11.4145
▁carrier	-11.4152
▁defend	-11.4162
▁mon	-11.4171
▁booking	-11.4179
▁bone	-11.4189
track	-11.4191
▁Councilor	-11.4193
▁hill	-11.4204
▁facilitate	-11.4205
▁construct	-11.4207
▁revoke	-11.421
▁reception	-11.4211
▁Solidarity	-11.4216
▁credibility	-11.4216
▁excitement	-11.4216
▁gratitude	-11.4216
▁passive	-11.4216
▁penalties	-11.4216
▁faculty	-11.4216
▁crucial	-11.4217
Corruption	-11.4219
▁Actually	-11.4219
▁recommendations	-11.4219
▁activate	-11.422
▁spiritual	-11.422
▁stairs	-11.422
▁Christ	-11.422
▁loud	-11.4221
▁workweek	-11.4221
▁Metro	-11.4221
▁Cross	-11.4222
▁exploration	-11.4223
▁problematic	-11.4223
▁suspicious	-11.4223
▁latter	-11.4224
▁preferentially	-11.4225
▁Pursu	-11.4225
▁burst	-11.4225
▁Prince	-11.4225
▁reshuffle	-11.4226
▁witnesses	-11.4226
▁highlighted	-11.4227
▁cloudy	-11.4228
▁deleted	-11.4228
▁appeals	-11.4228
▁JTBC	-11.4229
▁Terminal	-11.4229
▁intersection	-11.423
▁Evaluation	-11.423
▁Boo	-11.4232
▁Allowances	-11.4233
▁defectors	-11.4233
▁Oct	-11.4233
▁aggressive	-11.4234
▁lend	-11.4235
2019	-11.4235
▁ethnic	-11.4236
▁arrange	-11.4238
▁Traditional	-11.4238
▁shame	-11.4238
nce	-11.424
▁welcomed	-11.424
▁Companies	-11.4243
▁reserved	-11.4247
▁pollutants	-11.4248
▁inflow	-11.425
▁Maybe	-11.4253
▁Story	-11.4258
▁mechanical	-11.4259
▁mis	-11.4259
▁Nov	-11.426
▁abilities	-11.4261
▁proven	-11.4263
▁pan	-11.4269
▁striker	-11.4279
KRW	-11.428
▁Kuk	-11.4281
▁75	-11.4284
▁Dec	-11.4285
ad	-11.4285
▁magic	-11.4286
▁discipline	-11.4289
▁expecting	-11.4294
On	-11.4299
▁sculptures	-11.43
▁characterize	-11.4305
▁barriers	-11.4307
▁cave	-11.4311
▁dividends	-11.4316
bae	-11.4318
▁airlines	-11.4323
▁approximate	-11.4323
▁defects	-11.4324
hosted	-11.4324
driven	-11.4327
lecommunications	-11.4332
name	-11.4334
To	-11.4339
▁tap	-11.434
▁micro	-11.4345
▁(2	-11.4346
▁Asan	-11.4367
▁camping	-11.4367
▁traveled	-11.4368
▁tie	-11.437
hui	-11.4373
▁renowned	-11.4383
▁bell	-11.4391
▁clouds	-11.4392
▁covering	-11.44
▁Futures	-11.4405
▁warrants	-11.441
▁filter	-11.4421
%	-11.4426
▁Disease	-11.4429
▁warehouse	-11.4441
▁mirror	-11.4442
▁spouse	-11.4445
▁Enterprise	-11.4446
▁barrier	-11.4446
▁companion	-11.4448
▁coupon	-11.445
▁tissue	-11.445
▁Stand	-11.4451
▁dispose	-11.4452
▁10-	-11.4457
utonomous	-11.4459
▁pavilion	-11.4462
▁dependent	-11.4462
▁commissioner	-11.4462
▁meant	-11.4472
▁5%	-11.4491
koo	-11.4515
dang	-11.4517
▁2019.	-11.4517
▁label	-11.4519
▁180	-11.4519
▁elder	-11.4521
▁46	-11.4522
▁convene	-11.4533
▁canno	-11.4536
▁Cambodia	-11.4539
▁gospel	-11.4539
▁gasoline	-11.4539
▁Shipbuilding	-11.4539
▁influential	-11.4539
▁sunlight	-11.4539
▁comfortably	-11.4539
▁regrettable	-11.4539
▁Junior	-11.4539
▁underprivileged	-11.4539
▁intensified	-11.4539
▁unstable	-11.454
▁midnight	-11.454
▁burdensome	-11.454
▁Honam	-11.454
▁memorable	-11.4541
▁redevelopment	-11.4542
▁Golf	-11.4543
▁1987	-11.4543
▁Journal	-11.4544
▁equally	-11.4544
▁enemy	-11.4545
▁Biegun	-11.4545
▁exhausted	-11.4545
▁clarify	-11.4546
▁wireless	-11.4546
▁detection	-11.4547
▁expired	-11.455
▁distribut	-11.4552
▁oxygen	-11.4552
▁integrity	-11.4552
▁Laos	-11.4552
▁soul	-11.4555
▁poisoning	-11.4555
away	-11.4557
▁mounting	-11.4557
▁90%	-11.4558
▁recycling	-11.4559
▁correctly	-11.4561
▁painted	-11.4562
▁heaven	-11.4562
▁pity	-11.4564
▁asleep	-11.4567
▁comprehensively	-11.4568
▁trainees	-11.4568
▁shocked	-11.4569
▁glance	-11.457
▁warnings	-11.457
▁lover	-11.457
yi	-11.4572
▁Gwangmyeong	-11.4573
▁forgot	-11.4574
▁readers	-11.4574
▁detect	-11.4574
▁grass	-11.4575
▁individually	-11.4579
▁hinder	-11.4581
▁caf	-11.4583
▁streaming	-11.4584
▁Ban	-11.4584
▁Startups	-11.4584
▁verbal	-11.4585
▁Cheongdo	-11.459
▁purifiers	-11.4593
▁intensity	-11.4594
Please	-11.4598
▁sang	-11.4602
▁KO	-11.4602
▁pipes	-11.4603
▁corrected	-11.4603
▁screened	-11.4611
ran	-11.4614
▁textbooks	-11.4615
ke	-11.4615
▁engineers	-11.4616
▁Sim	-11.462
▁accordingly	-11.4629
▁beverages	-11.4629
▁carriers	-11.4638
gyeong	-11.4641
commerce	-11.4651
there	-11.4657
▁pitch	-11.4662
▁160	-11.4669
▁overcom	-11.4683
▁parked	-11.4684
▁repeat	-11.4685
▁trauma	-11.469
▁pretend	-11.4692
:30	-11.4698
Altho	-11.4701
▁permits	-11.4708
▁pitchers	-11.4713
▁downturn	-11.4715
▁wash	-11.4723
▁appearing	-11.4726
▁thin	-11.473
▁preparations	-11.4734
▁bird	-11.475
▁1-	-11.4756
temporary	-11.4758
▁Robert	-11.4762
▁motivation	-11.4764
▁march	-11.4765
▁Mu	-11.4768
▁Railway	-11.4769
▁rid	-11.477
▁kingdom	-11.4772
fine	-11.4772
▁elevator	-11.4775
▁textile	-11.4775
▁boats	-11.4777
▁unauth	-11.4777
▁stretch	-11.4778
▁calculate	-11.4778
▁technique	-11.4779
▁Volunteer	-11.478
▁animation	-11.4782
▁beverage	-11.4784
▁PM	-11.4785
▁variable	-11.4786
▁feed	-11.4791
▁lifestyle	-11.4792
▁fined	-11.4794
▁reforms	-11.4796
▁Mongolian	-11.4801
▁Call	-11.4801
▁nurse	-11.4805
▁conditioner	-11.4812
▁yard	-11.4813
▁apps	-11.4813
▁51	-11.4815
▁interpret	-11.4816
▁differ	-11.4819
▁railways	-11.482
▁Nuri	-11.4824
▁twin	-11.4828
▁arrangement	-11.4839
ian	-11.4842
▁associate	-11.4845
▁boys	-11.4849
▁MC	-11.4849
▁founding	-11.4852
▁distrust	-11.4857
▁filling	-11.4864
rin	-11.4867
▁publicize	-11.4867
▁Gymnasium	-11.4872
▁Michuhol	-11.4872
▁Madrid	-11.4872
▁beneficiaries	-11.4872
▁plaza	-11.4872
▁Paik	-11.4872
▁Vladi	-11.4872
▁sorrow	-11.4873
▁Geumcheon	-11.4873
▁fitness	-11.4873
▁reluctant	-11.4873
▁entitled	-11.4873
▁anticipation	-11.4873
▁3.	-11.4874
▁1996	-11.4874
▁radiation	-11.4875
▁preside	-11.4875
reliance	-11.4876
▁hiking	-11.4876
▁surname	-11.4878
▁Rice	-11.4879
▁obesity	-11.4879
▁resumption	-11.4879
▁smiling	-11.488
▁humanities	-11.488
▁adjacent	-11.4881
▁posture	-11.4884
▁lady	-11.4885
▁deciding	-11.4886
▁ROK	-11.4886
▁Starbucks	-11.4886
▁Billboard	-11.4886
▁Guardian	-11.4886
▁righteous	-11.4887
▁pulled	-11.4888
▁duration	-11.489
▁Veterans	-11.489
▁ignored	-11.4891
▁overwhelming	-11.4893
▁whatever	-11.4896
▁brown	-11.4896
area	-11.4899
▁apologized	-11.4899
▁automatic	-11.49
▁fairly	-11.49
▁Code	-11.4902
▁escaped	-11.4902
▁adopt	-11.4903
▁seize	-11.4904
▁Yellow	-11.4907
▁Deal	-11.4908
bum	-11.4909
▁fairy	-11.4909
▁tours	-11.491
▁printed	-11.4912
▁discovery	-11.4912
▁represented	-11.4914
▁touched	-11.4917
▁Mall	-11.4921
▁attacked	-11.4921
▁FIFA	-11.4921
▁preserved	-11.4924
▁1995	-11.4924
▁Seven	-11.4927
▁GT	-11.4929
▁indirect	-11.4931
door	-11.4933
exclud	-11.4934
▁listened	-11.4936
▁disadvantages	-11.4942
▁Hu	-11.4943
tional	-11.4947
▁presentations	-11.4948
▁seasonal	-11.495
▁avoided	-11.4953
▁practiced	-11.4953
▁depth	-11.4955
▁compulsor	-11.4962
25	-11.4962
cost	-11.4966
ortunately	-11.498
season	-11.4982
▁Concern	-11.4982
kyo	-11.4983
played	-11.4986
▁conductor	-11.4986
▁decades	-11.499
▁viewed	-11.4993
Let	-11.4993
▁storm	-11.4995
xpectations	-11.4999
▁drones	-11.5001
space	-11.5009
▁Girl	-11.5028
▁lacked	-11.5035
▁exten	-11.5044
▁Mary	-11.5049
▁willing	-11.5052
tory	-11.5054
She	-11.5064
▁ranks	-11.5065
sale	-11.5065
▁options	-11.5071
▁Report	-11.508
▁qualifications	-11.509
▁infant	-11.5094
▁imagination	-11.5107
▁batter	-11.5111
▁alarm	-11.5115
▁lodging	-11.5115
▁ear	-11.5116
▁colored	-11.5116
▁appraisal	-11.512
▁scenario	-11.5122
▁midterm	-11.5122
▁injection	-11.5123
▁bookstore	-11.5124
▁jacket	-11.5128
▁ritual	-11.513
▁kid	-11.5137
▁sculpture	-11.514
▁LED	-11.5152
▁rely	-11.5157
▁88	-11.5158
▁controll	-11.5161
▁Mom	-11.5172
onvergence	-11.5176
▁nav	-11.5177
working	-11.5178
▁courts	-11.5179
▁(3	-11.518
▁contractor	-11.518
▁precedent	-11.5192
▁starter	-11.5193
▁jail	-11.5203
iary	-11.5203
▁plunge	-11.5213
▁cultivate	-11.5214
▁Byun	-11.5214
▁weakness	-11.5214
▁Hynix	-11.5217
▁Pavilion	-11.5217
▁karaoke	-11.5217
▁privacy	-11.5217
▁essence	-11.5217
▁applause	-11.5217
▁charisma	-11.5217
▁unfavorable	-11.5217
▁pioneer	-11.5217
▁Gwangyang	-11.5217
▁steak	-11.5217
gyeom	-11.5217
▁Besides	-11.5217
▁brokerage	-11.5217
▁deregulation	-11.5217
▁economies	-11.5217
▁Syria	-11.5218
▁minority	-11.5218
▁workforce	-11.5219
▁inquiries	-11.5219
ish	-11.5219
▁hospitalization	-11.522
▁shouted	-11.522
▁refreshing	-11.522
▁resolving	-11.5221
▁cried	-11.5221
▁silent	-11.5222
▁gym	-11.5223
▁Dubai	-11.5224
▁inequality	-11.5224
▁homework	-11.5224
▁unmanned	-11.5224
▁prostitution	-11.5224
▁disagreement	-11.5225
▁comedy	-11.5225
▁resting	-11.5225
▁overnight	-11.5226
▁shirt	-11.5226
▁Things	-11.5226
▁healthcare	-11.5227
▁profitable	-11.5227
▁assume	-11.5229
▁transferring	-11.5229
▁polarization	-11.5231
▁relaxed	-11.5231
▁wire	-11.5235
▁57	-11.5236
▁output	-11.5238
▁practically	-11.5238
▁MERS	-11.5238
▁Summer	-11.5239
▁Reporter	-11.524
▁intelligent	-11.5241
▁packed	-11.5243
▁longest	-11.5245
▁advise	-11.5245
▁4-	-11.5246
▁Week	-11.5247
ied	-11.5248
▁DSC	-11.5248
▁notable	-11.525
▁circumstan	-11.5257
▁TF	-11.5259
atar	-11.5259
▁6,	-11.526
▁fled	-11.5263
▁Commissioner	-11.5269
▁retailers	-11.527
▁drills	-11.5271
grade	-11.5272
hand	-11.5273
▁Andong	-11.5274
▁Income	-11.5275
▁ignore	-11.5286
▁Long	-11.5287
▁Study	-11.5291
▁Working	-11.5292
ntellectual	-11.5292
▁evaluations	-11.5292
▁1999	-11.5293
▁seeds	-11.5296
▁Out	-11.5299
▁Ku	-11.53
▁enhanced	-11.5302
▁Pa	-11.5303
▁suppliers	-11.5304
J	-11.5307
▁moderate	-11.5313
▁strive	-11.5314
▁Play	-11.5322
▁recovering	-11.5327
▁pyeong	-11.5328
▁measured	-11.5328
▁aides	-11.5329
▁broadcasters	-11.533
largest	-11.5331
▁united	-11.5333
▁custom	-11.5335
heung	-11.5336
▁Hoon	-11.5336
▁examinations	-11.5338
▁retire	-11.534
▁60%	-11.5342
▁disbursement	-11.535
▁Confederat	-11.5352
hae	-11.5356
flight	-11.5356
▁designers	-11.5361
▁flowing	-11.5367
breaking	-11.5382
▁covers	-11.5383
▁auditor	-11.5401
▁conducts	-11.5404
▁therefor	-11.5406
▁Ik	-11.541
▁reactions	-11.5419
Gyeonggi	-11.5423
gok	-11.5428
room	-11.5434
Seoul	-11.5446
▁Its	-11.5448
▁Ice	-11.5456
from	-11.5458
ver	-11.5469
▁Choo	-11.5472
▁nin	-11.5472
▁shrimp	-11.5475
▁signboard	-11.5476
▁Onc	-11.5478
▁pagoda	-11.5478
▁relative	-11.548
▁religion	-11.5483
▁defender	-11.5483
▁snack	-11.5488
ol	-11.5489
▁statute	-11.5491
▁petitioner	-11.5493
▁Electronic	-11.5493
▁2019,	-11.5494
▁bars	-11.5498
▁sheet	-11.55
▁bike	-11.5502
▁countermeasure	-11.5502
▁Researcher	-11.5505
▁31,	-11.5507
▁specialist	-11.5508
▁Pil	-11.5519
jeon	-11.5523
▁Mart	-11.5524
▁Master	-11.5527
ge	-11.5529
▁Watch	-11.5534
▁meter	-11.5539
▁adapt	-11.5541
road	-11.5553
▁Sae	-11.5554
▁Nucle	-11.5555
▁AM	-11.5556
▁IP	-11.5557
▁Beom	-11.5559
▁emphasi	-11.5563
▁honest	-11.5563
▁postpone	-11.5566
▁acquir	-11.5567
▁Challenge	-11.557
▁imagine	-11.5572
▁Michael	-11.5574
▁Nonghyup	-11.5574
▁nowadays	-11.5574
▁Disabilities	-11.5574
▁awkward	-11.5574
▁exotic	-11.5574
▁craze	-11.5574
▁maturity	-11.5574
▁cotton	-11.5574
esteem	-11.5574
▁dormitory	-11.5574
▁KakaoTalk	-11.5574
▁Battle	-11.5574
▁Coordination	-11.5574
▁freight	-11.5574
▁immunity	-11.5574
▁Stephen	-11.5575
▁copyright	-11.5575
▁nursery	-11.5575
▁Nexon	-11.5575
▁rejection	-11.5575
▁Heroes	-11.5576
▁Statistical	-11.5576
▁Administrati	-11.5576
▁Santa	-11.5576
▁unilaterally	-11.5577
▁ourselves	-11.5577
▁blame	-11.5577
▁hurts	-11.5578
▁exploded	-11.5578
▁shrine	-11.5578
uating	-11.5579
▁intent	-11.558
▁coexist	-11.558
▁dining	-11.5581
▁distorted	-11.5581
▁140	-11.5581
▁mileage	-11.5581
▁occurring	-11.5581
▁authentication	-11.5581
▁defensive	-11.5581
▁translated	-11.5583
▁Relations	-11.5583
▁occupy	-11.5584
▁appreciation	-11.5584
▁virus	-11.5584
▁specify	-11.5584
▁vast	-11.5584
▁addiction	-11.5585
▁terminated	-11.5586
city	-11.5588
▁Bitcoin	-11.5589
▁Indeed	-11.5589
▁Dongducheon	-11.5589
▁funny	-11.559
unconstitutional	-11.559
▁crane	-11.559
▁relax	-11.559
▁paint	-11.559
▁logo	-11.5591
▁shaken	-11.5594
▁Haeundae	-11.5596
▁Hadong	-11.56
▁validity	-11.56
▁Price	-11.5602
▁Bon	-11.5608
Al	-11.5613
▁consulted	-11.5614
▁planting	-11.562
▁committees	-11.563
▁interfere	-11.5634
▁anytime	-11.564
▁53	-11.564
▁deposited	-11.5642
▁Ten	-11.5646
▁respected	-11.5647
▁camps	-11.5647
▁KOS	-11.5648
▁blossoms	-11.5651
▁lately	-11.5654
▁Season	-11.5656
▁referr	-11.5658
▁budgets	-11.5658
Samsung	-11.5663
▁proceedings	-11.5667
▁cigarettes	-11.5672
ur	-11.5675
▁Bill	-11.5677
▁Farm	-11.568
▁conditioners	-11.5682
▁Oceans	-11.5692
▁El	-11.5702
▁sensors	-11.5703
▁waited	-11.5706
▁Customer	-11.5712
▁toilets	-11.5719
▁58	-11.5724
▁bottles	-11.5726
▁socially	-11.5729
directed	-11.5735
don	-11.5738
5%	-11.5738
herself	-11.5738
▁2003	-11.5763
100	-11.5767
▁holes	-11.5767
▁instrument	-11.5774
▁quot	-11.5783
ternal	-11.5813
▁Eco	-11.5817
▁wheel	-11.5818
▁triple	-11.582
▁Jan	-11.5826
▁intentions	-11.5833
▁Medi	-11.5834
▁Commercial	-11.5839
▁cuisine	-11.584
▁caring	-11.5841
▁2010.	-11.5841
▁sacrifice	-11.5842
▁7.	-11.5845
▁refuse	-11.5848
▁cellphone	-11.5848
▁Performance	-11.585
▁VIP	-11.5851
▁dragon	-11.5851
▁conglomerate	-11.5853
▁merchant	-11.5853
▁servant	-11.5854
▁tested	-11.5855
▁missions	-11.5863
▁Regulation	-11.5867
▁supplier	-11.5867
▁activist	-11.5868
▁inspector	-11.5869
▁pressed	-11.5872
▁cigarette	-11.5874
▁IC	-11.5877
▁designat	-11.5881
▁improvements	-11.5884
▁Hav	-11.5885
▁brush	-11.5885
art	-11.5892
▁faction	-11.5894
▁demonstrations	-11.5897
▁bold	-11.5899
National	-11.5899
▁ma	-11.5905
▁benchmark	-11.5909
▁respirator	-11.5918
business	-11.5922
▁69	-11.5928
▁earning	-11.5932
▁gains	-11.5934
▁delete	-11.5938
▁potato	-11.594
▁vivid	-11.594
▁brilliant	-11.594
▁demolition	-11.5944
▁troupe	-11.5944
▁wisdom	-11.5944
▁PyeongChang	-11.5944
▁Paldang	-11.5944
▁utility	-11.5944
▁Ceremony	-11.5944
▁porcelain	-11.5944
▁eldest	-11.5944
▁uncertainties	-11.5945
▁satisfactory	-11.5945
▁moisture	-11.5945
▁infringement	-11.5945
▁sympathy	-11.5945
▁inflammation	-11.5945
▁refrigerator	-11.5945
▁breakdown	-11.5945
▁imprisoned	-11.5945
▁lens	-11.5946
▁drank	-11.5946
▁distinctive	-11.5946
▁Navy	-11.5947
▁BioLogics	-11.5947
▁Participants	-11.5947
▁apparently	-11.5947
▁bleeding	-11.5948
▁photography	-11.5948
▁2012.	-11.5949
▁Hyuk	-11.5949
▁Chicago	-11.5952
▁infected	-11.5953
▁endure	-11.5954
▁Estate	-11.5954
▁stopping	-11.5954
▁Anyone	-11.5954
▁inconvenient	-11.5957
▁OLED	-11.5959
▁Railroad	-11.596
▁diplomacy	-11.596
▁CBS	-11.5961
▁James	-11.5961
▁cheered	-11.5962
▁distinguished	-11.5962
▁firmly	-11.5962
▁900	-11.5964
▁excessively	-11.5965
▁Hankyoreh	-11.5967
▁Style	-11.5967
▁beneficial	-11.5968
▁entertainers	-11.5968
▁relieved	-11.5969
▁Third	-11.5969
▁wrapping	-11.5972
pa	-11.5972
▁mature	-11.5972
▁SW	-11.5973
▁glasses	-11.5973
▁Countermeasures	-11.5975
▁Arirang	-11.5976
▁Infinite	-11.5976
▁pitching	-11.5978
aid	-11.5982
▁debts	-11.5984
▁Holy	-11.5984
▁fate	-11.5984
▁coaches	-11.5985
▁Democrats	-11.5986
▁sisters	-11.5986
▁enacted	-11.5986
▁wore	-11.5987
▁shorter	-11.5988
▁flu	-11.5988
▁Start	-11.599
▁4.	-11.5991
▁Citizen	-11.5995
gainst	-11.6009
▁electora	-11.6016
stic	-11.6017
▁utilized	-11.6019
▁sentences	-11.602
▁76	-11.6025
conventional	-11.6026
▁Graduat	-11.6033
▁Tech	-11.6035
▁spark	-11.6038
▁proceeding	-11.604
▁carries	-11.6044
▁nurses	-11.6046
▁Compare	-11.6047
▁prosperity	-11.6048
▁auditors	-11.605
▁pigs	-11.605
▁Rock	-11.6052
woon	-11.6052
▁Rev	-11.6053
▁exert	-11.6055
21	-11.6057
▁hero	-11.6061
being	-11.6062
▁arose	-11.6067
▁stressing	-11.6071
▁occasions	-11.6072
▁Inside	-11.6081
▁Choir	-11.6081
▁trained	-11.6083
▁disorders	-11.6083
▁experimental	-11.6092
▁raid	-11.6095
examination	-11.6096
▁priced	-11.6102
▁planted	-11.6106
▁49	-11.6107
▁Come	-11.6108
▁choices	-11.6111
sil	-11.6113
▁wise	-11.613
id	-11.6131
▁85	-11.6138
▁voca	-11.6142
30	-11.6144
rise	-11.6149
▁Export	-11.6153
2,	-11.6153
▁rhythm	-11.6155
▁Work	-11.6167
▁2020.	-11.6182
▁harvest	-11.6182
▁contests	-11.6184
▁exception	-11.6186
ern	-11.6191
▁tensions	-11.6194
▁v	-11.6198
▁load	-11.6198
▁TVs	-11.6201
▁Gyo	-11.6212
▁fog	-11.622
▁rankings	-11.6222
▁cluster	-11.6222
▁funded	-11.6227
co	-11.6227
▁Duk	-11.6228
▁transformation	-11.6231
▁episodes	-11.6233
▁slogan	-11.6235
rude	-11.6236
▁Judicia	-11.6239
▁blog	-11.625
▁finger	-11.6252
▁cliff	-11.6255
▁chef	-11.6258
▁windows	-11.6258
▁lung	-11.6262
SDA	-11.6264
▁sat	-11.6267
▁Excu	-11.627
▁African	-11.6272
▁cloth	-11.6278
cope	-11.6279
▁highlight	-11.628
▁forecasts	-11.6284
▁Visit	-11.6287
▁craft	-11.6287
hang	-11.63
▁acid	-11.6312
▁embroi	-11.6316
',	-11.6316
dressed	-11.6324
▁vertical	-11.6324
▁Hawaii	-11.6329
▁delinquency	-11.6329
▁plenty	-11.6329
▁taekwondo	-11.6329
▁vacuum	-11.6329
▁verdict	-11.6329
▁Switzerland	-11.6329
▁liaison	-11.6329
▁measles	-11.6329
▁Castle	-11.6329
▁Display	-11.6329
▁ginseng	-11.6329
▁streak	-11.6329
▁procurement	-11.6329
▁Appraisal	-11.6329
▁hobby	-11.6329
▁Judiciary	-11.633
▁overlapping	-11.633
▁Macron	-11.633
▁recycled	-11.633
▁spokesperson	-11.633
▁Goldman	-11.6331
▁Index	-11.6332
▁protesters	-11.6332
▁briefly	-11.6333
▁steep	-11.6333
▁Clan	-11.6334
▁instructed	-11.6334
▁unemployed	-11.6334
▁circulation	-11.6336
▁Travel	-11.6336
▁fantasy	-11.6336
▁Perhaps	-11.6336
▁Survey	-11.6336
▁Latin	-11.6337
▁reliable	-11.6337
▁repay	-11.6338
▁1997	-11.6339
▁Seongsan	-11.6339
▁curb	-11.6339
▁YG	-11.6339
▁integrate	-11.6339
▁enforced	-11.634
▁intensively	-11.634
▁scared	-11.6342
▁Koh	-11.6343
▁runway	-11.6343
▁Digital	-11.6345
▁Americans	-11.6345
▁approaches	-11.6346
▁Natural	-11.6349
▁dedicat	-11.635
▁independently	-11.6351
▁revenge	-11.6352
▁alternatives	-11.6357
▁kicked	-11.6359
▁gray	-11.636
▁neglect	-11.6361
director	-11.6361
▁physically	-11.6362
▁Fourth	-11.6365
▁accommodate	-11.6365
▁complaining	-11.6366
▁Data	-11.6368
tier	-11.6368
▁monet	-11.6369
▁flows	-11.6371
▁reaches	-11.6377
▁pillars	-11.6379
▁rented	-11.638
▁beds	-11.6386
joong	-11.6386
▁l	-11.6394
▁regain	-11.6394
▁brings	-11.6396
▁Sales	-11.6398
▁MOU	-11.6399
▁Wanna	-11.6399
▁Ah	-11.6406
▁counselors	-11.6408
▁doll	-11.641
▁bi	-11.641
▁discounted	-11.6411
▁Cinema	-11.6414
Moon	-11.6422
▁3-	-11.643
▁yen	-11.6431
▁bacteria	-11.6438
▁Ahead	-11.6438
▁Non	-11.6444
▁specialists	-11.6449
▁villa	-11.645
yphoon	-11.6453
▁Ms	-11.6456
For	-11.6458
left	-11.6459
▁shed	-11.6465
oriental	-11.6468
▁infectio	-11.6477
▁Consultati	-11.6477
▁bow	-11.6483
▁cleared	-11.6499
▁sellers	-11.65
▁charts	-11.6503
ery	-11.6509
▁guns	-11.6513
renowned	-11.6518
cancer	-11.6531
▁threats	-11.6532
▁Hoe	-11.6534
▁exercises	-11.6543
▁containers	-11.6544
▁innings	-11.6549
▁panels	-11.6563
▁Ph	-11.6568
▁Organiz	-11.6569
▁pair	-11.6584
bal	-11.6592
omprehensive	-11.6595
▁pledges	-11.6601
que	-11.6602
▁rap	-11.6604
▁burn	-11.6616
▁pocket	-11.6617
▁Studio	-11.6626
▁sponsor	-11.6628
▁pleasure	-11.663
▁ripple	-11.663
book	-11.6632
▁description	-11.6633
▁destinations	-11.6633
▁complain	-11.6635
▁monk	-11.6639
▁rounds	-11.6639
▁nominee	-11.6641
▁textbook	-11.6644
▁installment	-11.6645
▁61	-11.6646
▁vitamin	-11.6649
▁anyway	-11.665
▁assignment	-11.6652
▁cleaner	-11.6652
▁soy	-11.6655
▁audio	-11.6657
▁hikes	-11.666
new	-11.6672
▁bands	-11.6679
▁Cheon	-11.6686
▁earthquakes	-11.6696
▁sells	-11.6699
▁See	-11.6699
▁stew	-11.6705
▁rape	-11.6706
ative	-11.6711
▁Member	-11.6711
▁unveil	-11.6716
▁consume	-11.6723
spite	-11.6728
▁Barcelona	-11.6729
▁Campaign	-11.6729
▁Gallery	-11.6729
▁Seogwipo	-11.6729
▁Subsidies	-11.6729
▁impracticable	-11.6729
▁paradigm	-11.6729
▁anxious	-11.6729
▁subsidiaries	-11.6729
▁stagnant	-11.6729
▁candlelight	-11.6729
▁Pyeongchang	-11.6729
▁Gimcheon	-11.6729
▁housewives	-11.6729
▁commodities	-11.6729
▁impairment	-11.6729
▁reversal	-11.6729
▁CGV	-11.6729
▁commuting	-11.6729
▁elegant	-11.6729
▁chaos	-11.673
▁erected	-11.673
▁rookie	-11.673
▁hunger	-11.673
▁stabilization	-11.673
▁influenza	-11.673
▁remarkable	-11.6731
▁password	-11.6731
▁arriving	-11.6732
▁arguing	-11.6733
▁relocated	-11.6734
▁aptitude	-11.6736
▁pencil	-11.6736
▁Gimje	-11.6736
▁gallery	-11.6737
▁Hangeul	-11.6737
▁sunset	-11.6737
▁navigation	-11.6737
▁Ssangyong	-11.6737
▁Finally	-11.6737
▁incorporated	-11.6737
▁Participation	-11.6737
▁Donghae	-11.6738
▁compiled	-11.6738
▁Counseling	-11.6738
▁headlines	-11.6739
▁evacuated	-11.6739
▁favors	-11.6739
▁exhibited	-11.6741
chief	-11.6742
Distribution	-11.6744
▁finances	-11.6745
▁humanitarian	-11.6745
▁archives	-11.6745
▁Mental	-11.6746
▁convened	-11.6747
▁Father	-11.6747
▁7,	-11.6748
▁impos	-11.6748
▁unfairly	-11.6753
▁Tomorrow	-11.6754
▁oldest	-11.6754
▁Holdings	-11.6754
▁su	-11.6754
▁stealing	-11.6755
▁updated	-11.6755
gyun	-11.6756
eum	-11.6757
▁mentoring	-11.6759
▁trace	-11.6761
▁UAE	-11.6762
▁commented	-11.6764
▁kiss	-11.6766
▁urge	-11.6768
▁competed	-11.6768
▁evaluat	-11.6768
▁odds	-11.677
▁intentional	-11.6771
▁weird	-11.6774
▁leaf	-11.6775
▁Records	-11.6778
.1	-11.6779
▁Beauty	-11.678
▁crossed	-11.6783
▁breathe	-11.6786
▁verifying	-11.6789
floor	-11.6793
▁employers	-11.6795
▁closest	-11.6798
▁audits	-11.6799
▁Mok	-11.68
▁texts	-11.6802
rok	-11.6803
▁8,	-11.6807
▁belly	-11.6807
▁obstacles	-11.6808
▁ab	-11.6818
interest	-11.6824
▁guides	-11.6825
ie	-11.683
▁Jobs	-11.683
three	-11.6832
▁broadcasted	-11.6833
▁II	-11.6833
▁deals	-11.6839
li	-11.6842
▁wheels	-11.6845
▁maybe	-11.685
Ordinance	-11.6851
▁symbolic	-11.6856
Council	-11.6857
▁en	-11.6869
▁lovers	-11.6872
▁lasted	-11.6874
uk	-11.6875
only	-11.6877
▁adjusting	-11.6883
▁Wan	-11.6892
▁sin	-11.6896
▁attacking	-11.6899
uclear	-11.6899
▁Ex	-11.6905
▁clients	-11.6923
▁juveniles	-11.6923
▁Lab	-11.6925
▁criminals	-11.6943
kook	-11.6946
▁sw	-11.6964
▁aren	-11.6965
hanging	-11.6967
scenes	-11.6974
),"	-11.6978
▁novels	-11.698
▁horses	-11.6984
▁Bum	-11.6996
▁Politic	-11.7001
saving	-11.7002
▁answering	-11.7003
▁clip	-11.7012
▁prov	-11.7013
▁terminate	-11.7015
chae	-11.7019
▁seed	-11.7023
▁engineer	-11.7023
▁coordinate	-11.7024
▁notes	-11.7025
▁sympathize	-11.7026
▁overlook	-11.7029
▁Ch	-11.703
▁juice	-11.7033
▁coin	-11.7035
▁2007,	-11.7036
▁abus	-11.7038
▁Resort	-11.7041
▁portrait	-11.705
▁plaintiff	-11.705
▁dessert	-11.705
▁champion	-11.7052
▁cosmetic	-11.7052
▁evenly	-11.7055
▁egg	-11.7056
▁Canadian	-11.7056
▁protein	-11.7057
▁Executive	-11.7059
▁fence	-11.706
▁administrator	-11.706
added	-11.7063
▁emission	-11.7069
▁duck	-11.7072
▁balls	-11.7073
▁Light	-11.7081
▁Advance	-11.7087
▁extinguish	-11.7092
▁recogniz	-11.7099
▁Gwan	-11.71
▁dock	-11.7104
▁brief	-11.7106
▁offsho	-11.7108
▁threaten	-11.7112
▁viewer	-11.7116
pe	-11.7116
▁boarding	-11.7123
▁LPG	-11.7124
▁wander	-11.7127
ik	-11.7129
fighting	-11.7129
▁corn	-11.7132
▁stole	-11.7135
utomotive	-11.7136
▁Venezuela	-11.7138
▁gang	-11.7139
▁employ	-11.7139
▁deploy	-11.7142
▁drastic	-11.7145
▁finalize	-11.7146
▁Attorney	-11.7146
▁chapter	-11.7146
▁custody	-11.7146
▁erupted	-11.7146
▁memorandum	-11.7146
▁eligibility	-11.7146
▁varieties	-11.7146
▁arbitrarily	-11.7146
▁dairy	-11.7146
▁Biennale	-11.7146
▁accessibility	-11.7146
▁babies	-11.7146
▁probability	-11.7146
▁Liberation	-11.7146
▁expelled	-11.7146
▁vocabulary	-11.7146
▁Treatment	-11.7146
▁acquitted	-11.7146
▁shuttle	-11.7146
▁Yeongnam	-11.7147
▁dissemination	-11.7147
▁happily	-11.7147
▁hardware	-11.7147
▁calligraphy	-11.7147
▁reappointed	-11.7147
▁teaser	-11.7147
▁instant	-11.7148
▁refusal	-11.7148
▁belatedly	-11.7148
▁preview	-11.7148
▁treasurer	-11.7149
▁commentary	-11.7151
▁intact	-11.7151
two	-11.7152
▁discarded	-11.7152
▁arrears	-11.7152
▁desperately	-11.7152
▁Mobis	-11.7153
▁Texas	-11.7153
▁tobacco	-11.7153
▁Feb	-11.7154
▁reaffirm	-11.7154
▁luxurious	-11.7154
▁Collection	-11.7154
▁nurture	-11.7154
▁cry	-11.7155
▁triggered	-11.7155
▁authorization	-11.7155
▁tense	-11.7155
▁shrinking	-11.7156
▁stem	-11.7158
▁consolidated	-11.7158
▁hacking	-11.716
▁Low	-11.7162
▁crazy	-11.7162
▁academia	-11.7163
▁boring	-11.7163
▁remodeling	-11.7164
▁conveniently	-11.7165
pm	-11.7167
▁toxic	-11.7169
▁salon	-11.717
▁Legal	-11.717
▁transmission	-11.7172
▁Martin	-11.7173
▁architect	-11.7175
▁tightening	-11.7177
▁weakening	-11.7177
▁surely	-11.7177
▁surged	-11.7178
myeong	-11.718
sim	-11.7181
▁(8	-11.7182
▁struggled	-11.7184
▁define	-11.7184
sup	-11.7189
▁cooperatives	-11.7189
▁bail	-11.7196
▁Make	-11.7198
▁Gye	-11.7198
proved	-11.7202
▁1.8	-11.7204
with	-11.7207
▁par	-11.7207
▁nerves	-11.7215
▁legally	-11.7218
▁performers	-11.7222
▁inspire	-11.7223
▁LNG	-11.7225
▁politically	-11.7227
▁fighters	-11.7234
▁blowing	-11.7237
kwang	-11.7242
▁Am	-11.7242
▁assess	-11.725
▁cleaned	-11.7257
▁Fine	-11.726
adjustment	-11.7264
▁clock	-11.7269
▁contemporar	-11.7274
▁perceive	-11.7277
▁screens	-11.7279
ducing	-11.7282
▁350	-11.7284
izing	-11.7287
▁worrying	-11.7292
▁tombs	-11.7295
▁80,000	-11.7297
18	-11.7298
▁oral	-11.7313
▁shorten	-11.7317
▁burdened	-11.7317
▁Action	-11.732
born	-11.7324
Gangnam	-11.7332
stage	-11.7336
▁1.4	-11.7341
▁divide	-11.7343
▁68	-11.7346
▁forcibl	-11.7348
▁tube	-11.7358
mark	-11.736
▁experiments	-11.7363
▁pensions	-11.7363
ba	-11.7364
▁develops	-11.737
▁doubts	-11.737
▁Resident	-11.7375
▁0	-11.7377
▁Peter	-11.7379
▁pa	-11.7385
▁admit	-11.7388
wide	-11.7397
▁Di	-11.7397
▁2.2	-11.7401
▁Cyber	-11.7402
▁asks	-11.7403
▁provis	-11.7417
▁presidents	-11.7418
All	-11.7424
▁commerce	-11.7434
▁missiles	-11.7436
sh	-11.7436
▁77	-11.7438
▁workshops	-11.7441
▁Hang	-11.7449
▁Age	-11.745
down	-11.745
▁Hyeong	-11.7466
hip	-11.7466
EU	-11.7467
▁Pharmaceutical	-11.7468
▁hanbok	-11.7469
▁protocol	-11.7477
▁remittance	-11.7483
▁bridges	-11.7484
▁Chemical	-11.7484
sided	-11.7484
▁fingerprint	-11.7486
▁penetrate	-11.7486
▁blossom	-11.7487
▁quote	-11.7487
▁bases	-11.7489
▁questioning	-11.7491
▁indicator	-11.7495
▁vocal	-11.7496
▁Ni	-11.7497
▁Model	-11.7498
mon	-11.7498
▁boast	-11.75
▁Photo	-11.7503
▁pepper	-11.7503
▁Personal	-11.7503
▁2011.	-11.7505
▁engag	-11.7507
▁Web	-11.7516
▁Note	-11.7519
can	-11.7525
▁resist	-11.7529
▁nail	-11.7532
▁communicat	-11.7534
▁elector	-11.7539
wage	-11.7542
▁satisfy	-11.7545
▁sink	-11.7553
▁ward	-11.7556
▁cit	-11.7562
ize	-11.7562
▁recognizes	-11.7569
▁divulge	-11.7569
▁moral	-11.7569
yo	-11.7572
▁crown	-11.7573
sin	-11.7574
▁ICO	-11.7577
▁caution	-11.7579
▁broth	-11.7579
▁fortunate	-11.758
▁calendar	-11.758
▁constituency	-11.758
▁embarrassing	-11.758
▁genius	-11.758
▁syndrome	-11.758
▁entities	-11.758
▁galleries	-11.7581
▁lottery	-11.7581
▁sovereignty	-11.7581
▁melody	-11.7581
▁monopoly	-11.7581
▁Sachs	-11.7581
▁secretaries	-11.7581
▁sightseeing	-11.7581
▁Cloud	-11.7581
▁Together	-11.7581
▁frustrated	-11.7581
▁foregoing	-11.7581
▁choir	-11.7581
▁ceremonies	-11.7581
▁Gyeongui	-11.7581
▁Geoje	-11.7581
▁testified	-11.7581
▁Shinzo	-11.7581
▁paste	-11.7582
▁malicious	-11.7582
▁reconciliation	-11.7582
▁collided	-11.7583
▁pile	-11.7583
▁permitted	-11.7583
▁graduating	-11.7583
▁freezing	-11.7584
▁simultaneous	-11.7584
▁mound	-11.7585
▁lightning	-11.7585
▁accelerating	-11.7586
▁Netherlands	-11.7587
▁Hanok	-11.7588
▁Professional	-11.7588
▁Moscow	-11.7588
▁Soviet	-11.7588
▁defamation	-11.7589
▁ventilation	-11.7589
▁Status	-11.7589
▁exchanging	-11.7589
▁Factory	-11.7589
▁quietly	-11.7591
▁marry	-11.7594
▁sensitivity	-11.7595
▁spectators	-11.7596
▁electrical	-11.7596
▁Ethic	-11.7597
▁Namwon	-11.7597
▁Wind	-11.7598
▁Liverpool	-11.7598
▁revoked	-11.7598
▁commercialized	-11.7598
▁economically	-11.7599
▁Trust	-11.76
you	-11.7601
decentralization	-11.7602
▁continent	-11.7602
▁preventive	-11.7603
▁shoe	-11.7607
▁collaborate	-11.7608
▁restor	-11.7609
▁slept	-11.761
sol	-11.7611
▁tale	-11.7612
▁Thus	-11.7615
▁concepts	-11.7615
▁justifiable	-11.7615
▁consecutively	-11.7616
place	-11.7616
▁descendants	-11.7621
▁Institutions	-11.7621
▁cheerful	-11.7626
▁compliance	-11.7626
▁entirely	-11.7626
▁recalled	-11.7628
ities	-11.763
▁coins	-11.7636
▁Hwan	-11.7639
▁2022.	-11.7642
▁mentioning	-11.7643
▁Boat	-11.7645
▁nickname	-11.7646
▁eliminate	-11.7647
▁climbing	-11.7655
▁2008.	-11.7656
▁LH	-11.7656
▁posing	-11.7659
▁Didn	-11.7659
ying	-11.7665
▁chiefs	-11.7667
▁tablet	-11.767
▁(7	-11.767
▁Rose	-11.768
yu	-11.7683
▁identifying	-11.7688
nfortunately	-11.7694
▁2-	-11.7702
▁investigators	-11.7708
▁Po	-11.771
▁speaks	-11.7722
top	-11.7723
▁cheers	-11.7729
▁polls	-11.773
▁crossing	-11.7734
▁64	-11.7735
▁bother	-11.774
ral	-11.7742
▁Guri	-11.7744
ca	-11.7747
80,000	-11.7759
▁obligations	-11.7763
▁tag	-11.7766
▁40,000	-11.7773
▁cherr	-11.7785
Hyun	-11.7787
▁Compensati	-11.7787
Because	-11.7792
Un	-11.7795
woman	-11.7796
▁minds	-11.7798
allowing	-11.781
winning	-11.7819
▁roots	-11.782
▁divisions	-11.7821
▁Parliament	-11.7824
▁scholarships	-11.7834
▁Unifi	-11.7836
▁dual	-11.7838
▁Lifel	-11.784
▁reserves	-11.7841
▁66	-11.7842
ya	-11.7844
▁cons	-11.7847
▁te	-11.7849
▁(4	-11.7865
▁CCTVs	-11.7872
▁67	-11.7872
▁architectur	-11.7875
▁signals	-11.7892
▁pastors	-11.7893
▁mere	-11.7898
▁laser	-11.7904
▁recommends	-11.7908
▁Uzbek	-11.7909
other	-11.7912
dan	-11.7923
▁disadvantage	-11.7927
▁Restaurant	-11.7929
▁chip	-11.7933
▁Newspaper	-11.7933
▁NC	-11.7935
▁composer	-11.7935
▁landlord	-11.7941
▁ingredient	-11.7941
▁detective	-11.7941
▁soldier	-11.7941
▁recipient	-11.7942
▁fiber	-11.7943
▁Gap	-11.7944
▁prescription	-11.7944
▁contacts	-11.7945
▁counselor	-11.7947
▁amateur	-11.7953
▁rivers	-11.7957
▁pipe	-11.7958
▁Event	-11.7959
▁Standard	-11.7963
▁Ta	-11.7973
hyang	-11.7979
gwang	-11.798
▁unite	-11.7981
▁instruction	-11.7992
▁1:1	-11.7996
▁Express	-11.7996
▁foul	-11.7998
▁overwhelm	-11.8
gross	-11.8
▁guy	-11.8001
▁developmental	-11.8002
▁apple	-11.8002
”.	-11.8003
▁tip	-11.8003
▁carpool	-11.8007
▁Dal	-11.8013
▁opera	-11.8015
▁weaken	-11.8016
▁addict	-11.8016
▁Short	-11.8018
▁Legislati	-11.8019
▁Six	-11.8021
▁Alley	-11.8023
▁absurd	-11.8029
▁irregular	-11.8029
▁generous	-11.803
▁Gaya	-11.8031
▁Pan	-11.8035
▁guitar	-11.8035
▁Bangkok	-11.8035
▁Monument	-11.8035
▁Namdaemun	-11.8035
▁Tesla	-11.8035
▁virtuous	-11.8035
▁mystery	-11.8035
▁courier	-11.8035
▁Daniel	-11.8035
▁quantities	-11.8035
▁reliability	-11.8035
▁Ireland	-11.8035
▁chamber	-11.8035
▁Austria	-11.8035
▁exclusion	-11.8035
▁Buddhism	-11.8035
▁bakery	-11.8035
▁hungry	-11.8035
▁COE	-11.8035
▁secretariat	-11.8036
▁unchanged	-11.8036
▁reinforcement	-11.8036
▁groundbreaking	-11.8036
▁squad	-11.8036
▁horror	-11.8036
▁retaliation	-11.8037
▁hinted	-11.8037
▁salaries	-11.8037
▁dirty	-11.8037
▁boundary	-11.8038
▁castle	-11.8038
▁Passenger	-11.8038
▁liability	-11.8038
▁plac	-11.8038
▁seriousness	-11.8039
▁exploring	-11.8039
▁rigid	-11.8039
▁fortress	-11.804
▁excavated	-11.8041
▁Rhee	-11.8042
▁desires	-11.8042
▁verified	-11.8043
▁fraudulent	-11.8043
▁Confedera	-11.8044
▁DNA	-11.8044
▁Hungary	-11.8044
▁depressed	-11.8045
▁inscribed	-11.8045
▁shouting	-11.8046
▁gateway	-11.8047
▁Early	-11.8047
▁challenging	-11.8047
▁worsened	-11.8047
▁insurers	-11.805
song	-11.8051
▁reorganized	-11.8051
▁Series	-11.8052
▁Usually	-11.8053
▁Overseas	-11.8053
▁idle	-11.8054
▁Hub	-11.8055
▁enact	-11.8055
▁invit	-11.8057
▁enrolled	-11.8058
▁Masan	-11.8059
some	-11.8064
▁Bears	-11.8067
▁siblings	-11.8068
▁universe	-11.8074
▁extinguishing	-11.8074
▁negatively	-11.8075
▁dependence	-11.8078
▁Commander	-11.8078
▁writings	-11.8078
▁editing	-11.8079
▁forgotten	-11.8083
▁skilled	-11.8084
▁appreciated	-11.8085
omestic	-11.8086
▁Kimchi	-11.8087
▁pr	-11.8091
▁definition	-11.8095
▁expires	-11.8096
▁allies	-11.8097
▁Kane	-11.8097
▁surroundings	-11.8098
▁6.	-11.8103
lim	-11.8106
▁challenged	-11.8107
▁GDP	-11.8112
▁wounds	-11.8116
▁boasts	-11.812
▁federa	-11.8125
▁ceramics	-11.8125
▁indicated	-11.8125
▁associat	-11.8127
▁magnitude	-11.8132
▁dying	-11.8132
▁guided	-11.8138
▁dam	-11.814
▁lifetime	-11.814
▁lovely	-11.8142
▁drill	-11.8146
▁n	-11.8149
stop	-11.8154
ka	-11.8157
▁Organizations	-11.816
▁enabl	-11.816
▁dolls	-11.8165
▁albums	-11.8167
▁devise	-11.817
▁poems	-11.8171
▁5.	-11.8177
▁Men	-11.8181
▁Try	-11.8184
▁tents	-11.8185
cluding	-11.8187
▁170	-11.8189
▁Front	-11.8191
▁proceeds	-11.8193
▁guardians	-11.8199
▁discriminat	-11.8201
▁locked	-11.8201
▁62	-11.8204
creasingly	-11.8208
▁wi	-11.821
▁Ge	-11.8222
ti	-11.8225
people	-11.8226
40	-11.8228
▁28,	-11.8233
ating	-11.8235
▁Suh	-11.8237
▁greetings	-11.8239
▁volunteering	-11.824
step	-11.8247
▁Perform	-11.8259
▁Dam	-11.8259
IT	-11.8264
reaching	-11.8265
▁statues	-11.8266
▁Compar	-11.8269
▁observations	-11.8269
ice	-11.8272
▁1.7	-11.8273
kuk	-11.8275
specific	-11.8276
▁dropp	-11.8282
▁existed	-11.83
hyo	-11.8302
▁electro	-11.8302
Y	-11.8303
president	-11.8304
▁Honor	-11.831
ICT	-11.831
finals	-11.831
colored	-11.8311
▁temples	-11.8319
arried	-11.8321
▁seminars	-11.8322
▁fares	-11.8337
aiming	-11.8348
▁governors	-11.8349
gotten	-11.8352
▁prevented	-11.8356
▁airports	-11.8363
kwan	-11.8366
▁outcomes	-11.837
▁fits	-11.8372
bringing	-11.8378
▁specially	-11.8381
▁exhibit	-11.8391
▁idols	-11.8395
▁packages	-11.8398
▁patents	-11.8403
▁promises	-11.8403
▁rides	-11.8404
▁journal	-11.8408
▁paths	-11.841
▁internship	-11.841
▁column	-11.8414
▁overlap	-11.8414
▁affair	-11.8415
▁headache	-11.8416
▁Again	-11.8416
▁allegation	-11.8417
▁mushroom	-11.8417
▁obstacle	-11.8417
▁perpetrator	-11.8418
▁ceramic	-11.8418
▁Gyu	-11.8419
cho	-11.842
▁medication	-11.842
▁artwork	-11.8421
▁commentator	-11.8421
▁wound	-11.8421
▁sticker	-11.8422
▁lamp	-11.8423
▁councils	-11.8424
▁resolutions	-11.8424
▁balloon	-11.8425
▁immigrant	-11.8427
▁dye	-11.8431
▁extract	-11.8435
▁headquarter	-11.8437
▁appellat	-11.844
.9%	-11.8441
tary	-11.8446
▁Multi	-11.8446
▁pump	-11.8447
▁aspect	-11.8449
▁museums	-11.8453
▁Ar	-11.8457
▁findings	-11.8459
▁di	-11.846
▁stimul	-11.8462
▁Mother	-11.847
▁none	-11.8479
▁Main	-11.8492
▁portray	-11.8492
4%	-11.8496
▁hesitate	-11.8497
▁evacuate	-11.8499
▁thankful	-11.8506
▁extensive	-11.8507
▁borrowing	-11.8508
▁grab	-11.8509
▁Logistics	-11.8511
▁possibilities	-11.8511
▁Bioepis	-11.8511
▁ambiguous	-11.8511
▁necessities	-11.8511
▁Certification	-11.8511
▁influx	-11.8511
▁patience	-11.8511
▁democratization	-11.8511
▁Maduro	-11.8511
▁dismantling	-11.8511
▁strawberry	-11.8511
▁widespread	-11.8511
▁Emirates	-11.8511
▁Goguryeo	-11.8511
▁Prison	-11.8511
▁forefront	-11.8511
▁courtesy	-11.8511
▁goodbye	-11.8511
▁negotiate	-11.8512
▁tsunami	-11.8512
▁disinfection	-11.8512
▁Taegeukgi	-11.8512
▁deployment	-11.8512
▁respective	-11.8512
▁fluent	-11.8512
▁tragedy	-11.8512
▁defective	-11.8512
▁isolated	-11.8512
▁laboratory	-11.8513
▁Field	-11.8513
▁Prefecture	-11.8513
▁convinced	-11.8514
▁forehead	-11.8514
▁Yeonsu	-11.8514
▁grabbed	-11.8515
▁accuracy	-11.8515
▁computerized	-11.8515
▁bitter	-11.8517
▁bored	-11.8517
nowledge	-11.8519
▁Duty	-11.8519
▁preced	-11.8519
▁Behind	-11.852
▁radon	-11.852
▁Freedom	-11.852
▁Gyeyang	-11.852
▁inserted	-11.852
▁Growth	-11.852
real	-11.8521
▁Rental	-11.8522
▁tightened	-11.8522
▁Yeongam	-11.8522
▁suffers	-11.8522
2%	-11.8523
▁stolen	-11.8524
▁Whe	-11.8525
▁SAT	-11.8526
▁Yangsan	-11.8526
▁villagers	-11.8527
▁110	-11.8527
▁advancing	-11.8527
▁conscientious	-11.853
▁plunged	-11.8531
▁appropriateness	-11.8531
ree	-11.8532
▁Still	-11.8532
▁nationality	-11.8533
▁fortune	-11.8533
▁focuse	-11.8533
▁mild	-11.8534
▁cooperating	-11.8535
▁Ask	-11.8536
▁Friends	-11.854
▁density	-11.854
▁Lady	-11.854
▁Nonsan	-11.8541
▁Lions	-11.8541
▁intensifying	-11.8542
▁Meng	-11.8542
▁indication	-11.8543
▁deepening	-11.8544
▁arbitration	-11.8544
▁tactics	-11.8545
▁specifications	-11.8547
▁serial	-11.8553
▁pub	-11.8553
▁endless	-11.8555
▁creators	-11.8558
med	-11.856
ide	-11.8562
▁attitudes	-11.8563
▁dates	-11.8565
▁Application	-11.8566
▁narrowed	-11.8571
▁poorly	-11.8571
▁Tigers	-11.8574
▁tips	-11.8575
▁Hanam	-11.8575
power	-11.8576
▁trail	-11.858
▁declare	-11.8583
▁quarterly	-11.8583
▁laughing	-11.8583
former	-11.8583
▁Know	-11.8588
▁lanes	-11.859
▁plain	-11.8591
gol	-11.86
▁predictions	-11.8601
▁Sciences	-11.8604
▁mushrooms	-11.8606
▁aunt	-11.8607
▁Konku	-11.8609
keun	-11.861
▁sour	-11.861
▁Provision	-11.8611
▁blend	-11.8613
▁En	-11.8622
▁jar	-11.8623
▁electronics	-11.8631
▁IoT	-11.8633
▁mining	-11.8638
▁organs	-11.864
▁unconscious	-11.8645
▁takers	-11.865
▁protesting	-11.865
stone	-11.8653
▁pose	-11.8665
▁cure	-11.8672
5,000	-11.8676
selling	-11.8679
▁neat	-11.8679
▁amend	-11.8683
geum	-11.8684
forming	-11.8685
28	-11.8685
▁execut	-11.8691
▁assum	-11.8695
▁stamps	-11.8696
▁receipts	-11.8698
pped	-11.8699
▁Fan	-11.87
my	-11.8702
cing	-11.8702
▁Mon	-11.8706
ICE	-11.8707
▁Type	-11.871
▁1994	-11.8713
exist	-11.8722
▁holdings	-11.8724
vested	-11.8726
17	-11.8731
▁playgrounds	-11.8731
air	-11.8733
▁themes	-11.8743
▁decorat	-11.8745
▁constitute	-11.8747
child	-11.8748
gum	-11.8751
▁billions	-11.8752
tting	-11.8754
▁bench	-11.8755
▁preferences	-11.8758
▁Ben	-11.8769
▁Feder	-11.877
gung	-11.8774
▁pros	-11.8774
▁spreads	-11.878
▁Part	-11.8781
▁LA	-11.8789
distance	-11.8789
▁thermal	-11.8789
▁Inc	-11.8791
▁opponents	-11.8795
Palembang	-11.8797
Mobile	-11.88
▁walks	-11.8801
▁magazines	-11.8804
▁retain	-11.8811
▁24-	-11.8811
▁mo	-11.8811
yun	-11.8814
▁despi	-11.8821
▁1.6	-11.8826
lin	-11.883
▁commemorat	-11.883
Man	-11.8832
▁Dongbu	-11.8836
▁critic	-11.8837
▁Mar	-11.8838
▁inherit	-11.8844
▁react	-11.8852
▁ankle	-11.8863
sing	-11.8866
▁perspectives	-11.8868
elect	-11.8871
ors	-11.8873
note	-11.8878
ard	-11.8879
drew	-11.8883
emale	-11.8896
▁pleased	-11.89
2)	-11.8901
6%	-11.8907
▁mechanism	-11.8909
▁drought	-11.8912
▁imbalance	-11.8912
▁mold	-11.8913
▁reservoir	-11.8916
▁laptop	-11.8916
▁deduction	-11.8916
▁grievance	-11.8917
▁keyword	-11.8917
▁chaebol	-11.892
▁boiler	-11.8923
▁shadow	-11.8923
▁sol	-11.8924
▁sanction	-11.8924
Whil	-11.8925
▁giant	-11.8925
▁prince	-11.8925
▁colleague	-11.8926
▁reunion	-11.8928
▁SME	-11.8928
▁prediction	-11.8928
lying	-11.8929
▁refus	-11.8932
▁clue	-11.8932
mentally	-11.8936
▁fighter	-11.8944
▁Boy	-11.8947
▁grain	-11.8947
▁101	-11.8948
et	-11.8948
▁announcer	-11.8958
pt	-11.8959
▁accountant	-11.8961
cted	-11.8963
▁detach	-11.8963
urging	-11.8965
▁SUV	-11.8966
▁arrives	-11.8968
field	-11.8969
▁steam	-11.8976
▁websites	-11.8993
▁Hui	-11.8997
em	-11.8997
▁lake	-11.9
ding	-11.9001
▁112	-11.9002
▁string	-11.9003
▁meticulous	-11.9006
▁knock	-11.9007
ualcomm	-11.9011
▁Emperor	-11.9011
▁Nowadays	-11.9011
▁miracle	-11.9011
▁swollen	-11.9011
▁bullpen	-11.9011
▁boycott	-11.9011
▁discomfort	-11.9011
▁Nakdonggang	-11.9011
▁celebrity	-11.9011
▁radar	-11.9011
▁Nongak	-11.9012
▁municipalities	-11.9012
UNESCO	-11.9012
▁rampant	-11.9012
▁fintech	-11.9012
▁cattle	-11.9012
▁cinema	-11.9012
▁transmitted	-11.9012
▁Painting	-11.9013
▁Assistant	-11.9013
▁Originally	-11.9013
▁disappointing	-11.9013
▁Namhae	-11.9013
▁discharging	-11.9013
▁1993	-11.9013
▁applicable	-11.9014
▁rallies	-11.9014
▁indeed	-11.9014
▁freshmen	-11.9014
▁legitimate	-11.9014
▁Dodgers	-11.9014
▁professionalism	-11.9014
▁loses	-11.9015
▁handsome	-11.9015
▁Hongik	-11.9015
▁swe	-11.9015
▁occasional	-11.9016
▁dances	-11.9016
▁Uber	-11.9017
▁vividly	-11.9017
▁potatoes	-11.9018
▁sequentially	-11.9018
disqualification	-11.9018
▁Nissan	-11.902
▁Taipei	-11.902
▁Toyota	-11.902
▁Presbyterian	-11.902
▁accessories	-11.902
▁ferment	-11.902
▁14,	-11.9021
▁postponement	-11.9021
▁algae	-11.9021
▁meaningless	-11.9021
▁habitat	-11.9023
▁Dasan	-11.9023
▁enhancement	-11.9024
▁Pence	-11.9024
▁User	-11.9024
▁wealthy	-11.9026
rang	-11.9026
▁Kids	-11.9027
▁Practice	-11.9027
▁15,	-11.903
▁THAAD	-11.9031
▁Scholarship	-11.9031
▁tr	-11.9033
▁disposed	-11.9036
▁merged	-11.9037
▁incorrect	-11.9038
▁consequences	-11.9038
▁boiled	-11.9038
▁Check	-11.9038
▁semifinals	-11.9039
▁depicted	-11.9041
▁sp	-11.9041
▁rotation	-11.9043
▁ABC	-11.9046
▁someday	-11.9051
▁fusion	-11.9054
▁73	-11.9058
▁365	-11.906
▁withdrawn	-11.9061
▁4,000	-11.9061
▁relay	-11.9064
erial	-11.9064
▁minimal	-11.9065
▁pad	-11.9066
▁impaired	-11.9067
▁9,	-11.9074
▁cookies	-11.9077
▁Rain	-11.9077
▁Measures	-11.9078
▁70,000	-11.9078
▁insects	-11.9079
part	-11.9081
hu	-11.9082
▁grapes	-11.9083
▁exceptional	-11.9089
▁probe	-11.909
▁dominate	-11.9091
lo	-11.9093
▁Books	-11.9096
▁benefited	-11.9096
▁manners	-11.9098
▁feeding	-11.9099
▁83	-11.9112
▁NH	-11.9116
▁aide	-11.912
are	-11.9128
▁elect	-11.9134
▁catcher	-11.9134
▁3.5	-11.9137
▁fingers	-11.9138
▁92	-11.914
▁openly	-11.9141
▁drying	-11.9143
▁bare	-11.9144
▁lane	-11.9147
▁OECD	-11.915
▁bones	-11.915
▁dreamed	-11.9153
12	-11.9162
▁2009.	-11.9163
▁exported	-11.9164
our	-11.9165
▁elders	-11.9169
▁Kingdoms	-11.9169
▁noble	-11.9171
▁forever	-11.9177
ny	-11.9206
quarter	-11.9208
▁noon	-11.9208
gap	-11.9209
▁Corporat	-11.9213
▁pasta	-11.9214
▁delegat	-11.922
ubway	-11.9221
▁2002	-11.9223
▁drawings	-11.9223
era	-11.923
▁lands	-11.9245
▁juniors	-11.9261
▁medicines	-11.9263
▁82	-11.9266
▁CD	-11.9268
▁drops	-11.927
▁SM	-11.9275
shed	-11.9277
▁gene	-11.9279
ular	-11.9283
▁flash	-11.9286
ns	-11.9295
▁codes	-11.9302
Many	-11.9308
ification	-11.931
Dream	-11.9322
▁Previous	-11.9324
▁delays	-11.9324
▁Dome	-11.9334
Star	-11.9334
▁ears	-11.9336
▁differentiat	-11.9341
:40	-11.9341
▁limiting	-11.9343
▁spare	-11.9347
buk	-11.935
▁northwest	-11.9356
▁upset	-11.9359
Special	-11.9365
▁Sir	-11.937
▁steal	-11.9372
employment	-11.9379
▁87	-11.9383
▁Put	-11.939
▁86	-11.9393
▁71	-11.9396
▁shipments	-11.9396
▁denuclearize	-11.9401
▁editor	-11.9405
▁Too	-11.9406
1,	-11.9407
▁trans	-11.9409
▁van	-11.9411
▁74	-11.9418
rushed	-11.9421
▁worsen	-11.9422
▁tongue	-11.9424
▁sponsorship	-11.9424
▁civilization	-11.9428
CO	-11.9429
hall	-11.9431
▁comedian	-11.9433
▁Minh	-11.9434
▁tender	-11.9434
▁upgrade	-11.9435
▁collision	-11.9435
▁nephew	-11.9436
▁counterpart	-11.944
▁careers	-11.9443
▁politician	-11.9444
▁crab	-11.9445
▁athlete	-11.9445
gul	-11.9451
▁hundred	-11.9453
▁vegetable	-11.9453
▁banner	-11.9454
▁musician	-11.9456
▁Ne	-11.9457
▁premise	-11.9458
▁icon	-11.946
▁presume	-11.9462
▁employer	-11.9467
▁desert	-11.9469
clusive	-11.9471
▁angle	-11.9478
▁profile	-11.9479
under	-11.948
▁coat	-11.9486
▁donor	-11.9489
▁incomplete	-11.949
tax	-11.9497
▁circuit	-11.9499
▁modify	-11.95
▁Interest	-11.951
▁volcan	-11.951
▁typhoons	-11.9512
▁Centers	-11.952
▁Steve	-11.9524
▁2.3	-11.9529
yeop	-11.9529
▁distinct	-11.9531
▁translate	-11.9532
▁default	-11.9532
▁preemptive	-11.9533
▁Iraq	-11.9533
▁eradicate	-11.9536
▁Dispute	-11.9538
▁condemn	-11.9538
▁frustrating	-11.9538
▁Conservation	-11.9538
▁consortium	-11.9538
▁diameter	-11.9538
▁ideology	-11.9538
▁jazz	-11.9538
▁celadon	-11.9538
▁mixture	-11.9538
▁Francisco	-11.9538
▁puppy	-11.9538
▁vague	-11.9538
▁Mercedes	-11.9538
▁centimeters	-11.9538
▁copper	-11.9538
▁eager	-11.9538
▁probation	-11.9538
▁presidency	-11.9538
▁sunny	-11.9538
▁charity	-11.9538
▁disappearance	-11.9538
▁maternity	-11.9538
▁slavery	-11.9538
▁Hwacheon	-11.9539
▁burial	-11.9539
▁Gojong	-11.9539
▁refuted	-11.9539
▁modernization	-11.954
▁foreigner	-11.954
▁Itaewon	-11.954
▁Daelim	-11.954
▁surviving	-11.954
▁feast	-11.954
▁Technical	-11.9541
▁Back	-11.9541
mok	-11.9541
▁twelve	-11.9541
▁isolation	-11.9541
▁unfortunate	-11.9542
▁Paper	-11.9543
▁durability	-11.9543
▁Bi	-11.9543
▁Stone	-11.9543
▁kindness	-11.9543
ept	-11.9544
▁beforehand	-11.9545
▁varies	-11.9546
▁honey	-11.9546
▁naked	-11.9547
▁Obama	-11.9547
▁Gospel	-11.9547
▁Chapter	-11.9547
▁Literature	-11.9547
▁Vladivostok	-11.9547
▁farewell	-11.9547
▁circular	-11.9547
▁Coffee	-11.9548
▁Eugene	-11.9548
▁OK	-11.9548
▁edited	-11.9548
▁manipulated	-11.9549
▁Esther	-11.9549
▁Tomb	-11.9549
▁directing	-11.955
▁qualifying	-11.955
▁decree	-11.9551
▁congress	-11.9552
▁shortened	-11.9552
Happ	-11.9553
▁particles	-11.9555
▁widening	-11.9556
▁sons	-11.9556
▁Giants	-11.9556
▁gently	-11.9556
▁deeper	-11.9558
▁actresses	-11.9559
▁Nature	-11.9559
▁drunken	-11.956
▁euros	-11.956
▁engagement	-11.956
▁Discussion	-11.9561
▁backward	-11.9562
▁Damage	-11.9563
▁questionable	-11.9564
▁Haman	-11.9564
▁Direct	-11.9565
▁Accounts	-11.9566
market	-11.9566
▁250,000	-11.9567
▁Customs	-11.9568
▁u	-11.9568
▁Tunnel	-11.9569
▁Rewards	-11.9571
▁steamed	-11.9571
bang	-11.9572
▁throat	-11.9573
▁Cafe	-11.9574
▁27,	-11.9574
▁Large	-11.9574
▁aqua	-11.9575
▁vendors	-11.9576
▁deserve	-11.9579
▁termination	-11.958
▁newlyweds	-11.9581
▁vibration	-11.9582
▁dominant	-11.9582
ru	-11.9583
▁tent	-11.9584
▁tentative	-11.9589
▁graders	-11.959
▁cerebr	-11.959
▁addresses	-11.9594
ONE	-11.9595
▁divid	-11.9595
▁educated	-11.9595
▁Monet	-11.9596
▁Rome	-11.9596
iness	-11.9596
▁wider	-11.9598
▁regulated	-11.9607
▁10,	-11.9608
foot	-11.9609
gyo	-11.961
▁lab	-11.9611
▁84	-11.9613
food	-11.9614
▁realiz	-11.9617
ryeong	-11.9617
ut	-11.9621
▁distributors	-11.9621
baek	-11.9623
▁councilors	-11.9624
▁shapes	-11.9624
OT	-11.9627
▁3.3	-11.9629
▁repaired	-11.9629
▁banners	-11.9631
▁agoniz	-11.9632
▁Yon	-11.9632
▁bean	-11.9637
▁masters	-11.9637
▁perpetrators	-11.9643
olitical	-11.9649
▁amuse	-11.9651
▁2.6	-11.9653
▁titles	-11.9661
▁KIA	-11.9666
par	-11.9671
▁inspectors	-11.9672
▁suppress	-11.9678
▁praying	-11.9684
9,000	-11.9684
▁appointing	-11.9692
▁coupons	-11.9693
week	-11.9695
▁Pak	-11.9704
▁rocks	-11.9704
▁raining	-11.9706
▁shade	-11.9713
large	-11.9725
▁unify	-11.973
▁ensur	-11.9731
▁acknowledge	-11.9742
▁licensed	-11.9743
▁styles	-11.9745
▁Opera	-11.9746
▁phrases	-11.975
00	-11.9754
Good	-11.9754
▁accomplish	-11.9758
▁fatal	-11.9758
▁appealing	-11.9762
▁Kun	-11.9773
▁lecturers	-11.9777
▁overheat	-11.9778
▁nest	-11.9792
▁interact	-11.9793
ked	-11.9794
more	-11.9799
rate	-11.9804
▁valuables	-11.9827
How	-11.9827
:20	-11.9831
▁Eom	-11.9832
base	-11.9836
language	-11.9837
▁crush	-11.9843
risk	-11.9845
used	-11.9846
▁insist	-11.9846
▁campaigns	-11.9847
temperature	-11.9849
Decree	-11.9854
credit	-11.9854
▁Sha	-11.9861
Sports	-11.9861
▁93	-11.9881
topped	-11.9881
catching	-11.9887
▁wa	-11.9889
▁intake	-11.989
ray	-11.9895
▁contracted	-11.99
speaking	-11.99
▁memorize	-11.9902
▁Shi	-11.9903
▁torn	-11.9904
▁tile	-11.9907
▁southwest	-11.9908
▁lid	-11.9909
Stop	-11.991
fish	-11.9915
▁(12	-11.9915
os	-11.9925
▁Ball	-11.993
▁23,	-11.9935
imed	-11.995
▁congratulate	-11.9977
▁marathon	-11.9977
Yong	-11.9979
▁commute	-11.9984
▁30,	-11.9987
▁plaque	-11.9988
looking	-11.9988
▁clinics	-11.9991
▁motel	-11.9991
▁athletic	-11.9992
▁restroom	-11.9995
▁terrorist	-11.9996
▁Fish	-11.9996
▁participant	-11.9997
▁Civi	-11.9998
▁webtoon	-11.9998
▁envoy	-11.9998
▁costume	-11.9999
▁priest	-12
▁nerve	-12.0002
▁competitor	-12.0002
▁1992	-12.0004
▁wield	-12.0006
▁limitation	-12.0007
▁delinquent	-12.0008
▁purifier	-12.001
▁painter	-12.0012
▁cogniti	-12.0018
▁recruits	-12.002
▁hitter	-12.0024
▁stabiliz	-12.0024
▁foam	-12.0026
▁classification	-12.0027
▁nano	-12.0028
▁Okinawa	-12.0029
prone	-12.0031
▁component	-12.0032
▁Shan	-12.0035
▁lion	-12.0041
▁Radio	-12.0045
▁scratch	-12.0046
▁performer	-12.0048
▁ads	-12.0049
▁intensify	-12.0058
▁deny	-12.0064
▁Auto	-12.0064
▁Gam	-12.0066
ittle	-12.0066
▁bath	-12.0068
Don	-12.0074
▁clash	-12.0077
▁2030	-12.0082
▁reckless	-12.0088
▁apparent	-12.0089
▁precise	-12.009
▁enforce	-12.0093
▁Disney	-12.0093
▁Brussels	-12.0093
▁Namhansanseong	-12.0093
▁dioxide	-12.0093
▁fragrance	-12.0093
▁quarrel	-12.0093
▁reiterated	-12.0093
▁boundaries	-12.0093
▁millimeters	-12.0093
▁repatriation	-12.0093
▁vinyl	-12.0093
▁Premium	-12.0093
▁diversified	-12.0093
▁qualities	-12.0093
▁sensibility	-12.0093
▁Manila	-12.0093
▁excrement	-12.0093
▁Violence	-12.0093
▁pronunciation	-12.0093
▁friction	-12.0093
▁collateral	-12.0093
▁neither	-12.0093
▁dominance	-12.0093
▁volleyball	-12.0093
▁ratification	-12.0093
▁fantastic	-12.0093
▁empathy	-12.0093
▁resurrection	-12.0093
▁malfunction	-12.0093
▁fandom	-12.0093
▁speculative	-12.0093
▁repository	-12.0093
▁DAS	-12.0094
▁contaminated	-12.0094
▁thickness	-12.0094
▁skating	-12.0094
▁1989	-12.0095
daero	-12.0095
▁sadness	-12.0095
▁poetry	-12.0095
▁Cheil	-12.0095
▁normalize	-12.0095
▁concurrently	-12.0095
▁Poland	-12.0096
▁shook	-12.0096
▁1982	-12.0096
▁protectionism	-12.0097
▁annex	-12.0097
▁DJ	-12.0097
▁rubber	-12.0098
▁soundness	-12.0098
▁dragged	-12.01
▁Tire	-12.01
▁harassed	-12.0101
paid	-12.0101
▁Sangju	-12.0101
▁Eight	-12.0101
▁sometime	-12.0102
▁deteriorated	-12.0102
▁Ukraine	-12.0103
▁Cathedral	-12.0103
▁Netmarble	-12.0103
▁purification	-12.0103
▁orientation	-12.0103
▁Communist	-12.0103
▁endangered	-12.0104
▁possessed	-12.0104
▁mouse	-12.0104
▁literacy	-12.0104
▁reunification	-12.0104
▁Modern	-12.0105
▁700,000	-12.0105
▁Dongtan	-12.0105
▁16,	-12.0106
▁Hongdae	-12.0106
▁Cheonggye	-12.0107
▁awesome	-12.0107
▁reinforce	-12.0108
▁Nakdong	-12.0108
▁citizenship	-12.0108
▁Gongju	-12.0109
▁Highway	-12.011
▁Princess	-12.011
▁hell	-12.0112
▁Afterwards	-12.0113
▁Chelsea	-12.0115
▁consumed	-12.0116
▁150,000	-12.0116
▁Employees	-12.0118
▁formula	-12.0118
▁regulate	-12.0118
▁activation	-12.0119
▁Woman	-12.0121
▁lips	-12.0122
▁Daejin	-12.0123
▁ascertain	-12.0123
▁Online	-12.0123
▁2002,	-12.0124
▁laughed	-12.0125
▁Keep	-12.0126
tributed	-12.0127
▁tweet	-12.0127
▁tailor	-12.013
▁scars	-12.0134
▁supervised	-12.0134
▁pesticides	-12.0134
▁Nine	-12.0136
▁satisfying	-12.0139
▁nutrients	-12.0139
▁witnessed	-12.0143
▁Schola	-12.0146
kyum	-12.0147
▁96	-12.0149
▁internally	-12.015
▁Analysis	-12.015
v	-12.015
▁reads	-12.0151
▁Cold	-12.0152
▁spinal	-12.0152
second	-12.0153
▁rewarded	-12.0154
▁joyful	-12.0154
▁5-	-12.0156
▁Far	-12.0159
▁flames	-12.0161
▁organizers	-12.0165
V	-12.0165
▁rope	-12.0167
▁brokers	-12.0171
▁offenders	-12.0172
beneficiary	-12.0172
Sexual	-12.0172
▁Fo	-12.0175
▁expose	-12.0177
▁Ganghwa	-12.0182
▁quarterfinal	-12.0183
▁fo	-12.0184
▁inscription	-12.0185
▁licenses	-12.0188
▁faithful	-12.0194
▁axis	-12.0205
▁artworks	-12.0205
▁disappearing	-12.0205
▁Contract	-12.0206
▁mart	-12.0214
▁placement	-12.0218
▁massacre	-12.0221
▁embrace	-12.0227
▁soap	-12.0237
DM	-12.0239
▁religions	-12.0239
▁associations	-12.0251
▁Kyeong	-12.0254
fire	-12.0255
mu	-12.0258
cation	-12.0261
gye	-12.0263
▁loves	-12.0265
▁Architectur	-12.0267
▁strokes	-12.027
▁backgrounds	-12.028
self	-12.0281
▁coup	-12.0282
▁Funds	-12.0294
box	-12.0302
▁faci	-12.0311
2,500	-12.0312
hoo	-12.0316
▁IB	-12.0325
▁Duri	-12.0325
▁releases	-12.0332
economic	-12.0332
til	-12.0333
▁Championships	-12.0335
help	-12.0335
▁(18	-12.0336
▁masks	-12.034
minister	-12.034
non	-12.034
ned	-12.0341
▁orchestra	-12.0344
per	-12.0345
▁useless	-12.0352
▁PD	-12.0357
▁servers	-12.0358
24	-12.0362
chol	-12.0386
District	-12.0387
ants	-12.0389
ware	-12.0393
which	-12.0394
▁tables	-12.0399
▁monitors	-12.0404
▁blows	-12.0405
▁tape	-12.0418
▁Eric	-12.0419
▁bat	-12.0421
▁Mai	-12.0422
-1	-12.0428
Some	-12.0433
ists	-12.0434
▁broad	-12.0449
Why	-12.0449
▁rents	-12.0453
▁144	-12.0454
▁Sand	-12.0456
aging	-12.0462
democracy	-12.0464
op	-12.0467
Burning	-12.0467
▁appearances	-12.0467
▁fasting	-12.0469
Life	-12.0471
▁Month	-12.0477
wol	-12.0484
asketball	-12.0484
▁steer	-12.0491
▁12,000	-12.0491
▁unilateral	-12.0495
▁promotions	-12.0496
accompanying	-12.0518
▁click	-12.0539
oke	-12.0555
▁Shrine	-12.0567
▁birthrate	-12.0569
ura	-12.057
▁breeze	-12.0575
▁zoo	-12.0582
▁cabbage	-12.0584
▁hazard	-12.0584
▁circumstance	-12.0586
▁interpreter	-12.0588
▁oxide	-12.0588
▁recipe	-12.0588
▁requirement	-12.0591
▁distributor	-12.0593
▁hardship	-12.0597
gwan	-12.06
▁Bin	-12.0602
▁blanket	-12.0607
liable	-12.0611
▁Flower	-12.0618
erous	-12.0623
▁propos	-12.0633
▁cart	-12.0639
ome	-12.0642
▁traveler	-12.0643
▁councilor	-12.0651
▁treatments	-12.0661
▁bump	-12.0663
▁bra	-12.0664
▁excuse	-12.0667
▁trigger	-12.0668
▁sa	-12.0668
▁anchor	-12.0669
▁northeast	-12.0674
▁thereto	-12.0674
▁horizontal	-12.0677
▁mat	-12.068
▁vitalize	-12.068
▁Reservoir	-12.0681
▁TOEIC	-12.0681
▁charcoal	-12.0681
▁energetic	-12.0681
▁glimpse	-12.0681
▁rhinitis	-12.0681
▁tremendous	-12.0681
▁turmoil	-12.0681
▁Assistance	-12.0681
▁perhaps	-12.0681
kyeom	-12.0681
▁Automobile	-12.0681
▁baggage	-12.0681
▁Childhood	-12.0681
▁Jordan	-12.0681
▁Shimbun	-12.0681
▁urgency	-12.0681
▁dynasty	-12.0681
▁dictatorship	-12.0681
▁evacuation	-12.0681
▁Everland	-12.0681
▁humidity	-12.0681
▁consolation	-12.0681
▁bamboo	-12.0681
▁earliest	-12.0681
▁radius	-12.0682
▁autopsy	-12.0682
▁Facility	-12.0682
▁psychology	-12.0682
▁Silver	-12.0682
▁Dongnae	-12.0682
▁behaviors	-12.0682
▁revocation	-12.0682
▁garner	-12.0682
▁rainfall	-12.0682
▁Cancer	-12.0682
▁Flag	-12.0682
▁Gunpo	-12.0682
▁Empire	-12.0682
▁flour	-12.0682
▁reimbursement	-12.0682
▁Sindang	-12.0682
▁novelist	-12.0682
▁literally	-12.0682
▁liquidity	-12.0682
▁masterpiece	-12.0683
▁chewy	-12.0683
▁Production	-12.0683
▁groundwater	-12.0684
▁Prayer	-12.0684
▁elimination	-12.0685
▁sentencing	-12.0685
▁mountainous	-12.0685
▁1950	-12.0686
▁10:30	-12.0686
▁adventure	-12.0687
▁reconstructed	-12.0687
▁levy	-12.0688
▁unfortunately	-12.0688
▁undertaken	-12.0688
▁hotter	-12.0688
▁Naturally	-12.0688
▁stabbed	-12.0689
▁tiger	-12.0689
▁sewing	-12.0689
▁prosecuted	-12.0689
edge	-12.0689
▁weaknesses	-12.0689
▁aggregate	-12.069
▁7:30	-12.069
▁clay	-12.0691
▁specialties	-12.0691
▁thirty	-12.0691
▁quiz	-12.0691
▁Folk	-12.0691
▁Examination	-12.0692
▁Body	-12.0692
▁pharmacy	-12.0692
▁injected	-12.0692
▁abusive	-12.0692
▁peers	-12.0693
▁Truth	-12.0693
▁differentiation	-12.0694
▁Sharp	-12.0694
▁trailer	-12.0695
▁clashed	-12.0696
urgical	-12.0696
▁fiction	-12.0696
▁portrayed	-12.0698
▁ethical	-12.0698
▁beloved	-12.0698
▁diving	-12.0699
▁inroads	-12.07
▁Similar	-12.07
▁oneself	-12.0701
▁teamwork	-12.0701
▁leather	-12.0702
▁invisible	-12.0702
▁broaden	-12.0703
▁fiercely	-12.0703
▁supervising	-12.0703
▁Tea	-12.0703
▁starred	-12.0703
▁Yesterday	-12.0704
▁portfolio	-12.0704
▁Kiwoom	-12.0705
▁distort	-12.0705
▁accelerated	-12.0708
▁cracked	-12.0711
▁revived	-12.0711
iaomi	-12.0712
▁starr	-12.0713
▁federation	-12.0714
▁Captain	-12.0717
▁sacrificed	-12.0718
▁Ka	-12.0718
▁Mathematics	-12.0719
▁RBIs	-12.0719
▁gaming	-12.0719
▁Money	-12.0719
▁exporters	-12.072
▁cows	-12.0721
▁Depend	-12.0723
inal	-12.0726
▁Safe	-12.0727
▁holy	-12.0728
▁hunting	-12.0728
▁(25	-12.073
▁towns	-12.0731
▁wildfires	-12.0731
▁/	-12.0732
▁2.1	-12.0735
▁searches	-12.0735
▁Claus	-12.0737
▁Oil	-12.0739
▁Watching	-12.074
▁Blockchain	-12.0743
▁Iron	-12.0743
6,000	-12.0744
▁Businesses	-12.0746
▁3.6	-12.0747
▁booming	-12.0749
▁Materials	-12.0752
▁possess	-12.0752
▁Hun	-12.0754
▁bulk	-12.0756
▁Te	-12.0757
▁symboliz	-12.076
▁execute	-12.0763
▁radioactiv	-12.0764
lane	-12.0766
▁Patriots	-12.0769
▁occupants	-12.077
▁beings	-12.0772
▁Recycl	-12.0779
▁Fans	-12.0789
▁tribute	-12.0795
▁2%	-12.0799
▁Merit	-12.0801
▁stickers	-12.0802
▁Stay	-12.0805
▁landlords	-12.0805
▁originate	-12.0807
▁packing	-12.0815
▁8,000	-12.0817
aux	-12.0827
▁60,000	-12.0834
▁Patriot	-12.0836
▁Balance	-12.0837
▁candles	-12.0838
▁tofu	-12.0844
▁lively	-12.0844
loving	-12.0848
▁1.3	-12.085
wa	-12.0855
car	-12.0863
▁Full	-12.0869
▁surpasse	-12.0872
bel	-12.0882
will	-12.0888
▁organ	-12.0889
▁accompany	-12.0891
payment	-12.0894
star	-12.0895
▁spite	-12.0897
▁productive	-12.0899
▁differently	-12.0902
▁trusted	-12.0904
▁casting	-12.0908
▁impressions	-12.0908
▁provider	-12.091
▁56	-12.0914
▁workout	-12.0916
development	-12.0916
nna	-12.0918
▁78	-12.0926
▁merits	-12.0929
▁boards	-12.0931
▁arises	-12.0939
rak	-12.0943
inch	-12.0944
▁DB	-12.0944
▁2.4	-12.0946
ov	-12.0955
▁accommodations	-12.0955
small	-12.096
▁belts	-12.0968
2018	-12.0969
thing	-12.0976
Jeong	-12.0981
▁beans	-12.0983
▁Mars	-12.0988
▁publications	-12.0994
▁sever	-12.0995
▁Accident	-12.0998
▁Jungang	-12.1001
▁Areas	-12.1014
Fi	-12.1016
▁conjuncti	-12.102
▁tires	-12.1027
▁commissioning	-12.1028
▁disciples	-12.1029
Dong	-12.1037
Russia	-12.1045
topic	-12.105
j	-12.1055
▁argues	-12.1058
▁1.9	-12.1058
▁ok	-12.1061
▁Angel	-12.107
▁Imjin	-12.1082
funded	-12.1083
green	-12.1085
SNS	-12.1086
Global	-12.1087
▁trick	-12.1087
ence	-12.1092
Support	-12.1096
▁advis	-12.1098
▁jam	-12.1099
fried	-12.11
such	-12.1106
arry	-12.1106
▁chairs	-12.1107
▁participator	-12.1115
▁Entrust	-12.1117
Soo	-12.1124
ntrustment	-12.1125
▁Joe	-12.1132
▁arena	-12.1133
▁ignor	-12.1142
Mr	-12.1143
ommercialization	-12.1157
▁mentor	-12.118
nuri	-12.118
ko	-12.1181
▁111	-12.1181
▁compound	-12.1187
▁pages	-12.1187
opical	-12.1188
▁unfold	-12.1199
▁thrill	-12.1202
▁database	-12.1203
▁cafeteria	-12.1204
▁renovation	-12.1205
▁Mission	-12.1206
▁accomplice	-12.1206
▁midfielder	-12.1207
▁airplane	-12.1209
▁cartoon	-12.1209
▁outflow	-12.121
▁kiln	-12.1212
▁noodle	-12.1213
▁firefighter	-12.1213
▁curve	-12.1214
▁guideline	-12.1215
▁disruption	-12.1215
.-	-12.1215
▁blessing	-12.1217
▁rocket	-12.1218
▁soybean	-12.1221
▁sword	-12.1222
ure	-12.1223
▁Anna	-12.1224
▁occupant	-12.1225
▁consultant	-12.1226
▁grape	-12.1229
▁2018-20	-12.1235
▁scrap	-12.1238
▁optimize	-12.1239
▁Chair	-12.124
▁blocks	-12.124
▁Bul	-12.1241
▁orange	-12.1242
▁modification	-12.1248
▁Elder	-12.1248
▁ink	-12.125
▁farmer	-12.125
▁disclos	-12.1256
ay	-12.1268
▁diversify	-12.127
▁Share	-12.1274
▁expenditures	-12.1277
▁PO	-12.1278
▁licens	-12.128
▁91	-12.1285
▁corps	-12.1287
▁Regulator	-12.1293
▁Think	-12.1296
▁Geon	-12.1298
▁harmonious	-12.1301
▁random	-12.1302
▁127	-12.1303
▁brutal	-12.1306
▁cruel	-12.1306
▁George	-12.1306
▁Coalition	-12.1306
▁Confucius	-12.1306
▁Croatia	-12.1306
▁Stanford	-12.1306
▁Tashkent	-12.1306
▁Vatican	-12.1306
▁currencies	-12.1306
▁diarrhea	-12.1306
▁elaborate	-12.1306
▁frustration	-12.1306
▁vicinity	-12.1306
▁Dementia	-12.1306
▁Inspector	-12.1306
▁stupid	-12.1306
▁absorption	-12.1306
▁Philharmonic	-12.1306
▁propaganda	-12.1306
▁incineration	-12.1306
▁genuine	-12.1306
▁Livestock	-12.1306
▁Lecture	-12.1306
▁Diego	-12.1306
▁Shilla	-12.1306
▁conscience	-12.1306
▁remuneration	-12.1306
sufficiency	-12.1307
▁authenticity	-12.1307
▁Greek	-12.1307
▁exterior	-12.1307
▁Clinton	-12.1307
▁compilation	-12.1307
▁Colombia	-12.1307
▁expulsion	-12.1307
▁obey	-12.1307
▁expedition	-12.1308
▁altogether	-12.1308
▁unlimited	-12.1308
▁Actual	-12.1308
▁Incident	-12.1308
▁Ronaldo	-12.1308
▁Bareun	-12.1308
▁renew	-12.1308
▁prohibition	-12.1308
▁pond	-12.1308
▁discriminate	-12.1309
▁Cherry	-12.1309
▁altar	-12.1309
▁habitually	-12.1309
▁detained	-12.131
▁Independent	-12.131
▁vowed	-12.131
▁hectares	-12.131
▁Forestry	-12.131
▁Anyway	-12.131
▁Crown	-12.1311
▁capturing	-12.1312
▁twisted	-12.1312
▁saints	-12.1313
▁motivated	-12.1313
▁Jeongjo	-12.1313
▁dismantled	-12.1313
▁heightened	-12.1313
▁Hannam	-12.1314
▁honestly	-12.1315
▁ignition	-12.1316
▁bonuses	-12.1317
▁parallel	-12.1317
▁TWICE	-12.1317
▁Swiss	-12.1317
▁voucher	-12.1317
▁phishing	-12.1317
▁recyclable	-12.1317
▁Platform	-12.1317
▁Maintenance	-12.1317
▁dismantlement	-12.1317
▁anonymous	-12.1318
▁bargaining	-12.1318
▁Pusan	-12.1318
▁Louis	-12.1318
▁Argentine	-12.1318
▁Immediately	-12.1319
▁Halla	-12.1319
▁tasty	-12.1319
▁consignee	-12.1319
▁capitalization	-12.132
▁tightly	-12.132
▁inferior	-12.1321
▁derive	-12.1322
▁inherited	-12.1324
▁1,200	-12.1324
▁fireworks	-12.1325
▁wheelchair	-12.1325
▁reorganize	-12.1326
▁tasting	-12.1326
▁Academic	-12.1328
▁neutral	-12.1329
▁Dutch	-12.133
▁borrowers	-12.133
▁brightly	-12.1331
▁Woong	-12.1332
▁dumping	-12.1332
▁230	-12.1333
▁Pope	-12.1334
▁Order	-12.1334
▁instance	-12.1334
▁defended	-12.1334
edical	-12.1335
▁disadvantaged	-12.1335
▁mislead	-12.1336
▁Hangang	-12.1338
▁diary	-12.1339
▁adolescents	-12.1339
▁biased	-12.1343
▁sake	-12.1344
▁automakers	-12.1346
▁1.1	-12.1347
▁breakup	-12.1349
▁Lot	-12.1349
▁compensated	-12.135
▁timetable	-12.135
▁altitude	-12.1351
▁Train	-12.1351
▁Aug	-12.1352
▁bunch	-12.1352
▁permanently	-12.1353
▁(17	-12.1356
▁15,000	-12.1356
▁stalled	-12.1357
▁crystal	-12.1357
▁carved	-12.1358
▁Video	-12.1358
▁assign	-12.1361
▁Sever	-12.1364
▁souvenirs	-12.1365
▁undermine	-12.1366
▁nutritional	-12.1366
▁supplemented	-12.1368
▁smiled	-12.1368
▁premiere	-12.1369
▁pledged	-12.137
▁loading	-12.137
▁symbolize	-12.1371
▁(6	-12.1372
▁pour	-12.1373
rtificial	-12.1374
▁Roman	-12.1374
They	-12.1375
▁frequented	-12.1375
▁repeating	-12.1376
▁arising	-12.1378
▁Wonder	-12.1378
▁judgments	-12.1379
▁shines	-12.138
▁businessman	-12.1382
▁forecasted	-12.139
▁defending	-12.1391
ology	-12.1394
FA	-12.1395
▁environmentally	-12.1397
▁hosts	-12.1404
PM	-12.1411
▁Mil	-12.1413
▁failures	-12.1419
reviously	-12.1421
▁Pass	-12.1425
▁grievances	-12.1426
▁lump	-12.1428
▁pairs	-12.1436
▁Mid	-12.144
▁Audi	-12.1443
▁rings	-12.1453
▁burns	-12.1461
▁6,000	-12.1462
▁unpai	-12.1466
telling	-12.147
asically	-12.1471
ee	-12.1474
▁tide	-12.1475
▁Che	-12.1476
▁bookstores	-12.1482
▁patch	-12.1484
300	-12.1486
▁arrangements	-12.1488
ional	-12.1494
▁dealers	-12.1498
▁progressed	-12.1501
▁wit	-12.1507
special	-12.1509
▁poly	-12.1516
parent	-12.1522
▁Specific	-12.1524
producing	-12.1527
▁Saen	-12.1527
▁importing	-12.1528
▁majors	-12.1528
tak	-12.154
▁hat	-12.1541
▁signatures	-12.1543
sex	-12.1549
▁bu	-12.1551
▁Rever	-12.1552
▁dubb	-12.1558
▁114	-12.1558
According	-12.1559
▁Heal	-12.156
final	-12.1562
▁(16	-12.1562
▁speakers	-12.1564
▁interviewed	-12.1565
▁repairing	-12.1568
strial	-12.1568
▁occupations	-12.157
▁Eung	-12.1572
84	-12.1577
ara	-12.1577
▁plates	-12.1579
oo	-12.1581
▁planes	-12.1582
▁na	-12.1582
▁sticks	-12.1583
wi	-12.1588
▁declar	-12.159
ontroversy	-12.1592
▁mad	-12.1592
▁Was	-12.1593
social	-12.1606
ved	-12.1606
▁mone	-12.1609
▁classify	-12.161
Minister	-12.1611
scular	-12.1614
▁mess	-12.1614
▁eliminat	-12.1615
ties	-12.1622
▁chemicals	-12.1623
▁Pi	-12.1631
▁lock	-12.1631
▁revis	-12.1631
▁controls	-12.1637
▁ad	-12.1637
But	-12.1638
tention	-12.1639
▁k	-12.1643
chon	-12.1644
▁(20	-12.1644
▁franchises	-12.1652
▁Tang	-12.1654
production	-12.1657
▁Add	-12.1664
expected	-12.1668
▁tail	-12.1669
powered	-12.1672
▁superintendents	-12.1677
▁12,	-12.1679
▁Leaders	-12.1681
▁god	-12.1682
come	-12.1689
▁subsequent	-12.1694
▁arguments	-12.1695
▁colleges	-12.1697
piled	-12.1699
▁Per	-12.1705
va	-12.1712
13	-12.1716
▁conscious	-12.1719
▁Lo	-12.1722
IBK	-12.1725
Chief	-12.1726
lastic	-12.173
Love	-12.1731
▁crackdowns	-12.1733
▁Projects	-12.1737
▁accidental	-12.1742
▁disguise	-12.1743
▁thesis	-12.1745
▁connections	-12.175
▁indoors	-12.175
Free	-12.1751
▁emergenc	-12.1754
verything	-12.1755
light	-12.1756
▁com	-12.1756
▁Nae	-12.1758
▁staffs	-12.177
▁79	-12.1784
mpact	-12.1785
▁profession	-12.179
▁luna	-12.1797
fired	-12.1797
hoe	-12.1808
▁yes	-12.1811
OS	-12.1816
▁links	-12.1817
Song	-12.1817
lon	-12.1818
▁11,	-12.184
invested	-12.1843
▁melt	-12.1844
▁accumulate	-12.1845
▁2021,	-12.1847
▁Inje	-12.1848
▁exhaust	-12.185
Min	-12.1852
▁Kal	-12.1855
▁conviction	-12.1858
▁disagree	-12.1863
▁bake	-12.1866
▁spill	-12.1866
▁cathedral	-12.1866
▁tumor	-12.1868
▁seaweed	-12.187
▁wrist	-12.1871
▁queen	-12.1871
▁sermon	-12.1872
▁landmark	-12.1873
ulticultural	-12.1874
▁yacht	-12.1874
▁principals	-12.1875
▁Egyptian	-12.1875
▁sidewalk	-12.1876
▁radical	-12.1877
▁landslide	-12.1878
▁motorcycle	-12.1878
▁uncle	-12.1879
▁mineral	-12.1879
▁offender	-12.188
▁subcontractor	-12.188
▁module	-12.1881
table	-12.1885
▁treasure	-12.1887
▁insect	-12.1887
▁riot	-12.1887
▁characteriz	-12.1889
▁crop	-12.189
▁Sport	-12.1891
▁ch	-12.1895
▁19,	-12.1895
▁fitting	-12.1895
▁bracket	-12.1901
▁Resource	-12.1904
▁Chest	-12.1904
▁nutrition	-12.1906
▁220	-12.1907
▁heal	-12.191
▁strikes	-12.1912
ley	-12.192
▁Startup	-12.1922
▁poison	-12.1924
laying	-12.1924
▁whereas	-12.1927
▁tighten	-12.193
▁retir	-12.1933
▁mobiliz	-12.1938
▁swallow	-12.1941
board	-12.195
▁gardens	-12.1952
rich	-12.1955
▁Yeongjong	-12.1969
▁medicin	-12.1971
▁catalog	-12.1973
▁Cit	-12.1973
▁Hokkaido	-12.1973
▁Khashoggi	-12.1973
▁appetite	-12.1973
▁centuries	-12.1973
▁loneliness	-12.1973
▁Immigration	-12.1973
▁Mueller	-12.1973
▁twenty	-12.1973
▁Denmark	-12.1973
▁Channel	-12.1973
▁ideological	-12.1973
▁Microdot	-12.1973
▁innocence	-12.1973
▁exquisite	-12.1973
▁poultry	-12.1973
▁incidence	-12.1973
▁elite	-12.1973
▁drainage	-12.1973
▁identical	-12.1973
▁subsidization	-12.1973
▁bucket	-12.1973
▁threshold	-12.1973
▁humidifier	-12.1973
▁deteriorating	-12.1974
▁mobilization	-12.1974
▁interference	-12.1974
▁suitability	-12.1974
▁Grade	-12.1974
▁Treaty	-12.1974
▁chorus	-12.1974
▁fax	-12.1974
▁Conduct	-12.1974
▁revival	-12.1974
▁choreography	-12.1975
▁skip	-12.1975
▁Mnet	-12.1975
▁renamed	-12.1975
▁bias	-12.1975
▁legitimacy	-12.1975
▁undergone	-12.1976
▁Medal	-12.1976
▁deducted	-12.1976
▁Alright	-12.1977
▁debit	-12.1977
▁embark	-12.1977
▁Regeneration	-12.1977
▁stakeholders	-12.1977
▁supplementation	-12.1978
▁whereabouts	-12.1978
▁Biologics	-12.1978
▁chili	-12.1978
▁Section	-12.1978
▁Rail	-12.1978
▁underdeveloped	-12.1979
▁clearance	-12.1979
▁initiated	-12.1979
▁trademark	-12.198
▁distant	-12.198
▁occasionally	-12.198
▁Suseo	-12.198
▁deceived	-12.198
▁abdom	-12.1981
▁fac	-12.1981
Silicon	-12.1981
▁sank	-12.1982
▁ruined	-12.1982
▁underwear	-12.1982
compatible	-12.1982
▁microorganisms	-12.1983
▁congratulations	-12.1984
▁KAIST	-12.1984
▁Delhi	-12.1984
▁fossil	-12.1984
▁Soccer	-12.1984
▁Autumn	-12.1984
▁Geumgang	-12.1984
▁Marvel	-12.1984
▁Fashion	-12.1984
▁Chicken	-12.1984
▁inadequate	-12.1984
▁filmmakers	-12.1984
▁KDB	-12.1984
▁Wando	-12.1985
▁deprived	-12.1985
▁catering	-12.1986
▁transparently	-12.1986
▁Sungkyu	-12.1987
▁unfolded	-12.1988
▁followers	-12.1988
▁Strait	-12.1988
▁Saint	-12.1988
▁bubble	-12.1988
▁miles	-12.1989
▁terrorism	-12.199
▁exploit	-12.1991
▁suppressed	-12.1991
▁nobody	-12.1991
▁harmonized	-12.1991
▁mediator	-12.1992
▁1919	-12.1993
▁quantitative	-12.1994
▁Box	-12.1995
support	-12.1996
▁considerate	-12.1996
▁survivors	-12.1996
▁mingle	-12.1997
▁landowners	-12.1997
▁Genesis	-12.1999
▁Overall	-12.2001
▁subcontracting	-12.2002
▁harmonize	-12.2003
▁Unjeong	-12.2003
▁1000	-12.2004
▁contamination	-12.2007
▁donating	-12.2007
▁transcript	-12.2008
▁Lock	-12.2008
▁tooth	-12.2008
▁helmets	-12.2009
▁15%	-12.2009
▁hardest	-12.201
▁1.0	-12.2011
▁Dragon	-12.2013
▁Portugal	-12.2013
▁mutually	-12.2014
▁Return	-12.2015
▁Help	-12.2016
▁outsiders	-12.2017
▁inspir	-12.2017
saeng	-12.2021
AR	-12.2022
▁classmates	-12.2023
▁educate	-12.2023
▁Welcome	-12.2029
▁Exist	-12.2032
▁statistical	-12.2034
▁gases	-12.2035
Han	-12.2037
▁relaxing	-12.204
▁prohibits	-12.204
▁Task	-12.2041
▁relate	-12.2042
▁tvN	-12.2042
than	-12.2042
▁transported	-12.2044
▁Drama	-12.2047
▁Reading	-12.2048
▁creditors	-12.2051
▁complement	-12.2051
▁greed	-12.2054
LPGA	-12.2056
▁pads	-12.2056
▁kindly	-12.2057
▁murdered	-12.2059
▁captivate	-12.2059
▁launches	-12.2065
▁trails	-12.2066
▁(9	-12.2066
▁Jindo	-12.2071
▁Severa	-12.2072
▁hung	-12.2074
▁(14	-12.2074
▁disruptions	-12.2075
▁reinstate	-12.2078
▁LCD	-12.2079
▁advocate	-12.2082
▁backup	-12.2082
▁trendy	-12.2088
▁median	-12.2089
▁picket	-12.2091
▁venues	-12.2092
▁lightly	-12.2098
▁cord	-12.2098
▁gods	-12.2099
▁Sound	-12.2101
▁streams	-12.2101
▁DSR	-12.2102
▁2.0	-12.2109
▁Boys	-12.2109
▁injustice	-12.2109
▁rude	-12.211
▁spy	-12.2111
▁chase	-12.2114
ari	-12.2118
▁fingerprints	-12.2121
▁plot	-12.2126
▁exercised	-12.2127
rolling	-12.2127
▁chefs	-12.2128
rely	-12.2129
ancestral	-12.2133
▁reminiscen	-12.2134
▁sponsors	-12.2136
▁Ford	-12.214
▁slogans	-12.2141
▁exhibits	-12.2145
▁exceptions	-12.2146
▁29,	-12.2149
▁drain	-12.2151
▁suburb	-12.2151
▁refuses	-12.2155
▁190	-12.2162
Kang	-12.217
▁bearing	-12.2173
▁Fuji	-12.2174
state	-12.2175
▁Jane	-12.2177
ping	-12.218
▁outline	-12.218
▁pedestrians	-12.2181
▁retaliat	-12.2183
▁breach	-12.2186
▁Product	-12.2186
▁posters	-12.2188
▁eel	-12.2189
▁pools	-12.2193
▁Face	-12.2197
▁supervisors	-12.2201
8,000	-12.2203
▁Olive	-12.2203
▁migrat	-12.221
▁innovate	-12.2212
▁(11	-12.2216
▁Participat	-12.2219
▁Jr	-12.2221
▁cracks	-12.2223
▁Republicans	-12.2232
▁List	-12.2234
▁rebounds	-12.2234
▁proactive	-12.224
service	-12.2248
▁burdens	-12.2249
▁18,	-12.2253
▁respects	-12.2253
cell	-12.2254
▁tanks	-12.2258
net	-12.2273
▁plum	-12.2274
▁Deoksu	-12.2274
▁transfers	-12.2279
▁si	-12.2283
financial	-12.2295
▁shortages	-12.23
▁Mal	-12.23
ium	-12.2302
game	-12.2302
-2	-12.2302
▁mayors	-12.2302
An	-12.2308
▁soar	-12.2309
▁mill	-12.2311
▁kings	-12.2314
▁fathers	-12.2317
▁periods	-12.232
▁delegates	-12.2323
value	-12.2325
Busan	-12.2338
▁Yan	-12.2338
served	-12.2338
▁expedite	-12.2339
▁preparat	-12.2339
representative	-12.234
du	-12.2343
nkwan	-12.2354
▁livelihoods	-12.2358
▁2.8	-12.2359
▁Gen	-12.2359
▁(26	-12.2364
▁Messi	-12.2367
Democratic	-12.2368
▁studios	-12.237
four	-12.2371
▁flags	-12.2374
▁wo	-12.2375
shirt	-12.2379
Gwangju	-12.2381
ner	-12.2386
rey	-12.2386
38	-12.2392
ack	-12.2402
▁sees	-12.2402
▁joints	-12.2409
trial	-12.241
ite	-12.2411
five	-12.2412
▁assistants	-12.2414
esidential	-12.2419
▁fa	-12.2426
Defense	-12.2431
disabled	-12.2433
announcement	-12.2437
▁Hydro	-12.2442
▁89	-12.2445
▁CC	-12.2445
Making	-12.2446
Tae	-12.2447
▁swim	-12.2454
▁Kumgang	-12.2458
God	-12.2459
▁vi	-12.2461
▁maps	-12.2461
Black	-12.2464
disclosure	-12.2466
▁8.	-12.2466
▁advisors	-12.2468
▁Eye	-12.2473
▁phenomena	-12.2473
▁subcommittees	-12.2476
evaluation	-12.2476
▁Eve	-12.2481
▁innovations	-12.2481
sponsored	-12.2483
▁Scho	-12.2485
▁hook	-12.249
▁economics	-12.2491
▁shine	-12.2494
▁conditional	-12.2498
town	-12.2502
▁slice	-12.2505
▁Nation	-12.2506
using	-12.2508
.5%	-12.2512
▁Ed	-12.252
▁herb	-12.2521
sed	-12.2524
▁revisions	-12.2524
▁provoke	-12.2527
▁deepen	-12.2534
2,000	-12.2542
PO	-12.2548
"):	-12.2549
members	-12.2559
▁wasted	-12.2565
shirts	-12.2571
▁crosswalk	-12.2572
▁bride	-12.2574
▁Sol	-12.2574
size	-12.2581
after	-12.2581
weight	-12.2584
▁narrative	-12.2585
▁expire	-12.2585
▁Chungmu	-12.2587
▁females	-12.2587
▁vocalist	-12.2587
▁translator	-12.2589
▁fountain	-12.2589
▁ambulance	-12.2591
▁cheek	-12.2591
▁cushion	-12.2593
▁pillar	-12.2595
▁decoration	-12.2596
▁cookie	-12.2597
▁oath	-12.2598
VR	-12.2599
▁arrang	-12.2602
▁monster	-12.2603
▁retailer	-12.2603
▁newborn	-12.2604
▁printer	-12.2609
▁quant	-12.2609
22	-12.2613
▁drum	-12.2619
▁Tiger	-12.262
▁Kara	-12.2621
▁categorize	-12.2621
anitation	-12.2628
▁odd	-12.2629
▁premier	-12.263
▁retreat	-12.2633
▁debtor	-12.2641
▁attendant	-12.2642
enos	-12.2644
▁Doctor	-12.2649
▁Sent	-12.2652
za	-12.2656
▁organizer	-12.2658
▁Record	-12.2659
▁justices	-12.2663
▁25,	-12.2665
▁overhaul	-12.2671
▁counterattack	-12.2672
▁jet	-12.2673
▁brave	-12.268
▁Ulleung	-12.268
▁alleviate	-12.2681
▁improper	-12.2682
▁Economics	-12.2682
▁Yangjae	-12.2682
▁sandwich	-12.2682
▁swift	-12.2683
▁compile	-12.2684
ram	-12.2686
▁Eulji	-12.2687
▁Blood	-12.2687
▁DPRK	-12.2687
▁Desert	-12.2687
▁Halloween	-12.2687
▁KORAIL	-12.2687
▁KOTRA	-12.2687
▁Panmunjeom	-12.2687
▁Troupe	-12.2687
▁Wyverns	-12.2687
▁adequate	-12.2687
▁bibimbap	-12.2687
▁cemetery	-12.2687
▁explicit	-12.2687
▁gymnasium	-12.2687
▁imminent	-12.2687
▁octopus	-12.2687
▁proximity	-12.2687
▁referendum	-12.2687
▁unforgettable	-12.2687
▁Joseph	-12.2687
▁Kevin	-12.2687
▁sunshine	-12.2687
WSJ	-12.2687
▁Punishment	-12.2687
▁Seventeen	-12.2687
▁Television	-12.2687
▁pansori	-12.2687
▁gloomy	-12.2687
▁levied	-12.2687
▁chopsticks	-12.2687
▁marijuana	-12.2687
▁Families	-12.2687
▁stiff	-12.2687
▁proficiency	-12.2687
▁Prosecution	-12.2687
▁Mongol	-12.2687
▁Consulate	-12.2687
▁Homeplus	-12.2687
▁Sinchon	-12.2687
▁utmost	-12.2687
NYT	-12.2687
▁McDonald	-12.2687
▁Symphony	-12.2687
▁dissolution	-12.2687
▁resuscitation	-12.2687
▁confusing	-12.2687
▁blueprint	-12.2687
▁pumpkin	-12.2688
▁badminton	-12.2688
▁barley	-12.2688
▁ecology	-12.2688
▁depreciation	-12.2688
▁minorities	-12.2688
▁lounge	-12.2688
▁sunrise	-12.2688
▁Seattle	-12.2688
▁Admission	-12.2688
▁undervalued	-12.2688
▁entangled	-12.2688
▁noisy	-12.2688
▁battlefield	-12.2688
▁exaggeration	-12.2688
ey	-12.2688
▁Gyeongbu	-12.2688
▁remainder	-12.2688
▁Normally	-12.2688
▁5.18	-12.2688
▁coexistence	-12.2689
▁handwritten	-12.2689
▁optical	-12.2689
▁Jangheung	-12.2689
▁paralyzed	-12.2689
▁luncheon	-12.2689
▁Dalseong	-12.2689
▁intermediate	-12.2689
▁birthplace	-12.2689
▁Gwangsan	-12.2689
▁competence	-12.2689
▁dedication	-12.2689
▁personalities	-12.2689
▁1975	-12.269
▁Yecheon	-12.269
▁sanitation	-12.269
▁Belgi	-12.269
▁overlapped	-12.269
▁accumulating	-12.269
▁insulin	-12.2691
KMA	-12.2691
▁Uljin	-12.2691
▁1,400	-12.2691
▁uprising	-12.2691
▁escaping	-12.2691
▁stimulation	-12.2692
▁invaded	-12.2692
▁loose	-12.2692
▁Sihwa	-12.2692
▁Yeonpyeong	-12.2692
▁insolvency	-12.2692
▁Stage	-12.2692
▁Metal	-12.2692
▁obstruction	-12.2692
▁hacked	-12.2692
▁coordinator	-12.2692
▁alright	-12.2693
▁conceal	-12.2693
▁circulating	-12.2693
▁speculated	-12.2693
▁announcements	-12.2693
▁enthusiasts	-12.2694
▁carpet	-12.2694
▁shining	-12.2695
▁incense	-12.2695
▁Vi	-12.2695
▁inmates	-12.2696
▁abstract	-12.2697
▁complications	-12.2698
▁Twenty	-12.2699
▁Android	-12.2699
▁implies	-12.2699
▁subtle	-12.2699
▁Arboretum	-12.2699
▁Recovery	-12.2699
▁unidentified	-12.2699
▁decent	-12.27
▁hid	-12.27
ryul	-12.27
▁Shop	-12.2701
▁refined	-12.2701
▁calmly	-12.2703
▁melted	-12.2704
▁Round	-12.2704
utting	-12.2705
▁humanity	-12.2705
▁evidential	-12.2705
▁residency	-12.2705
▁homeland	-12.2705
▁kilograms	-12.2705
▁Bush	-12.2706
▁learners	-12.2706
▁Horse	-12.2706
▁outsourcing	-12.2706
▁objectively	-12.2706
▁observers	-12.2707
▁extracted	-12.2708
▁outlined	-12.2708
▁adaptation	-12.2709
▁richer	-12.2711
KEB	-12.2714
▁Saemaeul	-12.2715
▁hearings	-12.2715
▁princess	-12.2715
▁throne	-12.2715
▁Fox	-12.2716
▁Run	-12.2716
▁Writing	-12.2716
▁roadside	-12.2717
▁Partners	-12.2719
▁programming	-12.2719
▁weaker	-12.272
▁subtitles	-12.272
▁asbestos	-12.272
▁rites	-12.272
▁Steven	-12.2721
▁valuation	-12.2722
▁divorced	-12.2722
shore	-12.2724
▁ski	-12.2724
▁indexes	-12.2725
▁ring	-12.2726
▁Farmers	-12.2726
▁Kil	-12.2727
▁Yeongdo	-12.2727
▁racing	-12.2727
▁bathing	-12.2729
llows	-12.273
▁Guangzhou	-12.2731
▁Musical	-12.2731
▁survived	-12.2731
▁Double	-12.2731
▁denying	-12.2731
▁morale	-12.2733
▁underwater	-12.2734
▁belonged	-12.2734
▁Eagles	-12.2734
▁privileges	-12.2734
▁Yangyang	-12.2734
▁Tourist	-12.2736
▁vaccine	-12.2736
▁ruin	-12.2737
▁Wage	-12.2737
▁tug	-12.2738
26	-12.2739
▁intervals	-12.274
▁speeches	-12.2741
▁wetlands	-12.2741
entrepreneurship	-12.2741
hap	-12.2746
▁loaded	-12.2747
▁lu	-12.2748
▁awaken	-12.2748
▁(6)	-12.2748
▁cow	-12.2748
▁beginner	-12.275
▁sinking	-12.2751
▁stor	-12.2754
▁scientists	-12.2755
▁Woods	-12.2757
▁Process	-12.2758
▁Busanjin	-12.276
▁sleepy	-12.2768
▁Aires	-12.2768
▁pills	-12.2768
▁Talent	-12.2773
▁pole	-12.2775
Ang	-12.2776
▁counted	-12.2776
▁beautifully	-12.2777
Tech	-12.2778
▁birdie	-12.2779
▁decorations	-12.2783
▁trim	-12.2784
▁prisoners	-12.2787
▁liters	-12.2792
▁Taean	-12.2792
▁professionally	-12.2793
▁checkups	-12.2793
▁confess	-12.2793
▁combat	-12.2793
▁Beautiful	-12.2795
▁Ya	-12.2796
▁slim	-12.2797
▁Marina	-12.2801
▁flowed	-12.2811
▁envoys	-12.2811
▁forgive	-12.2817
▁PR	-12.282
▁ornament	-12.2821
▁10.	-12.2824
▁disrupt	-12.2824
▁Strong	-12.2824
▁Wait	-12.2825
▁reunions	-12.2825
▁keywords	-12.2826
▁shy	-12.2826
▁Save	-12.283
▁stemm	-12.2833
▁persistent	-12.2835
▁acclaim	-12.2839
▁roses	-12.2843
▁CO	-12.2845
▁photograph	-12.2845
▁expands	-12.2845
▁champions	-12.2852
▁teache	-12.2853
▁81	-12.2856
di	-12.2858
▁installments	-12.2861
ye	-12.2862
▁Com	-12.2863
▁parenting	-12.2864
pon	-12.2867
▁wrappe	-12.2868
ux	-12.2876
▁copying	-12.2879
ending	-12.2881
val	-12.2886
▁sheets	-12.2886
▁expresse	-12.2888
▁Pig	-12.2889
▁rewarding	-12.2895
▁Crime	-12.2898
Ho	-12.2898
▁compact	-12.2904
culture	-12.2907
▁Yuri	-12.2908
▁batters	-12.2914
lied	-12.2914
▁diplomat	-12.2916
▁alleys	-12.2918
ten	-12.2923
inary	-12.2925
▁hopeful	-12.293
ella	-12.2932
▁proposer	-12.2932
shop	-12.2933
▁(15	-12.2936
▁monuments	-12.2939
▁Taxi	-12.2942
▁aboard	-12.2946
▁Max	-12.2948
▁sacr	-12.2952
▁onions	-12.2956
▁Classic	-12.2963
▁Jack	-12.2967
▁manipulat	-12.2969
▁advoca	-12.2982
▁ho	-12.2992
▁Apply	-12.2992
▁1%	-12.2994
▁fist	-12.2996
▁theft	-12.2997
▁broker	-12.2998
▁consul	-12.2998
▁differs	-12.2999
▁Relat	-12.3001
▁Ru	-12.3004
▁Spa	-12.3005
60,000	-12.3016
mestic	-12.3033
▁GP	-12.3038
▁holders	-12.3041
▁Track	-12.3046
▁po	-12.3048
ichi	-12.305
tunately	-12.3056
▁assaults	-12.3059
▁Wo	-12.3066
▁liter	-12.3073
▁Place	-12.3085
jou	-12.3089
▁environments	-12.3089
▁bass	-12.3099
▁mega	-12.31
▁neuro	-12.3102
▁postings	-12.3102
▁ambassadors	-12.3115
chung	-12.3122
digit	-12.3122
▁minors	-12.3123
▁console	-12.3124
▁j	-12.3124
con	-12.3126
▁Hot	-12.3126
Seo	-12.3133
home	-12.3134
49	-12.3135
▁cultivat	-12.3136
▁valued	-12.3137
Choi	-12.3141
▁appointments	-12.3141
39	-12.3146
▁acknowledg	-12.3148
Hong	-12.3149
May	-12.315
▁Fr	-12.3151
International	-12.3151
▁99	-12.3156
World	-12.3159
ovincial	-12.3165
▁Richard	-12.3169
lush	-12.3172
▁hugg	-12.3175
designated	-12.3176
his	-12.3177
▁bite	-12.3179
▁resemble	-12.318
organized	-12.318
▁founders	-12.3183
econciliation	-12.3185
q	-12.3189
▁evaluates	-12.3193
▁telecom	-12.3194
▁infinite	-12.3198
▁Fi	-12.3199
▁App	-12.3216
academic	-12.3217
▁smiles	-12.3218
▁Kei	-12.322
trustee	-12.3224
▁Hyang	-12.3225
olar	-12.3226
carbon	-12.3227
Children	-12.3228
bad	-12.3228
▁amendments	-12.3228
corruption	-12.3229
▁dreaming	-12.323
▁7-	-12.3238
prosperity	-12.3241
OECD	-12.3243
approximate	-12.3244
yul	-12.3246
ev	-12.3248
▁360	-12.3249
specialized	-12.325
ade	-12.3251
ker	-12.3255
▁30-	-12.3266
nous	-12.3268
duced	-12.3276
eon	-12.3277
▁Modi	-12.3284
(2)	-12.3288
▁budgeting	-12.3299
tan	-12.33
ely	-12.3301
ning	-12.3321
▁Nong	-12.3327
hyeok	-12.333
▁locally	-12.3331
sky	-12.3332
▁foundations	-12.3338
▁rapper	-12.334
▁Hungarian	-12.3341
▁deteriorate	-12.3341
▁sequence	-12.3344
▁prevail	-12.3347
▁valve	-12.3353
▁assailant	-12.3353
▁routine	-12.3354
▁Pat	-12.3354
▁vaccination	-12.3354
▁tilt	-12.3357
▁interaction	-12.336
▁symptom	-12.3361
▁Muslim	-12.3361
▁Petition	-12.3361
ontrary	-12.3361
▁Philippine	-12.3362
▁netizen	-12.3363
▁photographer	-12.3363
active	-12.3364
▁odor	-12.3365
▁Unt	-12.3367
▁citation	-12.3368
▁petrochemical	-12.337
▁Juvenile	-12.3371
▁planner	-12.3373
cut	-12.3373
▁versions	-12.3374
▁flame	-12.3374
▁Chil	-12.3376
▁4:	-12.3381
▁angel	-12.3381
▁appliance	-12.3385
▁leftover	-12.3386
▁Foods	-12.3388
▁evolution	-12.3389
▁Aid	-12.3392
▁prisoner	-12.3392
ill	-12.3395
▁disk	-12.3395
King	-12.3397
▁stranger	-12.3399
continent	-12.3406
31	-12.3406
▁li	-12.3411
▁Singaporean	-12.3415
▁pill	-12.3415
ue	-12.342
▁MO	-12.3424
▁Teacher	-12.3425
▁280	-12.3426
▁battles	-12.3438
ennis	-12.344
▁corrupt	-12.3441
▁rupture	-12.3445
▁transit	-12.3446
▁gran	-12.3447
▁converge	-12.3447
rry	-12.3448
▁skeptic	-12.3452
actively	-12.3452
▁discard	-12.3453
▁Electro	-12.3453
▁Advertising	-12.3456
▁Celltrion	-12.3456
▁Cemetery	-12.3456
▁Tehran	-12.3456
▁Testament	-12.3456
▁chimney	-12.3456
▁handicapped	-12.3456
▁hobbies	-12.3456
▁pneumonia	-12.3456
▁promulgation	-12.3456
▁refurbish	-12.3456
▁symposium	-12.3456
▁unanimous	-12.3456
▁controversies	-12.3457
▁garlic	-12.3457
▁triangular	-12.3457
▁pornography	-12.3457
▁unlawful	-12.3457
▁missionaries	-12.3457
▁Convenience	-12.3457
▁Demonstration	-12.3457
▁Tencent	-12.3457
▁annoying	-12.3457
▁euthanasia	-12.3457
▁6/10	-12.3457
▁Uprising	-12.3457
▁sisterhood	-12.3457
yueng	-12.3457
▁alumni	-12.3457
▁repetitive	-12.3457
▁confinement	-12.3457
▁hockey	-12.3457
▁disappointment	-12.3457
▁equalizer	-12.3457
▁kidnapped	-12.3457
▁Jeff	-12.3457
▁salmon	-12.3457
▁roadmap	-12.3457
▁Sonata	-12.3457
▁Kelly	-12.3457
▁accumulation	-12.3457
▁banana	-12.3457
▁flesh	-12.3457
▁Garak	-12.3457
▁workload	-12.3457
▁patriotic	-12.3457
▁academies	-12.3457
▁Shipping	-12.3457
▁wildlife	-12.3457
▁yoga	-12.3457
▁Bahrain	-12.3457
▁Euljiro	-12.3457
▁surcharge	-12.3457
▁Koryo	-12.3457
▁Resolution	-12.3457
▁dentist	-12.3457
▁mankind	-12.3457
▁maternal	-12.3457
▁lemon	-12.3457
▁Heaven	-12.3457
▁merchandise	-12.3457
▁simulation	-12.3457
▁fundraising	-12.3458
▁southeastern	-12.3458
▁Landscape	-12.3458
▁competency	-12.3458
▁Course	-12.3458
▁demolished	-12.3458
▁wallpaper	-12.3458
▁obliged	-12.3458
▁tidal	-12.3458
▁BBC	-12.3458
▁fancy	-12.3458
▁Adviser	-12.3458
▁Liga	-12.3458
▁1985	-12.3459
▁liquidation	-12.3459
▁Jinhae	-12.3459
▁postseason	-12.3459
▁collapsing	-12.3459
▁Namyang	-12.3459
▁inducement	-12.3459
▁happier	-12.3459
▁Manufacturing	-12.346
▁checkup	-12.346
▁1986	-12.346
▁formulation	-12.346
▁theoretical	-12.3461
▁1991	-12.3461
▁Hyosung	-12.3461
▁Mokdong	-12.3461
▁Avenue	-12.3461
▁segment	-12.3461
▁dumplings	-12.3461
▁moisturizing	-12.3461
▁skeptical	-12.3461
▁distinction	-12.3462
▁assumption	-12.3462
▁linkage	-12.3462
▁humble	-12.3462
▁circulated	-12.3462
▁precisely	-12.3463
▁Subject	-12.3463
▁showdown	-12.3463
▁cancelled	-12.3464
▁shortcut	-12.3464
▁ballot	-12.3465
▁applauded	-12.3465
▁hampered	-12.3466
▁seism	-12.3466
▁cutlet	-12.3467
▁cries	-12.3467
▁widened	-12.3467
▁stove	-12.3467
▁aggressively	-12.3468
▁solidify	-12.3468
▁migration	-12.3468
▁comparative	-12.3469
▁hurried	-12.3469
▁NATO	-12.3469
▁Asahi	-12.3469
▁Rookie	-12.3469
▁silence	-12.3469
▁Procurement	-12.3469
▁Ulaanbaatar	-12.3469
▁enlightenment	-12.3469
▁Friendship	-12.3469
▁2023	-12.347
▁Boryeong	-12.347
▁Peak	-12.3471
▁catalyst	-12.3471
▁Brown	-12.3471
▁summary	-12.3471
▁brigade	-12.3472
▁Cohen	-12.3472
▁tangible	-12.3472
▁openness	-12.3474
▁radish	-12.3474
▁jeonse	-12.3474
▁illnesses	-12.3475
▁guidebook	-12.3475
▁Samba	-12.3475
▁upgraded	-12.3475
▁collectively	-12.3476
▁socks	-12.3476
9%	-12.3476
▁centralized	-12.3477
▁curved	-12.3478
▁faulty	-12.3479
▁allergic	-12.3479
▁sweeping	-12.3479
▁specialization	-12.348
▁spine	-12.348
▁acceptable	-12.348
▁proudly	-12.3481
▁Investors	-12.3481
,400	-12.3481
▁booklet	-12.3482
▁prioritize	-12.3482
▁Savings	-12.3483
▁teens	-12.3485
▁toys	-12.3485
▁butterfly	-12.3486
▁Venezuelan	-12.3486
▁damaging	-12.3486
▁hallyu	-12.3486
▁pathogenic	-12.3486
CC	-12.3488
▁trophy	-12.3489
▁touches	-12.3489
▁cervi	-12.349
▁Nano	-12.3491
▁Belt	-12.3492
▁encountered	-12.3495
▁Benefit	-12.3496
▁Goryeong	-12.3496
▁Disciplin	-12.3498
▁coding	-12.3498
▁arisen	-12.3498
▁gestures	-12.3499
▁95	-12.35
▁armor	-12.3502
▁nitrogen	-12.3503
▁helm	-12.3504
▁relaxation	-12.3505
▁Pink	-12.3505
▁nicely	-12.3506
▁enjoyable	-12.3508
hit	-12.3511
▁Tr	-12.3512
▁boasting	-12.3513
▁fulfilled	-12.3513
▁autonomously	-12.3514
▁fluctuations	-12.3514
▁Walking	-12.3514
▁Vari	-12.3517
rical	-12.3519
▁insignificant	-12.3519
▁loyalty	-12.352
▁LTE	-12.3523
▁theology	-12.3523
▁belated	-12.3524
▁edit	-12.3524
▁grants	-12.3526
▁cured	-12.3528
▁17,	-12.353
▁ruins	-12.353
▁Nor	-12.353
▁Simon	-12.3532
▁Cases	-12.3532
▁brakes	-12.3536
▁KCTU	-12.3537
▁ornaments	-12.3537
▁straws	-12.3538
▁intestin	-12.3538
▁142	-12.3539
▁Commodit	-12.354
▁SOC	-12.354
▁API	-12.3544
▁afterwards	-12.3544
▁warranty	-12.3547
▁badly	-12.3548
▁lawn	-12.3549
enthusiastically	-12.3549
▁dancers	-12.3551
▁procession	-12.3554
▁geo	-12.3554
▁tiles	-12.3555
▁advances	-12.3555
▁overturned	-12.3556
▁stern	-12.3558
/100	-12.3558
▁Pu	-12.3559
▁embodie	-12.3561
▁Players	-12.3562
▁accusations	-12.3562
▁plus	-12.3564
has	-12.3569
▁st	-12.3576
▁unfolds	-12.3576
▁cartoons	-12.3576
▁Tim	-12.3578
▁logical	-12.358
▁cardio	-12.3582
▁hardships	-12.3584
▁apples	-12.3586
▁Nara	-12.3586
▁helper	-12.3586
▁painters	-12.3588
▁grains	-12.3589
▁reconsider	-12.3589
▁webtoons	-12.3591
▁hi	-12.3591
▁clues	-12.3595
▁bribe	-12.3597
▁Chem	-12.3605
▁laptops	-12.3606
▁arson	-12.3609
neung	-12.3612
▁overlaps	-12.3617
▁Top	-12.362
reum	-12.362
▁dressing	-12.3623
▁peppers	-12.3629
▁lungs	-12.3634
▁crafts	-12.364
ku	-12.3641
▁musicals	-12.3644
scape	-12.3646
▁mistaken	-12.3646
▁hasty	-12.3648
▁Photograph	-12.3649
ze	-12.3649
.6%	-12.365
▁Honey	-12.3654
▁wet	-12.3658
▁7,000	-12.3666
▁defenders	-12.3669
▁fixing	-12.3671
▁rituals	-12.3672
▁Pine	-12.3674
dustrialization	-12.3677
ual	-12.3678
▁molest	-12.3678
▁assessments	-12.3679
▁globally	-12.3681
evertheless	-12.3686
▁113	-12.3686
osa	-12.3691
▁gear	-12.3694
▁contractors	-12.3694
▁tissues	-12.3697
▁Bur	-12.3699
▁rivals	-12.37
▁mal	-12.3702
▁epidemiologic	-12.3705
but	-12.371
▁rooted	-12.3712
▁fortunately	-12.3716
now	-12.3718
▁invasions	-12.3721
▁Infant	-12.3726
terran	-12.3731
▁yours	-12.3733
▁summons	-12.3739
ries	-12.3741
chasing	-12.3752
▁warmth	-12.3754
isclosure	-12.3762
▁fabrics	-12.3763
▁leaks	-12.3769
▁6-	-12.3774
▁genes	-12.3774
uxi	-12.3775
fare	-12.3787
▁Pe	-12.3789
price	-12.3797
90	-12.3799
office	-12.3799
listed	-12.3808
▁1:	-12.3808
▁northwester	-12.3819
magneti	-12.382
▁slip	-12.3823
▁highways	-12.3824
▁terminals	-12.3825
▁pains	-12.3837
▁authorize	-12.3842
WP	-12.3845
▁Harr	-12.3847
▁credits	-12.3852
▁deficits	-12.3857
▁assists	-12.3858
▁males	-12.386
,800	-12.3861
▁committ	-12.3861
rea	-12.3863
lsan	-12.3867
▁metals	-12.387
▁PCs	-12.388
▁sued	-12.3881
▁2.7	-12.3889
▁Consumers	-12.3893
▁Band	-12.3896
Education	-12.3908
▁ne	-12.3909
▁Lin	-12.3916
indiscriminately	-12.3917
▁settl	-12.392
▁Gift	-12.3921
▁bo	-12.3921
safety	-12.3921
Ha	-12.3926
health	-12.3927
ighteous	-12.3927
▁matched	-12.3928
However	-12.3931
ming	-12.3932
Incheon	-12.3933
Oh	-12.3935
Jung	-12.3935
big	-12.3938
NO	-12.3941
leasing	-12.3945
▁wishing	-12.395
▁subscriptions	-12.3951
▁Stars	-12.3952
14	-12.3955
ington	-12.3957
▁shaped	-12.3957
▁aids	-12.3961
▁6:30	-12.3961
United	-12.3964
▁tire	-12.3966
▁implementer	-12.3969
▁bears	-12.3973
▁tolls	-12.3982
nsemble	-12.3982
▁comic	-12.3991
pay	-12.3992
▁Markets	-12.3997
▁accessing	-12.3999
currently	-12.4004
▁contracting	-12.4004
▁Wh	-12.4008
growing	-12.4009
▁cm	-12.4009
▁charms	-12.4011
▁9.	-12.4014
1)	-12.4014
cular	-12.4016
▁muc	-12.4022
ritorious	-12.4023
▁Loca	-12.4024
People	-12.4025
learning	-12.403
defense	-12.403
▁Abu	-12.4031
▁examinee	-12.4039
degree	-12.4039
pressure	-12.404
capacity	-12.4043
▁automat	-12.4043
limited	-12.4046
▁2-1	-12.4052
▁Mong	-12.4057
herry	-12.4058
Now	-12.4058
judicial	-12.4059
▁cur	-12.4062
▁Hoste	-12.4062
rooted	-12.4067
Eleven	-12.4068
▁15-	-12.4072
Benz	-12.4075
IoT	-12.4077
fast	-12.4086
▁la	-12.4088
▁wrapp	-12.4093
▁Har	-12.4094
IMF	-12.4096
▁vic	-12.41
▁2007.	-12.4105
-20	-12.4108
▁125	-12.4111
▁enjoys	-12.4111
▁9:	-12.4121
▁16.	-12.4129
▁correlati	-12.4134
▁Geo	-12.4138
)'	-12.4148
▁fl	-12.4148
chu	-12.415
48	-12.4154
ude	-12.416
0%	-12.4163
▁diagnose	-12.4166
▁basket	-12.4166
▁fuels	-12.4173
▁distortion	-12.4175
▁explanations	-12.418
▁pillow	-12.4183
▁thriller	-12.4185
▁implant	-12.4187
▁protagonist	-12.4187
▁wipe	-12.4189
▁Payment	-12.4189
▁Blossom	-12.4189
▁accomplishment	-12.419
▁notebook	-12.419
▁ambition	-12.419
▁martyr	-12.4192
emilitariz	-12.4193
▁mechanic	-12.4193
▁accusation	-12.4195
▁turtle	-12.4196
▁restraint	-12.4198
▁teenager	-12.42
▁disturbance	-12.42
▁(10	-12.4201
▁submarine	-12.4205
▁motive	-12.4207
▁270	-12.4208
ile	-12.421
▁106	-12.4211
▁Aren	-12.4213
Gold	-12.4213
▁ghost	-12.4214
▁mathematic	-12.4214
che	-12.4219
▁pursues	-12.422
▁Trend	-12.4228
▁accepts	-12.4231
works	-12.4233
▁emit	-12.4237
▁Wal	-12.4238
▁blacklist	-12.4238
▁4.2	-12.4241
▁conferences	-12.4241
▁Brand	-12.4242
▁Sweet	-12.4244
▁confront	-12.4244
ai	-12.4244
▁rational	-12.4247
▁wars	-12.4249
▁subcontract	-12.4251
ID	-12.4251
▁Ship	-12.4252
▁waterproof	-12.4252
▁boil	-12.4258
▁drag	-12.4258
▁Ae	-12.4263
▁Youtube	-12.4265
▁Region	-12.4277
▁creditor	-12.4278
Consider	-12.4278
Be	-12.4279
yeo	-12.4283
▁Chart	-12.4283
▁jealous	-12.4283
▁sandbox	-12.4285
60	-12.4287
▁merge	-12.4287
▁Monk	-12.4288
rupt	-12.4289
▁definite	-12.4289
▁Noryangjin	-12.429
▁Merkel	-12.429
▁Vancouver	-12.429
▁Volkswagen	-12.429
▁ambitious	-12.429
▁chapel	-12.429
▁compatibility	-12.429
▁constituencies	-12.429
▁culprit	-12.429
▁encompass	-12.429
▁pianist	-12.429
▁precipitation	-12.429
▁tragic	-12.429
▁unpredictable	-12.429
▁vacancies	-12.429
▁Bezos	-12.429
▁Serbia	-12.429
▁Valencia	-12.429
▁Fukushima	-12.429
▁robust	-12.429
▁Megabox	-12.429
▁Syngman	-12.429
▁eyewitness	-12.429
▁congested	-12.429
▁constraints	-12.429
▁stagnation	-12.429
▁Pyeongyang	-12.429
▁qualitative	-12.429
▁Defence	-12.429
▁dermatitis	-12.429
▁paddies	-12.429
▁Bookstore	-12.429
▁indemnity	-12.429
▁salvation	-12.429
▁Samcheok	-12.429
▁bankruptcy	-12.429
▁banquet	-12.429
▁feminism	-12.429
▁flexibly	-12.429
▁Workshop	-12.429
▁strawberries	-12.429
▁gaze	-12.429
▁victories	-12.429
▁Munich	-12.429
▁Henry	-12.429
▁swap	-12.429
▁Manchuria	-12.429
▁reclamation	-12.429
▁elasticity	-12.429
▁Crab	-12.429
▁deadlock	-12.429
▁blew	-12.429
▁1/3	-12.429
▁Country	-12.429
▁jewelry	-12.429
▁Dairy	-12.429
▁cozy	-12.429
▁Kakaotalk	-12.429
▁sustainability	-12.4291
▁reinstatement	-12.4291
▁quasi	-12.4291
▁leverage	-12.4291
▁Jangchung	-12.4291
▁unattended	-12.4291
▁destiny	-12.4291
▁Delivery	-12.4291
▁Warren	-12.4291
▁asthma	-12.4291
▁brochure	-12.4291
▁solidified	-12.4291
▁envy	-12.4291
▁Dangjin	-12.4291
▁priorities	-12.4291
▁wanna	-12.4291
▁congressman	-12.4291
▁scenic	-12.4291
▁Response	-12.4291
▁Elliott	-12.4291
SCMP	-12.4292
▁Gijang	-12.4292
▁refining	-12.4292
▁continually	-12.4292
vitalization	-12.4292
▁storytelling	-12.4292
▁Ballet	-12.4292
▁combustion	-12.4292
▁guesthouse	-12.4292
▁readily	-12.4292
▁nurturing	-12.4293
▁9:30	-12.4293
▁curry	-12.4294
▁roommate	-12.4294
▁sushi	-12.4294
▁escalating	-12.4294
▁hardened	-12.4294
[...]
